<unk>	0
<s>	0
</s>	0
영화	-0
▁영화	-1
▁이	-2
▁아	-3
▁재	-4
▁보	-5
▁그	-6
ᄏᄏ	-7
니다	-8
▁나	-9
▁정	-10
너무	-11
▁좋	-12
▁다	-13
▁없	-14
는데	-15
▁하	-16
▁너무	-17
▁감	-18
▁재미	-19
▁진	-20
▁어	-21
▁지	-22
▁내	-23
▁있	-24
네요	-25
▁최	-26
▁사	-27
▁연	-28
▁시	-29
▁만	-30
▁안	-31
▁한	-32
▁점	-33
▁가	-34
▁정말	-35
으로	-36
지만	-37
하고	-38
▁재밌	-39
▁기	-40
▁스	-41
▁봤	-42
▁대	-43
▁평	-44
▁진짜	-45
에서	-46
▁전	-47
▁마	-48
▁수	-49
어요	-50
▁연기	-51
▁무	-52
▁최고	-53
▁모	-54
▁잘	-55
▁생	-56
하는	-57
▁여	-58
▁더	-59
▁않	-60
이다	-61
▁ᄏᄏ	-62
습니다	-63
하다	-64
▁주	-65
▁평점	-66
▁개	-67
▁인	-68
▁드	-69
▁오	-70
▁말	-71
▁이런	-72
▁제	-73
라마	-74
▁왜	-75
토리	-76
▁생각	-77
▁배	-78
▁같	-79
▁자	-80
▁못	-81
▁감동	-82
▁볼	-83
▁느	-84
▁본	-85
▁남	-86
▁알	-87
들이	-88
ᅲᅲ	-89
었다	-90
▁소	-91
▁유	-92
▁미	-93
까지	-94
▁스토리	-95
▁보고	-96
▁별	-97
하게	-98
▁것	-99
▁쓰	-100
▁지루	-101
보다	-102
▁비	-103
▁장	-104
▁드라마	-105
▁재미있	-106
▁일	-107
레기	-108
▁작	-109
▁많	-110
▁우	-111
▁그냥	-112
▁고	-113
▁완	-114
▁공	-115
▁부	-116
이라	-117
▁조	-118
▁뭐	-119
▁만들	-120
▁역	-121
▁해	-122
▁중	-123
▁명	-124
▁끝	-125
▁배우	-126
▁아니	-127
▁내용	-128
▁시간	-129
▁좀	-130
▁감독	-131
▁재미없	-132
▁쓰레기	-133
으면	-134
▁애	-135
▁웃	-136
▁저	-137
▁사람	-138
▁참	-139
▁되	-140
다는	-141
▁봐	-142
▁사랑	-143
▁반	-144
적인	-145
▁싶	-146
렇게	-147
해서	-148
▁다시	-149
▁영	-150
▁보는	-151
면서	-152
입니다	-153
▁좋은	-154
▁도	-155
▁좋아	-156
리고	-157
▁예	-158
보고	-159
▁거	-160
▁매	-161
액션	-162
▁결	-163
▁실	-164
▁눈	-165
▁이거	-166
ᄒᄒ	-167
▁분	-168
▁의	-169
▁신	-170
라고	-171
▁작품	-172
지막	-173
▁상	-174
▁년	-175
▁최고의	-176
▁영화를	-177
▁바	-178
▁없는	-179
▁노	-180
ᅳᅳ	-181
▁완전	-182
ᄏᄏᄏᄏ	-183
▁살	-184
▁좋았	-185
세요	-186
▁없다	-187
▁영화는	-188
▁이건	-189
▁기대	-190
▁코	-191
▁편	-192
했다	-193
지는	-194
▁난	-195
▁불	-196
▁화	-197
▁넘	-198
▁영화가	-199
하지	-200
▁봤는데	-201
▁원	-202
▁액션	-203
▁추	-204
▁로	-205
▁처	-206
▁할	-207
들의	-208
▁있는	-209
▁성	-210
▁하나	-211
▁마지막	-212
야기	-213
합니다	-214
▁내가	-215
▁에	-216
▁후	-217
겠다	-218
없는	-219
적이	-220
▁괜	-221
다가	-222
▁멋	-223
▁때	-224
▁세	-225
▁최악	-226
▁죽	-227
▁하는	-228
▁아깝	-229
▁한국	-230
어서	-231
▁나오	-232
▁이게	-233
인공	-234
▁잼	-235
같은	-236
▁명작	-237
한다	-238
▁짜	-239
▁몰	-240
▁또	-241
▁강	-242
▁허	-243
▁별로	-244
▁지금	-245
▁들	-246
▁역시	-247
▁이렇게	-248
▁모르	-249
▁기억	-250
▁처음	-251
인데	-252
▁위	-253
▁느낌	-254
▁돈	-255
▁음	-256
▁구	-257
▁따	-258
▁김	-259
▁현	-260
들은	-261
에게	-262
▁재밌게	-263
대로	-264
▁ᅲᅲ	-265
▁극	-266
연기	-267
▁이해	-268
있는	-269
▁평점이	-270
라는	-271
▁괜찮	-272
▁심	-273
▁이야기	-274
▁많이	-275
▁동	-276
▁연출	-277
▁했	-278
▁관	-279
▁두	-280
ᄏᄏᄏ	-281
▁그래	-282
주는	-283
▁초	-284
▁꼭	-285
재미	-286
이나	-287
▁아까	-288
▁아름	-289
적으로	-290
▁만든	-291
▁잔	-292
되는	-293
다고	-294
▁뭔	-295
문에	-296
정도	-297
리는	-298
부터	-299
지도	-300
▁발	-301
았다	-302
▁슬	-303
배우	-304
▁캐	-305
▁당	-306
▁요	-307
▁졸	-308
필요	-309
▁아이	-310
▁볼만	-311
▁귀	-312
▁와	-313
▁ᄏᄏᄏ	-314
을까	-315
▁장면	-316
▁엄	-317
▁이영화	-318
▁차	-319
▁서	-320
▁울	-321
▁리	-322
▁보여	-323
▁마음	-324
▁공포	-325
▁우리	-326
▁같은	-327
▁포	-328
▁짱	-329
없다	-330
▁아닌	-331
였다	-332
▁망	-333
▁여자	-334
▁존	-335
▁유치	-336
만에	-337
▁막	-338
▁ᅳᅳ	-339
▁박	-340
▁ᄒᄒ	-341
▁그런	-342
ᅮᅮ	-343
▁힘	-344
▁줄	-345
진짜	-346
▁ᄏ	-347
▁그리고	-348
▁영화다	-349
것도	-350
▁게	-351
하나	-352
▁이상	-353
▁결말	-354
▁아깝다	-355
인가	-356
구나	-357
드는	-358
▁표	-359
▁단	-360
▁매력	-361
아서	-362
▁없고	-363
사람	-364
▁걸	-365
▁특	-366
는다	-367
▁흥	-368
▁가슴	-369
▁설	-370
▁보기	-371
나는	-372
미디	-373
▁보면	-374
재밌	-375
▁무슨	-376
▁일본	-377
▁눈물	-378
▁절	-379
▁짜증	-380
하기	-381
▁말이	-382
▁ᄏᄏᄏᄏ	-383
가는	-384
▁반전	-385
▁가장	-386
▁속	-387
▁낮	-388
봐도	-389
▁과	-390
니까	-391
지마	-392
▁스릴	-393
▁빠	-394
아요	-395
▁있다	-396
▁뻔	-397
▁주인공	-398
었는데	-399
▁맞	-400
▁선	-401
▁억	-402
▁충	-403
드라마	-404
▁몰입	-405
▁현실	-406
▁정도	-407
보는	-408
더라	-409
▁계	-410
▁긴	-411
▁애니	-412
없이	-413
스럽	-414
▁듯	-415
하면	-416
하지만	-417
▁높	-418
▁아무	-419
▁인생	-420
▁간	-421
▁필요	-422
었음	-423
▁다른	-424
▁누	-425
▁만들어	-426
었던	-427
▁소재	-428
▁건	-429
는지	-430
▁추천	-431
▁음악	-432
밖에	-433
인지	-434
지않	-435
▁머	-436
▁얼	-437
리즈	-438
된다	-439
▁아름다	-440
스러	-441
▁한번	-442
▁돌	-443
▁남자	-444
▁대한	-445
▁적	-446
▁영상	-447
▁수준	-448
다니	-449
▁봐도	-450
▁재밋	-451
▁방	-452
▁는	-453
▁아직	-454
정말	-455
준다	-456
▁실망	-457
메이	-458
▁극장	-459
▁새	-460
나오	-461
▁많은	-462
▁좋다	-463
▁하고	-464
릭터	-465
▁원작	-466
▁집	-467
▁굿	-468
▁전개	-469
▁끝까지	-470
▁피	-471
▁인간	-472
▁몇	-473
▁순	-474
▁모든	-475
▁코미디	-476
나서	-477
▁근	-478
▁여운	-479
▁솔	-480
중에	-481
▁행	-482
▁모두	-483
▁프	-484
▁욕	-485
▁찾	-486
▁언	-487
지고	-488
려고	-489
▁열	-490
이고	-491
▁엄청	-492
▁이제	-493
▁파	-494
▁같다	-495
▁아주	-496
▁올	-497
▁대박	-498
▁문	-499
스터	-500
▁억지	-501
▁받	-502
떨어	-503
▁봤다	-504
▁찍	-505
▁버	-506
타임	-507
▁번	-508
▁딱	-509
이지	-510
는거	-511
▁급	-512
▁먹	-513
▁최악의	-514
▁치	-515
▁호	-516
만들	-517
하네	-518
▁외	-519
▁대단	-520
기도	-521
▁야	-522
▁즐	-523
▁답	-524
▁전혀	-525
▁연기력	-526
▁공감	-527
▁솔직	-528
▁아쉽	-529
▁재밌다	-530
▁보다	-531
▁하지만	-532
처럼	-533
▁긴장	-534
▁은	-535
던데	-536
▁함	-537
했던	-538
▁엉	-539
하네요	-540
▁출	-541
에는	-542
▁잔잔	-543
최고	-544
었어요	-545
▁놀	-546
▁뭔가	-547
▁재미있게	-548
▁배우들	-549
리가	-550
▁그래도	-551
▁독	-552
주고	-553
▁달	-554
▁경	-555
영화는	-556
▁약	-557
떻게	-558
있다	-559
때문에	-560
해요	-561
▁계속	-562
에요	-563
▁데	-564
▁기분	-565
▁갈	-566
라도	-567
▁나온	-568
이는	-569
▁이걸	-570
시간	-571
▁교	-572
엔딩	-573
▁믿	-574
수가	-575
▁레	-576
스트	-577
생각	-578
▁봐야	-579
감독	-580
▁손	-581
건지	-582
▁크	-583
▁웃기	-584
▁흥미	-585
▁아니다	-586
장면	-587
없고	-588
▁잊	-589
어야	-590
나라	-591
수록	-592
이상	-593
▁캐릭터	-594
▁느껴	-595
▁영화의	-596
▁질	-597
▁가족	-598
을때	-599
에도	-600
▁등	-601
▁베	-602
▁아쉬	-603
▁잠	-604
▁만드는	-605
이가	-606
▁제목	-607
▁모습	-608
▁표현	-609
▁어디	-610
▁않고	-611
라리	-612
인듯	-613
싶다	-614
▁시리즈	-615
▁연기가	-616
▁않은	-617
▁싸	-618
주인공	-619
▁솔직히	-620
▁어떻게	-621
난다	-622
친구	-623
▁내용이	-624
같다	-625
했는데	-626
▁천	-627
내용	-628
▁떨어	-629
▁싶다	-630
봤는데	-631
영화가	-632
▁내내	-633
▁개봉	-634
▁스릴러	-635
▁시간이	-636
▁아름다운	-637
▁악	-638
▁잼있	-639
▁카	-640
▁나왔	-641
▁대사	-642
▁재미도	-643
▁조금	-644
어도	-645
▁아까운	-646
▁네	-647
들을	-648
▁연기도	-649
진다	-650
이랑	-651
▁나오는	-652
▁진심	-653
스토리	-654
▁긴장감	-655
리오	-656
▁오랜	-657
▁담	-658
▁삶	-659
▁남는	-660
내내	-661
▁재미없다	-662
기는	-663
아니	-664
▁부족	-665
▁제일	-666
▁알바	-667
평점	-668
▁물	-669
▁아니라	-670
▁그렇	-671
▁나름	-672
▁니	-673
이네	-674
▁어설	-675
▁않는	-676
▁따뜻	-677
보면	-678
훌륭	-679
▁킬	-680
리스	-681
▁근데	-682
▁노래	-683
▁왜이	-684
▁자체	-685
감동	-686
▁디	-687
▁형	-688
▁내용도	-689
▁라	-690
▁메	-691
▁날	-692
▁될	-693
▁떠	-694
▁점도	-695
▁보다가	-696
만큼	-697
▁싶은	-698
으로도	-699
들도	-700
▁제대로	-701
만한	-702
이야	-703
▁나는	-704
▁홍	-705
▁앞	-706
군요	-707
▁영화에	-708
치는	-709
▁때문에	-710
▁감동적이	-711
ᄃᄃ	-712
한테	-713
▁정신	-714
▁삼	-715
기에	-716
이란	-717
▁수작	-718
▁영화였	-719
이라는	-720
하면서	-721
나요	-722
전에	-723
으나	-724
▁영화입니다	-725
▁되는	-726
▁막장	-727
▁제작	-728
ᄍᄍ	-729
없음	-730
▁영화라고	-731
▁훌륭	-732
성이	-733
▁무섭	-734
▁아직도	-735
었습니다	-736
▁훨	-737
ᄏᄏᄏᄏᄏᄏᄏᄏ	-738
▁무서	-739
▁여운이	-740
▁타	-741
▁절대	-742
▁나와	-743
▁목	-744
기가	-745
▁로맨	-746
▁된	-747
▁산	-748
할수	-749
▁나도	-750
▁행복	-751
▁각	-752
▁판	-753
▁이유	-754
▁싫	-755
대체	-756
▁강추	-757
▁용	-758
▁없음	-759
▁멋진	-760
▁뒤	-761
▁좋았다	-762
▁의미	-763
▁뭘	-764
싶은	-765
▁점수	-766
▁차라리	-767
▁괜찮은	-768
▁케	-769
▁영화로	-770
▁국	-771
▁걍	-772
▁느끼	-773
▁좋고	-774
▁감독이	-775
▁출연	-776
이라고	-777
▁재밌어요	-778
▁슬프	-779
▁아니고	-780
거리	-781
▁주는	-782
▁너무나	-783
▁신선	-784
▁요즘	-785
해도	-786
▁시작	-787
▁언제	-788
로운	-789
▁살아	-790
을듯	-791
시길	-792
▁최고다	-793
▁인상	-794
▁류	-795
▁중간	-796
나리오	-797
스러운	-798
▁그러	-799
▁뻔한	-800
▁귀여	-801
아까	-802
▁스토리가	-803
구만	-804
▁어이	-805
▁빼	-806
나고	-807
▁미국	-808
▁모르겠	-809
▁황	-810
▁알았	-811
▁티	-812
▁보세요	-813
스팅	-814
▁그저	-815
기를	-816
▁개인	-817
▁킬링	-818
▁복	-819
아깝	-820
▁안되	-821
▁빨	-822
▁통	-823
영화를	-824
▁ᄒ	-825
나게	-826
▁추억	-827
▁토	-828
해야	-829
▁감독의	-830
▁봤습니다	-831
▁스토리도	-832
▁허접	-833
▁장난	-834
▁재미가	-835
▁탄	-836
이네요	-837
▁년대	-838
▁글	-839
▁낚	-840
▁옛	-841
▁희	-842
▁졸작	-843
▁깊	-844
메이션	-845
▁변	-846
소리	-847
▁세상	-848
▁ᅲ	-849
낭비	-850
▁ᅮᅮ	-851
▁오랜만에	-852
▁만화	-853
▁소름	-854
▁어린	-855
한영화	-856
▁깨	-857
더니	-858
▁안타	-859
▁답답	-860
▁무엇	-861
▁보게	-862
▁엔딩	-863
한데	-864
이런	-865
지가	-866
▁유쾌	-867
▁지루하고	-868
사랑	-869
▁지루함	-870
▁임	-871
▁준	-872
▁청	-873
정이	-874
▁후회	-875
▁힘들	-876
▁아름답	-877
▁궁	-878
▁양	-879
것이	-880
하는데	-881
▁기억에	-882
▁길	-883
▁완벽	-884
▁특히	-885
▁낫	-886
▁확	-887
디오	-888
▁뛰	-889
한거	-890
▁관객	-891
▁봤던	-892
리지	-893
마다	-894
▁이딴	-895
▁학	-896
▁어색	-897
▁친구	-898
▁생각이	-899
▁시나리오	-900
▁헐	-901
▁이해가	-902
▁킬링타임	-903
▁재밌는	-904
▁좋아하는	-905
▁만들었	-906
▁뿐	-907
▁갑	-908
▁스타	-909
럽게	-910
보단	-911
▁도대체	-912
▁러	-913
▁첨	-914
▁웃음	-915
▁보면서	-916
▁식	-917
▁지루한	-918
텐데	-919
▁코믹	-920
▁맘	-921
▁잡	-922
▁환	-923
좋아	-924
▁보지마	-925
지루	-926
▁얼마	-927
▁진정	-928
▁암	-929
작품	-930
▁분위	-931
▁총	-932
▁점대	-933
라이	-934
쓰레기	-935
성도	-936
건가	-937
▁예술	-938
▁함께	-939
렸다	-940
▁점이	-941
▁흐	-942
그냥	-943
했음	-944
▁공포영화	-945
▁몸	-946
▁다큐	-947
▁작가	-948
치고	-949
▁영화도	-950
▁지루하다	-951
▁있었	-952
나마	-953
다면	-954
▁못한	-955
이지만	-956
▁봤어요	-957
▁부분	-958
▁포스터	-959
▁클	-960
▁들어	-961
▁전쟁	-962
꿀잼	-963
동안	-964
▁오래	-965
는게	-966
▁영화관	-967
▁좋아요	-968
▁시대	-969
▁진부	-970
▁애니메이션	-971
▁큰	-972
▁팬	-973
▁사실	-974
▁입	-975
▁터	-976
만든	-977
웠다	-978
▁돌아	-979
▁충분	-980
▁둘	-981
▁태	-982
구요	-983
마디	-984
▁없이	-985
▁재밌음	-986
▁종	-987
▁제발	-988
▁배우들의	-989
▁않았	-990
▁한국영화	-991
▁주고	-992
▁찾아	-993
▁점은	-994
들에게	-995
▁연기는	-996
그래	-997
레이	-998
야지	-999
▁마지막에	-1000
▁보는내내	-1001
▁보지	-1002
▁충격	-1003
▁백	-1004
▁한다	-1005
▁혼	-1006
▁범	-1007
▁영화네요	-1008
린다	-1009
▁시청	-1010
▁왠	-1011
▁우리나라	-1012
▁감사	-1013
▁이쁘	-1014
▁꿈	-1015
▁어릴	-1016
▁불쌍	-1017
▁히	-1018
보니	-1019
▁걸작	-1020
▁궁금	-1021
▁모르겠다	-1022
▁광	-1023
▁문제	-1024
▁꽤	-1025
▁색	-1026
▁결국	-1027
▁영화라	-1028
말이	-1029
▁안되는	-1030
재미있	-1031
▁폭	-1032
▁영화중	-1033
▁민	-1034
▁에서	-1035
놓고	-1036
수있	-1037
▁옛날	-1038
▁캐스팅	-1039
▁매우	-1040
▁않는다	-1041
▁그만	-1042
▁별점	-1043
▁를	-1044
▁집중	-1045
해지는	-1046
재밋	-1047
▁당시	-1048
▁훨씬	-1049
▁엉성	-1050
▁브	-1051
▁패	-1052
▁존나	-1053
▁지나	-1054
▁극장에서	-1055
르는	-1056
▁있고	-1057
▁하지	-1058
이었다	-1059
봤다	-1060
▁미친	-1061
▁빠져	-1062
▁역사	-1063
▁돋	-1064
▁병	-1065
거지	-1066
▁것이	-1067
▁어떤	-1068
▁똥	-1069
▁채	-1070
당히	-1071
좋은	-1072
▁주연	-1073
것같	-1074
인이	-1075
▁더빙	-1076
▁뛰어	-1077
▁눈물이	-1078
부분	-1079
▁밖에	-1080
▁배경	-1081
▁같이	-1082
이팅	-1083
▁마음이	-1084
▁없었다	-1085
▁얼마나	-1086
▁몰입도	-1087
이버	-1088
▁감동도	-1089
▁너	-1090
▁책	-1091
버린	-1092
▁나올	-1093
▁이름	-1094
▁개인적으로	-1095
이야기	-1096
▁커	-1097
으니	-1098
주의	-1099
▁회	-1100
▁순수	-1101
인줄	-1102
▁오늘	-1103
▁주제	-1104
▁을	-1105
기만	-1106
하시	-1107
▁감동이	-1108
▁그렇게	-1109
▁얘	-1110
▁위한	-1111
▁자신	-1112
▁따라	-1113
▁잔인	-1114
▁이정도	-1115
▁투	-1116
▁여러	-1117
▁상상	-1118
▁하나도	-1119
▁괴	-1120
워서	-1121
▁ᄍᄍ	-1122
▁초반	-1123
▁흘	-1124
려는	-1125
▁가슴이	-1126
▁노잼	-1127
▁않다	-1128
▁그래서	-1129
▁기억이	-1130
▁으	-1131
같이	-1132
▁귀엽	-1133
▁그나마	-1134
▁맛	-1135
보게	-1136
하며	-1137
▁좋겠	-1138
들과	-1139
▁느낌이	-1140
▁먼	-1141
겠지	-1142
스럽다	-1143
했지만	-1144
노잼	-1145
있고	-1146
▁블	-1147
▁풀	-1148
느낌	-1149
든다	-1150
잖아	-1151
▁알고	-1152
▁중국	-1153
▁약간	-1154
▁한마디	-1155
▁프로	-1156
▁재밌고	-1157
▁키	-1158
함을	-1159
주세요	-1160
▁숨	-1161
가지	-1162
▁같아요	-1163
▁아쉽다	-1164
거야	-1165
력이	-1166
해라	-1167
▁사람이	-1168
한번	-1169
적이다	-1170
▁감동적인	-1171
함이	-1172
완전	-1173
▁어설픈	-1174
▁대체	-1175
▁얼굴	-1176
적이고	-1177
▁똑	-1178
▁이것	-1179
▁하다	-1180
▁비디오	-1181
듯한	-1182
▁비슷	-1183
▁없어	-1184
▁쓰레기영화	-1185
▁다음	-1186
▁잘봤	-1187
▁누가	-1188
▁죄	-1189
▁여기	-1190
▁초딩	-1191
▁훈	-1192
멜로	-1193
▁엄마	-1194
▁영화임	-1195
▁굳	-1196
지지	-1197
▁비교	-1198
▁내용은	-1199
▁왕	-1200
▁감정	-1201
워요	-1202
▁느낄	-1203
▁어느	-1204
▁재미없음	-1205
▁트	-1206
성을	-1207
▁성룡	-1208
▁취	-1209
전개	-1210
▁했다	-1211
아깝다	-1212
▁영상미	-1213
▁섹	-1214
▁갈수록	-1215
▁결말이	-1216
▁보여주는	-1217
▁끌	-1218
▁것을	-1219
▁맘에	-1220
가서	-1221
이거	-1222
자체	-1223
졌다	-1224
▁준다	-1225
▁간만에	-1226
▁여주인공	-1227
▁영화였다	-1228
시절	-1229
▁말도	-1230
▁보았	-1231
▁있을	-1232
▁로맨스	-1233
땜에	-1234
▁실화	-1235
▁위해	-1236
▁후반	-1237
나온	-1238
▁오글	-1239
굉장	-1240
▁군	-1241
▁벌	-1242
▁철	-1243
▁테	-1244
것을	-1245
말고	-1246
자가	-1247
▁아님	-1248
이라도	-1249
▁아무리	-1250
라면	-1251
▁개연	-1252
▁발연기	-1253
▁면	-1254
인생	-1255
▁잔잔한	-1256
▁킬링타임용	-1257
▁갖	-1258
대한	-1259
보기	-1260
짜리	-1261
▁삼류	-1262
길래	-1263
▁뭐야	-1264
▁재미있는	-1265
▁첫	-1266
타지	-1267
▁시즌	-1268
이라면	-1269
였음	-1270
▁교훈	-1271
▁네이버	-1272
▁읽	-1273
이건	-1274
▁것도	-1275
▁있을까	-1276
▁바로	-1277
영화다	-1278
▁금	-1279
▁그리	-1280
▁늘	-1281
▁두번	-1282
▁보고싶	-1283
▁까	-1284
감이	-1285
거같	-1286
수준	-1287
자기	-1288
▁굉장	-1289
▁설정	-1290
▁전부	-1291
▁장르	-1292
▁진정한	-1293
▁창	-1294
▁풍	-1295
라서	-1296
▁기다	-1297
▁허무	-1298
▁볼만한	-1299
▁연기를	-1300
▁전체	-1301
▁사람들	-1302
▁멍	-1303
▁마이	-1304
▁알게	-1305
본다	-1306
시키	-1307
▁슬픈	-1308
▁흔	-1309
다른	-1310
▁감동을	-1311
▁재미는	-1312
스가	-1313
리를	-1314
▁송	-1315
간다	-1316
려서	-1317
▁독특	-1318
영화의	-1319
▁여배우	-1320
다시	-1321
ᄋᄋ	-1322
▁당신	-1323
▁멋있	-1324
▁즐거	-1325
시다	-1326
▁휴	-1327
건데	-1328
▁생각을	-1329
겠지만	-1330
마지막	-1331
▁생각하게	-1332
▁틀	-1333
아이	-1334
▁생각보다	-1335
▁운	-1336
▁어렸	-1337
▁해서	-1338
▁봄	-1339
▁볼수	-1340
▁존재	-1341
▁재미있다	-1342
▁재밌네요	-1343
나와	-1344
▁꿀잼	-1345
▁보니	-1346
▁어울	-1347
그런	-1348
▁높은	-1349
▁에로	-1350
▁화려	-1351
▁빵	-1352
라니	-1353
인다	-1354
▁다운	-1355
▁멋지	-1356
▁빨리	-1357
버지	-1358
▁영화관에서	-1359
수를	-1360
을텐데	-1361
▁ᄉ	-1362
▁꼬	-1363
▁다들	-1364
▁봐라	-1365
▁애들	-1366
▁상당히	-1367
어가	-1368
▁괜찮았	-1369
머니	-1370
하자	-1371
▁온	-1372
▁만점	-1373
▁점을	-1374
아닌	-1375
을수	-1376
▁봤음	-1377
그리고	-1378
▁같은데	-1379
▁더욱	-1380
▁재미없는	-1381
▁이후	-1382
나오는	-1383
▁좋은데	-1384
스타	-1385
▁평가	-1386
▁하게	-1387
▁직	-1388
정도로	-1389
예요	-1390
하냐	-1391
▁마음에	-1392
▁봣	-1393
▁압	-1394
론가	-1395
분들	-1396
아야	-1397
▁가치	-1398
모르	-1399
여자	-1400
▁단순	-1401
으면서	-1402
▁나와서	-1403
▁했는데	-1404
▁흠	-1405
기대	-1406
▁몇번	-1407
▁이미	-1408
▁배우들이	-1409
▁만드	-1410
▁재미있어요	-1411
▁빛	-1412
▁구성	-1413
▁다르	-1414
▁뭐냐	-1415
▁그대로	-1416
▁이런영화	-1417
▁티비	-1418
▁영화보다	-1419
랑스	-1420
할때	-1421
▁대해	-1422
▁멜로	-1423
▁끝나	-1424
▁뭐지	-1425
▁스토리는	-1426
되고	-1427
인의	-1428
▁잘못	-1429
▁예쁘	-1430
했어요	-1431
▁감독님	-1432
▁좋네요	-1433
메디	-1434
▁봐서	-1435
▁사람들이	-1436
▁루	-1437
고는	-1438
없어	-1439
▁좀비	-1440
▁잃	-1441
▁그녀	-1442
▁없네	-1443
▁중간에	-1444
▁딸	-1445
개도	-1446
등학	-1447
러운	-1448
음악	-1449
▁아닐	-1450
▁혼자	-1451
▁ᄃᄃ	-1452
▁거의	-1453
▁된다	-1454
▁항	-1455
추천	-1456
▁각본	-1457
▁뭐가	-1458
▁불편	-1459
▁합니다	-1460
▁꺼	-1461
▁착	-1462
▁필	-1463
▁향	-1464
▁낮은	-1465
▁돋보	-1466
▁어른	-1467
▁자연	-1468
다는게	-1469
코미디	-1470
▁정도로	-1471
립니다	-1472
▁안타깝	-1473
▁있었다	-1474
▁평점을	-1475
에겐	-1476
▁예상	-1477
영화중	-1478
▁윤	-1479
들어	-1480
▁믿고	-1481
▁생각해	-1482
▁슈	-1483
▁쓸	-1484
봐야	-1485
ᅲᅲᅲᅲ	-1486
▁영화인데	-1487
▁밑	-1488
▁역대	-1489
▁훈훈	-1490
▁아까움	-1491
거다	-1492
▁소설	-1493
▁잘만들	-1494
▁겁	-1495
▁너무너무	-1496
▁권	-1497
▁흑	-1498
별로	-1499
저히	-1500
▁등장	-1501
▁저런	-1502
이라니	-1503
▁벗	-1504
여서	-1505
▁상황	-1506
▁있어	-1507
▁좋겠다	-1508
만으로도	-1509
▁쳐	-1510
▁어쩌	-1511
▁못하는	-1512
▁한마디로	-1513
이게	-1514
지를	-1515
▁나의	-1516
▁어디서	-1517
▁장면이	-1518
▁밀	-1519
최악	-1520
▁한심	-1521
▁흥행	-1522
▁굉장히	-1523
던가	-1524
었고	-1525
짜증	-1526
▁인물	-1527
▁평범	-1528
▁써	-1529
▁짝	-1530
가고	-1531
▁있지만	-1532
▁재밌었다	-1533
▁듣	-1534
보다는	-1535
이트	-1536
진진	-1537
보세요	-1538
▁봤지만	-1539
▁프랑스	-1540
도록	-1541
하니	-1542
▁개그	-1543
▁머리	-1544
에선	-1545
▁식상	-1546
▁여전	-1547
▁충분히	-1548
어나	-1549
▁확실	-1550
▁맥	-1551
▁씨	-1552
웃음	-1553
▁가는	-1554
▁그닥	-1555
▁리얼	-1556
▁세계	-1557
▁대단한	-1558
▁판타지	-1559
대박	-1560
▁새로운	-1561
▁좋은영화	-1562
▁놓	-1563
▁끝내	-1564
▁탄탄	-1565
▁빌	-1566
▁만족	-1567
▁이영화를	-1568
▁능	-1569
▁맨	-1570
▁낫다	-1571
▁극장판	-1572
들만	-1573
일까	-1574
중간	-1575
▁수가	-1576
었지만	-1577
지마라	-1578
▁있어서	-1579
▁빈	-1580
었으면	-1581
에서도	-1582
▁자체가	-1583
▁훌륭한	-1584
▁의도	-1585
▁좋음	-1586
▁해도	-1587
▁화이팅	-1588
▁어려	-1589
때마다	-1590
▁스타일	-1591
▁됐	-1592
들아	-1593
없네	-1594
우드	-1595
▁상영	-1596
▁따뜻한	-1597
▁크리스	-1598
▁다시봐도	-1599
거나	-1600
▁어쩔	-1601
하지않	-1602
▁아닌가	-1603
봐서	-1604
▁감성	-1605
▁묘	-1606
리티	-1607
▁관람	-1608
▁미안	-1609
▁사회	-1610
▁홍콩	-1611
▁이것도	-1612
스의	-1613
▁비해	-1614
▁전형	-1615
▁안타까	-1616
겠네	-1617
당한	-1618
이냐	-1619
조건	-1620
하긴	-1621
▁년도	-1622
▁참고	-1623
▁로맨틱	-1624
▁분위기	-1625
났다	-1626
시대	-1627
▁까지	-1628
▁한편	-1629
▁입니다	-1630
▁묻	-1631
효과	-1632
▁망작	-1633
▁먹먹	-1634
▁점점	-1635
▁혹	-1636
▁전설	-1637
▁질질	-1638
것같다	-1639
▁없어서	-1640
▁쉽	-1641
▁화면	-1642
▁힘든	-1643
▁시청률	-1644
▁재밌는데	-1645
속에	-1646
실망	-1647
▁성우	-1648
스럽고	-1649
▁사람은	-1650
▁월	-1651
▁있음	-1652
▁헐리	-1653
▁좋았어요	-1654
▁놈	-1655
봐라	-1656
▁누구	-1657
▁병맛	-1658
▁선택	-1659
▁깔	-1660
네여	-1661
리게	-1662
▁실제	-1663
▁중요	-1664
▁항상	-1665
▁왔	-1666
무리	-1667
연히	-1668
▁몰랐	-1669
▁예고	-1670
▁것이다	-1671
▁더럽게	-1672
▁안된다	-1673
▁흥미진진	-1674
▁찌	-1675
저씨	-1676
▁그림	-1677
▁웃겨	-1678
▁아쉬운	-1679
▁섬	-1680
댓글	-1681
리의	-1682
▁소리	-1683
▁안보	-1684
▁여주	-1685
남자	-1686
메이크	-1687
어지는	-1688
▁ᄒᄒᄒ	-1689
▁그러나	-1690
▁헤	-1691
아도	-1692
▁영원	-1693
것이다	-1694
하지도	-1695
▁영화인	-1696
▁원작을	-1697
했습니다	-1698
▁겨	-1699
근데	-1700
명작	-1701
▁평점은	-1702
았음	-1703
한게	-1704
▁저질	-1705
▁진실	-1706
▁코메디	-1707
▁웃긴	-1708
보면서	-1709
에서는	-1710
▁그런지	-1711
▁뮤	-1712
민국	-1713
이코	-1714
조차	-1715
▁해야	-1716
▁알았다	-1717
현실	-1718
ᅲᅲᅲ	-1719
▁바보	-1720
▁잊혀	-1721
▁엄청난	-1722
▁없네요	-1723
이면	-1724
이하	-1725
▁감상	-1726
▁엉망	-1727
시리즈	-1728
▁봤네요	-1729
▁젊	-1730
▁완벽한	-1731
▁줘	-1732
내가	-1733
▁없을	-1734
▁전편	-1735
▁감독은	-1736
▁보여주	-1737
처음	-1738
▁다행	-1739
▁대작	-1740
▁시절	-1741
▁영웅	-1742
▁제가	-1743
▁죽는	-1744
▁참신	-1745
그러	-1746
웠던	-1747
프다	-1748
▁순간	-1749
▁느끼게	-1750
ᄏᄏᄏᄏᄏ	-1751
▁핵	-1752
내는	-1753
애니	-1754
▁나쁜	-1755
▁케이	-1756
▁무조건	-1757
▁골	-1758
▁짧	-1759
▁소중	-1760
▁이리	-1761
▁환상	-1762
▁돈주고	-1763
▁평점에	-1764
였습니다	-1765
▁영화였습니다	-1766
▁덕	-1767
움이	-1768
유의	-1769
파이	-1770
▁살인	-1771
▁액션도	-1772
▁평론가	-1773
랄까	-1774
▁그게	-1775
▁속편	-1776
▁유머	-1777
▁이번	-1778
▁도저히	-1779
▁아오	-1780
▁편집	-1781
▁어릴때	-1782
▁검	-1783
▁승	-1784
▁멍청	-1785
▁저는	-1786
▁희망	-1787
영화로	-1788
▁페	-1789
▁나이	-1790
▁사라	-1791
▁편은	-1792
▁견	-1793
신이	-1794
일이	-1795
▁방송	-1796
▁자극	-1797
▁자기	-1798
▁사랑을	-1799
▁이영화는	-1800
▁것은	-1801
▁동화	-1802
▁못보	-1803
▁자꾸	-1804
▁편이	-1805
하다고	-1806
▁보는데	-1807
고싶	-1808
스런	-1809
▁그때	-1810
▁하면	-1811
▁가지고	-1812
▁법	-1813
리다	-1814
있게	-1815
▁가볍	-1816
▁범죄	-1817
▁신기	-1818
최고의	-1819
▁재미있고	-1820
▁깜	-1821
강추	-1822
한듯	-1823
▁즐겁	-1824
▁모르고	-1825
▁명작이다	-1826
대사	-1827
오는	-1828
▁되어	-1829
▁만들지	-1830
만이	-1831
점이	-1832
히려	-1833
▁나만	-1834
▁재미없어	-1835
▁찬	-1836
님의	-1837
시는	-1838
▁괜히	-1839
▁불륜	-1840
▁천재	-1841
재밌게	-1842
▁갑자기	-1843
▁싫어	-1844
▁죽음	-1845
았는데	-1846
기고	-1847
▁알려	-1848
▁있다는	-1849
▁지루해	-1850
▁만들었다	-1851
▁돈이	-1852
▁비추	-1853
▁배우가	-1854
▁좋았음	-1855
▁처음부터	-1856
▁갔	-1857
▁듯한	-1858
▁재밌어	-1859
▁리메이크	-1860
▁ᅳ	-1861
▁쓴	-1862
▁가능	-1863
▁라는	-1864
▁별루	-1865
▁않음	-1866
▁얘기	-1867
▁중에	-1868
▁진지	-1869
▁줄거리	-1870
▁대한민국	-1871
많이	-1872
연출	-1873
할듯	-1874
▁놀라	-1875
▁느꼈	-1876
였는데	-1877
▁보여준	-1878
▁감사합니다	-1879
▁끼	-1880
영상	-1881
▁재미없고	-1882
어울	-1883
으며	-1884
▁이런거	-1885
▁사람들은	-1886
▁시간낭비	-1887
막장	-1888
반전	-1889
지금	-1890
하하	-1891
▁바라	-1892
▁어렵	-1893
그래도	-1894
하는거	-1895
▁안나오	-1896
▁연출력	-1897
▁좋았습니다	-1898
▁증	-1899
▁친	-1900
것은	-1901
되어	-1902
우는	-1903
촬영	-1904
▁돌려	-1905
▁말고	-1906
▁짱짱	-1907
▁학교	-1908
▁내인생	-1909
▁무서운	-1910
▁유치한	-1911
▁퍼	-1912
공포	-1913
았던	-1914
좋다	-1915
▁댓글	-1916
▁허술	-1917
▁같네요	-1918
▁그래픽	-1919
▁오글거	-1920
▁왜이리	-1921
▁지금도	-1922
걸까	-1923
나면	-1924
님이	-1925
따위	-1926
역시	-1927
지게	-1928
평가	-1929
했고	-1930
▁나쁘	-1931
▁성장	-1932
▁카메	-1933
▁아닐까	-1934
▁잘만든	-1935
▁재밌었어요	-1936
▁그랬	-1937
▁만큼	-1938
▁이래	-1939
▁목소리	-1940
▁전개가	-1941
▁ᄏᄏᄏᄏᄏ	-1942
▁ᄏᄏᄏᄏᄏᄏᄏᄏᄏᄏᄏᄏ	-1943
그램	-1944
▁낭비	-1945
▁앞으로	-1946
▁해주는	-1947
▁북	-1948
▁청춘	-1949
▁있는데	-1950
▁아무것도	-1951
기엔	-1952
어로	-1953
줄알	-1954
▁귀여운	-1955
▁억지로	-1956
▁완성도	-1957
▁영화이다	-1958
심을	-1959
하겠	-1960
▁바람	-1961
▁않을	-1962
▁잘생	-1963
▁아버지	-1964
▁인상깊	-1965
▁보고싶은	-1966
▁아이들이	-1967
▁전형적인	-1968
인거	-1969
지못	-1970
쩐다	-1971
▁미화	-1972
▁왠지	-1973
▁이연	-1974
▁해피	-1975
같은데	-1976
봤어요	-1977
였어요	-1978
▁부족한	-1979
▁잘봤습니다	-1980
▁ᅮ	-1981
▁런	-1982
함과	-1983
▁노력	-1984
▁다가	-1985
▁설명	-1986
▁저도	-1987
▁화가	-1988
더군요	-1989
▁모르는	-1990
▁예고편	-1991
▁이런게	-1992
▁넣	-1993
그라	-1994
드가	-1995
사회	-1996
새끼	-1997
시고	-1998
일뿐	-1999
▁안나	-2000
이에요	-2001
▁오히려	-2002
▁이상한	-2003
▁매력적인	-2004
▁지금까지	-2005
▁촌	-2006
기억	-2007
치게	-2008
▁그려	-2009
▁년이	-2010
▁우울	-2011
▁이러	-2012
▁졸라	-2013
▁진행	-2014
안되는	-2015
▁감동적	-2016
▁그럴	-2017
▁메세	-2018
▁전달	-2019
▁대단하다	-2020
▁멀	-2021
▁응	-2022
내고	-2023
심이	-2024
어라	-2025
좋고	-2026
▁같음	-2027
▁게임	-2028
▁실패	-2029
봅니다	-2030
▁지금봐도	-2031
대의	-2032
사가	-2033
아먹	-2034
▁깊은	-2035
하세요	-2036
했으면	-2037
▁모습이	-2038
▁점준다	-2039
▁던	-2040
리아	-2041
▁ᄉᄇ	-2042
▁그의	-2043
▁나라	-2044
▁인정	-2045
▁슬프다	-2046
▁기대하고	-2047
▁주인공이	-2048
▁최악이다	-2049
식이	-2050
됩니다	-2051
안하고	-2052
▁이런걸	-2053
▁장면은	-2054
▁뜨	-2055
가요	-2056
개봉	-2057
내요	-2058
물이	-2059
었나	-2060
▁풀어	-2061
▁개연성	-2062
▁팔	-2063
▁합	-2064
많은	-2065
였던	-2066
▁가득	-2067
▁본다	-2068
▁안맞	-2069
▁알았는데	-2070
극장	-2071
는가	-2072
당시	-2073
▁결혼	-2074
▁성공	-2075
▁이어	-2076
▁일단	-2077
었네요	-2078
하는게	-2079
▁반전이	-2080
▁젤	-2081
겟다	-2082
ᄒᄒᄒ	-2083
▁년전	-2084
▁복수	-2085
▁아빠	-2086
▁흘러	-2087
해주는	-2088
하면서도	-2089
▁같습니다	-2090
▁쩔	-2091
다운	-2092
마저	-2093
방송	-2094
▁나를	-2095
▁요소	-2096
▁최근	-2097
▁나온다	-2098
▁아까워	-2099
▁않았다	-2100
▁연출이	-2101
▁어렸을때	-2102
▁이야기를	-2103
▁뜬	-2104
럽다	-2105
▁드는	-2106
▁뭔지	-2107
▁마음을	-2108
▁보시길	-2109
▁후반부	-2110
▁워	-2111
▁탈	-2112
스를	-2113
하여	-2114
▁거지	-2115
▁전문	-2116
▁한계	-2117
▁남는다	-2118
▁보지마세요	-2119
▁늙	-2120
이제	-2121
▁난다	-2122
▁분명	-2123
▁어찌	-2124
▁보는게	-2125
▁유쾌한	-2126
▁인간의	-2127
▁느껴지는	-2128
▁감동적이고	-2129
▁추천합니다	-2130
▁독립	-2131
▁이하	-2132
▁여전히	-2133
▁아름답다	-2134
▁유치하고	-2135
▁씁	-2136
▁짐	-2137
▁플	-2138
알바	-2139
▁남아	-2140
▁황당	-2141
나온다	-2142
수있는	-2143
▁그렇고	-2144
▁작품이	-2145
▁짜증나	-2146
▁샤	-2147
▁말하고	-2148
▁보고나서	-2149
▁뒷	-2150
▁힐	-2151
감을	-2152
거냐	-2153
만의	-2154
아라	-2155
▁노출	-2156
▁눈이	-2157
▁자유	-2158
▁나에게	-2159
▁나왔으면	-2160
▁짓	-2161
었어	-2162
인간	-2163
자는	-2164
▁심심	-2165
▁취향	-2166
▁허접한	-2167
▁너무나도	-2168
▁영화중에	-2169
▁전체적으로	-2170
▁얻	-2171
마음	-2172
작가	-2173
▁든다	-2174
▁스케	-2175
▁다운받	-2176
▁춤	-2177
모습	-2178
프고	-2179
▁적당	-2180
▁했던	-2181
지않는	-2182
▁보고싶다	-2183
발이	-2184
소한	-2185
심히	-2186
있네	-2187
▁굿굿	-2188
▁미소	-2189
▁촬영	-2190
하는지	-2191
▁꼴	-2192
놓은	-2193
로는	-2194
르고	-2195
스릴	-2196
이의	-2197
있음	-2198
자들	-2199
자의	-2200
해주	-2201
▁감탄	-2202
▁와닿	-2203
▁스토리에	-2204
▁왜이렇게	-2205
▁이야기가	-2206
려면	-2207
상을	-2208
었네	-2209
이해	-2210
도없고	-2211
▁예전에	-2212
▁있었던	-2213
▁처음으로	-2214
예산	-2215
▁밑에	-2216
만드는	-2217
버렸다	-2218
지도않	-2219
하기만	-2220
▁애들이	-2221
▁제작비	-2222
▁재밌었음	-2223
▁좋았는데	-2224
구려	-2225
더만	-2226
화가	-2227
▁내생	-2228
▁눈을	-2229
▁아놔	-2230
리에	-2231
었을	-2232
절한	-2233
▁아마	-2234
만으로	-2235
면서도	-2236
보고싶	-2237
있어요	-2238
하지마	-2239
▁부분이	-2240
▁딴	-2241
다지	-2242
무서	-2243
보여	-2244
▁나머	-2245
▁러브	-2246
▁원래	-2247
▁이젠	-2248
▁전작	-2249
▁해준	-2250
영화에	-2251
▁진부한	-2252
▁했지만	-2253
봤음	-2254
분에	-2255
스로	-2256
었지	-2257
▁관계	-2258
▁부모	-2259
▁유명	-2260
아니고	-2261
지네요	-2262
▁그런가	-2263
▁시간을	-2264
▁잼있게	-2265
▁짠	-2266
기다	-2267
스는	-2268
인을	-2269
정을	-2270
져서	-2271
▁물론	-2272
▁섹시	-2273
▁시원	-2274
보다가	-2275
▁초등학	-2276
▁드라마가	-2277
▁생각한다	-2278
▁재밌습니다	-2279
▁체	-2280
보이	-2281
수도	-2282
▁과거	-2283
▁시도	-2284
▁안됨	-2285
▁알아	-2286
저럭	-2287
▁나서	-2288
▁메시	-2289
▁예쁜	-2290
▁으로	-2291
▁평생	-2292
▁해주	-2293
▁귀엽고	-2294
▁비슷한	-2295
▁아니면	-2296
▁좋았고	-2297
▁재미있음	-2298
▁접	-2299
과는	-2300
른다	-2301
인물	-2302
▁그립	-2303
▁오락	-2304
▁유일	-2305
▁의외	-2306
보는데	-2307
▁어이없는	-2308
▁돼	-2309
유치	-2310
점을	-2311
하던	-2312
▁아는	-2313
▁아닌듯	-2314
▁어린이	-2315
▁재밋게	-2316
▁아니지만	-2317
리도	-2318
인은	-2319
▁가끔	-2320
▁몸매	-2321
▁삶을	-2322
▁중반	-2323
배우들	-2324
스럽게	-2325
▁기분이	-2326
▁매력이	-2327
▁액션이	-2328
▁어이가	-2329
▁화려한	-2330
▁흥미롭	-2331
▁아름답고	-2332
▁처음이다	-2333
▁엑	-2334
▁겁나	-2335
▁여성	-2336
▁철학	-2337
▁후속	-2338
▁영화냐	-2339
▁추억의	-2340
▁영화에서	-2341
▁뭉	-2342
니아	-2343
움을	-2344
자를	-2345
▁깔끔	-2346
▁맞는	-2347
사람들	-2348
▁아저씨	-2349
▁케이블	-2350
▁하는데	-2351
▁무엇보다	-2352
▁영화지만	-2353
▁이영화가	-2354
나올	-2355
시켜	-2356
아님	-2357
프로	-2358
▁부끄	-2359
▁지난	-2360
지않은	-2361
▁이유가	-2362
▁특유의	-2363
오빠	-2364
쵝오	-2365
▁라고	-2366
럭저럭	-2367
▁확실히	-2368
▁드라마를	-2369
▁말이필요	-2370
무슨	-2371
▁같아	-2372
▁미래	-2373
▁정치	-2374
▁좋을	-2375
▁피해	-2376
▁음악이	-2377
무섭	-2378
으론	-2379
장이	-2380
펑펑	-2381
할까	-2382
▁다소	-2383
▁뜬금	-2384
▁미스	-2385
▁슬픔	-2386
▁영환	-2387
▁용서	-2388
는영화	-2389
▁모습을	-2390
▁별로다	-2391
▁봐야할	-2392
▁역시나	-2393
▁연기력이	-2394
▁논	-2395
▁십	-2396
▁축	-2397
기분	-2398
려다	-2399
소년	-2400
안되	-2401
웠음	-2402
▁결론	-2403
▁마라	-2404
▁무협	-2405
▁부터	-2406
좋아요	-2407
▁연기에	-2408
▁이연걸	-2409
▁영화보고	-2410
▁격	-2411
▁꾸	-2412
▁웬	-2413
겹다	-2414
드라	-2415
아주	-2416
▁귀신	-2417
▁싫다	-2418
▁압권	-2419
▁호러	-2420
없어서	-2421
▁멋지다	-2422
▁소름돋	-2423
▁어색한	-2424
▁있다면	-2425
▁하네요	-2426
세계	-2427
▁고생	-2428
▁모자	-2429
▁사이	-2430
▁아련	-2431
▁독특한	-2432
▁슬프고	-2433
▁여자가	-2434
▁덜	-2435
같음	-2436
순간	-2437
와르	-2438
지컬	-2439
▁산만	-2440
▁되었다	-2441
▁마무리	-2442
▁보이는	-2443
▁사랑이	-2444
았습니다	-2445
▁프로그램	-2446
▁생각합니다	-2447
▁헛	-2448
겼다	-2449
란다	-2450
특히	-2451
했을	-2452
▁고전	-2453
▁놀랍	-2454
▁서로	-2455
▁스포	-2456
만하면	-2457
▁나중에	-2458
▁볼만함	-2459
▁필요한	-2460
▁떨어지는	-2461
▁필요없는	-2462
▁재밌었는데	-2463
▁곳	-2464
▁녹	-2465
결말	-2466
래기	-2467
점도	-2468
▁과연	-2469
▁넘어	-2470
▁또한	-2471
▁무지	-2472
▁사극	-2473
▁없나	-2474
▁전기	-2475
▁찍은	-2476
▁현재	-2477
사람이	-2478
퀄리티	-2479
평점이	-2480
▁그들의	-2481
▁끝나고	-2482
▁몰입이	-2483
▁보기엔	-2484
▁소재는	-2485
▁아닌데	-2486
▁액션은	-2487
재미없다	-2488
▁그럭저럭	-2489
▁이정도면	-2490
▁잤	-2491
▁폐	-2492
▁풋	-2493
점은	-2494
▁가서	-2495
▁경찰	-2496
▁나은	-2497
▁느낀	-2498
▁보시	-2499
▁슈퍼	-2500
▁특별	-2501
겠네요	-2502
연기가	-2503
▁못하고	-2504
▁오그라	-2505
▁재미를	-2506
▁점짜리	-2507
▁밤	-2508
▁살짝	-2509
▁시선	-2510
▁더이상	-2511
더라구요	-2512
▁붙	-2513
따라	-2514
로서	-2515
만화	-2516
소재	-2517
▁고민	-2518
▁먼저	-2519
▁스트	-2520
▁심리	-2521
▁싶어	-2522
▁씁쓸	-2523
▁있나	-2524
▁조잡	-2525
보는게	-2526
▁우연히	-2527
▁평범한	-2528
▁쩌	-2529
▁활	-2530
레스	-2531
트가	-2532
▁난해	-2533
▁누군	-2534
▁미치	-2535
▁젊은	-2536
▁조연	-2537
▁표절	-2538
영화도	-2539
▁그런데	-2540
▁기대를	-2541
▁봤으면	-2542
▁재미없네	-2543
▁끔	-2544
▁씬	-2545
▁찡	-2546
르노	-2547
불가	-2548
서야	-2549
친다	-2550
▁대충	-2551
▁시걸	-2552
▁예전	-2553
랍니다	-2554
았어요	-2555
▁스토리를	-2556
▁해피엔딩	-2557
터리	-2558
▁사기	-2559
버리고	-2560
아까워	-2561
재미없	-2562
하다는	-2563
한다면	-2564
▁순수한	-2565
▁작품성	-2566
▁정말로	-2567
▁밋	-2568
있어	-2569
▁건지	-2570
▁연애	-2571
▁행동	-2572
▁그다지	-2573
▁상상력	-2574
▁싸이코	-2575
▁점주는	-2576
▁좋았던	-2577
▁재미있었다	-2578
▁ᄌ	-2579
▁엘	-2580
▁잇	-2581
▁줌	-2582
나이	-2583
말로	-2584
버렸	-2585
사는	-2586
사를	-2587
져요	-2588
▁ᄋᄋ	-2589
▁그럼	-2590
▁비극	-2591
▁역할	-2592
▁이뻐	-2593
▁감정이	-2594
▁제작진	-2595
▁쇼	-2596
▁썩	-2597
▁징	-2598
라스	-2599
성애	-2600
즈니	-2601
지말	-2602
▁글쎄	-2603
▁년에	-2604
▁반성	-2605
▁점준	-2606
▁조폭	-2607
▁사랑과	-2608
▁소름끼	-2609
재밌어요	-2610
▁있습니다	-2611
▁좋습니다	-2612
▁ᄏᄏᄏᄏᄏᄏᄏᄏ	-2613
▁겉	-2614
나가	-2615
의미	-2616
이터	-2617
▁불쾌	-2618
▁이쁜	-2619
▁있지	-2620
▁포장	-2621
▁형편	-2622
더라도	-2623
▁열심히	-2624
▁재밌네	-2625
▁생각나는	-2626
▁지루해서	-2627
▁짜증나는	-2628
▁꼽	-2629
돌아	-2630
무비	-2631
트콤	-2632
한건	-2633
해보	-2634
▁강렬	-2635
▁그지	-2636
▁레이	-2637
▁보러	-2638
▁채널	-2639
한다는	-2640
▁가볍게	-2641
▁끝나는	-2642
▁언제나	-2643
▁볼때마다	-2644
▁끊	-2645
가족	-2646
나왔	-2647
눈물	-2648
▁나옴	-2649
▁되게	-2650
▁소장	-2651
▁알겠	-2652
▁포기	-2653
▁ᅲᅲᅲ	-2654
▁소재를	-2655
▁저예산	-2656
▁액션영화	-2657
▁닥	-2658
▁줬	-2659
대는	-2660
시킨	-2661
오글	-2662
찝찝	-2663
▁사는	-2664
▁이때	-2665
수없는	-2666
▁공감이	-2667
▁다큐멘	-2668
▁싸구려	-2669
▁다시한번	-2670
▁재미있네요	-2671
▁윌	-2672
로도	-2673
위해	-2674
히는	-2675
▁그린	-2676
▁눈빛	-2677
▁라이	-2678
▁있게	-2679
▁정서	-2680
▁쵝오	-2681
아까운	-2682
했다는	-2683
▁나오고	-2684
▁배우의	-2685
▁봤다가	-2686
▁싶네요	-2687
▁음악도	-2688
▁봤었는데	-2689
▁밝	-2690
▁밥	-2691
▁침	-2692
▁톰	-2693
들에	-2694
만점	-2695
시아	-2696
이자	-2697
▁남을	-2698
▁블랙	-2699
▁아나	-2700
▁오버	-2701
▁외국	-2702
▁전에	-2703
닝타임	-2704
있는데	-2705
▁몇번을	-2706
▁반전도	-2707
▁사람을	-2708
▁세상에	-2709
▁이건뭐	-2710
▁카메라	-2711
▁드라마는	-2712
▁볼만하다	-2713
▁농	-2714
기의	-2715
되지	-2716
먹고	-2717
표현	-2718
▁사건	-2719
▁스티	-2720
▁재난	-2721
사람은	-2722
아까움	-2723
▁수준이	-2724
▁어릴적	-2725
▁필요없다	-2726
▁하나하나	-2727
리기	-2728
▁말을	-2729
▁볼게	-2730
▁하루	-2731
▁할말	-2732
▁힐링	-2733
시간이	-2734
▁엉성한	-2735
▁지루하지	-2736
▁진심으로	-2737
▁몽	-2738
▁쉬	-2739
거임	-2740
느라	-2741
디어	-2742
진심	-2743
▁감명	-2744
▁개판	-2745
▁깨닫	-2746
▁남주	-2747
▁밋밋	-2748
▁설레	-2749
▁자막	-2750
아니다	-2751
인가요	-2752
재밌다	-2753
▁드럽게	-2754
▁볼수록	-2755
▁스토리와	-2756
▁사랑스러운	-2757
▁ᄋ	-2758
▁칼	-2759
감도	-2760
괜찮	-2761
이션	-2762
하라	-2763
▁기가	-2764
▁깊이	-2765
▁동물	-2766
▁리뷰	-2767
▁분노	-2768
▁역겨	-2769
▁올라	-2770
▁잊을	-2771
▁존경	-2772
하다니	-2773
▁신선한	-2774
봤습니다	-2775
▁만들어진	-2776
것만	-2777
겠음	-2778
아아	-2779
정신	-2780
하셨	-2781
했네	-2782
▁다만	-2783
▁드러	-2784
▁마치	-2785
▁보이	-2786
▁이기	-2787
▁종교	-2788
영화임	-2789
이렇게	-2790
재밌음	-2791
▁뮤지컬	-2792
▁할말이	-2793
▁현실을	-2794
▁잔잔하고	-2795
▁뇌	-2796
걸로	-2797
봐요	-2798
여운	-2799
줌마	-2800
지의	-2801
편이	-2802
하구	-2803
▁두고	-2804
▁오랫	-2805
▁일어	-2806
▁표정	-2807
▁한데	-2808
▁감동과	-2809
▁내용을	-2810
▁마이너	-2811
▁안하고	-2812
▁없지만	-2813
▁연기와	-2814
▁인생의	-2815
▁있네요	-2816
▁꽝	-2817
▁쪽	-2818
나옴	-2819
대가	-2820
상이	-2821
수는	-2822
작이	-2823
주얼	-2824
▁나타	-2825
▁소녀	-2826
▁시시	-2827
▁않아	-2828
▁홍보	-2829
연기도	-2830
이라서	-2831
▁스케일	-2832
▁제목이	-2833
▁영화에요	-2834
▁챙	-2835
까진	-2836
버리	-2837
씨가	-2838
줘서	-2839
티비	-2840
학교	-2841
학생	-2842
해준	-2843
▁무비	-2844
▁죄다	-2845
▁크게	-2846
▁마세요	-2847
▁모든게	-2848
▁시트콤	-2849
▁안되고	-2850
▁일본영화	-2851
▁끄	-2852
▁흡	-2853
가가	-2854
가능	-2855
이유	-2856
▁니콜	-2857
▁단연	-2858
▁둘다	-2859
▁보길	-2860
▁삶의	-2861
▁선생	-2862
▁수도	-2863
▁에휴	-2864
▁펑펑	-2865
▁하하	-2866
하기도	-2867
▁디즈니	-2868
▁웃기고	-2869
▁좋아할	-2870
▁영화라는	-2871
▁맡	-2872
▁푹	-2873
나다	-2874
들고	-2875
듯이	-2876
세가	-2877
▁가진	-2878
▁나가	-2879
▁섹스	-2880
▁이루	-2881
나와서	-2882
▁뛰어난	-2883
▁사랑에	-2884
▁아이들	-2885
▁있어요	-2886
▁아쉽네요	-2887
▁이거보고	-2888
끼리	-2889
나네	-2890
던지	-2891
이후	-2892
▁기본	-2893
▁되고	-2894
▁발전	-2895
▁새벽	-2896
▁찝찝	-2897
▁통쾌	-2898
▁통해	-2899
▁풋풋	-2900
겠어요	-2901
▁결말도	-2902
▁그렇다	-2903
▁못했다	-2904
▁인생을	-2905
▁퇴	-2906
원이	-2907
▁굳이	-2908
▁발로	-2909
▁벌써	-2910
▁성인	-2911
▁죽여	-2912
▁코난	-2913
리스마	-2914
봣는데	-2915
장면이	-2916
▁베스트	-2917
▁산으로	-2918
▁연출도	-2919
▁이쁘고	-2920
▁퀄리티	-2921
겠습니다	-2922
▁안타깝다	-2923
▁뉴	-2924
▁됨	-2925
기로	-2926
온다	-2927
제목	-2928
▁뒤로	-2929
▁막판	-2930
▁뭉클	-2931
▁민망	-2932
▁보자	-2933
▁슬퍼	-2934
▁연예	-2935
▁은근	-2936
▁쩐다	-2937
거같다	-2938
▁즐거운	-2939
영화라고	-2940
▁중간중간	-2941
▁든	-2942
거운	-2943
계속	-2944
와는	-2945
와서	-2946
중의	-2947
▁말할	-2948
▁아류	-2949
더라면	-2950
▁만든다	-2951
▁힘들다	-2952
드립니다	-2953
▁다시보고	-2954
▁시간가는	-2955
▁쫌	-2956
가락	-2957
것들	-2958
두고	-2959
려요	-2960
이크	-2961
한국	-2962
화를	-2963
▁광고	-2964
▁무시	-2965
▁생생	-2966
▁악역	-2967
▁올해	-2968
▁웃김	-2969
▁의문	-2970
▁흐름	-2971
본영화	-2972
집니다	-2973
▁결말은	-2974
▁무섭다	-2975
▁여기서	-2976
▁ᄀ	-2977
▁늦	-2978
▁잭	-2979
구니	-2980
려나	-2981
▁고마	-2982
▁노답	-2983
▁는데	-2984
▁대표	-2985
▁말로	-2986
▁명품	-2987
▁심각	-2988
▁짝퉁	-2989
거리는	-2990
내용도	-2991
에서의	-2992
▁보인다	-2993
▁저렇게	-2994
▁점수를	-2995
▁영화인듯	-2996
봤던	-2997
줘야	-2998
▁발견	-2999
▁쉽게	-3000
▁연속	-3001
▁왜케	-3002
▁하이	-3003
스러움	-3004
식으로	-3005
▁소재가	-3006
▁아깝지	-3007
▁어려운	-3008
▁없는데	-3009
▁헐리우드	-3010
▁영화였어요	-3011
▁푸	-3012
▁극치	-3013
▁능력	-3014
▁암튼	-3015
▁의심	-3016
▁좀더	-3017
▁폭력	-3018
▁낮아서	-3019
▁눈물을	-3020
▁즐겁게	-3021
▁청소년	-3022
▁뜻	-3023
▁익	-3024
▁쥐	-3025
▁흉	-3026
계의	-3027
그렇	-3028
도안	-3029
만드	-3030
이를	-3031
이리	-3032
하신	-3033
▁김기	-3034
▁많다	-3035
▁믿을	-3036
▁생애	-3037
▁않게	-3038
▁태어	-3039
줍니다	-3040
▁느와르	-3041
▁쓰레기다	-3042
▁아직까지	-3043
▁주인공의	-3044
▁이런영화가	-3045
도가	-3046
로우	-3047
어진	-3048
이니	-3049
자단	-3050
쳤다	-3051
함에	-3052
했어	-3053
▁거짓	-3054
▁놀랐	-3055
▁동생	-3056
▁무언	-3057
▁미모	-3058
▁상처	-3059
▁스크	-3060
▁슬펐	-3061
▁일상	-3062
▁타임	-3063
▁평이	-3064
구하고	-3065
▁본영화	-3066
▁쓰래기	-3067
▁아쉬움	-3068
▁어렸을	-3069
▁없다는	-3070
▁울었다	-3071
▁이유는	-3072
▁지루할	-3073
▁생각없이	-3074
▁티비에서	-3075
▁닮	-3076
▁싱	-3077
▁콩	-3078
그인	-3079
드의	-3080
해진	-3081
▁괴물	-3082
▁되지	-3083
▁때문	-3084
▁빼고	-3085
▁전투	-3086
하겠다	-3087
▁느낌을	-3088
▁시대를	-3089
▁이해할	-3090
▁자신의	-3091
▁배우들도	-3092
▁최고입니다	-3093
▁납	-3094
제발	-3095
▁못할	-3096
▁무리	-3097
▁무척	-3098
▁받아	-3099
▁안돼	-3100
▁울고	-3101
▁필름	-3102
스릴러	-3103
었을까	-3104
▁같아서	-3105
▁만들고	-3106
▁박수를	-3107
▁이제야	-3108
▁좋겠어요	-3109
▁센	-3110
따구	-3111
불어	-3112
우기	-3113
▁끝난	-3114
▁높아	-3115
▁레전	-3116
▁어휴	-3117
봤지만	-3118
었는지	-3119
▁더러운	-3120
▁빠져들	-3121
▁사랑은	-3122
▁위대한	-3123
지마세요	-3124
▁따뜻해지는	-3125
▁쌍	-3126
▁앤	-3127
나도	-3128
류의	-3129
명이	-3130
사의	-3131
▁가까	-3132
▁간다	-3133
▁공부	-3134
▁새롭	-3135
▁혹시	-3136
캐릭터	-3137
캐스팅	-3138
▁뻔하고	-3139
▁소재로	-3140
▁어머니	-3141
▁옛날에	-3142
▁웃음이	-3143
▁음악과	-3144
▁재밋다	-3145
▁좋았을	-3146
▁람	-3147
▁봉	-3148
▁폴	-3149
셔서	-3150
아가	-3151
저도	-3152
한지	-3153
▁높다	-3154
▁들이	-3155
▁먹고	-3156
▁신경	-3157
▁연결	-3158
▁우와	-3159
▁지구	-3160
▁희생	-3161
용으로	-3162
으니까	-3163
으로서	-3164
했는지	-3165
▁덕분에	-3166
▁들었다	-3167
▁마이클	-3168
▁빼고는	-3169
▁좋아서	-3170
▁지금은	-3171
▁탄탄한	-3172
▁ᅲᅲᅲᅲ	-3173
▁님	-3174
▁쩝	-3175
마스	-3176
▁내려	-3177
▁바꿔	-3178
▁시각	-3179
▁최강	-3180
▁현대	-3181
하시는	-3182
▁몰라도	-3183
▁보니까	-3184
▁이쁘다	-3185
▁하는지	-3186
▁지루했다	-3187
▁쿠	-3188
답답	-3189
성에	-3190
성치	-3191
엇다	-3192
▁딱히	-3193
▁떠나	-3194
▁분들	-3195
▁섬세	-3196
▁특수	-3197
끝까지	-3198
나네요	-3199
영화라	-3200
처구니	-3201
▁멋있다	-3202
▁비주얼	-3203
▁사랑의	-3204
▁않을까	-3205
▁연기자	-3206
▁의미를	-3207
▁하면서	-3208
▁헐리웃	-3209
▁긴장감도	-3210
▁업	-3211
▁좌	-3212
▁탁	-3213
남는	-3214
노래	-3215
럽고	-3216
▁다니	-3217
▁아프	-3218
▁조용	-3219
▁조합	-3220
▁할까	-3221
갈수록	-3222
해진다	-3223
▁있어야	-3224
▁유치하다	-3225
▁잊혀지지	-3226
▁지루하게	-3227
▁떡	-3228
니당	-3229
시에	-3230
씬은	-3231
어주	-3232
전쟁	-3233
하진	-3234
함은	-3235
▁그것	-3236
▁떠오	-3237
▁신파	-3238
▁악당	-3239
▁예뻐	-3240
▁지만	-3241
▁한참	-3242
▁견자단	-3243
▁나오면	-3244
▁의외로	-3245
▁표현한	-3246
▁신선하고	-3247
▁재미있었어요	-3248
▁뽑	-3249
이래	-3250
젠장	-3251
▁속에	-3252
▁어우	-3253
▁없지	-3254
▁이도	-3255
▁제이	-3256
▁떠나서	-3257
▁로그인	-3258
▁뿐이다	-3259
▁현실적인	-3260
▁사랑이야기	-3261
▁재미없어요	-3262
▁낳	-3263
▁빡	-3264
▁엽	-3265
▁움	-3266
보자	-3267
성은	-3268
엄마	-3269
인트	-3270
장난	-3271
▁그걸	-3272
▁미드	-3273
▁방법	-3274
▁살고	-3275
▁아침	-3276
▁인내	-3277
▁일품	-3278
▁작은	-3279
▁지겨	-3280
▁특이	-3281
감독이	-3282
속에서	-3283
했네요	-3284
▁단순한	-3285
▁본다면	-3286
▁볼거리	-3287
▁사람의	-3288
▁시사회	-3289
▁왜이래	-3290
▁있으면	-3291
▁정신병	-3292
▁좋지만	-3293
▁출연진	-3294
▁한번쯤	-3295
▁느껴진다	-3296
▁유쾌하고	-3297
▁작품이다	-3298
▁기대안하고	-3299
▁멘	-3300
부족	-3301
아쉽	-3302
▁개뿔	-3303
▁많아	-3304
▁보긴	-3305
▁본방	-3306
▁싶을	-3307
▁에피	-3308
▁죽을	-3309
였지만	-3310
하려는	-3311
▁명작이	-3312
▁봣는데	-3313
▁없었던	-3314
▁이따위	-3315
▁재미잇	-3316
▁기대했는데	-3317
긴다	-3318
안에	-3319
애들	-3320
이스	-3321
좋음	-3322
▁거슬	-3323
▁고통	-3324
▁망쳐	-3325
▁제로	-3326
▁지켜	-3327
▁느끼는	-3328
▁더불어	-3329
▁무엇을	-3330
▁보았다	-3331
▁역대급	-3332
▁작품을	-3333
▁포르노	-3334
▁생각하고	-3335
▁카리스마	-3336
▁냉	-3337
▁척	-3338
거라	-3339
독교	-3340
버트	-3341
아직	-3342
어이	-3343
영이	-3344
영환	-3345
우리	-3346
▁동안	-3347
▁레알	-3348
▁야동	-3349
▁와우	-3350
▁응원	-3351
▁편견	-3352
아버지	-3353
▁대사가	-3354
▁주성치	-3355
▁사랑하는	-3356
▁영화보는	-3357
▁한국영화는	-3358
냐고	-3359
인들	-3360
정은	-3361
하려	-3362
▁가벼	-3363
▁남녀	-3364
▁문화	-3365
▁빌려	-3366
▁아픔	-3367
▁올려	-3368
▁이럴	-3369
▁흔한	-3370
가지고	-3371
자체가	-3372
▁못한다	-3373
버림	-3374
석이	-3375
어리	-3376
우고	-3377
키는	-3378
한것	-3379
해지	-3380
▁똑같	-3381
▁변태	-3382
▁분이	-3383
▁외계	-3384
▁점주	-3385
되네요	-3386
비디오	-3387
지않고	-3388
하던데	-3389
하려고	-3390
▁레전드	-3391
▁아까울	-3392
▁보고나면	-3393
▁부족하다	-3394
▁이해하기	-3395
▁꽃	-3396
날때	-3397
볼만	-3398
소녀	-3399
자나	-3400
▁모를	-3401
▁북한	-3402
▁수고	-3403
▁오바	-3404
▁전반	-3405
▁찌질	-3406
▁편의	-3407
▁감동의	-3408
▁다시는	-3409
▁멍청한	-3410
▁보여줬	-3411
▁볼수있	-3412
▁봤더니	-3413
▁아줌마	-3414
▁알바들	-3415
▁이후로	-3416
하는영화	-3417
▁ᄏᄏᄏᄏᄏᄏ	-3418
가를	-3419
수의	-3420
식을	-3421
씨의	-3422
언니	-3423
에만	-3424
▁강력	-3425
▁다양	-3426
▁복잡	-3427
▁외모	-3428
▁우정	-3429
까지는	-3430
내용이	-3431
차라리	-3432
하다가	-3433
▁생각함	-3434
▁완전히	-3435
▁유치함	-3436
▁점수가	-3437
▁앞으로도	-3438
▁어처구니	-3439
▁흥미로운	-3440
▁쏘	-3441
▁컨	-3442
거면	-3443
냄새	-3444
느니	-3445
대단	-3446
물을	-3447
양이	-3448
▁기술	-3449
▁눈에	-3450
▁달달	-3451
▁만한	-3452
▁못함	-3453
▁방금	-3454
▁이다	-3455
없네요	-3456
▁가슴아	-3457
▁김기덕	-3458
▁손발이	-3459
▁싶은데	-3460
▁우리의	-3461
▁전문가	-3462
▁죽는줄	-3463
▁핵노잼	-3464
▁몰입해서	-3465
▁보지마라	-3466
▁불구하고	-3467
▁인상적이	-3468
▁술	-3469
러디	-3470
아나	-3471
했나	-3472
▁남겨	-3473
▁못해	-3474
▁바뀌	-3475
▁처럼	-3476
▁해라	-3477
▁몰입감	-3478
▁색다른	-3479
▁아이가	-3480
▁영화네	-3481
▁명작입니다	-3482
▁시간가는줄	-3483
▁갠	-3484
▁멈	-3485
▁뱀	-3486
▁웨	-3487
게요	-3488
관이	-3489
라가	-3490
미가	-3491
사이	-3492
지다	-3493
▁검색	-3494
▁국내	-3495
▁쓸데	-3496
▁투자	-3497
▁하네	-3498
▁해리	-3499
되었다	-3500
▁가치가	-3501
▁않지만	-3502
▁영화들	-3503
▁있구나	-3504
▁참으로	-3505
없는영화	-3506
▁무섭지도	-3507
▁웃기지도	-3508
▁짜증난다	-3509
▁ᄆ	-3510
먹는	-3511
몰입	-3512
버그	-3513
보네	-3514
어여	-3515
지어	-3516
▁가면	-3517
▁끝이	-3518
▁늘어	-3519
▁달라	-3520
▁맨날	-3521
▁살다	-3522
▁아들	-3523
▁어제	-3524
▁영국	-3525
▁우주	-3526
▁인도	-3527
▁인터	-3528
▁잊지	-3529
▁허세	-3530
배우가	-3531
에대한	-3532
▁남자가	-3533
▁넘치는	-3534
▁안보고	-3535
▁에피소	-3536
▁재미와	-3537
▁행복한	-3538
▁캬	-3539
받고	-3540
성의	-3541
시작	-3542
이며	-3543
적은	-3544
▁가져	-3545
▁감히	-3546
▁거기	-3547
▁국민	-3548
▁일부	-3549
▁치밀	-3550
▁클레	-3551
▁영원히	-3552
▁우리가	-3553
▁히어로	-3554
▁긴장감이	-3555
▁아름다움	-3556
▁장면에서	-3557
▁쓰레기같은	-3558
▁콜	-3559
되서	-3560
러워	-3561
제작	-3562
짱짱	-3563
▁게이	-3564
▁깜짝	-3565
▁몇년	-3566
▁못생	-3567
▁빼면	-3568
▁상업	-3569
▁안볼	-3570
▁어지	-3571
▁여행	-3572
▁자살	-3573
▁힘이	-3574
겁니다	-3575
그대로	-3576
버스터	-3577
소리가	-3578
▁가슴에	-3579
▁그렇지	-3580
▁나오지	-3581
▁누구나	-3582
▁반개도	-3583
▁없어요	-3584
▁질리지	-3585
▁괜찮은데	-3586
▁바랍니다	-3587
▁이런영화를	-3588
신분	-3589
트맨	-3590
▁과장	-3591
▁그거	-3592
▁김민	-3593
▁깨달	-3594
▁드림	-3595
▁만나	-3596
▁맞추	-3597
▁바꾸	-3598
▁반복	-3599
▁아픈	-3600
▁안본	-3601
▁우려	-3602
▁있네	-3603
▁제시	-3604
아니라	-3605
지말고	-3606
▁오랜만	-3607
▁이것이	-3608
▁정도의	-3609
▁집에서	-3610
▁추억이	-3611
▁떨어진다	-3612
▁연기력도	-3613
▁재미없게	-3614
▁좋아하는데	-3615
▁팀	-3616
만을	-3617
비가	-3618
세포	-3619
하군	-3620
▁겨우	-3621
▁군대	-3622
▁않나	-3623
▁풍경	-3624
기에는	-3625
버리는	-3626
▁깨닫게	-3627
▁노래가	-3628
▁말아먹	-3629
▁무서워	-3630
▁원작의	-3631
▁이유를	-3632
▁전설의	-3633
▁처음엔	-3634
▁좋겠네요	-3635
▁모르겠지만	-3636
▁넌	-3637
▁엿	-3638
▁왤	-3639
놈들	-3640
도는	-3641
루스	-3642
무지	-3643
얼굴	-3644
였어	-3645
후회	-3646
▁남은	-3647
▁다룬	-3648
▁불러	-3649
▁좋게	-3650
감독의	-3651
시키는	-3652
야말로	-3653
줄이야	-3654
▁기다려	-3655
▁노래도	-3656
▁비현실	-3657
배우들의	-3658
▁감동적이다	-3659
▁재미없었다	-3660
ᅲᅮ	-3661
▁깎	-3662
▁엔	-3663
▁탑	-3664
갔다	-3665
관계	-3666
니깐	-3667
다음	-3668
매력	-3669
번째	-3670
뻔한	-3671
안됨	-3672
이로	-3673
제가	-3674
▁감흥	-3675
▁겨울	-3676
▁관한	-3677
▁기발	-3678
▁박진	-3679
▁받을	-3680
▁아닙	-3681
▁의리	-3682
긴한데	-3683
웠어요	-3684
▁그녀의	-3685
▁뛰어넘	-3686
▁재밌을	-3687
▁편보다	-3688
해주세요	-3689
▁보여준다	-3690
▁없습니다	-3691
▁훌륭하다	-3692
과의	-3693
바로	-3694
억지	-3695
요일	-3696
이기	-3697
이쁘	-3698
주가	-3699
쳐서	-3700
형님	-3701
호가	-3702
▁기회	-3703
▁김수	-3704
▁데이	-3705
▁떠올	-3706
▁로봇	-3707
▁세월	-3708
▁아동	-3709
▁여름	-3710
▁올리	-3711
▁자주	-3712
▁챙겨	-3713
▁학생	-3714
▁화끈	-3715
그래서	-3716
한다고	-3717
▁느낄수	-3718
▁말하는	-3719
▁스스로	-3720
▁작품은	-3721
▁한심한	-3722
▁훈훈한	-3723
보고싶다	-3724
▁독립영화	-3725
▁등장인물	-3726
▁어린시절	-3727
▁재밌다고	-3728
▁재밌던데	-3729
▁진부하고	-3730
▁최고였다	-3731
▁섞	-3732
▁썼	-3733
로의	-3734
머리	-3735
사수	-3736
소설	-3737
아쉬	-3738
역사	-3739
이러	-3740
인도	-3741
허접	-3742
▁꿈을	-3743
▁신비	-3744
▁안쓰	-3745
▁양심	-3746
▁열연	-3747
▁웃겼	-3748
▁잼잇	-3749
▁커플	-3750
시간에	-3751
▁소름이	-3752
▁심하게	-3753
▁그렇다고	-3754
▁떨	-3755
▁래	-3756
▁옆	-3757
▁탐	-3758
가슴	-3759
건만	-3760
겨진	-3761
드시	-3762
뭥미	-3763
형래	-3764
▁관심	-3765
▁교육	-3766
▁새끼	-3767
▁인기	-3768
▁타이	-3769
▁테러	-3770
▁할리	-3771
▁기독교	-3772
▁남자의	-3773
▁년전에	-3774
▁보다는	-3775
▁세상을	-3776
▁수준의	-3777
▁장르가	-3778
▁만들어도	-3779
▁모르겠음	-3780
▁안타까운	-3781
▁지나치게	-3782
▁초등학생	-3783
▁빅	-3784
▁쏟	-3785
▁씹	-3786
▁옷	-3787
▁컴	-3788
▁품	-3789
그리	-3790
깊게	-3791
드리	-3792
받은	-3793
삭제	-3794
식의	-3795
아름	-3796
어용	-3797
있나	-3798
지요	-3799
▁결과	-3800
▁고맙	-3801
▁끌어	-3802
▁따로	-3803
▁묘사	-3804
▁볼거	-3805
▁아기	-3806
▁악마	-3807
▁안봤	-3808
▁안습	-3809
▁알수	-3810
▁정의	-3811
들이나	-3812
▁관객을	-3813
▁내가본	-3814
▁아이돌	-3815
▁여운을	-3816
▁작가가	-3817
▁잘어울	-3818
▁점이다	-3819
▁하는거	-3820
▁보여주고	-3821
▁전기세가	-3822
▁다큐멘터리	-3823
▁됬	-3824
▁랑	-3825
▁맹	-3826
는듯	-3827
멘타	-3828
뭔가	-3829
빨리	-3830
▁갈등	-3831
▁경험	-3832
▁세련	-3833
▁이끌	-3834
▁이정	-3835
▁주말	-3836
▁파워	-3837
것같은	-3838
다는걸	-3839
았지만	-3840
장면은	-3841
▁비하면	-3842
▁싶어요	-3843
▁않네요	-3844
▁연기잘	-3845
▁잔인한	-3846
▁잘하고	-3847
▁잼있다	-3848
▁점정도	-3849
▁초반에	-3850
▁하나의	-3851
것같아요	-3852
영화보다	-3853
▁기대이상	-3854
▁드립니다	-3855
▁생각하는	-3856
▁정말이지	-3857
겨서	-3858
냈다	-3859
명의	-3860
묘한	-3861
버려	-3862
임새	-3863
함의	-3864
▁단지	-3865
▁뭘까	-3866
▁방영	-3867
▁번째	-3868
▁세기	-3869
▁안에	-3870
▁일깨	-3871
▁잔뜩	-3872
▁잠깐	-3873
▁전율	-3874
▁조니	-3875
다는거	-3876
▁게다가	-3877
▁그립다	-3878
▁별로임	-3879
▁스파이	-3880
▁아니야	-3881
▁이런건	-3882
▁잼나게	-3883
▁죽이고	-3884
▁지나도	-3885
▁할머니	-3886
▁러닝타임	-3887
▁캐릭터가	-3888
▁학교에서	-3889
▁뿌	-3890
감은	-3891
리네	-3892
만은	-3893
와의	-3894
원의	-3895
원작	-3896
쟁이	-3897
절대	-3898
▁결코	-3899
▁만남	-3900
▁많고	-3901
▁무술	-3902
▁별개	-3903
▁정체	-3904
▁조작	-3905
▁하늘	-3906
▁효과	-3907
들이랑	-3908
으로써	-3909
▁남네요	-3910
▁느꼈다	-3911
▁느낌의	-3912
▁점대는	-3913
▁최고임	-3914
▁패러디	-3915
영화입니다	-3916
▁끈	-3917
▁옥	-3918
▁헬	-3919
간의	-3920
과서	-3921
누나	-3922
는건	-3923
모두	-3924
속의	-3925
았을	-3926
운드	-3927
음이	-3928
임스	-3929
출연	-3930
▁가지	-3931
▁낚시	-3932
▁낮네	-3933
▁답이	-3934
▁대중	-3935
▁삶에	-3936
▁영혼	-3937
▁찍어	-3938
▁최초	-3939
▁편도	-3940
갑니다	-3941
겠다는	-3942
보니까	-3943
스타일	-3944
▁가슴을	-3945
▁만들면	-3946
▁모르게	-3947
▁보지말	-3948
▁스크린	-3949
▁예쁘고	-3950
▁이래서	-3951
▁궁금하다	-3952
▁만들다니	-3953
▁모르겠고	-3954
▁봐도봐도	-3955
▁이제서야	-3956
ᄏᄏᄏᄏᄏᄏ	-3957
▁났	-3958
▁린	-3959
▁웰	-3960
레인	-3961
시오	-3962
시즌	-3963
씬이	-3964
인것	-3965
제로	-3966
토록	-3967
▁내면	-3968
▁당연	-3969
▁봤네	-3970
▁블록	-3971
▁살린	-3972
▁상관	-3973
▁설득	-3974
▁이소	-3975
▁젠장	-3976
▁주변	-3977
▁직접	-3978
▁탄생	-3979
려다가	-3980
이었음	-3981
▁구성이	-3982
▁답답한	-3983
▁못하다	-3984
▁연출과	-3985
웠습니다	-3986
지도않고	-3987
▁비디오로	-3988
▁좋았지만	-3989
▁껐	-3990
▁낙	-3991
▁엠	-3992
긴장	-3993
능력	-3994
설정	-3995
신은	-3996
아무	-3997
얘기	-3998
이걸	-3999
일본	-4000
테일	-4001
▁다를	-4002
▁돈을	-4003
▁무한	-4004
▁보며	-4005
▁사진	-4006
▁설마	-4007
▁야구	-4008
▁에이	-4009
▁울컥	-4010
▁이민	-4011
▁죽은	-4012
▁할수	-4013
화이팅	-4014
▁갑니다	-4015
▁괜찮음	-4016
▁귀여워	-4017
▁모두가	-4018
▁소소한	-4019
▁우리는	-4020
▁이상의	-4021
재미없음	-4022
▁이상하게	-4023
▁좋았으나	-4024
▁특수효과	-4025
▁재미있습니다	-4026
▁찰	-4027
▁택	-4028
▁픽	-4029
낸다	-4030
니퍼	-4031
라기	-4032
살다	-4033
아내	-4034
임을	-4035
하길	-4036
했지	-4037
▁낮지	-4038
▁단편	-4039
▁도전	-4040
▁뭐라	-4041
▁믿기	-4042
▁베드	-4043
▁봐줄	-4044
▁빈약	-4045
▁스페	-4046
▁아역	-4047
▁인디	-4048
▁일반	-4049
▁짝이	-4050
▁착한	-4051
▁힘내	-4052
레이션	-4053
웠지만	-4054
파이어	-4055
▁감정을	-4056
▁고등학	-4057
▁나에겐	-4058
▁낚였다	-4059
▁당신은	-4060
▁미스터	-4061
▁봤을까	-4062
▁식상한	-4063
▁웃기다	-4064
▁있다니	-4065
▁재미로	-4066
▁분위기가	-4067
▁시리즈중	-4068
▁있었지만	-4069
▁ᄇ	-4070
▁록	-4071
▁홀	-4072
가네	-4073
그만	-4074
리카	-4075
뭐야	-4076
배경	-4077
았고	-4078
왔다	-4079
지면	-4080
▁리즈	-4081
▁모험	-4082
▁부실	-4083
▁살려	-4084
▁선동	-4085
▁열받	-4086
▁점줌	-4087
고싶다	-4088
연기는	-4089
하는건	-4090
▁감동은	-4091
▁개막장	-4092
▁나쁘지	-4093
▁봅니다	-4094
▁아진짜	-4095
▁어쩔수	-4096
▁영화같	-4097
▁하는게	-4098
배우들이	-4099
좋아하는	-4100
▁ᄒᄒᄒᄒ	-4101
▁극장가서	-4102
▁매력적이	-4103
▁아쉽지만	-4104
▁어설프고	-4105
▁킬링타임용으로	-4106
만다	-4107
빼고	-4108
은듯	-4109
자고	-4110
졸작	-4111
▁끝났	-4112
▁다신	-4113
▁오빠	-4114
▁잔혹	-4115
▁주기	-4116
만큼은	-4117
었다는	-4118
이였다	-4119
이영화	-4120
있네요	-4121
하더라	-4122
했으나	-4123
▁그당시	-4124
▁매력을	-4125
▁반전은	-4126
▁보다니	-4127
있는영화	-4128
▁돋보이는	-4129
▁짜증나서	-4130
▁클레멘타	-4131
▁재미도없고	-4132
대를	-4133
레딧	-4134
뢰매	-4135
르게	-4136
우가	-4137
치가	-4138
▁길게	-4139
▁꼭보	-4140
▁넘게	-4141
▁높게	-4142
▁따분	-4143
▁류승	-4144
▁묻어	-4145
▁손에	-4146
▁영어	-4147
▁유아	-4148
▁이나	-4149
▁했음	-4150
▁형님	-4151
있어서	-4152
장에서	-4153
▁ᄍᄍᄍ	-4154
▁가벼운	-4155
▁대부분	-4156
▁많아서	-4157
▁분들은	-4158
▁스티븐	-4159
▁영화이	-4160
▁예쁘다	-4161
▁오래된	-4162
▁주기도	-4163
▁죽이는	-4164
▁따뜻하고	-4165
▁만든영화	-4166
▁사람들의	-4167
▁사랑해요	-4168
▁영화였음	-4169
▁잘봤어요	-4170
▁낭	-4171
개그	-4172
공감	-4173
더빙	-4174
때문	-4175
마이	-4176
세상	-4177
솔직	-4178
애가	-4179
인과	-4180
일듯	-4181
취향	-4182
▁감각	-4183
▁끔찍	-4184
▁다이	-4185
▁말았	-4186
▁못봐	-4187
▁비판	-4188
▁빠진	-4189
▁수입	-4190
▁심오	-4191
▁아예	-4192
▁욕망	-4193
▁유지	-4194
▁작위	-4195
▁조절	-4196
▁충실	-4197
▁한숨	-4198
감독님	-4199
봤네요	-4200
하고싶	-4201
▁공포물	-4202
▁교과서	-4203
▁그자체	-4204
▁나오네	-4205
▁소중한	-4206
▁연예인	-4207
▁인간이	-4208
▁했으면	-4209
생각없이	-4210
▁그저그런	-4211
▁마지막이	-4212
▁생각하면	-4213
▁아닙니다	-4214
▁영화인지	-4215
▁칭	-4216
느껴	-4217
덕화	-4218
드만	-4219
시청	-4220
점준	-4221
티브	-4222
피스	-4223
▁강한	-4224
▁다섯	-4225
▁명화	-4226
▁어두	-4227
▁여태	-4228
▁열정	-4229
▁움직	-4230
▁위로	-4231
▁주윤	-4232
▁최민	-4233
인데도	-4234
있었다	-4235
잖아요	-4236
최악의	-4237
▁감독을	-4238
▁감동받	-4239
▁대해서	-4240
▁모든걸	-4241
▁아류작	-4242
▁어이없	-4243
▁유일한	-4244
▁일깨워	-4245
▁잊혀지	-4246
▁짜임새	-4247
▁무엇인지	-4248
▁시리즈는	-4249
▁엉성하고	-4250
▁좋아해서	-4251
▁재미없어서	-4252
▁크리스마스	-4253
겠죠	-4254
따뜻	-4255
분이	-4256
생활	-4257
오래	-4258
웃김	-4259
이도	-4260
편은	-4261
포터	-4262
햇다	-4263
▁가르	-4264
▁공짜	-4265
▁낮게	-4266
▁디워	-4267
▁땜에	-4268
▁본거	-4269
▁본게	-4270
▁비밀	-4271
▁이용	-4272
▁이은	-4273
▁지났	-4274
▁진리	-4275
▁해결	-4276
기전에	-4277
엇는데	-4278
었구나	-4279
▁귀엽다	-4280
▁나왔다	-4281
▁똑같은	-4282
▁많은걸	-4283
▁명작을	-4284
▁반드시	-4285
▁심형래	-4286
▁이딴걸	-4287
▁중요한	-4288
사람들이	-4289
▁마이너스	-4290
▁불쌍하다	-4291
▁아름답게	-4292
▁어울리는	-4293
▁연기력은	-4294
▁있었는데	-4295
▁육	-4296
▁펼	-4297
굿굿	-4298
드림	-4299
사건	-4300
였네	-4301
요소	-4302
이여	-4303
잡고	-4304
적임	-4305
중훈	-4306
팔이	-4307
▁낮다	-4308
▁네요	-4309
▁들고	-4310
▁보통	-4311
▁아냐	-4312
▁안된	-4313
▁야한	-4314
▁자랑	-4315
▁줘야	-4316
▁지겹	-4317
▁집착	-4318
답니다	-4319
재미도	-4320
하고자	-4321
▁놀라운	-4322
▁놀랍다	-4323
▁로버트	-4324
▁보기에	-4325
▁보려고	-4326
▁아깝고	-4327
▁어설프	-4328
▁엔딩이	-4329
▁이따구	-4330
▁진짜로	-4331
▁한국인	-4332
거같아요	-4333
▁답답하고	-4334
▁시청률이	-4335
▁아까웠다	-4336
▁이야기는	-4337
▁집중해서	-4338
▁최고의영화	-4339
구성	-4340
미네	-4341
어디	-4342
웃기	-4343
은데	-4344
졌음	-4345
지네	-4346
▁내게	-4347
▁빵점	-4348
▁손색	-4349
▁임팩	-4350
▁착각	-4351
▁화장	-4352
메이드	-4353
면에서	-4354
연기력	-4355
▁두번째	-4356
▁또다른	-4357
▁별로고	-4358
▁영화와	-4359
▁위해서	-4360
▁의미가	-4361
▁제이슨	-4362
▁평점조	-4363
▁하나로	-4364
▁한편의	-4365
마지막에	-4366
▁볼만했다	-4367
▁영화인가	-4368
▁덤	-4369
▁몬	-4370
▁묵	-4371
▁쥬	-4372
▁컬	-4373
▁팝	-4374
▁휘	-4375
국영	-4376
께요	-4377
데이	-4378
상황	-4379
서는	-4380
싫다	-4381
였고	-4382
요즘	-4383
치노	-4384
후반	-4385
▁개도	-4386
▁거부	-4387
▁낮아	-4388
▁마무	-4389
▁반담	-4390
▁서부	-4391
▁제외	-4392
▁팬이	-4393
▁화를	-4394
하자는	-4395
해주고	-4396
▁뭐하나	-4397
▁반전을	-4398
▁배우를	-4399
▁사랑해	-4400
▁시간만	-4401
▁시간에	-4402
▁아니지	-4403
▁애들은	-4404
▁없었음	-4405
▁이보다	-4406
▁잼있음	-4407
▁중에서	-4408
▁짜증만	-4409
▁최고로	-4410
▁흥미로	-4411
보는내내	-4412
▁나름대로	-4413
▁왠만하면	-4414
▁재밋어요	-4415
▁재밌어서	-4416
▁만들었는지	-4417
▁블록버스터	-4418
▁영화보면서	-4419
▁ᄏᄏᄏᄏᄏᄏᄏ	-4420
▁르	-4421
관람	-4422
노답	-4423
는대	-4424
라의	-4425
로드	-4426
복을	-4427
세여	-4428
시면	-4429
싫어	-4430
엇음	-4431
종일	-4432
주연	-4433
통령	-4434
▁감안	-4435
▁꼬마	-4436
▁내돈	-4437
▁도망	-4438
▁둘이	-4439
▁둘째	-4440
▁망한	-4441
▁부탁	-4442
▁시끄	-4443
▁심장	-4444
▁아래	-4445
▁연극	-4446
▁왤케	-4447
▁웃고	-4448
▁위대	-4449
▁자식	-4450
▁장애	-4451
▁하품	-4452
▁해석	-4453
만들어	-4454
속으로	-4455
어야지	-4456
▁교훈을	-4457
▁동시에	-4458
▁새벽에	-4459
▁영원한	-4460
▁울리는	-4461
▁있는지	-4462
▁점이상	-4463
▁조니뎁	-4464
▁현실성	-4465
스토리도	-4466
있습니다	-4467
재미있게	-4468
▁기억나는	-4469
▁잼있어요	-4470
▁하나같이	-4471
▁말도안되는	-4472
▁이런영화는	-4473
▁틈	-4474
거든	-4475
만도	-4476
모든	-4477
빠진	-4478
스에	-4479
으리	-4480
이들	-4481
정의	-4482
조금	-4483
치곤	-4484
▁달콤	-4485
▁담배	-4486
▁대본	-4487
▁먼가	-4488
▁미쳤	-4489
▁성격	-4490
▁소년	-4491
▁조카	-4492
▁치고	-4493
▁편에	-4494
인줄알	-4495
ᄒᄒᄒᄒ	-4496
▁속에서	-4497
▁영상이	-4498
▁영화화	-4499
▁제니퍼	-4500
하지마라	-4501
했었는데	-4502
▁개연성도	-4503
▁떨어지고	-4504
▁보기에는	-4505
▁스트레스	-4506
▁아까운영화	-4507
▁케이블에서	-4508
▁땡	-4509
▁숙	-4510
▁첩	-4511
같아	-4512
귀여	-4513
되면	-4514
박한	-4515
아치	-4516
오브	-4517
장한	-4518
지현	-4519
▁개념	-4520
▁남편	-4521
▁못미	-4522
▁배역	-4523
▁애기	-4524
▁언니	-4525
▁언젠	-4526
▁유발	-4527
▁이병	-4528
▁인해	-4529
▁조선	-4530
▁주지	-4531
▁한명	-4532
보이는	-4533
좋았다	-4534
▁ᄃᄃᄃ	-4535
▁강렬한	-4536
▁급영화	-4537
▁나네요	-4538
▁내생에	-4539
▁동성애	-4540
▁명대사	-4541
▁봐야지	-4542
▁브루스	-4543
▁숨겨진	-4544
▁왜이러	-4545
▁이해안	-4546
▁잘하는	-4547
▁전개도	-4548
▁정도면	-4549
▁제임스	-4550
▁짜증남	-4551
▁괜찮았다	-4552
▁수작이다	-4553
▁여러가지	-4554
▁막장드라마	-4555
▁억지스러운	-4556
▁굴	-4557
▁벤	-4558
▁옹	-4559
▁쿵	-4560
낮은	-4561
드를	-4562
라인	-4563
므로	-4564
바이	-4565
버릴	-4566
성기	-4567
신의	-4568
음을	-4569
있을	-4570
자연	-4571
추억	-4572
트의	-4573
▁갖고	-4574
▁거북	-4575
▁결정	-4576
▁그건	-4577
▁다크	-4578
▁대화	-4579
▁뭥미	-4580
▁봤을	-4581
▁시키	-4582
▁어째	-4583
▁어쩜	-4584
▁으리	-4585
▁이야	-4586
▁집에	-4587
▁헤어	-4588
듭니다	-4589
뿐이다	-4590
주기도	-4591
포스터	-4592
해지고	-4593
했다고	-4594
▁괜찮다	-4595
▁나머지	-4596
▁다세포	-4597
▁다양한	-4598
▁되네요	-4599
▁멋있는	-4600
▁박중훈	-4601
▁안봐도	-4602
▁영상과	-4603
▁영환데	-4604
▁원작이	-4605
▁인생에	-4606
▁정도가	-4607
▁제목만	-4608
미네이터	-4609
▁내용전개	-4610
▁생각나서	-4611
▁생각으로	-4612
▁스토리의	-4613
▁아쉬움이	-4614
▁영화라니	-4615
▁주인공은	-4616
▁평점보고	-4617
▁포스터가	-4618
▁보았습니다	-4619
▁사랑합니다	-4620
가에	-4621
강호	-4622
났음	-4623
대해	-4624
림이	-4625
버스	-4626
아는	-4627
어색	-4628
죽는	-4629
지나	-4630
▁나랑	-4631
▁듣고	-4632
▁맛이	-4633
▁뭐니	-4634
▁볼때	-4635
▁빵빵	-4636
▁안될	-4637
▁재능	-4638
▁즐기	-4639
▁짧은	-4640
▁틀어	-4641
▁편안	-4642
▁폭풍	-4643
▁하여	-4644
게하는	-4645
는거야	-4646
애들이	-4647
어버린	-4648
▁그만큼	-4649
▁너무도	-4650
▁배우도	-4651
▁봤을때	-4652
▁소설을	-4653
▁안간다	-4654
▁좋을듯	-4655
▁집중이	-4656
▁참신한	-4657
▁최근에	-4658
▁감정이입	-4659
▁못보겠다	-4660
▁배경음악	-4661
▁웃으면서	-4662
▁유일하게	-4663
▁남자주인공	-4664
▁시간아깝다	-4665
ᄏᄏᄏᄏᄏᄏᄏᄏᄏᄏᄏᄏᄏᄏᄏᄏ	-4666
▁늑	-4667
▁효	-4668
년도	-4669
데체	-4670
루즈	-4671
보지	-4672
야할	-4673
어린	-4674
없지	-4675
의를	-4676
정화	-4677
커플	-4678
▁달리	-4679
▁때려	-4680
▁밀려	-4681
▁부르	-4682
▁없게	-4683
관에서	-4684
기까지	-4685
만하다	-4686
아직도	-4687
였으면	-4688
으로만	-4689
▁개노잼	-4690
▁그것도	-4691
▁다르다	-4692
▁돌아가	-4693
▁떨어짐	-4694
▁머리가	-4695
▁몰랐다	-4696
▁문제가	-4697
▁소재도	-4698
▁시간때	-4699
▁어우러	-4700
▁영화야	-4701
▁이해를	-4702
▁자신을	-4703
▁재밋음	-4704
▁적당히	-4705
▁찾아볼	-4706
▁출연한	-4707
▁후속작	-4708
사람들은	-4709
▁개연성이	-4710
▁볼수있는	-4711
▁봤는데도	-4712
▁살아가는	-4713
▁생각난다	-4714
▁아니라고	-4715
▁재밌었던	-4716
▁초등학교	-4717
▁깡	-4718
▁링	-4719
▁앉	-4720
▁튀	-4721
다큐	-4722
때매	-4723
중이	-4724
하러	-4725
ᅮᅮᅮ	-4726
▁놓고	-4727
▁니다	-4728
▁망치	-4729
▁받은	-4730
▁범인	-4731
▁별반	-4732
▁비행	-4733
▁빵터	-4734
▁사투	-4735
▁싶지	-4736
▁아내	-4737
▁익숙	-4738
▁일이	-4739
▁지는	-4740
▁케빈	-4741
리네요	-4742
부터가	-4743
싶은데	-4744
아저씨	-4745
어떻게	-4746
적이지	-4747
할만한	-4748
▁러시아	-4749
▁멋지고	-4750
▁살면서	-4751
▁알겠다	-4752
▁어렵다	-4753
▁여자의	-4754
▁지겹다	-4755
▁희망을	-4756
▁그야말로	-4757
▁꼭보세요	-4758
▁알겠는데	-4759
▁에피소드	-4760
ᄏᄏᄏᄏᄏᄏᄏ	-4761
▁깍	-4762
▁꿀	-4763
▁벨	-4764
▁뽀	-4765
▁샘	-4766
들여	-4767
래곤	-4768
력을	-4769
로만	-4770
무시	-4771
신을	-4772
았네	-4773
잡을	-4774
점수	-4775
존나	-4776
줄은	-4777
▁기자	-4778
▁따위	-4779
▁로코	-4780
▁매미	-4781
▁몇몇	-4782
▁보단	-4783
▁본듯	-4784
▁본지	-4785
▁새로	-4786
▁신고	-4787
▁아놀	-4788
▁아우	-4789
▁없냐	-4790
▁중독	-4791
▁즐겨	-4792
▁즐길	-4793
▁추격	-4794
▁폭발	-4795
▁프레	-4796
▁형사	-4797
거같음	-4798
맙시다	-4799
봐야지	-4800
여운이	-4801
▁거짓말	-4802
▁결말을	-4803
▁많은데	-4804
▁본건데	-4805
▁불쌍한	-4806
▁설정이	-4807
▁싸우는	-4808
▁않아서	-4809
▁울면서	-4810
▁원작에	-4811
▁은근히	-4812
▁이뻐서	-4813
▁최고봉	-4814
▁흐르는	-4815
긴하지만	-4816
▁다행이다	-4817
▁마음으로	-4818
▁본방사수	-4819
▁아이들과	-4820
▁언제봐도	-4821
▁재밌다는	-4822
▁한국에서	-4823
▁작품입니다	-4824
▁죠	-4825
▁혐	-4826
개인	-4827
님들	-4828
로써	-4829
문제	-4830
부를	-4831
스키	-4832
스포	-4833
오늘	-4834
이어	-4835
이에	-4836
집기	-4837
쯧쯧	-4838
티즌	-4839
▁과대	-4840
▁녹아	-4841
▁두근	-4842
▁말자	-4843
▁맞지	-4844
▁보내	-4845
▁빛을	-4846
▁사고	-4847
▁수면	-4848
▁잤다	-4849
▁저급	-4850
▁정확	-4851
▁편을	-4852
나오고	-4853
보지마	-4854
스럽지	-4855
은영화	-4856
했을까	-4857
▁거기에	-4858
▁내생애	-4859
▁다보고	-4860
▁데리고	-4861
▁막판에	-4862
▁여러분	-4863
▁우뢰매	-4864
▁유명한	-4865
▁점수준	-4866
▁짜증이	-4867
▁현실이	-4868
▁희대의	-4869
도아니고	-4870
좋은영화	-4871
지않는다	-4872
▁내용인지	-4873
▁다시보니	-4874
▁만들어라	-4875
▁영화예요	-4876
쓰레기영화	-4877
▁갓	-4878
▁댄	-4879
▁혁	-4880
관객	-4881
나니	-4882
든지	-4883
받는	-4884
발견	-4885
분위	-4886
불쌍	-4887
불허	-4888
상의	-4889
선생	-4890
싸움	-4891
아빠	-4892
앗다	-4893
없을	-4894
인게	-4895
장르	-4896
정우	-4897
직한	-4898
짬뽕	-4899
코믹	-4900
▁거품	-4901
▁근래	-4902
▁난잡	-4903
▁남기	-4904
▁대가	-4905
▁두려	-4906
▁로드	-4907
▁매일	-4908
▁부부	-4909
▁소피	-4910
▁안들	-4911
▁애국	-4912
▁엑스	-4913
▁우연	-4914
▁인형	-4915
▁읽어	-4916
▁잠들	-4917
▁잠시	-4918
▁토리	-4919
▁판단	-4920
▁형제	-4921
▁호구	-4922
에게는	-4923
줬으면	-4924
지루함	-4925
한마디	-4926
▁괜찮고	-4927
▁높아서	-4928
▁불편한	-4929
▁사운드	-4930
▁스포츠	-4931
▁아깝네	-4932
▁연출은	-4933
▁이상은	-4934
▁자체는	-4935
▁재개봉	-4936
▁적어도	-4937
▁주윤발	-4938
▁주제를	-4939
▁첫사랑	-4940
▁초딩때	-4941
▁특별한	-4942
▁한다는	-4943
같은영화	-4944
▁말하고자	-4945
▁유치해서	-4946
▁잔잔하게	-4947
▁만들었을까	-4948
▁한국영화의	-4949
리면	-4950
명을	-4951
모로	-4952
소름	-4953
시지	-4954
엄청	-4955
전이	-4956
정쩡	-4957
정한	-4958
주면	-4959
▁가고	-4960
▁건가	-4961
▁깊게	-4962
▁꽤나	-4963
▁담백	-4964
▁등등	-4965
▁로빈	-4966
▁망친	-4967
▁빨갱	-4968
▁빼곤	-4969
▁쓰고	-4970
▁쓰는	-4971
▁애매	-4972
▁어떨	-4973
▁오로	-4974
▁적절	-4975
▁평균	-4976
▁하아	-4977
라는게	-4978
야한다	-4979
하나도	-4980
해야지	-4981
▁결론은	-4982
▁년도에	-4983
▁대놓고	-4984
▁디테일	-4985
▁매니아	-4986
▁매력에	-4987
▁역겨운	-4988
▁이소룡	-4989
▁장면도	-4990
▁주제가	-4991
▁줍니다	-4992
▁황당한	-4993
거같은데	-4994
▁몰입도가	-4995
▁믿고보는	-4996
▁추천하고	-4997
▁마지막까지	-4998
▁듬	-4999
▁떼	-5000
▁뗄	-5001
▁띄	-5002
▁킹	-5003
▁헌	-5004
구가	-5005
그랬	-5006
까요	-5007
나의	-5008
동차	-5009
딩때	-5010
라노	-5011
란티	-5012
물로	-5013
스크	-5014
시원	-5015
악한	-5016
인건	-5017
지에	-5018
함도	-5019
혼자	-5020
후의	-5021
▁개성	-5022
▁구역	-5023
▁기준	-5024
▁년작	-5025
▁동양	-5026
▁따름	-5027
▁무게	-5028
▁박수	-5029
▁벗어	-5030
▁보던	-5031
▁영향	-5032
▁오브	-5033
▁있던	-5034
▁정우	-5035
▁키스	-5036
▁흑인	-5037
납니다	-5038
들한테	-5039
부분이	-5040
생각이	-5041
솔직히	-5042
심으로	-5043
았으면	-5044
으로는	-5045
▁ᄒᄃᄃ	-5046
▁가족의	-5047
▁귀여움	-5048
▁사람도	-5049
▁생각할	-5050
▁아무도	-5051
▁안본다	-5052
▁액션과	-5053
▁액션을	-5054
▁없나요	-5055
▁여러번	-5056
▁영화나	-5057
▁이름을	-5058
▁이름이	-5059
▁인생은	-5060
▁잊지못	-5061
▁작가님	-5062
▁점수는	-5063
▁한번더	-5064
▁괜찮네요	-5065
▁뱀파이어	-5066
▁짜증나고	-5067
▁해리포터	-5068
▁여자주인공	-5069
▁재미있는데	-5070
▁ᄡ	-5071
▁곧	-5072
▁곽	-5073
▁습	-5074
▁족	-5075
▁쭉	-5076
게임	-5077
동생	-5078
드로	-5079
리와	-5080
미는	-5081
민이	-5082
보영	-5083
씨는	-5084
언제	-5085
오랜	-5086
웨이	-5087
▁김태	-5088
▁나음	-5089
▁단어	-5090
▁루즈	-5091
▁맞아	-5092
▁무너	-5093
▁바다	-5094
▁생활	-5095
▁원조	-5096
▁일베	-5097
▁조화	-5098
▁진한	-5099
▁참나	-5100
▁책을	-5101
▁클래	-5102
▁탁월	-5103
▁플롯	-5104
▁확인	-5105
보다도	-5106
제대로	-5107
▁내용에	-5108
▁당연히	-5109
▁불가능	-5110
▁시간은	-5111
▁실제로	-5112
▁어른이	-5113
▁여자는	-5114
▁영화만	-5115
▁점만점	-5116
▁피해자	-5117
▁하다가	-5118
▁허무한	-5119
▁화장실	-5120
영화인데	-5121
▁나레이션	-5122
▁여자친구	-5123
▁이도저도	-5124
▁재미없을	-5125
▁괜찮았는데	-5126
▁생각해보게	-5127
▁재미있었음	-5128
▁걱	-5129
▁낯	-5130
▁널	-5131
국의	-5132
년이	-5133
도를	-5134
또한	-5135
로맨	-5136
못해	-5137
상수	-5138
셔야	-5139
슨의	-5140
웃겨	-5141
이요	-5142
진이	-5143
▁것에	-5144
▁꿈꾸	-5145
▁냄새	-5146
▁다루	-5147
▁담겨	-5148
▁망가	-5149
▁무난	-5150
▁사무	-5151
▁수록	-5152
▁스텝	-5153
▁신의	-5154
▁실험	-5155
▁압도	-5156
▁외로	-5157
▁유럽	-5158
▁이지	-5159
▁절로	-5160
▁호기	-5161
▁흡입	-5162
건가요	-5163
란티노	-5164
스러워	-5165
중에서	-5166
▁괜찮게	-5167
▁나을듯	-5168
▁말고는	-5169
▁보시면	-5170
▁빛나는	-5171
▁생각도	-5172
▁스릴도	-5173
▁싶었다	-5174
▁없으면	-5175
▁잊을수	-5176
▁케릭터	-5177
▁허술한	-5178
▁헛웃음	-5179
극장에서	-5180
스토리가	-5181
▁느낌이다	-5182
▁만들었나	-5183
▁아니었다	-5184
▁오랫만에	-5185
▁인상적인	-5186
▁볼만합니다	-5187
▁잘만들었다	-5188
▁터미네이터	-5189
▁감동적이네요	-5190
▁객	-5191
▁땅	-5192
▁석	-5193
▁염	-5194
그럼	-5195
놨네	-5196
느끼	-5197
더더	-5198
오오	-5199
울뿐	-5200
졌던	-5201
즈의	-5202
차별	-5203
트를	-5204
프닝	-5205
▁겉멋	-5206
▁길이	-5207
▁끼워	-5208
▁담아	-5209
▁몰라	-5210
▁받는	-5211
▁배꼽	-5212
▁보라	-5213
▁선물	-5214
▁손발	-5215
▁아파	-5216
▁앞뒤	-5217
▁영구	-5218
▁자세	-5219
▁좋네	-5220
같아요	-5221
기억이	-5222
내용은	-5223
습니까	-5224
▁낫겠다	-5225
▁내용과	-5226
▁닥치고	-5227
▁돈내고	-5228
▁됩니다	-5229
▁명불허	-5230
▁무섭고	-5231
▁봤다면	-5232
▁생각나	-5233
▁심지어	-5234
▁아무런	-5235
▁아프다	-5236
▁않은데	-5237
▁알았네	-5238
▁알았음	-5239
▁약간의	-5240
▁얼굴이	-5241
▁저평가	-5242
▁한국의	-5243
기도하고	-5244
내용인지	-5245
▁가족영화	-5246
▁어색하고	-5247
▁이상하고	-5248
▁곱	-5249
▁컸	-5250
▁큐	-5251
깊은	-5252
롭고	-5253
리나	-5254
리며	-5255
리엄	-5256
만족	-5257
문화	-5258
상영	-5259
성우	-5260
아노	-5261
없나	-5262
여행	-5263
원은	-5264
은거	-5265
저리	-5266
주일	-5267
진않	-5268
킬링	-5269
홧팅	-5270
▁김혜	-5271
▁모욕	-5272
▁목숨	-5273
▁베리	-5274
▁부담	-5275
▁생에	-5276
▁서울	-5277
▁오우	-5278
▁인데	-5279
▁조낸	-5280
▁축구	-5281
▁한방	-5282
▁향연	-5283
는데도	-5284
라이언	-5285
없어요	-5286
▁그림체	-5287
▁대통령	-5288
▁들어가	-5289
▁마시길	-5290
▁배우는	-5291
▁배트맨	-5292
▁속았다	-5293
▁안무서	-5294
▁어정쩡	-5295
▁없는게	-5296
▁잘한다	-5297
▁제시카	-5298
▁친구가	-5299
▁한개도	-5300
시나리오	-5301
▁다운받아	-5302
▁봐야하는	-5303
▁소중함을	-5304
▁웰메이드	-5305
재미있어요	-5306
▁생각했는데	-5307
▁시나리오가	-5308
▁여주인공이	-5309
▁지루하지않	-5310
▁맴	-5311
▁탓	-5312
▁햇	-5313
겠어	-5314
경이	-5315
귀엽	-5316
맞추	-5317
먹을	-5318
이딴	-5319
쥬얼	-5320
패스	-5321
▁개나	-5322
▁독일	-5323
▁로망	-5324
▁무료	-5325
▁받고	-5326
▁세번	-5327
▁암울	-5328
▁위험	-5329
▁임창	-5330
▁장진	-5331
▁정상	-5332
▁정작	-5333
▁집어	-5334
▁치유	-5335
▁힘을	-5336
간만에	-5337
어가는	-5338
재밌어	-5339
최고다	-5340
하니까	-5341
▁가득한	-5342
▁공감할	-5343
▁기대가	-5344
▁네티즌	-5345
▁도무지	-5346
▁라스트	-5347
▁못봐주	-5348
▁보기가	-5349
▁않았던	-5350
▁양아치	-5351
▁엄마가	-5352
▁이토록	-5353
▁일부러	-5354
▁장국영	-5355
▁괜찮았음	-5356
▁순수하고	-5357
▁안보는게	-5358
▁이것보단	-5359
▁있었으면	-5360
▁재미있어	-5361
▁태어나서	-5362
▁스토리전개	-5363
▁최악의영화	-5364
▁코미디영화	-5365
▁재미있었습니다	-5366
▁닌	-5367
▁땀	-5368
▁밌	-5369
▁쪼	-5370
▁콘	-5371
가의	-5372
든가	-5373
래도	-5374
아오	-5375
여주	-5376
여진	-5377
으신	-5378
이프	-5379
장의	-5380
할지	-5381
▁김치	-5382
▁깨알	-5383
▁나무	-5384
▁넘넘	-5385
▁무겁	-5386
▁뭐임	-5387
▁민폐	-5388
▁버려	-5389
▁부작	-5390
▁비호	-5391
▁삶이	-5392
▁실감	-5393
▁싸움	-5394
▁애잔	-5395
▁예능	-5396
▁예수	-5397
▁조차	-5398
▁최소	-5399
▁풍자	-5400
▁프리	-5401
▁허허	-5402
으려고	-5403
을까요	-5404
인들이	-5405
자들의	-5406
지않다	-5407
했다면	-5408
▁만화책	-5409
▁명작은	-5410
▁분들이	-5411
▁아무튼	-5412
▁어디로	-5413
▁여자들	-5414
▁여주가	-5415
▁이만한	-5416
▁이병헌	-5417
▁적당한	-5418
▁한국판	-5419
▁귀여워요	-5420
▁아깝네요	-5421
▁어설프다	-5422
▁억지감동	-5423
▁영화자체	-5424
▁오글오글	-5425
▁제작비가	-5426
▁최고최고	-5427
▁포스터만	-5428
▁포스터에	-5429
▁전반적으로	-5430
▁좋겠습니다	-5431
▁ᄅ	-5432
▁갱	-5433
▁곰	-5434
▁벅	-5435
갈때	-5436
감사	-5437
꺼야	-5438
되게	-5439
로로	-5440
받을	-5441
쓰고	-5442
였나	-5443
위한	-5444
이름	-5445
이죠	-5446
질않	-5447
질이	-5448
카프	-5449
퓨터	-5450
하균	-5451
하실	-5452
▁가히	-5453
▁같고	-5454
▁김희	-5455
▁데뷔	-5456
▁드니	-5457
▁망할	-5458
▁멋짐	-5459
▁몽환	-5460
▁배신	-5461
▁암걸	-5462
▁에효	-5463
▁자고	-5464
▁잠이	-5465
▁절망	-5466
▁짐캐	-5467
▁탈출	-5468
그러나	-5469
나오네	-5470
는거지	-5471
아닌가	-5472
졌어요	-5473
▁것인가	-5474
▁깔끔한	-5475
▁놀랐다	-5476
▁도데체	-5477
▁멋져요	-5478
▁모른다	-5479
▁부분도	-5480
▁세상이	-5481
▁역사를	-5482
▁웃었다	-5483
▁있다고	-5484
▁자신이	-5485
▁잼있는	-5486
▁전쟁의	-5487
▁점주고	-5488
▁답답하다	-5489
▁보았는데	-5490
▁살다살다	-5491
▁이거보단	-5492
▁할리우드	-5493
▁홍콩영화	-5494
▁좋았을텐데	-5495
▁녀	-5496
▁액	-5497
▁칠	-5498
▁쾌	-5499
같고	-5500
높은	-5501
다르	-5502
됐다	-5503
랐다	-5504
뭐냐	-5505
바라	-5506
박죽	-5507
볼수	-5508
빠져	-5509
사에	-5510
스톤	-5511
스틱	-5512
시기	-5513
신고	-5514
어의	-5515
우스	-5516
유리	-5517
조아	-5518
좋게	-5519
줬다	-5520
찬란	-5521
할뿐	-5522
희가	-5523
▁개콘	-5524
▁기도	-5525
▁늦게	-5526
▁담은	-5527
▁대신	-5528
▁맞춰	-5529
▁버린	-5530
▁사상	-5531
▁선사	-5532
▁여친	-5533
▁였다	-5534
▁예측	-5535
▁이쁨	-5536
▁인가	-5537
▁죄송	-5538
▁추리	-5539
▁타고	-5540
▁파괴	-5541
▁폐지	-5542
같아서	-5543
되는데	-5544
발연기	-5545
뻔했다	-5546
하시길	-5547
▁가까운	-5548
▁같았다	-5549
▁끝나서	-5550
▁남는게	-5551
▁드디어	-5552
▁드래곤	-5553
▁때마다	-5554
▁떨어지	-5555
▁말밖에	-5556
▁반전에	-5557
▁소재와	-5558
▁안어울	-5559
▁웃기는	-5560
▁의도가	-5561
▁정도는	-5562
▁제목을	-5563
▁좋다고	-5564
▁중학교	-5565
▁짜집기	-5566
카프리오	-5567
▁리얼리티	-5568
▁마지막엔	-5569
▁말그대로	-5570
▁명불허전	-5571
▁이해할수	-5572
▁주인공들	-5573
▁진지하게	-5574
▁짜증나게	-5575
▁겪	-5576
▁붕	-5577
▁잉	-5578
▁찢	-5579
되나	-5580
들러	-5581
랜드	-5582
루토	-5583
리한	-5584
부지	-5585
비슷	-5586
살아	-5587
상한	-5588
슨이	-5589
시의	-5590
식은	-5591
실히	-5592
아누	-5593
조연	-5594
체적	-5595
초반	-5596
한편	-5597
함께	-5598
허무	-5599
▁기타	-5600
▁기획	-5601
▁깡패	-5602
▁달려	-5603
▁먹칠	-5604
▁뮤직	-5605
▁아담	-5606
▁안남	-5607
▁애틋	-5608
▁없었	-5609
▁역량	-5610
▁열라	-5611
▁왜곡	-5612
▁잠을	-5613
▁절제	-5614
▁하기	-5615
덩어리	-5616
레이드	-5617
분들은	-5618
인영화	-5619
있으면	-5620
자들이	-5621
적으론	-5622
좋네요	-5623
하지말	-5624
할수가	-5625
▁고양이	-5626
▁교훈도	-5627
▁무섭게	-5628
▁수많은	-5629
▁시대의	-5630
▁인상적	-5631
▁재밌었	-5632
▁점대가	-5633
▁찾아서	-5634
▁첨이다	-5635
▁혹시나	-5636
▁갠적으로	-5637
▁기대이하	-5638
▁느껴졌다	-5639
▁돌아보게	-5640
▁무엇인가	-5641
▁배우들은	-5642
▁사랑하고	-5643
▁소장하고	-5644
▁왔습니다	-5645
▁이드라마	-5646
▁이해불가	-5647
▁최고네요	-5648
▁한심하다	-5649
▁강추합니다	-5650
▁모르겠네요	-5651
▁사람들에게	-5652
▁사랑스럽다	-5653
▁감동적이에요	-5654
▁아무생각없이	-5655
▁ᄂ	-5656
▁멜	-5657
▁팍	-5658
것에	-5659
끝나	-5660
나름	-5661
맘에	-5662
미스	-5663
부로	-5664
쓰는	-5665
안타	-5666
우의	-5667
있지	-5668
자리	-5669
진창	-5670
태현	-5671
▁강동	-5672
▁개똥	-5673
▁관련	-5674
▁난리	-5675
▁당황	-5676
▁생긴	-5677
▁실력	-5678
▁오는	-5679
▁이렇	-5680
▁이수	-5681
▁읽고	-5682
▁적이	-5683
▁줄리	-5684
▁질리	-5685
▁짜리	-5686
▁짜릿	-5687
정적인	-5688
죽박죽	-5689
파치노	-5690
▁다르게	-5691
▁당시에	-5692
▁멋있고	-5693
▁무언가	-5694
▁뭐하는	-5695
▁보는것	-5696
▁사실을	-5697
▁수준을	-5698
▁아들이	-5699
▁외계인	-5700
▁유덕화	-5701
▁잘못된	-5702
▁잘생겼	-5703
▁풋풋한	-5704
▁하다니	-5705
▁그렇지만	-5706
▁드라마의	-5707
▁보지마셈	-5708
▁실망이다	-5709
▁쓸데없이	-5710
▁엄청나게	-5711
▁영상미가	-5712
▁충격적인	-5713
▁하나하나가	-5714
ᅲᅲᅲᅲᅲᅲᅲᅲ	-5715
ᅮᅲ	-5716
▁곤	-5717
▁뚝	-5718
▁앙	-5719
▁쫄	-5720
둥이	-5721
렸네	-5722
마자	-5723
못한	-5724
보긴	-5725
보내	-5726
분은	-5727
분한	-5728
비해	-5729
선을	-5730
안돼	-5731
있던	-5732
잖은	-5733
전혀	-5734
집어	-5735
쨌든	-5736
테러	-5737
판이	-5738
▁갖다	-5739
▁고뇌	-5740
▁괜찬	-5741
▁극복	-5742
▁늑대	-5743
▁담긴	-5744
▁마다	-5745
▁미녀	-5746
▁박신	-5747
▁밤에	-5748
▁방해	-5749
▁배급	-5750
▁번을	-5751
▁섬뜩	-5752
▁쏟아	-5753
▁엽기	-5754
▁오지	-5755
▁우디	-5756
▁이준	-5757
▁장동	-5758
▁창피	-5759
▁판타	-5760
▁피터	-5761
▁흔들	-5762
겠는데	-5763
던데요	-5764
드네요	-5765
셨으면	-5766
았네요	-5767
었다고	-5768
재미가	-5769
하고는	-5770
▁공포는	-5771
▁그것을	-5772
▁그려낸	-5773
▁당신이	-5774
▁말아야	-5775
▁명장면	-5776
▁보라고	-5777
▁부모님	-5778
▁손가락	-5779
▁스타뎀	-5780
▁싶다면	-5781
▁인생이	-5782
▁일본은	-5783
▁적절한	-5784
▁지금의	-5785
▁감명깊게	-5786
▁만들어낸	-5787
▁산만하고	-5788
▁싶습니다	-5789
▁아쉬워요	-5790
▁안나온다	-5791
▁유쾌하게	-5792
▁재미있을	-5793
▁전쟁영화	-5794
▁파워레인	-5795
▁깝	-5796
▁섭	-5797
▁앵	-5798
▁쿨	-5799
광고	-5800
더군	-5801
도로	-5802
들로	-5803
만듬	-5804
먹은	-5805
미국	-5806
부는	-5807
서도	-5808
없게	-5809
었냐	-5810
에로	-5811
예진	-5812
워즈	-5813
일러	-5814
잇는	-5815
조현	-5816
진실	-5817
해져	-5818
행복	-5819
히고	-5820
ᄃᄃᄃ	-5821
▁ᄌᄂ	-5822
▁ᅲᅮ	-5823
▁걱정	-5824
▁내일	-5825
▁매끄	-5826
▁반대	-5827
▁번은	-5828
▁별거	-5829
▁생겼	-5830
▁아버	-5831
▁안가	-5832
▁인공	-5833
▁일으	-5834
▁진수	-5835
▁책임	-5836
▁칭찬	-5837
그렇게	-5838
듯하다	-5839
매이션	-5840
배우의	-5841
인들의	-5842
점에서	-5843
하하하	-5844
▁공감도	-5845
▁공짜로	-5846
▁그것이	-5847
▁기분나	-5848
▁낮네요	-5849
▁느낌은	-5850
▁드네요	-5851
▁만드네	-5852
▁만들수	-5853
▁만점에	-5854
▁매력적	-5855
▁보겠다	-5856
▁분만에	-5857
▁비호감	-5858
▁시간도	-5859
▁시대에	-5860
▁있었음	-5861
▁자동차	-5862
▁줄이야	-5863
▁하길래	-5864
▁한번도	-5865
▁흥미를	-5866
영화였다	-5867
▁거지같은	-5868
▁드라마로	-5869
▁모든것이	-5870
▁미안하다	-5871
▁별로였다	-5872
▁삼류영화	-5873
▁시작해서	-5874
▁어느정도	-5875
▁어이없음	-5876
▁영화인줄	-5877
▁울었어요	-5878
▁타란티노	-5879
▁행복하게	-5880
▁환상적인	-5881
▁블랙코미디	-5882
▁사람이라면	-5883
▁땐	-5884
▁뭣	-5885
▁쌩	-5886
▁웅	-5887
▁폰	-5888
고생	-5889
년대	-5890
도의	-5891
때가	-5892
뚱맞	-5893
말도	-5894
비추	-5895
빼곤	-5896
상은	-5897
성과	-5898
소가	-5899
시나	-5900
았나	-5901
였지	-5902
있냐	-5903
잔잔	-5904
주기	-5905
준호	-5906
치의	-5907
펙트	-5908
프레	-5909
힘들	-5910
▁걸까	-5911
▁납득	-5912
▁때가	-5913
▁말아	-5914
▁말투	-5915
▁맞나	-5916
▁무식	-5917
▁쓸쓸	-5918
▁요새	-5919
▁잊고	-5920
▁자본	-5921
▁절정	-5922
▁줄수	-5923
▁쩔어	-5924
▁찍고	-5925
▁차이	-5926
▁틀림	-5927
▁후에	-5928
도대체	-5929
못하는	-5930
신분들	-5931
옵니다	-5932
재밋다	-5933
코메디	-5934
평론가	-5935
한테는	-5936
했다가	-5937
▁감독과	-5938
▁끝날때	-5939
▁나이가	-5940
▁내용의	-5941
▁년만에	-5942
▁라이언	-5943
▁말인가	-5944
▁메세지	-5945
▁무거운	-5946
▁사이코	-5947
▁살리지	-5948
▁설득력	-5949
▁아마추	-5950
▁않아요	-5951
▁애니는	-5952
▁우려먹	-5953
▁이상해	-5954
▁이제는	-5955
▁이하도	-5956
▁전개는	-5957
▁좋더라	-5958
▁친구랑	-5959
▁하정우	-5960
지루하고	-5961
▁모르겠네	-5962
▁목소리가	-5963
▁아이디어	-5964
▁오래전에	-5965
▁이것보다	-5966
▁이런류의	-5967
▁장난하냐	-5968
▁지루하기	-5969
▁최고에요	-5970
▁충분하다	-5971
▁할아버지	-5972
▁감동입니다	-5973
▁미스캐스팅	-5974
▁점수준것들	-5975
▁좋아하지만	-5976
▁려	-5977
▁며	-5978
▁빙	-5979
▁삽	-5980
▁획	-5981
간에	-5982
감과	-5983
겟네	-5984
느냐	-5985
동근	-5986
랑은	-5987
밖엔	-5988
범죄	-5989
이큰	-5990
잘생	-5991
주지	-5992
▁고어	-5993
▁과학	-5994
▁굳굳	-5995
▁끝에	-5996
▁담담	-5997
▁마리	-5998
▁마약	-5999
▁먹는	-6000
▁묘한	-6001
▁뭐고	-6002
▁보구	-6003
▁부활	-6004
▁서양	-6005
▁어둡	-6006
▁원숭	-6007
▁원주	-6008
▁이란	-6009
▁이성	-6010
▁인지	-6011
▁콜린	-6012
▁태국	-6013
▁한가	-6014
던영화	-6015
생각을	-6016
없었다	-6017
엇어요	-6018
재밋게	-6019
졌으면	-6020
하는것	-6021
▁감독도	-6022
▁개꿀잼	-6023
▁동영상	-6024
▁만든거	-6025
▁명복을	-6026
▁뭐라고	-6027
▁미소가	-6028
▁버리고	-6029
▁살인마	-6030
▁선생님	-6031
▁안맞는	-6032
▁액션의	-6033
▁에라이	-6034
▁연기만	-6035
▁영화지	-6036
▁인간은	-6037
▁정신이	-6038
▁주세요	-6039
▁짱이다	-6040
▁첨부터	-6041
▁충분한	-6042
▁현실은	-6043
▁후하게	-6044
것같네요	-6045
너무너무	-6046
졌습니다	-6047
▁감동이다	-6048
▁궁금해서	-6049
▁대박이다	-6050
▁돈아까워	-6051
▁못하겠다	-6052
▁뭐하자는	-6053
▁아이들의	-6054
▁않았지만	-6055
▁어이없다	-6056
▁에로영화	-6057
▁지루함을	-6058
▁충격적이	-6059
▁탄탄하고	-6060
▁디카프리오	-6061
▁사랑스럽고	-6062
▁재미없다고	-6063
▁썰	-6064
▁앨	-6065
▁쫓	-6066
▁협	-6067
라에	-6068
러스	-6069
물의	-6070
본게	-6071
살인	-6072
새록	-6073
선이	-6074
수선	-6075
심에	-6076
예술	-6077
유발	-6078
이뻐	-6079
종영	-6080
케이	-6081
타고	-6082
한가	-6083
해선	-6084
▁간지	-6085
▁건질	-6086
▁극단	-6087
▁극혐	-6088
▁난무	-6089
▁능가	-6090
▁뒤에	-6091
▁들게	-6092
▁머야	-6093
▁멋져	-6094
▁바닥	-6095
▁변화	-6096
▁본것	-6097
▁부산	-6098
▁상큼	-6099
▁스피	-6100
▁아아	-6101
▁앞에	-6102
▁엑소	-6103
▁요리	-6104
▁재앙	-6105
▁죽고	-6106
▁짬뽕	-6107
▁텐데	-6108
▁혐오	-6109
▁흑백	-6110
까지만	-6111
라고요	-6112
아니면	-6113
있지만	-6114
좋은데	-6115
포인트	-6116
해준다	-6117
▁가장한	-6118
▁것들이	-6119
▁그리워	-6120
▁기대했	-6121
▁명성에	-6122
▁모습은	-6123
▁미국의	-6124
▁보는거	-6125
▁빠지는	-6126
▁성룡의	-6127
▁소재의	-6128
▁싶었던	-6129
▁아만다	-6130
▁안보면	-6131
▁어거지	-6132
▁어쩌면	-6133
▁없다고	-6134
▁역겹다	-6135
▁오프닝	-6136
▁요소가	-6137
▁유치해	-6138
▁이루어	-6139
▁전개와	-6140
▁조금은	-6141
▁조잡한	-6142
▁최소한	-6143
▁키아누	-6144
▁피아노	-6145
▁필요가	-6146
▁했어요	-6147
공포영화	-6148
드라마가	-6149
오랜만에	-6150
▁뒤죽박죽	-6151
▁마지막은	-6152
▁만들어서	-6153
▁스타워즈	-6154
▁슬픈영화	-6155
▁쓰레기는	-6156
▁아까워서	-6157
▁알파치노	-6158
▁이거보다	-6159
▁좀비영화	-6160
▁형편없는	-6161
▁드라마입니다	-6162
▁숀	-6163
▁슴	-6164
▁핑	-6165
그저	-6166
기와	-6167
낫다	-6168
늦게	-6169
더맨	-6170
되요	-6171
리자	-6172
릴때	-6173
마르	-6174
망작	-6175
스와	-6176
스케	-6177
승전	-6178
시가	-6179
신도	-6180
아지	-6181
영의	-6182
자로	-6183
잔인	-6184
저냥	-6185
전을	-6186
지섭	-6187
티가	-6188
후에	-6189
▁기괴	-6190
▁김지	-6191
▁끌고	-6192
▁니가	-6193
▁대결	-6194
▁말은	-6195
▁모아	-6196
▁뭐여	-6197
▁베이	-6198
▁볼까	-6199
▁봤나	-6200
▁빠른	-6201
▁삭제	-6202
▁새삼	-6203
▁성의	-6204
▁소화	-6205
▁쉽지	-6206
▁어땠	-6207
▁여신	-6208
▁인종	-6209
▁잼나	-6210
▁좋지	-6211
▁찾는	-6212
▁찾을	-6213
▁파격	-6214
▁황정	-6215
▁흉내	-6216
것같음	-6217
들끼리	-6218
라이즈	-6219
빕니다	-6220
시대에	-6221
애들은	-6222
왔는데	-6223
이었던	-6224
▁가족이	-6225
▁공포가	-6226
▁구성도	-6227
▁누군가	-6228
▁똑같이	-6229
▁멋지게	-6230
▁무서움	-6231
▁별점이	-6232
▁분동안	-6233
▁비쥬얼	-6234
▁살렸다	-6235
▁시도는	-6236
▁신하균	-6237
▁아무나	-6238
▁안무섭	-6239
▁안좋아	-6240
▁역사상	-6241
▁웃음을	-6242
▁인터넷	-6243
▁장면을	-6244
▁찬사를	-6245
▁컴퓨터	-6246
▁평점왜	-6247
▁해야지	-6248
▁현실과	-6249
보고싶은	-6250
이라는게	-6251
재미있다	-6252
▁기대된다	-6253
▁나머지는	-6254
▁나오는데	-6255
▁두고두고	-6256
▁둘째치고	-6257
▁드라마다	-6258
▁만으로도	-6259
▁모르지만	-6260
▁엉망진창	-6261
▁여러모로	-6262
▁영화라서	-6263
▁자극적인	-6264
▁잼있네요	-6265
▁보고싶은데	-6266
▁소름끼치는	-6267
▁로맨틱코미디	-6268
▁재밌었습니다	-6269
▁얄	-6270
▁젖	-6271
▁헉	-6272
도한	-6273
드먼	-6274
미의	-6275
바람	-6276
버츠	-6277
병맛	-6278
보구	-6279
보소	-6280
사와	-6281
시스	-6282
왕국	-6283
으셨	-6284
자와	-6285
치를	-6286
치지	-6287
켓몬	-6288
트는	-6289
트로	-6290
하디	-6291
▁격투	-6292
▁공룡	-6293
▁끝도	-6294
▁나을	-6295
▁마니	-6296
▁마찬	-6297
▁만난	-6298
▁모양	-6299
▁미학	-6300
▁별한	-6301
▁본격	-6302
▁새록	-6303
▁센스	-6304
▁숨막	-6305
▁완죤	-6306
▁있냐	-6307
▁졸잼	-6308
▁죽어	-6309
▁지경	-6310
▁첩보	-6311
▁평화	-6312
▁홧팅	-6313
리스트	-6314
보네요	-6315
연기를	-6316
영화제	-6317
인지도	-6318
치고는	-6319
필버그	-6320
하기엔	-6321
ᅮᅮᅮᅮ	-6322
▁개그맨	-6323
▁꼭봐야	-6324
▁낮은지	-6325
▁내시간	-6326
▁다시금	-6327
▁당신의	-6328
▁더빙이	-6329
▁되돌아	-6330
▁모습에	-6331
▁못하네	-6332
▁심하다	-6333
▁안나옴	-6334
▁왕조현	-6335
▁웃겨서	-6336
▁웃겼다	-6337
▁절대로	-6338
▁진지한	-6339
▁처음에	-6340
▁하이틴	-6341
▁고등학교	-6342
▁기대하지	-6343
▁기억난다	-6344
▁뜬금없는	-6345
▁시리즈의	-6346
▁아니잖아	-6347
▁유치찬란	-6348
▁전체적인	-6349
▁필요한가	-6350
하겠습니다	-6351
▁다운받아서	-6352
▁재미없네요	-6353
▁감동적이었다	-6354
▁닿	-6355
▁덮	-6356
▁및	-6357
▁옴	-6358
▁찐	-6359
▁털	-6360
▁폼	-6361
내지	-6362
답게	-6363
땜시	-6364
래요	-6365
럽지	-6366
력에	-6367
모를	-6368
미를	-6369
바타	-6370
삼류	-6371
어스	-6372
웠고	-6373
이든	-6374
인에	-6375
장을	-6376
증이	-6377
질질	-6378
찾아	-6379
치다	-6380
탈출	-6381
형제	-6382
▁가짜	-6383
▁개잼	-6384
▁것만	-6385
▁글고	-6386
▁기존	-6387
▁깜놀	-6388
▁끝을	-6389
▁낭만	-6390
▁단체	-6391
▁레옹	-6392
▁머릿	-6393
▁메이	-6394
▁모니	-6395
▁반영	-6396
▁밝혀	-6397
▁불과	-6398
▁브라	-6399
▁브래	-6400
▁신은	-6401
▁역작	-6402
▁예뻤	-6403
▁오유	-6404
▁완젼	-6405
▁위트	-6406
▁자아	-6407
▁졸리	-6408
▁졸업	-6409
▁찍는	-6410
▁트랜	-6411
▁하자	-6412
▁혹은	-6413
거리가	-6414
까지도	-6415
새끼들	-6416
으면좋	-6417
입니까	-6418
▁그들이	-6419
▁그이상	-6420
▁바라는	-6421
▁보게된	-6422
▁보여줄	-6423
▁생각만	-6424
▁섬세한	-6425
▁세월이	-6426
▁안보는	-6427
▁액션씬	-6428
▁영화란	-6429
▁의미도	-6430
▁좋으나	-6431
▁표현할	-6432
▁했으나	-6433
보지마라	-6434
스러웠다	-6435
재미없어	-6436
줄알았다	-6437
▁기대없이	-6438
▁나오네요	-6439
▁너무하네	-6440
▁드라마중	-6441
▁마지막회	-6442
▁만들어주	-6443
▁않습니다	-6444
▁알려주는	-6445
▁연기하는	-6446
▁최고라고	-6447
▁캐릭터는	-6448
▁캐릭터들	-6449
▁마지막장면	-6450
▁ᄏᄏᄏᄏᄏᄏᄏᄏᄏ	-6451
▁걷	-6452
▁락	-6453
▁삐	-6454
가리	-6455
각본	-6456
고도	-6457
렸음	-6458
면이	-6459
물론	-6460
믿고	-6461
본색	-6462
사도	-6463
얼마	-6464
일을	-6465
줘요	-6466
치도	-6467
쾌한	-6468
▁가수	-6469
▁거야	-6470
▁고독	-6471
▁공유	-6472
▁공중	-6473
▁그가	-6474
▁길을	-6475
▁끝남	-6476
▁놀란	-6477
▁높지	-6478
▁담고	-6479
▁도둑	-6480
▁된장	-6481
▁라마	-6482
▁마법	-6483
▁맡은	-6484
▁밑도	-6485
▁바이	-6486
▁보석	-6487
▁분량	-6488
▁삶은	-6489
▁순위	-6490
▁십점	-6491
▁아팠	-6492
▁억울	-6493
▁왔다	-6494
▁잃은	-6495
▁주온	-6496
▁준비	-6497
▁커버	-6498
▁킬러	-6499
▁학년	-6500
보시길	-6501
지말자	-6502
하거나	-6503
햇는데	-6504
▁데이빗	-6505
▁만들다	-6506
▁말았다	-6507
▁미국식	-6508
▁배경이	-6509
▁보았던	-6510
▁빕니다	-6511
▁빨갱이	-6512
▁뻔하다	-6513
▁슈퍼맨	-6514
▁어두운	-6515
▁어디에	-6516
▁영화일	-6517
▁이라고	-6518
▁이미지	-6519
▁인간들	-6520
▁조금만	-6521
▁편하게	-6522
▁포인트	-6523
▁하세요	-6524
▁한순간	-6525
▁했더니	-6526
▁홍상수	-6527
없습니다	-6528
으면서도	-6529
▁그냥저냥	-6530
▁독특하고	-6531
▁불쌍해서	-6532
▁시간아깝	-6533
▁아니라면	-6534
▁언제까지	-6535
▁연기력에	-6536
▁연출력이	-6537
▁영화같다	-6538
▁정말정말	-6539
▁주고싶다	-6540
▁했습니다	-6541
▁흘러가는	-6542
▁시간때우기	-6543
▁애니매이션	-6544
▁영화보다가	-6545
▁뻥	-6546
▁쏠	-6547
▁옳	-6548
가면	-6549
가위	-6550
결국	-6551
구먼	-6552
나간	-6553
년에	-6554
동이	-6555
리언	-6556
무엇	-6557
부가	-6558
상에	-6559
선택	-6560
순수	-6561
승우	-6562
승헌	-6563
암튼	-6564
연이	-6565
워드	-6566
원을	-6567
의식	-6568
져야	-6569
지민	-6570
참고	-6571
타쿠	-6572
하루	-6573
형이	-6574
▁각색	-6575
▁감이	-6576
▁강간	-6577
▁개는	-6578
▁공간	-6579
▁국가	-6580
▁그는	-6581
▁껐다	-6582
▁끝날	-6583
▁났다	-6584
▁누나	-6585
▁당장	-6586
▁모독	-6587
▁불가	-6588
▁어떠	-6589
▁어서	-6590
▁엉뚱	-6591
▁우왕	-6592
▁웃을	-6593
▁유행	-6594
▁이종	-6595
▁재탕	-6596
▁좋앗	-6597
▁죽이	-6598
▁지옥	-6599
▁직업	-6600
▁토니	-6601
▁한효	-6602
들만의	-6603
모르고	-6604
부터는	-6605
시네요	-6606
시키지	-6607
없는데	-6608
였네요	-6609
재밋음	-6610
주는데	-6611
하나요	-6612
▁결국은	-6613
▁기대한	-6614
▁나루토	-6615
▁나올때	-6616
▁느껴지	-6617
▁더욱더	-6618
▁되는데	-6619
▁못만들	-6620
▁바란다	-6621
▁보아도	-6622
▁볼려고	-6623
▁실망이	-6624
▁싶어서	-6625
▁아놀드	-6626
▁안봐서	-6627
▁엔딩은	-6628
▁영상도	-6629
▁우리나	-6630
▁의도는	-6631
▁일본의	-6632
▁잘보고	-6633
▁장면만	-6634
▁적나라	-6635
▁점이나	-6636
▁표현이	-6637
▁한동안	-6638
이런영화	-6639
하나하나	-6640
▁괜찮았던	-6641
▁니콜라스	-6642
▁스토리로	-6643
▁아버지의	-6644
▁완벽하다	-6645
▁이야기의	-6646
▁이영화의	-6647
▁잊지못할	-6648
▁전편보다	-6649
▁정신병자	-6650
▁지루함의	-6651
▁최고인듯	-6652
▁캐스팅은	-6653
▁캐스팅이	-6654
▁흥미롭게	-6655
보지마세요	-6656
▁아깝습니다	-6657
▁오그라드는	-6658
▁재밌게봤어요	-6659
▁ᄍ	-6660
▁냥	-6661
▁엮	-6662
▁짙	-6663
▁찜	-6664
▁핸	-6665
감정	-6666
거죠	-6667
관을	-6668
남을	-6669
년전	-6670
답다	-6671
덕에	-6672
돈이	-6673
돌이	-6674
러움	-6675
롭다	-6676
말을	-6677
물에	-6678
뭐지	-6679
법한	-6680
봤지	-6681
석규	-6682
순이	-6683
스턴	-6684
자도	-6685
잡는	-6686
코드	-6687
트라	-6688
표정	-6689
학년	-6690
흥미	-6691
▁광구	-6692
▁꺼져	-6693
▁나고	-6694
▁남성	-6695
▁더더	-6696
▁돼지	-6697
▁들지	-6698
▁말씀	-6699
▁명의	-6700
▁바탕	-6701
▁빠질	-6702
▁소유	-6703
▁스토	-6704
▁신이	-6705
▁않네	-6706
▁연상	-6707
▁열자	-6708
▁오직	-6709
▁우는	-6710
▁음식	-6711
▁이뻤	-6712
▁이승	-6713
▁적인	-6714
▁지가	-6715
▁찬양	-6716
▁펼쳐	-6717
▁할때	-6718
감독은	-6719
것인가	-6720
기위해	-6721
러티브	-6722
분들이	-6723
야겠다	-6724
이후로	-6725
있을까	-6726
재밌고	-6727
종일관	-6728
지루해	-6729
크레딧	-6730
평점은	-6731
하기가	-6732
하시고	-6733
했을때	-6734
▁공포도	-6735
▁군더더	-6736
▁그동안	-6737
▁기발한	-6738
▁나와야	-6739
▁넘어서	-6740
▁대사도	-6741
▁류승범	-6742
▁명작임	-6743
▁보이지	-6744
▁실화를	-6745
▁아이디	-6746
▁아이유	-6747
▁액션만	-6748
▁약하다	-6749
▁영상은	-6750
▁영화적	-6751
▁웃긴다	-6752
▁음악은	-6753
▁이라는	-6754
▁일주일	-6755
▁있으나	-6756
▁질질끌	-6757
▁했을까	-6758
감동적이	-6759
만큼이나	-6760
재밋어요	-6761
지루하다	-6762
킬링타임	-6763
▁긴장감을	-6764
▁느껴지지	-6765
▁뛰어넘는	-6766
▁마무리가	-6767
▁아기자기	-6768
▁야하지도	-6769
▁여배우가	-6770
▁잘하네요	-6771
▁제대로된	-6772
▁처음이네	-6773
▁현실적이	-6774
▁힘내세요	-6775
아까운영화	-6776
▁보고싶네요	-6777
▁아이들에게	-6778
▁말이필요없다	-6779
▁재미있었는데	-6780
▁킬링타임용으로도	-6781
▁냐	-6782
▁똘	-6783
▁짤	-6784
가며	-6785
녀의	-6786
님은	-6787
달라	-6788
돌려	-6789
동화	-6790
될듯	-6791
리트	-6792
맞는	-6793
멋진	-6794
별루	-6795
봣다	-6796
스틴	-6797
않고	-6798
역할	-6799
였을	-6800
예쁘	-6801
으러	-6802
중국	-6803
치면	-6804
크로	-6805
트릭	-6806
하늘	-6807
할것	-6808
희의	-6809
▁고문	-6810
▁과정	-6811
▁구경	-6812
▁국산	-6813
▁낮추	-6814
▁늙은	-6815
▁다녀	-6816
▁다는	-6817
▁듣기	-6818
▁들의	-6819
▁따듯	-6820
▁따스	-6821
▁때는	-6822
▁마냥	-6823
▁머냐	-6824
▁멈추	-6825
▁모방	-6826
▁반개	-6827
▁반응	-6828
▁불안	-6829
▁사용	-6830
▁상징	-6831
▁생기	-6832
▁손꼽	-6833
▁시켜	-6834
▁시험	-6835
▁신인	-6836
▁안감	-6837
▁안좋	-6838
▁앞서	-6839
▁어리	-6840
▁없애	-6841
▁운명	-6842
▁월드	-6843
▁음모	-6844
▁이모	-6845
▁이탈	-6846
▁재방	-6847
▁적극	-6848
▁조아	-6849
▁지독	-6850
▁짱임	-6851
▁쩌는	-6852
▁차승	-6853
▁컨셉	-6854
▁피곤	-6855
▁한개	-6856
▁해요	-6857
▁흥분	-6858
돈주고	-6859
모르게	-6860
보인다	-6861
습니당	-6862
였구나	-6863
▁가능한	-6864
▁나올까	-6865
▁난해한	-6866
▁내취향	-6867
▁느껴질	-6868
▁느끼고	-6869
▁떨어뜨	-6870
▁못해서	-6871
▁밋밋한	-6872
▁아련한	-6873
▁안가는	-6874
▁여자를	-6875
▁왠만한	-6876
▁웃다가	-6877
▁중학생	-6878
▁진실을	-6879
▁최악임	-6880
▁풀어낸	-6881
▁하하하	-6882
▁한시간	-6883
▁해준다	-6884
할수있는	-6885
▁마찬가지	-6886
▁만들었냐	-6887
▁만화영화	-6888
▁멋진영화	-6889
▁보게되는	-6890
▁볼만한데	-6891
▁살아있는	-6892
▁시리즈가	-6893
▁시종일관	-6894
▁쓰레기네	-6895
▁장난하나	-6896
▁장면들이	-6897
▁재미나게	-6898
▁캐릭터도	-6899
▁필요하다	-6900
잘봤습니다	-6901
하셨습니다	-6902
▁고맙습니다	-6903
▁자연스럽게	-6904
ᄏᄏᄏᄏᄏᄏᄏᄏᄏ	-6905
▁덴	-6906
▁뚜	-6907
▁션	-6908
▁콤	-6909
가장	-6910
같네	-6911
대고	-6912
대기	-6913
리쉬	-6914
명한	-6915
미화	-6916
베이	-6917
봤네	-6918
비에	-6919
사실	-6920
성한	-6921
스텔	-6922
신기	-6923
써요	-6924
아냐	-6925
알아	-6926
어를	-6927
운데	-6928
이군	-6929
이었	-6930
인걸	-6931
저것	-6932
저나	-6933
주제	-6934
찬욱	-6935
팬이	-6936
프리	-6937
▁공허	-6938
▁국어	-6939
▁그를	-6940
▁기적	-6941
▁긴박	-6942
▁낚인	-6943
▁던져	-6944
▁동네	-6945
▁되나	-6946
▁되면	-6947
▁들은	-6948
▁등록	-6949
▁떡밥	-6950
▁만세	-6951
▁백배	-6952
▁분을	-6953
▁비정	-6954
▁소통	-6955
▁싶음	-6956
▁안봄	-6957
▁이별	-6958
▁조지	-6959
▁쯧쯧	-6960
▁클로	-6961
▁피식	-6962
▁호불	-6963
같네요	-6964
그런지	-6965
▁기가막	-6966
▁나왔음	-6967
▁누군지	-6968
▁눈으로	-6969
▁되는거	-6970
▁또봐도	-6971
▁무섭지	-6972
▁무의미	-6973
▁미스테	-6974
▁버렸다	-6975
▁분짜리	-6976
▁송승헌	-6977
▁수면제	-6978
▁아이고	-6979
▁알바가	-6980
▁알바생	-6981
▁요즘은	-6982
▁원하는	-6983
▁이딴게	-6984
▁임창정	-6985
▁전개에	-6986
▁차태현	-6987
▁하나는	-6988
말이필요	-6989
아름다운	-6990
▁걸작이다	-6991
▁별로네요	-6992
▁빠져들게	-6993
▁안나오는	-6994
▁영화인것	-6995
▁오랫동안	-6996
▁추천한다	-6997
▁필요없음	-6998
개인적으로	-6999
▁아름다웠다	-7000
▁영화라지만	-7001
▁캐릭터들이	-7002
▁곡	-7003
▁꽉	-7004
▁닭	-7005
▁둔	-7006
▁벽	-7007
▁탕	-7008
극의	-7009
년의	-7010
렸던	-7011
로그	-7012
롭게	-7013
면을	-7014
미안	-7015
부의	-7016
센스	-7017
수작	-7018
스레	-7019
시켰	-7020
심한	-7021
약한	-7022
영은	-7023
외로	-7024
요미	-7025
전의	-7026
제일	-7027
즈가	-7028
집에	-7029
짓을	-7030
충격	-7031
펭귄	-7032
편을	-7033
플린	-7034
▁갔다	-7035
▁갖게	-7036
▁거냐	-7037
▁거다	-7038
▁경악	-7039
▁끝은	-7040
▁농담	-7041
▁도와	-7042
▁만날	-7043
▁면이	-7044
▁못하	-7045
▁무간	-7046
▁민주	-7047
▁반갑	-7048
▁상태	-7049
▁샤론	-7050
▁승리	-7051
▁싸우	-7052
▁안다	-7053
▁욕이	-7054
▁유승	-7055
▁음향	-7056
▁의상	-7057
▁이자	-7058
▁지워	-7059
▁참을	-7060
▁채워	-7061
▁초월	-7062
▁컬트	-7063
▁쿵푸	-7064
▁팝콘	-7065
▁하며	-7066
▁허나	-7067
▁호흡	-7068
▁혼란	-7069
나이트	-7070
목소리	-7071
슬프다	-7072
시청률	-7073
십니다	-7074
정도는	-7075
정도의	-7076
지부지	-7077
지않음	-7078
하기에	-7079
▁남기는	-7080
▁도움이	-7081
▁무서웠	-7082
▁믿기지	-7083
▁박보영	-7084
▁어수선	-7085
▁여기에	-7086
▁연기로	-7087
▁영화볼	-7088
▁오로지	-7089
▁유치원	-7090
▁음악을	-7091
▁제목에	-7092
▁총체적	-7093
▁평점점	-7094
▁포켓몬	-7095
▁하기엔	-7096
하고싶다	-7097
▁감동적임	-7098
▁드라마도	-7099
▁분위기는	-7100
▁스필버그	-7101
▁슬프네요	-7102
▁시리즈를	-7103
▁쓰레기를	-7104
▁해주세요	-7105
▁매력적이다	-7106
▁존경합니다	-7107
▁좋아하네요	-7108
▁클레멘타인	-7109
▁감동적입니다	-7110
▁ᄃ	-7111
▁ᄊ	-7112
▁퀴	-7113
간히	-7114
강에	-7115
거워	-7116
계를	-7117
공부	-7118
구라	-7119
구의	-7120
놈이	-7121
다들	-7122
두번	-7123
리즘	-7124
멤버	-7125
못함	-7126
물은	-7127
미도	-7128
미친	-7129
수로	-7130
아의	-7131
알고	-7132
장에	-7133
잼있	-7134
전은	-7135
절로	-7136
지르	-7137
체가	-7138
한텐	-7139
회가	-7140
희는	-7141
▁가정	-7142
▁강요	-7143
▁갖춘	-7144
▁거장	-7145
▁것들	-7146
▁나면	-7147
▁놀래	-7148
▁높네	-7149
▁데스	-7150
▁동감	-7151
▁로멘	-7152
▁리암	-7153
▁마블	-7154
▁박평	-7155
▁반도	-7156
▁보소	-7157
▁봤지	-7158
▁삶과	-7159
▁씨발	-7160
▁안겨	-7161
▁영광	-7162
▁이동	-7163
▁인류	-7164
▁자리	-7165
▁정보	-7166
▁중의	-7167
▁줘도	-7168
▁지도	-7169
▁첨엔	-7170
▁클라	-7171
▁하니	-7172
▁허탈	-7173
결말이	-7174
나보다	-7175
다니는	-7176
덕분에	-7177
드려요	-7178
들보다	-7179
라는걸	-7180
줘야지	-7181
▁거기서	-7182
▁공포를	-7183
▁관객이	-7184
▁극장에	-7185
▁김수현	-7186
▁남자는	-7187
▁듭니다	-7188
▁따뜻해	-7189
▁만들기	-7190
▁명배우	-7191
▁명연기	-7192
▁보고난	-7193
▁봤는지	-7194
▁봤다는	-7195
▁부분은	-7196
▁불쌍해	-7197
▁사랑도	-7198
▁설정은	-7199
▁송강호	-7200
▁연기의	-7201
▁영화속	-7202
▁원주율	-7203
▁이딴거	-7204
▁임팩트	-7205
▁작품에	-7206
▁재밋고	-7207
▁잼나요	-7208
▁전라도	-7209
▁제목은	-7210
▁테이큰	-7211
▁할수있	-7212
▁했는지	-7213
▁흉내내	-7214
여주인공	-7215
프로그램	-7216
한마디로	-7217
▁기대했던	-7218
▁동화같은	-7219
▁세상에서	-7220
▁식상하다	-7221
▁어울리지	-7222
▁영웅본색	-7223
▁영화같은	-7224
▁이상하다	-7225
▁인생영화	-7226
▁크리스찬	-7227
▁하지마라	-7228
▁힘들었다	-7229
▁기대됩니다	-7230
▁아직까지도	-7231
▁오글거리는	-7232
▁주인공들이	-7233
▁껏	-7234
▁롤	-7235
▁혜	-7236
개념	-7237
공주	-7238
기법	-7239
꺼면	-7240
내서	-7241
놈의	-7242
는뎅	-7243
때도	-7244
라지	-7245
란한	-7246
랄한	-7247
러니	-7248
마리	-7249
상태	-7250
성룡	-7251
속을	-7252
슬프	-7253
아리	-7254
여러	-7255
위에	-7256
일의	-7257
자인	-7258
주행	-7259
할뻔	-7260
힘든	-7261
▁가깝	-7262
▁골때	-7263
▁공연	-7264
▁끝판	-7265
▁나아	-7266
▁남긴	-7267
▁노무	-7268
▁눈요	-7269
▁때의	-7270
▁마틴	-7271
▁만났	-7272
▁만듬	-7273
▁많네	-7274
▁못주	-7275
▁보려	-7276
▁분은	-7277
▁브로	-7278
▁상어	-7279
▁소소	-7280
▁소품	-7281
▁숨은	-7282
▁신화	-7283
▁쏘우	-7284
▁아카	-7285
▁역겹	-7286
▁예쁨	-7287
▁외면	-7288
▁재수	-7289
▁캐릭	-7290
▁클리	-7291
▁한거	-7292
▁황금	-7293
▁흘렀	-7294
갔는데	-7295
것중에	-7296
긴장감	-7297
끝나고	-7298
느낌이	-7299
리는데	-7300
못하고	-7301
소리는	-7302
스포머	-7303
얼마나	-7304
에게도	-7305
였다면	-7306
임에도	-7307
짜증나	-7308
판타지	-7309
하구만	-7310
▁가족과	-7311
▁가치도	-7312
▁감성을	-7313
▁개같은	-7314
▁개봉한	-7315
▁결과는	-7316
▁경의를	-7317
▁그럴듯	-7318
▁노래는	-7319
▁높은지	-7320
▁느낀다	-7321
▁느낌도	-7322
▁당시엔	-7323
▁대실망	-7324
▁더러워	-7325
▁돈으로	-7326
▁돌려줘	-7327
▁뒤늦게	-7328
▁들어서	-7329
▁받아야	-7330
▁벗어나	-7331
▁빠지게	-7332
▁아바타	-7333
▁아이언	-7334
▁알수있	-7335
▁어중간	-7336
▁예뻐서	-7337
▁오리지	-7338
▁왕가위	-7339
▁웃음만	-7340
▁의도를	-7341
▁이끌어	-7342
▁이상함	-7343
▁재미만	-7344
▁잼없다	-7345
▁최고인	-7346
▁하지마	-7347
▁한석규	-7348
▁할말을	-7349
▁흠잡을	-7350
더라고요	-7351
▁말았어야	-7352
▁몰입도도	-7353
▁배우들을	-7354
▁사람들을	-7355
▁새록새록	-7356
▁소피마르	-7357
▁싫어하는	-7358
▁쓸데없는	-7359
▁아니네요	-7360
▁억지스런	-7361
▁영화감독	-7362
▁오글거리	-7363
▁완벽하게	-7364
▁의미있는	-7365
▁이런것도	-7366
▁인상깊게	-7367
▁재미있네	-7368
▁지금이나	-7369
▁진부하다	-7370
▁처음본다	-7371
▁평점조절	-7372
▁훈훈하고	-7373
애니메이션	-7374
▁다세포소녀	-7375
▁다시봤는데	-7376
▁보고싶어요	-7377
▁뻔한스토리	-7378
▁엔딩크레딧	-7379
▁응원합니다	-7380
▁있었습니다	-7381
▁재미없었음	-7382
▁밴	-7383
▁쏴	-7384
▁컷	-7385
가야	-7386
고한	-7387
데렐	-7388
데미	-7389
들린	-7390
때는	-7391
랬다	-7392
민의	-7393
번에	-7394
보러	-7395
보셈	-7396
브리	-7397
소장	-7398
씨도	-7399
어설	-7400
에이	-7401
에휴	-7402
역을	-7403
잘못	-7404
장애	-7405
채널	-7406
치만	-7407
편집	-7408
하의	-7409
▁구조	-7410
▁그로	-7411
▁남의	-7412
▁놈들	-7413
▁니네	-7414
▁다름	-7415
▁대로	-7416
▁되야	-7417
▁두개	-7418
▁듣는	-7419
▁람보	-7420
▁멘탈	-7421
▁물어	-7422
▁미쳐	-7423
▁반감	-7424
▁발음	-7425
▁배워	-7426
▁버무	-7427
▁분의	-7428
▁사과	-7429
▁선정	-7430
▁성형	-7431
▁수는	-7432
▁쓰러	-7433
▁안봐	-7434
▁어딘	-7435
▁연관	-7436
▁올드	-7437
▁욕만	-7438
▁있긴	-7439
▁재치	-7440
▁정석	-7441
▁지극	-7442
▁크다	-7443
▁파고	-7444
▁하긴	-7445
▁하드	-7446
▁했나	-7447
▁환경	-7448
거에요	-7449
그나마	-7450
라에몽	-7451
아이가	-7452
있다면	-7453
장면도	-7454
지않게	-7455
▁가족을	-7456
▁같지만	-7457
▁고마운	-7458
▁기대에	-7459
▁끝난다	-7460
▁나은듯	-7461
▁년대에	-7462
▁대사와	-7463
▁데뷔작	-7464
▁돈낭비	-7465
▁두시간	-7466
▁들어간	-7467
▁못따라	-7468
▁박찬욱	-7469
▁반전의	-7470
▁보낸다	-7471
▁복수극	-7472
▁빠져서	-7473
▁세련된	-7474
▁시간의	-7475
▁안되네	-7476
▁애들도	-7477
▁어설퍼	-7478
▁없으니	-7479
▁엑스맨	-7480
▁역사에	-7481
▁우울한	-7482
▁이쁘게	-7483
▁있었고	-7484
▁재방송	-7485
▁전지현	-7486
▁처음이	-7487
▁티비로	-7488
▁한계를	-7489
▁한다고	-7490
것같은데	-7491
드라마는	-7492
생각으로	-7493
스럽네요	-7494
▁나오다니	-7495
▁다시보기	-7496
▁돋보인다	-7497
▁드라마에	-7498
▁만든건지	-7499
▁미친듯이	-7500
▁보는동안	-7501
▁어설프게	-7502
▁영화들이	-7503
▁있겠지만	-7504
▁재난영화	-7505
▁점만점에	-7506
▁흐지부지	-7507
▁만들었으면	-7508
▁실망스럽다	-7509
▁안타깝네요	-7510
ᄉᄇ	-7511
▁값	-7512
▁맑	-7513
▁뿜	-7514
▁옮	-7515
▁혀	-7516
간지	-7517
감한	-7518
거의	-7519
걸이	-7520
기나	-7521
꺼다	-7522
놀이	-7523
누구	-7524
더스	-7525
되네	-7526
라나	-7527
려라	-7528
리라	-7529
방식	-7530
시네	-7531
신선	-7532
았어	-7533
어떤	-7534
어른	-7535
열자	-7536
옛날	-7537
으려	-7538
을지	-7539
졌네	-7540
좀비	-7541
지원	-7542
하죠	-7543
화면	-7544
▁가라	-7545
▁가만	-7546
▁같네	-7547
▁개가	-7548
▁거듭	-7549
▁고스	-7550
▁내고	-7551
▁넘치	-7552
▁당할	-7553
▁더럽	-7554
▁되서	-7555
▁러셀	-7556
▁로보	-7557
▁맞다	-7558
▁매주	-7559
▁머가	-7560
▁본질	-7561
▁분도	-7562
▁성찰	-7563
▁속이	-7564
▁쉬운	-7565
▁실사	-7566
▁안녕	-7567
▁애초	-7568
▁여유	-7569
▁역쉬	-7570
▁열광	-7571
▁유익	-7572
▁이순	-7573
▁일찍	-7574
▁적은	-7575
▁전도	-7576
▁존내	-7577
▁중병	-7578
▁지지	-7579
▁짱이	-7580
▁천국	-7581
▁추가	-7582
▁코드	-7583
▁하셨	-7584
▁한테	-7585
그자체	-7586
달라고	-7587
리면서	-7588
마저도	-7589
봣어요	-7590
샌들러	-7591
아닌데	-7592
여배우	-7593
으세요	-7594
잘만들	-7595
재미는	-7596
지않아	-7597
하구나	-7598
하는듯	-7599
함으로	-7600
▁귀신이	-7601
▁그럴싸	-7602
▁나와도	-7603
▁다니엘	-7604
▁다이하	-7605
▁돈아깝	-7606
▁되어야	-7607
▁만드냐	-7608
▁메시지	-7609
▁박진감	-7610
▁반지의	-7611
▁별하나	-7612
▁사람만	-7613
▁설명이	-7614
▁슬펐다	-7615
▁없는듯	-7616
▁윌리스	-7617
▁윌리엄	-7618
▁있는가	-7619
▁장난치	-7620
▁장르를	-7621
▁재밌지	-7622
▁재발견	-7623
▁전부다	-7624
▁첫번째	-7625
▁편견을	-7626
▁흑역사	-7627
하고싶은	-7628
하지말고	-7629
▁과대평가	-7630
▁귀여워서	-7631
▁보고싶어	-7632
▁비교하면	-7633
▁쓰레기가	-7634
▁아마추어	-7635
▁안나오고	-7636
▁이야기에	-7637
▁이영화에	-7638
▁재밋네요	-7639
▁좋아해요	-7640
▁지루했음	-7641
▁진짜진짜	-7642
▁처음에는	-7643
줄알았는데	-7644
최고의영화	-7645
▁공포영화는	-7646
▁킬링타임용도	-7647
▁ᅩ	-7648
▁넓	-7649
▁뺏	-7650
▁즈	-7651
▁톱	-7652
가니	-7653
가운	-7654
곳에	-7655
괴담	-7656
궁금	-7657
남기	-7658
달아	-7659
덜덜	-7660
도다	-7661
드네	-7662
맞고	-7663
명화	-7664
버튼	-7665
뽕짝	-7666
수다	-7667
숙한	-7668
스도	-7669
스카	-7670
아들	-7671
엿다	-7672
을거	-7673
자꾸	-7674
저런	-7675
죽여	-7676
줘도	-7677
진호	-7678
차이	-7679
천재	-7680
통수	-7681
해줄	-7682
▁ᄅᄋ	-7683
▁고소	-7684
▁고양	-7685
▁귀찮	-7686
▁나비	-7687
▁너희	-7688
▁넘쳐	-7689
▁노골	-7690
▁대부	-7691
▁될듯	-7692
▁드라	-7693
▁드물	-7694
▁레오	-7695
▁명이	-7696
▁미술	-7697
▁민족	-7698
▁박시	-7699
▁보셈	-7700
▁생명	-7701
▁심히	-7702
▁쓰나	-7703
▁애로	-7704
▁옆에	-7705
▁오해	-7706
▁와서	-7707
▁왠만	-7708
▁웃는	-7709
▁일을	-7710
▁잘함	-7711
▁저러	-7712
▁저주	-7713
▁조기	-7714
▁참여	-7715
▁코스	-7716
▁패션	-7717
▁평을	-7718
▁한대	-7719
▁한예	-7720
▁한쿡	-7721
▁혁명	-7722
▁흑흑	-7723
감동도	-7724
것보다	-7725
그래픽	-7726
눈물이	-7727
라지만	-7728
마음이	-7729
씩이나	-7730
었다면	-7731
영화네	-7732
원에서	-7733
이해가	-7734
잘하고	-7735
적이라	-7736
하기는	-7737
하잖아	-7738
하지는	-7739
▁가족애	-7740
▁기대안	-7741
▁나머진	-7742
▁나왔던	-7743
▁도중에	-7744
▁돈아까	-7745
▁맙시다	-7746
▁면에서	-7747
▁문제를	-7748
▁믿을게	-7749
▁베드신	-7750
▁보기싫	-7751
▁보여줌	-7752
▁부자연	-7753
▁비해서	-7754
▁상당한	-7755
▁생각은	-7756
▁소리가	-7757
▁소리만	-7758
▁손색이	-7759
▁스페인	-7760
▁시원한	-7761
▁실패작	-7762
▁심장이	-7763
▁아니네	-7764
▁알려준	-7765
▁언젠가	-7766
▁없구나	-7767
▁에로물	-7768
▁연출을	-7769
▁영화랑	-7770
▁조용히	-7771
▁책으로	-7772
▁파이팅	-7773
▁후회함	-7774
재미있음	-7775
재밌네요	-7776
▁긴장감과	-7777
▁긴장감은	-7778
▁다큐멘터	-7779
▁드래곤볼	-7780
▁떠오르는	-7781
▁만들기도	-7782
▁많은것을	-7783
▁메세지를	-7784
▁배경으로	-7785
▁볼만해요	-7786
▁시작부터	-7787
▁아까워요	-7788
▁아깝다는	-7789
▁어디까지	-7790
▁영상미와	-7791
▁이야기도	-7792
▁인생에서	-7793
▁지금보면	-7794
▁지루하네	-7795
▁코미디는	-7796
▁허접하고	-7797
▁명작이네요	-7798
▁시나리오도	-7799
▁억지스럽고	-7800
▁영화였는데	-7801
▁잔잔하지만	-7802
▁파워레인저	-7803
▁프랑스영화	-7804
▁재밌게봤는데	-7805
▁ᄏᄏᄏᄏᄏᄏᄏᄏᄏᄏᄏ	-7806
▁릴	-7807
▁쉴	-7808
▁훔	-7809
가라	-7810
겟음	-7811
경찰	-7812
근석	-7813
금보	-7814
니가	-7815
니의	-7816
뒤에	-7817
드립	-7818
론의	-7819
슬퍼	-7820
어쩌	-7821
에다	-7822
여기	-7823
연의	-7824
이쁨	-7825
잇다	-7826
자막	-7827
중엔	-7828
쨋든	-7829
차피	-7830
치기	-7831
호러	-7832
▁ᄇᄉ	-7833
▁가야	-7834
▁고질	-7835
▁곱씹	-7836
▁나뿐	-7837
▁날아	-7838
▁남고	-7839
▁니들	-7840
▁단역	-7841
▁대학	-7842
▁도시	-7843
▁레기	-7844
▁리고	-7845
▁많음	-7846
▁매번	-7847
▁몰락	-7848
▁무색	-7849
▁방황	-7850
▁볼것	-7851
▁부정	-7852
▁불면	-7853
▁블루	-7854
▁뻔뻔	-7855
▁서스	-7856
▁설경	-7857
▁스펙	-7858
▁시골	-7859
▁약한	-7860
▁없던	-7861
▁에드	-7862
▁엠마	-7863
▁연습	-7864
▁연인	-7865
▁욕심	-7866
▁우린	-7867
▁잡고	-7868
▁잡아	-7869
▁정준	-7870
▁존잼	-7871
▁증말	-7872
▁지저	-7873
▁지키	-7874
▁차별	-7875
▁찾기	-7876
▁처절	-7877
▁천만	-7878
▁치료	-7879
▁틈이	-7880
▁펭귄	-7881
것같아	-7882
급영화	-7883
나저나	-7884
냅니다	-7885
버린다	-7886
보기엔	-7887
보려고	-7888
볼수있	-7889
손가락	-7890
안된다	-7891
여자가	-7892
이들의	-7893
이란게	-7894
죽이고	-7895
크루즈	-7896
하자면	-7897
할게요	-7898
▁감성이	-7899
▁관심이	-7900
▁굿굿굿	-7901
▁그런거	-7902
▁기억될	-7903
▁김민종	-7904
▁김희선	-7905
▁니들이	-7906
▁들어도	-7907
▁레이첼	-7908
▁말이다	-7909
▁매력은	-7910
▁못했던	-7911
▁무서울	-7912
▁받았다	-7913
▁브래드	-7914
▁빈약한	-7915
▁소지섭	-7916
▁스릴이	-7917
▁시청자	-7918
▁심리묘	-7919
▁안좋은	-7920
▁않았음	-7921
▁엄정화	-7922
▁영향을	-7923
▁와진짜	-7924
▁웃겨요	-7925
▁있나요	-7926
▁잼없음	-7927
▁점에서	-7928
▁줄리아	-7929
▁즐거움	-7930
▁창있네	-7931
▁취향이	-7932
▁통쾌한	-7933
▁편까지	-7934
▁하지말	-7935
▁화끈한	-7936
모르겠다	-7937
우리나라	-7938
▁강력추천	-7939
▁결말까지	-7940
▁남아있는	-7941
▁다시보게	-7942
▁런닝타임	-7943
▁메시지가	-7944
▁볼만했음	-7945
▁사랑한다	-7946
▁스릴러물	-7947
▁심각하게	-7948
▁안타까움	-7949
▁어우러진	-7950
▁없는영화	-7951
▁없었으면	-7952
▁잔인하고	-7953
▁졸작이다	-7954
▁허접하다	-7955
▁스파이더맨	-7956
▁여주인공의	-7957
▁인간적으로	-7958
▁재미있었던	-7959
▁지루하기만	-7960
▁잔잔하면서도	-7961
▁ᄏᄏᄏᄏᄏᄏᄏᄏᄏᄏ	-7962
▁밍	-7963
▁붉	-7964
▁셋	-7965
▁엇	-7966
▁웹	-7967
▁쯤	-7968
▁측	-7969
▁핀	-7970
▁혈	-7971
▁힙	-7972
감상	-7973
거에	-7974
격이	-7975
곳이	-7976
끝내	-7977
놈은	-7978
데요	-7979
라곤	-7980
르다	-7981
바닥	-7982
바리	-7983
받아	-7984
복수	-7985
비아	-7986
사극	-7987
사님	-7988
시라	-7989
실패	-7990
올때	-7991
을뿐	-7992
재현	-7993
저기	-7994
지환	-7995
진은	-7996
초딩	-7997
혜선	-7998
▁가을	-7999
▁기념	-8000
▁깨끗	-8001
▁나열	-8002
▁노튼	-8003
▁드문	-8004
▁들을	-8005
▁로마	-8006
▁만약	-8007
▁봤고	-8008
▁불법	-8009
▁상대	-8010
▁색채	-8011
▁소개	-8012
▁속의	-8013
▁신세	-8014
▁심한	-8015
▁앉아	-8016
▁얻어	-8017
▁에게	-8018
▁예산	-8019
▁원표	-8020
▁유령	-8021
▁의지	-8022
▁의한	-8023
▁잘하	-8024
▁잘해	-8025
▁재현	-8026
▁잼씀	-8027
▁정당	-8028
▁정이	-8029
▁주목	-8030
▁캐리	-8031
▁커피	-8032
▁팍팍	-8033
▁향한	-8034
▁훈남	-8035
가면서	-8036
것처럼	-8037
나가는	-8038
넘치는	-8039
는거냐	-8040
다는건	-8041
버리지	-8042
어주는	-8043
에대해	-8044
영화냐	-8045
좋겠다	-8046
중간에	-8047
지라도	-8048
▁낚이지	-8049
▁너무낮	-8050
▁달리는	-8051
▁답답해	-8052
▁드림웍	-8053
▁또라이	-8054
▁무엇이	-8055
▁미래를	-8056
▁보느니	-8057
▁부럽다	-8058
▁비행기	-8059
▁사실이	-8060
▁상황을	-8061
▁손예진	-8062
▁시대가	-8063
▁아쉬울	-8064
▁안나왔	-8065
▁안되나	-8066
▁애니가	-8067
▁어쨌든	-8068
▁없어도	-8069
▁연기한	-8070
▁웃음과	-8071
▁이것은	-8072
▁이해도	-8073
▁일어나	-8074
▁잘하네	-8075
▁장동건	-8076
▁재밌당	-8077
▁저절로	-8078
▁전율이	-8079
▁정우성	-8080
▁죽는다	-8081
▁죽음을	-8082
▁쥬라기	-8083
▁지극히	-8084
▁지나친	-8085
▁첨으로	-8086
▁최초의	-8087
▁탁월한	-8088
▁평점도	-8089
▁한숨만	-8090
되는영화	-8091
수가없다	-8092
스토리는	-8093
좋았어요	-8094
할정도로	-8095
▁감독님의	-8096
▁감독에게	-8097
▁군더더기	-8098
▁그들만의	-8099
▁남자라면	-8100
▁다음으로	-8101
▁만들었네	-8102
▁무서워서	-8103
▁바탕으로	-8104
▁별로였음	-8105
▁쓰레기임	-8106
▁아이들은	-8107
▁엉성하다	-8108
▁영상미도	-8109
▁영화제목	-8110
▁오락영화	-8111
▁주연배우	-8112
▁캐릭터를	-8113
▁하고싶은	-8114
것같습니다	-8115
▁되었습니다	-8116
▁아쉬웠지만	-8117
▁울었습니다	-8118
▁재미있다고	-8119
▁재미있어서	-8120
▁좋아하시는	-8121
▁최고였습니다	-8122
▁란	-8123
▁숲	-8124
▁싹	-8125
▁왓	-8126
▁져	-8127
▁좆	-8128
▁캡	-8129
▁탱	-8130
▁헷	-8131
가도	-8132
간이	-8133
감에	-8134
것다	-8135
겠냐	-8136
겨운	-8137
귀신	-8138
끼는	-8139
남길	-8140
누가	-8141
다만	-8142
두근	-8143
뜨고	-8144
란히	-8145
력은	-8146
못보	-8147
버전	-8148
베리	-8149
부한	-8150
생이	-8151
서방	-8152
수정	-8153
시킬	-8154
어난	-8155
어지	-8156
오고	-8157
요한	-8158
위가	-8159
인드	-8160
일세	-8161
저질	-8162
조한	-8163
지효	-8164
진의	-8165
진행	-8166
함만	-8167
향이	-8168
혜교	-8169
▁가자	-8170
▁간첩	-8171
▁객관	-8172
▁걸로	-8173
▁관점	-8174
▁권상	-8175
▁그외	-8176
▁기록	-8177
▁길다	-8178
▁김정	-8179
▁놓은	-8180
▁뉴욕	-8181
▁덕에	-8182
▁돈만	-8183
▁돈은	-8184
▁됐다	-8185
▁될수	-8186
▁두말	-8187
▁뛰쳐	-8188
▁모순	-8189
▁미니	-8190
▁발상	-8191
▁배드	-8192
▁배려	-8193
▁배울	-8194
▁부러	-8195
▁생존	-8196
▁슈렉	-8197
▁아메	-8198
▁어요	-8199
▁없군	-8200
▁엉엉	-8201
▁오오	-8202
▁욕을	-8203
▁울게	-8204
▁웃게	-8205
▁유혹	-8206
▁인권	-8207
▁일관	-8208
▁임청	-8209
▁작화	-8210
▁잼없	-8211
▁저게	-8212
▁전화	-8213
▁절반	-8214
▁조심	-8215
▁찜찜	-8216
▁총격	-8217
▁춤추	-8218
▁치는	-8219
▁침묵	-8220
▁카피	-8221
▁커녕	-8222
▁커서	-8223
▁하냐	-8224
▁황홀	-8225
깁니다	-8226
놈들이	-8227
만든다	-8228
볼만한	-8229
볼수록	-8230
부분은	-8231
안되고	-8232
에다가	-8233
영화나	-8234
인지는	-8235
하고도	-8236
▁가치를	-8237
▁감흥이	-8238
▁관심을	-8239
▁괜찮아	-8240
▁그시절	-8241
▁대사는	-8242
▁대표작	-8243
▁뭐랄까	-8244
▁뭔가요	-8245
▁별로인	-8246
▁본듯한	-8247
▁살아야	-8248
▁시간과	-8249
▁알아야	-8250
▁여운도	-8251
▁오우삼	-8252
▁웃기네	-8253
▁있으니	-8254
▁작품중	-8255
▁짱짱맨	-8256
▁특이한	-8257
▁페이크	-8258
▁편인데	-8259
▁평가를	-8260
▁표정이	-8261
▁하나가	-8262
▁하지원	-8263
▁한효주	-8264
떨어지는	-8265
었을텐데	-8266
할수없는	-8267
▁가슴아픈	-8268
▁기대되는	-8269
▁몰입하게	-8270
▁바라보는	-8271
▁보고나니	-8272
▁부끄러운	-8273
▁슬프지만	-8274
▁어이없고	-8275
▁여배우의	-8276
▁여자들이	-8277
▁연기력과	-8278
▁연기자들	-8279
▁완성도가	-8280
▁웬만하면	-8281
▁의미없는	-8282
▁이따구로	-8283
▁이따위로	-8284
▁이탈리아	-8285
▁재밌게봤	-8286
▁죽기전에	-8287
▁캐스팅도	-8288
▁코믹영화	-8289
보고싶어요	-8290
▁명작이라고	-8291
▁소피마르소	-8292
▁이렇게까지	-8293
▁일본영화는	-8294
▁지루했어요	-8295
▁최고였어요	-8296
▁트랜스포머	-8297
▁만들어주세요	-8298
▁놔	-8299
▁떄	-8300
▁롱	-8301
▁쌓	-8302
▁쟁	-8303
▁찔	-8304
▁칸	-8305
▁훌	-8306
가게	-8307
거는	-8308
괜히	-8309
구를	-8310
누라	-8311
다리	-8312
대에	-8313
려야	-8314
림을	-8315
보던	-8316
보며	-8317
사고	-8318
상욱	-8319
시도	-8320
실화	-8321
완벽	-8322
위원	-8323
으다	-8324
잇고	-8325
장센	-8326
저는	-8327
주네	-8328
죽을	-8329
평을	-8330
혀서	-8331
현준	-8332
▁감수	-8333
▁같지	-8334
▁고증	-8335
▁꿈과	-8336
▁나빠	-8337
▁나참	-8338
▁넘는	-8339
▁돈벌	-8340
▁두명	-8341
▁때도	-8342
▁머지	-8343
▁멀리	-8344
▁몰아	-8345
▁문득	-8346
▁받았	-8347
▁배가	-8348
▁본능	-8349
▁사로	-8350
▁시체	-8351
▁애절	-8352
▁여튼	-8353
▁옛다	-8354
▁오인	-8355
▁완성	-8356
▁용기	-8357
▁우습	-8358
▁우승	-8359
▁이겨	-8360
▁이라	-8361
▁이외	-8362
▁잡는	-8363
▁저기	-8364
▁정사	-8365
▁정화	-8366
▁제왕	-8367
▁증명	-8368
▁지상	-8369
▁지하	-8370
▁질문	-8371
▁징그	-8372
▁찍지	-8373
▁퇴보	-8374
▁티가	-8375
▁파이	-8376
▁학살	-8377
▁한줄	-8378
▁회상	-8379
겠는가	-8380
기보단	-8381
내용을	-8382
는거다	-8383
더럽게	-8384
돈으로	-8385
들이다	-8386
리지만	-8387
빼고는	-8388
사람의	-8389
스에서	-8390
아무리	-8391
아쉽다	-8392
없지만	-8393
연기에	-8394
자들은	-8395
점부터	-8396
ᄃᄃᄃᄃ	-8397
▁강하게	-8398
▁결국엔	-8399
▁과정이	-8400
▁국어책	-8401
▁그들을	-8402
▁나가는	-8403
▁남는건	-8404
▁단순히	-8405
▁또보고	-8406
▁똑바로	-8407
▁모자라	-8408
▁뭔가가	-8409
▁배경도	-8410
▁보이고	-8411
▁봤었다	-8412
▁사기꾼	-8413
▁슬퍼요	-8414
▁신나는	-8415
▁신데렐	-8416
▁심오한	-8417
▁싶으면	-8418
▁아니냐	-8419
▁않으면	-8420
▁양동근	-8421
▁어디가	-8422
▁어쩌다	-8423
▁어차피	-8424
▁언제쯤	-8425
▁예뻐요	-8426
▁웃겼음	-8427
▁자체도	-8428
▁작가의	-8429
▁장면의	-8430
▁절제된	-8431
▁점으로	-8432
▁정신차	-8433
▁정주행	-8434
▁졸면서	-8435
▁차이가	-8436
▁최악이	-8437
▁추억을	-8438
▁크레딧	-8439
▁클래식	-8440
▁클리셰	-8441
▁팀버튼	-8442
▁평점올	-8443
▁흡입력	-8444
▁흥해라	-8445
렸습니다	-8446
시간낭비	-8447
왔습니다	-8448
하하하하	-8449
▁감성팔이	-8450
▁내러티브	-8451
▁너무한다	-8452
▁마지막의	-8453
▁만드는지	-8454
▁메세지도	-8455
▁메시지를	-8456
▁봐야겠다	-8457
▁생각해서	-8458
▁수준이하	-8459
▁시간동안	-8460
▁싶었는데	-8461
▁안했는데	-8462
▁영화ᄏᄏ	-8463
▁영화다운	-8464
▁욕나온다	-8465
▁이것저것	-8466
▁이상으로	-8467
▁이어지는	-8468
▁인디아나	-8469
▁재밋는데	-8470
▁적당하다	-8471
▁좋아하게	-8472
▁지루함이	-8473
▁감동도없고	-8474
▁공포영화가	-8475
▁네이버평점	-8476
▁시간아까워	-8477
▁영화중에서	-8478
▁이런식으로	-8479
▁재밌는영화	-8480
▁낸	-8481
▁맺	-8482
▁빚	-8483
▁숭	-8484
▁싼	-8485
▁욱	-8486
▁춘	-8487
▁큼	-8488
개가	-8489
구는	-8490
구리	-8491
그때	-8492
끄는	-8493
남아	-8494
달까	-8495
던거	-8496
바보	-8497
영웅	-8498
올라	-8499
전달	-8500
좋았	-8501
중반	-8502
쳐도	-8503
치않	-8504
크가	-8505
홀로	-8506
▁구분	-8507
▁그대	-8508
▁김명	-8509
▁김선	-8510
▁나니	-8511
▁날려	-8512
▁노는	-8513
▁덴젤	-8514
▁도통	-8515
▁록키	-8516
▁마구	-8517
▁마녀	-8518
▁마초	-8519
▁말만	-8520
▁망설	-8521
▁맞게	-8522
▁멘붕	-8523
▁몸을	-8524
▁본인	-8525
▁빨간	-8526
▁상실	-8527
▁속은	-8528
▁수십	-8529
▁싶게	-8530
▁우롱	-8531
▁우아	-8532
▁의사	-8533
▁이경	-8534
▁입장	-8535
▁전락	-8536
▁제미	-8537
▁종영	-8538
▁총알	-8539
▁최대	-8540
▁퀴어	-8541
▁토끼	-8542
▁하도	-8543
▁허전	-8544
감동이	-8545
같은거	-8546
게다가	-8547
고싶어	-8548
그런데	-8549
너무나	-8550
니버스	-8551
다는것	-8552
도없는	-8553
라노말	-8554
모습을	-8555
모습이	-8556
분위기	-8557
시대의	-8558
이니까	-8559
좋았음	-8560
판으로	-8561
▁거기다	-8562
▁겉멋만	-8563
▁굉장한	-8564
▁기회가	-8565
▁낚였네	-8566
▁다큐를	-8567
▁대학생	-8568
▁더더욱	-8569
▁더빙은	-8570
▁되어서	-8571
▁만나는	-8572
▁배우와	-8573
▁보고도	-8574
▁보지도	-8575
▁부르는	-8576
▁시절의	-8577
▁알게된	-8578
▁액션물	-8579
▁얘기를	-8580
▁영화계	-8581
▁영화고	-8582
▁영화찍	-8583
▁왜만들	-8584
▁웃으며	-8585
▁의외의	-8586
▁재밋는	-8587
▁적으로	-8588
▁전성기	-8589
▁전편의	-8590
▁좋아하	-8591
▁초딩이	-8592
▁코드가	-8593
▁편에서	-8594
▁하던데	-8595
▁현실에	-8596
다시봐도	-8597
영화에서	-8598
있었는데	-8599
재미없고	-8600
하기까지	-8601
하시네요	-8602
▁개인적인	-8603
▁뜬금없이	-8604
▁리즈시절	-8605
▁만들어준	-8606
▁멋있어요	-8607
▁무서웠다	-8608
▁미치도록	-8609
▁상상력이	-8610
▁생각나게	-8611
▁스토리나	-8612
▁실화라니	-8613
▁아까웠던	-8614
▁아니라서	-8615
▁않았을까	-8616
▁어린이용	-8617
▁여태까지	-8618
▁예고편만	-8619
▁옛날영화	-8620
▁인간적인	-8621
▁잃어버린	-8622
▁재밌게본	-8623
▁다크나이트	-8624
▁뮤직비디오	-8625
▁시나리오에	-8626
▁일깨워주는	-8627
▁자연스러운	-8628
▁낼	-8629
▁뚫	-8630
▁름	-8631
▁밉	-8632
▁셀	-8633
▁쏙	-8634
▁콧	-8635
▁퉤	-8636
겨울	-8637
그게	-8638
까봐	-8639
노출	-8640
닝맨	-8641
되길	-8642
등장	-8643
라구	-8644
려진	-8645
로가	-8646
리로	-8647
반복	-8648
번은	-8649
별점	-8650
보길	-8651
보임	-8652
볼일	-8653
비는	-8654
빼면	-8655
스피	-8656
시죠	-8657
시즘	-8658
아닐	-8659
어어	-8660
연한	-8661
왔던	-8662
웃긴	-8663
원에	-8664
유머	-8665
율이	-8666
일은	-8667
존재	-8668
철학	-8669
케팅	-8670
타는	-8671
테니	-8672
판은	-8673
편도	-8674
할거	-8675
할줄	-8676
ᄍᄍᄍ	-8677
▁가난	-8678
▁공주	-8679
▁괴로	-8680
▁구라	-8681
▁그와	-8682
▁글을	-8683
▁길고	-8684
▁내겐	-8685
▁단조	-8686
▁들여	-8687
▁똥을	-8688
▁로렌	-8689
▁말라	-8690
▁맘이	-8691
▁매혹	-8692
▁면서	-8693
▁미야	-8694
▁박정	-8695
▁백인	-8696
▁빛이	-8697
▁승부	-8698
▁애가	-8699
▁양조	-8700
▁어마	-8701
▁에러	-8702
▁온몸	-8703
▁올레	-8704
▁우선	-8705
▁워낙	-8706
▁위에	-8707
▁은은	-8708
▁이전	-8709
▁있으	-8710
▁자위	-8711
▁장혁	-8712
▁점줄	-8713
▁정점	-8714
▁주옥	-8715
▁지우	-8716
▁지존	-8717
▁쪽팔	-8718
▁찍을	-8719
▁찢어	-8720
▁최후	-8721
▁추구	-8722
▁큐브	-8723
▁평론	-8724
▁화질	-8725
▁활용	-8726
거같아	-8727
겠다고	-8728
겠더라	-8729
그런가	-8730
는거임	-8731
로맨스	-8732
별로다	-8733
스러울	-8734
시키고	-8735
안에서	-8736
앞으로	-8737
을수도	-8738
음악도	-8739
이런거	-8740
이쁘고	-8741
지루한	-8742
창시절	-8743
하는가	-8744
한거지	-8745
할수도	-8746
합시다	-8747
▁개소리	-8748
▁게임을	-8749
▁궁금해	-8750
▁끝판왕	-8751
▁넘어선	-8752
▁뛰어나	-8753
▁류영화	-8754
▁만화가	-8755
▁만화는	-8756
▁만화를	-8757
▁머리를	-8758
▁명성을	-8759
▁배우로	-8760
▁부족함	-8761
▁비추천	-8762
▁상처를	-8763
▁세상의	-8764
▁슬퍼서	-8765
▁싶지만	-8766
▁씁쓸한	-8767
▁아이를	-8768
▁아픔을	-8769
▁안되서	-8770
▁않아도	-8771
▁에로틱	-8772
▁영화판	-8773
▁왔는데	-8774
▁외에는	-8775
▁웃기지	-8776
▁원피스	-8777
▁이들이	-8778
▁이상도	-8779
▁인물들	-8780
▁장면들	-8781
▁점부터	-8782
▁정도다	-8783
▁짐캐리	-8784
▁집중도	-8785
▁첨이네	-8786
▁최대의	-8787
▁클라스	-8788
▁타이틀	-8789
▁프레디	-8790
▁하던가	-8791
하지않고	-8792
▁그런영화	-8793
▁답답해서	-8794
▁도라에몽	-8795
▁만들어야	-8796
▁말해주는	-8797
▁묻어나는	-8798
▁발연기에	-8799
▁배속으로	-8800
▁보냅니다	-8801
▁빠져드는	-8802
▁사람에게	-8803
▁사랑으로	-8804
▁아이러니	-8805
▁영화만들	-8806
▁예고편이	-8807
▁오그라들	-8808
▁장난아니	-8809
▁졸업작품	-8810
▁최고라는	-8811
▁캐릭터의	-8812
▁팬이라면	-8813
▁평론가들	-8814
▁한번쯤은	-8815
▁헛웃음만	-8816
▁호불호가	-8817
▁것만으로도	-8818
▁러브스토리	-8819
▁미안하지만	-8820
▁볼만하네요	-8821
▁스토리지만	-8822
▁시간아까움	-8823
▁오글거려서	-8824
▁이영화보고	-8825
▁재미있었고	-8826
▁재밌게봤음	-8827
▁점도아깝다	-8828
▁지루하지만	-8829
▁다시보고싶은	-8830
▁력	-8831
▁빗	-8832
▁켄	-8833
▁턱	-8834
개를	-8835
거니	-8836
겠군	-8837
경을	-8838
군의	-8839
나쁜	-8840
너스	-8841
높다	-8842
눈이	-8843
는디	-8844
데기	-8845
두사	-8846
듣고	-8847
맞은	-8848
매우	-8849
맹랑	-8850
맹이	-8851
부모	-8852
비홍	-8853
사라	-8854
상실	-8855
슬리	-8856
앞에	-8857
양의	-8858
이와	-8859
일때	-8860
잇음	-8861
점점	-8862
진희	-8863
터짐	-8864
토퍼	-8865
평생	-8866
하트	-8867
해본	-8868
해피	-8869
호의	-8870
▁ᄀᄀ	-8871
▁간단	-8872
▁간직	-8873
▁고작	-8874
▁그들	-8875
▁급도	-8876
▁남친	-8877
▁냉정	-8878
▁뇌가	-8879
▁단언	-8880
▁달고	-8881
▁대략	-8882
▁돈과	-8883
▁동심	-8884
▁모냐	-8885
▁모른	-8886
▁물씬	-8887
▁바랬	-8888
▁박해	-8889
▁버금	-8890
▁번도	-8891
▁법정	-8892
▁부드	-8893
▁비록	-8894
▁비틀	-8895
▁비하	-8896
▁생략	-8897
▁스킵	-8898
▁시사	-8899
▁심은	-8900
▁쓰지	-8901
▁엉덩	-8902
▁에바	-8903
▁엘리	-8904
▁엽문	-8905
▁오페	-8906
▁외엔	-8907
▁의해	-8908
▁이범	-8909
▁인줄	-8910
▁저거	-8911
▁저지	-8912
▁죽인	-8913
▁차마	-8914
▁천원	-8915
▁태권	-8916
▁핸드	-8917
▁했을	-8918
▁헷갈	-8919
것들이	-8920
겟네요	-8921
나올때	-8922
너무잘	-8923
말고는	-8924
뭡니까	-8925
받아서	-8926
봤으면	-8927
사람도	-8928
앗는데	-8929
정도면	-8930
좋아서	-8931
주고싶	-8932
죽는줄	-8933
평점을	-8934
하시면	-8935
▁것들을	-8936
▁과장된	-8937
▁교훈이	-8938
▁그들은	-8939
▁기분만	-8940
▁나홀로	-8941
▁낚여서	-8942
▁놀라울	-8943
▁느껴짐	-8944
▁달콤한	-8945
▁더럽고	-8946
▁떨어져	-8947
▁먹먹한	-8948
▁모자란	-8949
▁미이라	-8950
▁방법이	-8951
▁보게되	-8952
▁비교가	-8953
▁설정과	-8954
▁세상은	-8955
▁소재에	-8956
▁시대적	-8957
▁신세계	-8958
▁아닌거	-8959
▁아동용	-8960
▁아쉽네	-8961
▁아이와	-8962
▁않았나	-8963
▁액션에	-8964
▁여자애	-8965
▁예쁘게	-8966
▁의미는	-8967
▁이건좀	-8968
▁이해못	-8969
▁일베충	-8970
▁있는듯	-8971
▁있어도	-8972
▁잘표현	-8973
▁장르는	-8974
▁재밋어	-8975
▁졸았다	-8976
▁즐겁고	-8977
▁참고로	-8978
▁촌스럽	-8979
▁취향은	-8980
▁한번씩	-8981
▁한번은	-8982
▁후덜덜	-8983
▁훌륭함	-8984
▁힘들게	-8985
기때문에	-8986
영화네요	-8987
영화중에	-8988
프라이즈	-8989
하는것도	-8990
하는구나	-8991
▁개봉당시	-8992
▁겨울왕국	-8993
▁그지같은	-8994
▁극장판은	-8995
▁기분좋게	-8996
▁깔끔하고	-8997
▁다이하드	-8998
▁말아먹은	-8999
▁보고있는	-9000
▁보이지만	-9001
▁분위기를	-9002
▁분위기에	-9003
▁불편하다	-9004
▁뻔하지만	-9005
▁아니라는	-9006
▁에드워드	-9007
▁여배우들	-9008
▁영화계의	-9009
▁오글거려	-9010
▁인종차별	-9011
▁재밌기만	-9012
▁재밌었고	-9013
▁좋아했던	-9014
▁지났지만	-9015
▁코미디가	-9016
▁표현했다	-9017
▁후반부에	-9018
▁기대합니다	-9019
▁실망스러운	-9020
▁영화라는게	-9021
▁오글거리고	-9022
▁흥미진진한	-9023
▁ᅵ	-9024
▁규	-9025
▁넋	-9026
▁몫	-9027
▁쌈	-9028
▁였	-9029
▁퓨	-9030
게도	-9031
겠고	-9032
결혼	-9033
군이	-9034
극을	-9035
넘게	-9036
다코	-9037
독립	-9038
라를	-9039
래셔	-9040
런지	-9041
리타	-9042
많고	-9043
말까	-9044
맞춘	-9045
메오	-9046
민아	-9047
번을	-9048
본듯	-9049
볼타	-9050
봤을	-9051
비교	-9052
사나	-9053
상도	-9054
서린	-9055
서트	-9056
소를	-9057
아프	-9058
안의	-9059
었죠	-9060
엿음	-9061
우면	-9062
이미	-9063
이형	-9064
인권	-9065
일단	-9066
일으	-9067
자에	-9068
자키	-9069
작은	-9070
통에	-9071
플렉	-9072
할게	-9073
효진	-9074
▁가상	-9075
▁가해	-9076
▁감옥	-9077
▁개독	-9078
▁거창	-9079
▁고급	-9080
▁과잉	-9081
▁구로	-9082
▁기법	-9083
▁김윤	-9084
▁꿈이	-9085
▁나왓	-9086
▁난국	-9087
▁날라	-9088
▁남음	-9089
▁낫지	-9090
▁내놓	-9091
▁느슨	-9092
▁단점	-9093
▁드리	-9094
▁마크	-9095
▁무대	-9096
▁믿어	-9097
▁방향	-9098
▁버릴	-9099
▁버전	-9100
▁번역	-9101
▁변신	-9102
▁봣다	-9103
▁부디	-9104
▁분만	-9105
▁비중	-9106
▁색깔	-9107
▁속도	-9108
▁싫은	-9109
▁알지	-9110
▁연주	-9111
▁오토	-9112
▁우스	-9113
▁울어	-9114
▁이를	-9115
▁잘안	-9116
▁재주	-9117
▁조정	-9118
▁졸려	-9119
▁지막	-9120
▁추잡	-9121
▁출현	-9122
▁토요	-9123
▁편과	-9124
▁하던	-9125
▁해줄	-9126
▁환장	-9127
▁흐뭇	-9128
가능한	-9129
거든요	-9130
곱니다	-9131
났어요	-9132
러워서	-9133
렸어요	-9134
오르는	-9135
이상실	-9136
조차도	-9137
특유의	-9138
하나로	-9139
하였다	-9140
한건지	-9141
히어로	-9142
▁가는줄	-9143
▁가르쳐	-9144
▁강동원	-9145
▁강아지	-9146
▁계기가	-9147
▁고인의	-9148
▁과정을	-9149
▁구혜선	-9150
▁기승전	-9151
▁나오기	-9152
▁더럽다	-9153
▁된다는	-9154
▁못하겠	-9155
▁문제는	-9156
▁미안해	-9157
▁미장센	-9158
▁민망한	-9159
▁복잡한	-9160
▁불쾌한	-9161
▁사라진	-9162
▁사회의	-9163
▁산드라	-9164
▁상상을	-9165
▁상황이	-9166
▁성우가	-9167
▁소재만	-9168
▁솔직한	-9169
▁수준급	-9170
▁스티브	-9171
▁실패한	-9172
▁아빠가	-9173
▁아오이	-9174
▁안든다	-9175
▁앞에서	-9176
▁애초에	-9177
▁어떠한	-9178
▁어색함	-9179
▁엉터리	-9180
▁영화제	-9181
▁영화죠	-9182
▁외로운	-9183
▁용두사	-9184
▁유머와	-9185
▁유지태	-9186
▁이게왜	-9187
▁자유를	-9188
▁주상욱	-9189
▁주연의	-9190
▁죽인다	-9191
▁즐겁다	-9192
▁지겨워	-9193
▁지대로	-9194
▁처음임	-9195
▁추천해	-9196
▁치고는	-9197
▁케이트	-9198
▁행복을	-9199
▁혼자서	-9200
감동적인	-9201
거같네요	-9202
만들어도	-9203
볼때마다	-9204
이영화는	-9205
주인공이	-9206
하는건지	-9207
하더라도	-9208
▁공감가는	-9209
▁깨달았다	-9210
▁꺼버렸다	-9211
▁나왔는데	-9212
▁너무재밌	-9213
▁대표적인	-9214
▁돈아깝다	-9215
▁막장으로	-9216
▁말하려는	-9217
▁메세지가	-9218
▁몇번이나	-9219
▁볼거리도	-9220
▁사람들도	-9221
▁생각나네	-9222
▁생각했던	-9223
▁시선으로	-9224
▁신선하다	-9225
▁아버지가	-9226
▁않았으면	-9227
▁없다는게	-9228
▁여기저기	-9229
▁연기까지	-9230
▁영상미는	-9231
▁예술영화	-9232
▁이연걸의	-9233
▁이정도로	-9234
▁있었다니	-9235
▁잊을수가	-9236
▁작품이라	-9237
▁조기종영	-9238
▁주인공도	-9239
▁줄거리가	-9240
▁퀄리티가	-9241
▁파라노말	-9242
▁허무하게	-9243
감사합니다	-9244
영화관에서	-9245
▁스타일리쉬	-9246
▁우리나라의	-9247
▁좋아한다면	-9248
▁현실적이고	-9249
▁긍	-9250
▁델	-9251
▁밖	-9252
▁뼈	-9253
▁슨	-9254
▁핫	-9255
가다	-9256
그녀	-9257
그림	-9258
근한	-9259
께서	-9260
는걸	-9261
님을	-9262
드문	-9263
등등	-9264
디로	-9265
때메	-9266
리칸	-9267
망이	-9268
밀리	-9269
본거	-9270
봣음	-9271
부러	-9272
사한	-9273
설명	-9274
수고	-9275
안이	-9276
운이	-9277
음에	-9278
이긴	-9279
이더	-9280
인해	-9281
임이	-9282
장은	-9283
전문	-9284
점대	-9285
제는	-9286
줘라	-9287
책임	-9288
치네	-9289
터가	-9290
편의	-9291
필름	-9292
하가	-9293
하단	-9294
해낸	-9295
▁가관	-9296
▁가시	-9297
▁개떡	-9298
▁건데	-9299
▁걸린	-9300
▁검은	-9301
▁고찰	-9302
▁괴수	-9303
▁구지	-9304
▁그에	-9305
▁극찬	-9306
▁꺼내	-9307
▁난생	-9308
▁노동	-9309
▁다케	-9310
▁돈도	-9311
▁똑똑	-9312
▁뚝뚝	-9313
▁라면	-9314
▁만원	-9315
▁몸이	-9316
▁문학	-9317
▁묻혀	-9318
▁물건	-9319
▁미칠	-9320
▁믿지	-9321
▁발레	-9322
▁베트	-9323
▁보네	-9324
▁보신	-9325
▁보실	-9326
▁보아	-9327
▁봤어	-9328
▁살때	-9329
▁상투	-9330
▁섞어	-9331
▁숨어	-9332
▁써도	-9333
▁썰렁	-9334
▁어떡	-9335
▁어케	-9336
▁인듯	-9337
▁일생	-9338
▁읽는	-9339
▁저희	-9340
▁주관	-9341
▁주먹	-9342
▁지어	-9343
▁천사	-9344
▁초기	-9345
▁최하	-9346
▁추락	-9347
▁출발	-9348
▁평소	-9349
▁한글	-9350
▁해외	-9351
▁화는	-9352
▁휴먼	-9353
기억에	-9354
반전이	-9355
방에서	-9356
수밖에	-9357
안나오	-9358
에서만	-9359
이기에	-9360
있다는	-9361
지는데	-9362
하길래	-9363
하더니	-9364
해가는	-9365
▁가까이	-9366
▁강지환	-9367
▁관객의	-9368
▁괜찮을	-9369
▁구역질	-9370
▁기대는	-9371
▁깜짝놀	-9372
▁나중엔	-9373
▁남았다	-9374
▁냄새가	-9375
▁넘어가	-9376
▁노래를	-9377
▁놈들은	-9378
▁눈물흘	-9379
▁다른거	-9380
▁단체로	-9381
▁대단히	-9382
▁대박이	-9383
▁대사를	-9384
▁로보캅	-9385
▁만드나	-9386
▁만큼은	-9387
▁머리에	-9388
▁미소를	-9389
▁미치는	-9390
▁받아서	-9391
▁범인이	-9392
▁보네요	-9393
▁복수를	-9394
▁본적이	-9395
▁볼만은	-9396
▁사람과	-9397
▁사투리	-9398
▁심심한	-9399
▁역사적	-9400
▁영구와	-9401
▁영화좀	-9402
▁원숭이	-9403
▁원작은	-9404
▁이거는	-9405
▁이은주	-9406
▁자기가	-9407
▁잘나가	-9408
▁잘봤다	-9409
▁장르의	-9410
▁주고싶	-9411
▁주제도	-9412
▁죽이네	-9413
▁채널돌	-9414
▁처절한	-9415
▁최고라	-9416
▁추천함	-9417
▁카메론	-9418
▁평점낮	-9419
▁평점좀	-9420
▁풀어나	-9421
▁한국에	-9422
▁함부로	-9423
▁허접함	-9424
▁화면이	-9425
만든영화	-9426
보여주는	-9427
스트우드	-9428
적이지만	-9429
▁가슴으로	-9430
▁괜찮던데	-9431
▁기분좋은	-9432
▁나에게는	-9433
▁다가오는	-9434
▁다른영화	-9435
▁대작이다	-9436
▁돌아가고	-9437
▁두근두근	-9438
▁드라마임	-9439
▁먹먹하다	-9440
▁몇번이고	-9441
▁받아들이	-9442
▁보는듯한	-9443
▁사무라이	-9444
▁선동영화	-9445
▁스타일의	-9446
▁아닌가요	-9447
▁아프리카	-9448
▁안타깝고	-9449
▁어쩌라는	-9450
▁영화관에	-9451
▁오글거림	-9452
▁이기적인	-9453
▁정신나간	-9454
▁코미디도	-9455
▁학창시절	-9456
▁해야하나	-9457
▁허무맹랑	-9458
▁현실성이	-9459
▁흥미롭고	-9460
▁너무재미있	-9461
▁보고있는데	-9462
▁유치하지만	-9463
▁이런영화에	-9464
▁적나라하게	-9465
▁좋아할만한	-9466
▁주인공들의	-9467
▁말이필요없는	-9468
▁재미없습니다	-9469
▁감동적이었습니다	-9470
ᄏᄏᄏᄏᄏᄏᄏᄏᄏᄏᄏ	-9471
▁ᅡ	-9472
▁갇	-9473
▁꾹	-9474
▁른	-9475
▁썸	-9476
가치	-9477
겠나	-9478
고요	-9479
공의	-9480
공이	-9481
교육	-9482
그의	-9483
기준	-9484
나지	-9485
남주	-9486
났던	-9487
니스	-9488
디가	-9489
따름	-9490
러브	-9491
맨쇼	-9492
부림	-9493
부탁	-9494
분의	-9495
빨고	-9496
설마	-9497
셔요	-9498
속이	-9499
슬픈	-9500
시를	-9501
실력	-9502
아버	-9503
어마	-9504
언이	-9505
없구	-9506
영원	-9507
우니	-9508
워커	-9509
인상	-9510
작을	-9511
정보	-9512
졸라	-9513
중한	-9514
체를	-9515
틀러	-9516
평이	-9517
훨씬	-9518
흥행	-9519
히히	-9520
힌다	-9521
▁것과	-9522
▁게리	-9523
▁고로	-9524
▁고정	-9525
▁괜춘	-9526
▁구멍	-9527
▁극중	-9528
▁기쁨	-9529
▁꼽을	-9530
▁남발	-9531
▁낮음	-9532
▁내는	-9533
▁다리	-9534
▁닥터	-9535
▁대책	-9536
▁댄스	-9537
▁딸이	-9538
▁라니	-9539
▁막상	-9540
▁맛깔	-9541
▁맛에	-9542
▁명확	-9543
▁모야	-9544
▁못살	-9545
▁보일	-9546
▁볼걸	-9547
▁볼줄	-9548
▁불행	-9549
▁살리	-9550
▁성적	-9551
▁소나	-9552
▁스콧	-9553
▁식스	-9554
▁싸울	-9555
▁쓰렉	-9556
▁아가	-9557
▁어떻	-9558
▁오마	-9559
▁온갖	-9560
▁요약	-9561
▁웃길	-9562
▁유부	-9563
▁이영	-9564
▁이완	-9565
▁이재	-9566
▁이중	-9567
▁잘살	-9568
▁주면	-9569
▁짐승	-9570
▁징징	-9571
▁쩌네	-9572
▁차분	-9573
▁창의	-9574
▁채우	-9575
▁출신	-9576
▁충무	-9577
▁친일	-9578
▁표본	-9579
▁할배	-9580
▁허구	-9581
▁환불	-9582
▁히로	-9583
건강에	-9584
남는다	-9585
놈들은	-9586
는지도	-9587
떨어진	-9588
리다가	-9589
보느니	-9590
봅시다	-9591
봤다가	-9592
사람을	-9593
아니야	-9594
웃기고	-9595
일리언	-9596
잇어요	-9597
전개가	-9598
점준다	-9599
지않을	-9600
하나의	-9601
하느라	-9602
할영화	-9603
할정도	-9604
해야할	-9605
▁가끔씩	-9606
▁가져다	-9607
▁개봉을	-9608
▁고맙다	-9609
▁관람객	-9610
▁괜찮네	-9611
▁기억을	-9612
▁기영화	-9613
▁김태희	-9614
▁꼭봐라	-9615
▁남기고	-9616
▁노력이	-9617
▁느리고	-9618
▁달달한	-9619
▁떨어진	-9620
▁마음의	-9621
▁많네요	-9622
▁멋있어	-9623
▁못만드	-9624
▁박평식	-9625
▁배우만	-9626
▁별점을	-9627
▁보는듯	-9628
▁보는줄	-9629
▁불후의	-9630
▁비정상	-9631
▁사라져	-9632
▁새롭게	-9633
▁생각한	-9634
▁성룡이	-9635
▁송지효	-9636
▁시작은	-9637
▁신나게	-9638
▁신파극	-9639
▁아닌지	-9640
▁없을까	-9641
▁위하여	-9642
▁이뻐요	-9643
▁이상을	-9644
▁이정재	-9645
▁인내심	-9646
▁일본이	-9647
▁일어날	-9648
▁전설이	-9649
▁제목과	-9650
▁졸려서	-9651
▁지겨운	-9652
▁초능력	-9653
▁최민수	-9654
▁터지는	-9655
▁편부터	-9656
▁하나만	-9657
▁힘든데	-9658
긴했지만	-9659
드라마를	-9660
티비에서	-9661
▁감동감동	-9662
▁고스란히	-9663
▁꼭보시길	-9664
▁너무좋아	-9665
▁등장하는	-9666
▁따뜻하게	-9667
▁만드네요	-9668
▁매력있는	-9669
▁멋있었다	-9670
▁모르겟다	-9671
▁못미치는	-9672
▁미야자키	-9673
▁별한개도	-9674
▁보기에도	-9675
▁봐야한다	-9676
▁사랑스런	-9677
▁상영관이	-9678
▁스릴있고	-9679
▁실망했다	-9680
▁아이언맨	-9681
▁안되네요	-9682
▁어린아이	-9683
▁어쩌라고	-9684
▁없었는데	-9685
▁이건진짜	-9686
▁이게뭐야	-9687
▁재밌지도	-9688
▁좋아지는	-9689
▁최고였음	-9690
▁캐릭터와	-9691
▁허무하다	-9692
▁허술하고	-9693
▁후회하지	-9694
▁느낌이랄까	-9695
▁보고있어요	-9696
▁볼만했는데	-9697
▁시나리오는	-9698
▁우리나라는	-9699
▁잘만들어진	-9700
▁좋아합니다	-9701
▁한국영화가	-9702
▁ᅢ	-9703
▁끓	-9704
▁덧	-9705
▁왈	-9706
걸작	-9707
교훈	-9708
권택	-9709
넣은	-9710
높아	-9711
대화	-9712
동을	-9713
려니	-9714
론이	-9715
만세	-9716
몰라	-9717
못미	-9718
미니	-9719
볼까	-9720
블루	-9721
뻔함	-9722
사진	-9723
순례	-9724
싱턴	-9725
어는	-9726
엇던	-9727
여도	-9728
우와	-9729
이젠	-9730
일에	-9731
정서	-9732
지기	-9733
쳤던	-9734
타르	-9735
타이	-9736
통쾌	-9737
특집	-9738
파서	-9739
훼손	-9740
히게	-9741
▁ᅮᅲ	-9742
▁가미	-9743
▁갑갑	-9744
▁건강	-9745
▁경이	-9746
▁계획	-9747
▁괴롭	-9748
▁교회	-9749
▁김강	-9750
▁김영	-9751
▁김현	-9752
▁껏다	-9753
▁나간	-9754
▁내세	-9755
▁너는	-9756
▁눈치	-9757
▁대여	-9758
▁대역	-9759
▁더한	-9760
▁데드	-9761
▁도입	-9762
▁독창	-9763
▁돌고	-9764
▁드릴	-9765
▁렇게	-9766
▁류의	-9767
▁마르	-9768
▁멀쩡	-9769
▁모여	-9770
▁모호	-9771
▁못했	-9772
▁미개	-9773
▁미리	-9774
▁밀라	-9775
▁보나	-9776
▁볼껄	-9777
▁봐주	-9778
▁붉은	-9779
▁비참	-9780
▁빠짐	-9781
▁사망	-9782
▁샤를	-9783
▁서세	-9784
▁선수	-9785
▁솔까	-9786
▁순정	-9787
▁실수	-9788
▁싶네	-9789
▁악몽	-9790
▁악의	-9791
▁열린	-9792
▁원빈	-9793
▁유오	-9794
▁이룬	-9795
▁이태	-9796
▁자는	-9797
▁자제	-9798
▁정재	-9799
▁제법	-9800
▁주원	-9801
▁줬다	-9802
▁증거	-9803
▁지배	-9804
▁체험	-9805
▁총을	-9806
▁트라	-9807
▁포함	-9808
▁푸른	-9809
▁후진	-9810
▁힙합	-9811
거라고	-9812
기라도	-9813
느와르	-9814
당하는	-9815
매니아	-9816
버렸네	-9817
보다니	-9818
볼려고	-9819
성있는	-9820
수준이	-9821
스트라	-9822
십시오	-9823
아아아	-9824
에서나	-9825
위해서	-9826
윌리스	-9827
이쁘다	-9828
이없다	-9829
인간의	-9830
있었던	-9831
졌지만	-9832
했더니	-9833
ᄋᄋᄋᄋ	-9834
▁검색해	-9835
▁게스트	-9836
▁그녀가	-9837
▁기대해	-9838
▁김혜수	-9839
▁끝났다	-9840
▁나가고	-9841
▁나오길	-9842
▁나이에	-9843
▁남자를	-9844
▁다같이	-9845
▁다른건	-9846
▁된다고	-9847
▁똑같다	-9848
▁뜨거운	-9849
▁많지만	-9850
▁말하려	-9851
▁망쳐놓	-9852
▁별볼일	-9853
▁보기도	-9854
▁봐야함	-9855
▁산만한	-9856
▁상영관	-9857
▁성인이	-9858
▁송혜교	-9859
▁아니죠	-9860
▁안되요	-9861
▁애니를	-9862
▁영화평	-9863
▁예술을	-9864
▁오인혜	-9865
▁와닿지	-9866
▁울었던	-9867
▁울었음	-9868
▁원맨쇼	-9869
▁있는게	-9870
▁장나라	-9871
▁저것도	-9872
▁짧아서	-9873
▁차승원	-9874
▁채플린	-9875
▁충격을	-9876
▁케이지	-9877
▁코믹한	-9878
▁태어난	-9879
▁한없이	-9880
▁현실의	-9881
▁홍금보	-9882
▁환타지	-9883
▁후회할	-9884
▁희망이	-9885
나왔으면	-9886
볼수있는	-9887
쓰레기다	-9888
앞으로도	-9889
재밌는데	-9890
적이지도	-9891
▁관객에게	-9892
▁그래픽이	-9893
▁끝내준다	-9894
▁내용으로	-9895
▁너무좋다	-9896
▁대사들이	-9897
▁몰랐는데	-9898
▁몰입감이	-9899
▁못하지만	-9900
▁무서웠음	-9901
▁볼거리가	-9902
▁사랑스러	-9903
▁생각해도	-9904
▁샤론스톤	-9905
▁스릴러가	-9906
▁스케일이	-9907
▁심심할때	-9908
▁아니었음	-9909
▁않았는데	-9910
▁영화로서	-9911
▁왜이러지	-9912
▁우리들의	-9913
▁울었네요	-9914
▁움직이는	-9915
▁이걸보고	-9916
▁있다는게	-9917
▁자극하는	-9918
▁작품성이	-9919
▁점정도가	-9920
▁중국영화	-9921
▁중에서도	-9922
▁짜증나네	-9923
▁코스프레	-9924
▁화려하고	-9925
▁후반부로	-9926
▁감동적으로	-9927
▁강추입니다	-9928
▁드라마였다	-9929
▁러닝타임이	-9930
▁생각나네요	-9931
▁서프라이즈	-9932
▁영화자체는	-9933
▁오랜만이다	-9934
▁현실적으로	-9935
▁개인적으로는	-9936
▁너무재밌어요	-9937
ᄀᄀ	-9938
ᅳᅮ	-9939
▁롭	-9940
▁맷	-9941
▁멕	-9942
▁멸	-9943
▁뺨	-9944
▁캠	-9945
개연	-9946
거림	-9947
겁게	-9948
고를	-9949
구석	-9950
구조	-9951
글자	-9952
기면	-9953
기술	-9954
나왓	-9955
낮지	-9956
념을	-9957
는것	-9958
능한	-9959
단다	-9960
돈다	-9961
드벤	-9962
마는	-9963
많다	-9964
문의	-9965
뭔지	-9966
밑에	-9967
박이	-9968
살이	-9969
선수	-9970
센트	-9971
스라	-9972
스페	-9973
쓴다	-9974
약간	-9975
여름	-9976
용도	-9977
용이	-9978
유혼	-9979
이이	-9980
자랑	-9981
자식	-9982
질때	-9983
질만	-9984
치콕	-9985
크의	-9986
폭력	-9987
하곤	-9988
하리	-9989
현우	-9990
화는	-9991
▁경계	-9992
▁경제	-9993
▁괴작	-9994
▁극과	-9995
▁금방	-9996
▁김소	-9997
▁낚임	-9998
▁넘겨	-9999
▁넘은	-10000
▁높이	-10001
▁다고	-10002
▁되새	-10003
▁들려	-10004
▁말지	-10005
▁말해	-10006
▁맞춘	-10007
▁먼지	-10008
▁멤버	-10009
▁몇개	-10010
▁목적	-10011
▁미션	-10012
▁미키	-10013
▁박지	-10014
▁발휘	-10015
▁버리	-10016
▁보임	-10017
▁보진	-10018
▁부럽	-10019
▁부를	-10020
▁분장	-10021
▁서서	-10022
▁수사	-10023
▁스탤	-10024
▁스톤	-10025
▁실컷	-10026
▁써라	-10027
▁쏠쏠	-10028
▁어딜	-10029
▁어딨	-10030
▁어의	-10031
▁얼른	-10032
▁에니	-10033
▁에릭	-10034
▁여고	-10035
▁완소	-10036
▁웹툰	-10037
▁의학	-10038
▁이혼	-10039
▁일탈	-10040
▁잇는	-10041
▁자가	-10042
▁절라	-10043
▁접근	-10044
▁정리	-10045
▁좋으	-10046
▁쥐어	-10047
▁짧게	-10048
▁치열	-10049
▁코엔	-10050
▁크고	-10051
▁픽션	-10052
▁한물	-10053
▁한수	-10054
▁한표	-10055
▁할지	-10056
▁했네	-10057
▁허영	-10058
너무낮	-10059
드리고	-10060
들어서	-10061
렸는데	-10062
마음에	-10063
머니즘	-10064
버렸음	-10065
수없다	-10066
스트너	-10067
었을듯	-10068
음악이	-10069
이건뭐	-10070
이란걸	-10071
작품이	-10072
주는게	-10073
주의를	-10074
하군요	-10075
하려면	-10076
해졌다	-10077
▁가득찬	-10078
▁겁니다	-10079
▁과거를	-10080
▁귀요미	-10081
▁그때의	-10082
▁그랬다	-10083
▁그리운	-10084
▁끝나면	-10085
▁누구도	-10086
▁눈빛이	-10087
▁니들은	-10088
▁다를게	-10089
▁던지는	-10090
▁돌아오	-10091
▁뒤집어	-10092
▁드니로	-10093
▁마스터	-10094
▁마케팅	-10095
▁막장의	-10096
▁만나고	-10097
▁말아라	-10098
▁망치는	-10099
▁멋있음	-10100
▁모르나	-10101
▁못된다	-10102
▁뭐하냐	-10103
▁배우다	-10104
▁보다도	-10105
▁분명히	-10106
▁불륜을	-10107
▁불면증	-10108
▁빵터짐	-10109
▁뻔해서	-10110
▁섹시한	-10111
▁소리지	-10112
▁속아서	-10113
▁수작임	-10114
▁실망한	-10115
▁심각한	-10116
▁심리를	-10117
▁쌩뚱맞	-10118
▁아닌것	-10119
▁아쉬워	-10120
▁안난다	-10121
▁액션신	-10122
▁어둡고	-10123
▁없구만	-10124
▁영화ᄏ	-10125
▁오늘도	-10126
▁오래전	-10127
▁오타쿠	-10128
▁웃어야	-10129
▁이나영	-10130
▁이름값	-10131
▁이쁘네	-10132
▁일요일	-10133
▁있겠지	-10134
▁잘생긴	-10135
▁잘생김	-10136
▁잘해서	-10137
▁장면과	-10138
▁재밌긴	-10139
▁전도연	-10140
▁전작에	-10141
▁정도껏	-10142
▁주제는	-10143
▁주제에	-10144
▁죽을때	-10145
▁찝찝한	-10146
▁초반엔	-10147
▁출연료	-10148
▁충실한	-10149
▁친구들	-10150
▁클라이	-10151
▁한계가	-10152
▁한번만	-10153
▁한예슬	-10154
▁한장면	-10155
▁황비홍	-10156
배우들도	-10157
영화지만	-10158
이라고는	-10159
재미없는	-10160
재미있는	-10161
▁고등학생	-10162
▁그런대로	-10163
▁너무하다	-10164
▁들어가는	-10165
▁때문이다	-10166
▁만들려고	-10167
▁몇안되는	-10168
▁무슨말이	-10169
▁반성해라	-10170
▁부분에서	-10171
▁분위기의	-10172
▁생각해요	-10173
▁스포일러	-10174
▁신기하다	-10175
▁신선했다	-10176
▁쓰레기들	-10177
▁쓰레기로	-10178
▁아카데미	-10179
▁알겠지만	-10180
▁알수없는	-10181
▁알수있는	-10182
▁알았더니	-10183
▁어땠을까	-10184
▁영화내내	-10185
▁영화라면	-10186
▁유치뽕짝	-10187
▁인간들은	-10188
▁입장에서	-10189
▁잔잔하다	-10190
▁잘생기고	-10191
▁재밌게봄	-10192
▁존재하는	-10193
▁지금보니	-10194
▁참신하고	-10195
▁초반부터	-10196
▁촌스러운	-10197
▁최곱니다	-10198
▁틀림없다	-10199
▁포스터는	-10200
좋아하는데	-10201
▁대단합니다	-10202
▁소름돋는다	-10203
▁재미없다는	-10204
▁점드립니다	-10205
▁처음이네요	-10206
▁애니메이션이	-10207
ᄏᄏᄏᄏᄏᄏᄏᄏᄏᄏᄏᄏᄏ	-10208
▁ᄏᄏᄏᄏᄏᄏᄏᄏᄏᄏᄏᄏᄏ	-10209
▁균	-10210
▁꽁	-10211
▁뜯	-10212
▁얽	-10213
▁쫒	-10214
가루	-10215
감각	-10216
고기	-10217
곡이	-10218
그닥	-10219
금을	-10220
껴서	-10221
끌고	-10222
내려	-10223
네용	-10224
들리	-10225
디젤	-10226
랑이	-10227
마니	-10228
마라	-10229
말은	-10230
맛에	-10231
먼저	-10232
메다	-10233
모니	-10234
몰랐	-10235
방법	-10236
방의	-10237
보나	-10238
봤자	-10239
브라	-10240
색이	-10241
성공	-10242
시걸	-10243
시티	-10244
알게	-10245
알려	-10246
애기	-10247
여야	-10248
와라	-10249
우이	-10250
운의	-10251
위의	-10252
유쾌	-10253
을꺼	-10254
이것	-10255
인척	-10256
작에	-10257
주에	-10258
챙겨	-10259
칼렛	-10260
코가	-10261
타클	-10262
판을	-10263
한심	-10264
해짐	-10265
행크	-10266
허허	-10267
▁가식	-10268
▁각각	-10269
▁갖추	-10270
▁거울	-10271
▁경우	-10272
▁고딩	-10273
▁고현	-10274
▁공존	-10275
▁관대	-10276
▁구나	-10277
▁귀에	-10278
▁글로	-10279
▁급이	-10280
▁기는	-10281
▁끝냈	-10282
▁날로	-10283
▁년간	-10284
▁느린	-10285
▁되길	-10286
▁땀을	-10287
▁라스	-10288
▁르네	-10289
▁망쳤	-10290
▁메가	-10291
▁메리	-10292
▁멜깁	-10293
▁못본	-10294
▁별이	-10295
▁본건	-10296
▁빅뱅	-10297
▁성괴	-10298
▁소림	-10299
▁순진	-10300
▁승화	-10301
▁시바	-10302
▁실종	-10303
▁싶었	-10304
▁아야	-10305
▁아일	-10306
▁아키	-10307
▁안질	-10308
▁어둠	-10309
▁없구	-10310
▁예의	-10311
▁오다	-10312
▁오싹	-10313
▁온다	-10314
▁은퇴	-10315
▁이랬	-10316
▁잘보	-10317
▁잠든	-10318
▁재기	-10319
▁저렴	-10320
▁저리	-10321
▁전국	-10322
▁조쉬	-10323
▁죽일	-10324
▁질투	-10325
▁찡한	-10326
▁처참	-10327
▁콤비	-10328
▁특징	-10329
▁파악	-10330
▁픽사	-10331
▁필수	-10332
▁한정	-10333
▁할거	-10334
▁향해	-10335
▁현빈	-10336
▁희한	-10337
가슴이	-10338
갑자기	-10339
마음을	-10340
만큼도	-10341
모르는	-10342
몰입도	-10343
버려서	-10344
봤더니	-10345
사람만	-10346
사랑해	-10347
안타까	-10348
안타깝	-10349
앞에서	-10350
액션은	-10351
었어도	-10352
었을때	-10353
였으나	-10354
영환데	-10355
왔어요	-10356
이구만	-10357
작가님	-10358
재밌는	-10359
지는게	-10360
지않나	-10361
진정한	-10362
집에서	-10363
편인데	-10364
하겠지	-10365
한건가	-10366
▁가볍고	-10367
▁가슴찡	-10368
▁것인지	-10369
▁공감을	-10370
▁과도한	-10371
▁기대도	-10372
▁꿈꾸는	-10373
▁나와라	-10374
▁능력이	-10375
▁대박나	-10376
▁때우기	-10377
▁런닝맨	-10378
▁로버츠	-10379
▁말할수	-10380
▁망쳤다	-10381
▁맞추기	-10382
▁모성애	-10383
▁무간도	-10384
▁무리수	-10385
▁미국판	-10386
▁밑에분	-10387
▁베트남	-10388
▁별다른	-10389
▁보여서	-10390
▁볼수가	-10391
▁부끄럽	-10392
▁부분을	-10393
▁서스펜	-10394
▁수준은	-10395
▁스칼렛	-10396
▁시시한	-10397
▁않는데	-10398
▁알아서	-10399
▁어설픔	-10400
▁어째서	-10401
▁엄마랑	-10402
▁없을듯	-10403
▁에이리	-10404
▁연출의	-10405
▁웃기긴	-10406
▁유아용	-10407
▁이작품	-10408
▁이후에	-10409
▁일본식	-10410
▁일상을	-10411
▁일이다	-10412
▁임권택	-10413
▁임청하	-10414
▁있겠다	-10415
▁잔혹한	-10416
▁전쟁이	-10417
▁점이지	-10418
▁조금씩	-10419
▁좋아함	-10420
▁좋았어	-10421
▁죽어서	-10422
▁줄리엣	-10423
▁찌질한	-10424
▁최진실	-10425
▁펑펑울	-10426
▁편으로	-10427
▁하는가	-10428
▁하려고	-10429
▁행복해	-10430
▁황정민	-10431
▁후반에	-10432
꼭보세요	-10433
다고생각	-10434
다는건지	-10435
들에게는	-10436
이라는걸	-10437
이야기가	-10438
인거같다	-10439
지않았다	-10440
▁개봉하는	-10441
▁관람불가	-10442
▁그럼에도	-10443
▁드림웍스	-10444
▁떠올리게	-10445
▁뛰어나다	-10446
▁로드무비	-10447
▁만들겠다	-10448
▁무척이나	-10449
▁미스테리	-10450
▁배우분들	-10451
▁별반개도	-10452
▁분명하다	-10453
▁분위기와	-10454
▁스릴러를	-10455
▁시원하게	-10456
▁신데렐라	-10457
▁안봤으면	-10458
▁안타까울	-10459
▁알면서도	-10460
▁어색하다	-10461
▁어정쩡한	-10462
▁에일리언	-10463
▁였습니다	-10464
▁영화인거	-10465
▁우리에게	-10466
▁이정도는	-10467
▁일본에서	-10468
▁잔잔하니	-10469
▁재밌었어	-10470
▁점주기도	-10471
▁중간부터	-10472
▁지루해요	-10473
▁짱입니다	-10474
▁캐릭터에	-10475
▁코미디로	-10476
▁톰크루즈	-10477
▁드라마라고	-10478
▁드라마에요	-10479
▁싸이코패스	-10480
▁아름다움을	-10481
▁않았습니다	-10482
▁영화자체가	-10483
▁오그라든다	-10484
▁잔잔하면서	-10485
▁재밌게봤다	-10486
▁정신건강에	-10487
▁행복해지는	-10488
▁무슨내용인지	-10489
ᄏᄏᄏᄏᄏᄏᄏᄏᄏᄏ	-10490
ᄏᄏᄏᄏᄏᄏᄏᄏᄏᄏᄏᄏ	-10491
ᄉᄋ	-10492
▁겹	-10493
▁낄	-10494
▁랄	-10495
▁랩	-10496
▁쒸	-10497
▁윈	-10498
▁쬐	-10499
▁홈	-10500
가진	-10501
갖고	-10502
겁다	-10503
결이	-10504
고만	-10505
구난	-10506
나무	-10507
날의	-10508
남은	-10509
니잼	-10510
더러	-10511
뒤로	-10512
린거	-10513
린트	-10514
마냥	-10515
망한	-10516
뭐가	-10517
배는	-10518
보라	-10519
보비	-10520
봤어	-10521
비스	-10522
빠이	-10523
뿐만	-10524
소니	-10525
식상	-10526
씨를	-10527
안함	-10528
어낸	-10529
어쩔	-10530
엉망	-10531
예고	-10532
웃겼	-10533
지길	-10534
틈이	-10535
판에	-10536
팬더	-10537
피는	-10538
피를	-10539
피의	-10540
필드	-10541
하든	-10542
현이	-10543
호사	-10544
환이	-10545
▁ᄆᄎ	-10546
▁가위	-10547
▁결합	-10548
▁고백	-10549
▁공상	-10550
▁구할	-10551
▁귀가	-10552
▁그땐	-10553
▁극본	-10554
▁글구	-10555
▁기차	-10556
▁깜찍	-10557
▁낳은	-10558
▁년을	-10559
▁눈만	-10560
▁데미	-10561
▁동의	-10562
▁때론	-10563
▁똥폼	-10564
▁마사	-10565
▁마저	-10566
▁마츠	-10567
▁말길	-10568
▁못볼	-10569
▁못지	-10570
▁무관	-10571
▁무덤	-10572
▁미워	-10573
▁미흡	-10574
▁바꾼	-10575
▁배는	-10576
▁배틀	-10577
▁백만	-10578
▁복선	-10579
▁부른	-10580
▁부여	-10581
▁불친	-10582
▁뽑아	-10583
▁상식	-10584
▁색감	-10585
▁서극	-10586
▁시네	-10587
▁아따	-10588
▁아랫	-10589
▁알리	-10590
▁애를	-10591
▁애정	-10592
▁어벤	-10593
▁에는	-10594
▁영활	-10595
▁욕먹	-10596
▁운동	-10597
▁으아	-10598
▁의견	-10599
▁읽은	-10600
▁장소	-10601
▁장쯔	-10602
▁전무	-10603
▁정통	-10604
▁조조	-10605
▁진화	-10606
▁차원	-10607
▁치곤	-10608
▁크로	-10609
▁튀어	-10610
▁파트	-10611
▁퍼즐	-10612
▁필모	-10613
▁하시	-10614
▁함정	-10615
▁호소	-10616
▁활약	-10617
▁흔해	-10618
감동을	-10619
겟어요	-10620
네이버	-10621
된다는	-10622
로서는	-10623
마무리	-10624
만들고	-10625
만큼의	-10626
슬프고	-10627
시스트	-10628
아깝네	-10629
액션이	-10630
어디서	-10631
어야할	-10632
였다니	-10633
이나오	-10634
적이며	-10635
점으로	-10636
졌네요	-10637
키드먼	-10638
테이크	-10639
하나는	-10640
하던지	-10641
해놓고	-10642
▁각본이	-10643
▁거리가	-10644
▁결론이	-10645
▁구리다	-10646
▁구성은	-10647
▁그것은	-10648
▁극적인	-10649
▁깊이가	-10650
▁끝내주	-10651
▁나았다	-10652
▁나오게	-10653
▁남긴다	-10654
▁납니다	-10655
▁년동안	-10656
▁눈물도	-10657
▁담아낸	-10658
▁답답함	-10659
▁당신을	-10660
▁대사들	-10661
▁데려다	-10662
▁동심을	-10663
▁만나서	-10664
▁모두다	-10665
▁모습도	-10666
▁몬스터	-10667
▁몰입을	-10668
▁못생겼	-10669
▁바라며	-10670
▁번이나	-10671
▁별기대	-10672
▁성유리	-10673
▁속편이	-10674
▁수준도	-10675
▁슬래셔	-10676
▁신기한	-10677
▁아쉽긴	-10678
▁어드벤	-10679
▁어려울	-10680
▁어찌나	-10681
▁없잖아	-10682
▁역할이	-10683
▁열정이	-10684
▁와닿는	-10685
▁용서가	-10686
▁유머가	-10687
▁음악에	-10688
▁이름만	-10689
▁이번엔	-10690
▁작품도	-10691
▁잘했다	-10692
▁장근석	-10693
▁정신을	-10694
▁제정신	-10695
▁주려고	-10696
▁진리다	-10697
▁징그러	-10698
▁철학적	-10699
▁첨본다	-10700
▁치밀한	-10701
▁통해서	-10702
▁편집이	-10703
▁플레이	-10704
▁하고싶	-10705
▁하려는	-10706
▁하이킥	-10707
▁한가지	-10708
▁한국어	-10709
▁한국은	-10710
▁흐름이	-10711
▁흘러도	-10712
▁히치콕	-10713
기만하고	-10714
사랑해요	-10715
주고싶다	-10716
하지않은	-10717
▁고마워요	-10718
▁그나저나	-10719
▁그래픽은	-10720
▁깨알같은	-10721
▁남는영화	-10722
▁내스타일	-10723
▁당시에는	-10724
▁마음속에	-10725
▁멜로영화	-10726
▁무언가가	-10727
▁별로지만	-10728
▁본영화중	-10729
▁부족하고	-10730
▁불러일으	-10731
▁사랑이란	-10732
▁사실적인	-10733
▁생각했다	-10734
▁생생하게	-10735
▁소름돋는	-10736
▁실화라서	-10737
▁심심해서	-10738
▁아니겠지	-10739
▁안되는데	-10740
▁안봤는데	-10741
▁알바들이	-10742
▁없었다면	-10743
▁영화일뿐	-10744
▁오리지널	-10745
▁와닿는다	-10746
▁욕나오는	-10747
▁이해가안	-10748
▁인물들의	-10749
▁인상깊다	-10750
▁작위적인	-10751
▁작품성은	-10752
▁잼있었음	-10753
▁점대라니	-10754
▁좋아하고	-10755
▁좋아하지	-10756
▁중반부터	-10757
▁철학적인	-10758
▁추천해요	-10759
▁화가난다	-10760
▁훌륭하고	-10761
최악의영화	-10762
▁감정이입이	-10763
▁괜찮았어요	-10764
▁끝날때까지	-10765
▁너무재밌게	-10766
▁대한민국의	-10767
▁모르겠는데	-10768
▁비현실적인	-10769
▁아름다웠던	-10770
▁어이없어서	-10771
▁인상적이다	-10772
▁잊혀지지가	-10773
▁재미없는데	-10774
▁크리스토퍼	-10775
▁우리나라에서	-10776
▁인상적이었다	-10777
▁귓	-10778
▁닉	-10779
▁덩	-10780
▁쉐	-10781
▁즉	-10782
▁퀸	-10783
▁텔	-10784
▁팽	-10785
▁헨	-10786
가자	-10787
고은	-10788
기네	-10789
기전	-10790
깜짝	-10791
꼬마	-10792
끼고	-10793
나머	-10794
녀가	-10795
녀석	-10796
다를	-10797
다이	-10798
대충	-10799
러리	-10800
력과	-10801
렬한	-10802
로선	-10803
론은	-10804
르네	-10805
맛이	-10806
맨이	-10807
무니	-10808
무협	-10809
미달	-10810
보잡	-10811
분을	-10812
선물	-10813
세지	-10814
스탈	-10815
슬픔	-10816
씨와	-10817
안나	-10818
예능	-10819
오로	-10820
오버	-10821
원도	-10822
월드	-10823
이였	-10824
이즈	-10825
장님	-10826
저링	-10827
주니	-10828
주로	-10829
지우	-10830
집중	-10831
짓게	-10832
찍는	-10833
찾기	-10834
천국	-10835
카메	-10836
타령	-10837
포장	-10838
프트	-10839
하이	-10840
한의	-10841
홍보	-10842
훈훈	-10843
흐름	-10844
▁각성	-10845
▁갈아	-10846
▁강혜	-10847
▁개발	-10848
▁건너	-10849
▁고발	-10850
▁근육	-10851
▁글자	-10852
▁기를	-10853
▁기막	-10854
▁김성	-10855
▁끊임	-10856
▁난감	-10857
▁남지	-10858
▁납치	-10859
▁낮춰	-10860
▁녀석	-10861
▁눈부	-10862
▁당췌	-10863
▁도덕	-10864
▁똥칠	-10865
▁라도	-10866
▁마주	-10867
▁만에	-10868
▁망함	-10869
▁맞음	-10870
▁발랄	-10871
▁발톱	-10872
▁방식	-10873
▁버티	-10874
▁보장	-10875
▁봐요	-10876
▁불사	-10877
▁빠지	-10878
▁뻔함	-10879
▁사서	-10880
▁세트	-10881
▁소문	-10882
▁씬은	-10883
▁아웃	-10884
▁안젤	-10885
▁압박	-10886
▁여왕	-10887
▁연장	-10888
▁옹호	-10889
▁외화	-10890
▁요구	-10891
▁원망	-10892
▁유리	-10893
▁이명	-10894
▁이선	-10895
▁인연	-10896
▁인한	-10897
▁입고	-10898
▁잠수	-10899
▁재료	-10900
▁저의	-10901
▁조여	-10902
▁줘서	-10903
▁진주	-10904
▁짱나	-10905
▁찰리	-10906
▁찾고	-10907
▁철저	-10908
▁청년	-10909
▁최종	-10910
▁취급	-10911
▁파란	-10912
▁파일	-10913
▁프렌	-10914
▁한건	-10915
▁해적	-10916
▁했어	-10917
▁호텔	-10918
▁홀로	-10919
가네요	-10920
가는게	-10921
갔다가	-10922
귀여워	-10923
나오면	-10924
났는데	-10925
됐는데	-10926
또봐도	-10927
로서의	-10928
멋대로	-10929
묘하게	-10930
무섭다	-10931
배우도	-10932
부분도	-10933
사랑을	-10934
연기자	-10935
올시다	-10936
왜이리	-10937
으려는	-10938
이것도	-10939
이상은	-10940
이하도	-10941
인들은	-10942
저예산	-10943
한거야	-10944
했었다	-10945
▁간간히	-10946
▁감동에	-10947
▁갔는데	-10948
▁거대한	-10949
▁결말에	-10950
▁공중파	-10951
▁관객들	-10952
▁그녀는	-10953
▁까메오	-10954
▁끝나지	-10955
▁끝으로	-10956
▁나름의	-10957
▁남자들	-10958
▁노래만	-10959
▁높네요	-10960
▁다음에	-10961
▁더빙도	-10962
▁돋보임	-10963
▁들었음	-10964
▁리암니	-10965
▁마음은	-10966
▁만점을	-10967
▁말이죠	-10968
▁매트릭	-10969
▁먹칠을	-10970
▁멋졌다	-10971
▁모습과	-10972
▁못보고	-10973
▁못생긴	-10974
▁묘하게	-10975
▁뭡니까	-10976
▁바보가	-10977
▁반전과	-10978
▁배급사	-10979
▁버리는	-10980
▁보니깐	-10981
▁봐줄만	-10982
▁봤다고	-10983
▁봤다니	-10984
▁분노의	-10985
▁사로잡	-10986
▁새롭고	-10987
▁색감이	-10988
▁선택한	-10989
▁설경구	-10990
▁슬픔이	-10991
▁신세경	-10992
▁심했다	-10993
▁알수가	-10994
▁애절한	-10995
▁약간은	-10996
▁엄마의	-10997
▁없다면	-10998
▁역부족	-10999
▁의문이	-11000
▁이건머	-11001
▁이동욱	-11002
▁이러니	-11003
▁이런것	-11004
▁이연희	-11005
▁익숙한	-11006
▁인물이	-11007
▁일점도	-11008
▁있는거	-11009
▁있었나	-11010
▁작품의	-11011
▁장난감	-11012
▁적절히	-11013
▁정확히	-11014
▁조용한	-11015
▁중구난	-11016
▁즐기는	-11017
▁지구를	-11018
▁지금껏	-11019
▁진하게	-11020
▁태어나	-11021
▁톰행크	-11022
▁하나님	-11023
▁하는건	-11024
▁하는것	-11025
▁해리슨	-11026
▁현실감	-11027
▁환상의	-11028
▁흐름을	-11029
▁흥행에	-11030
▁힘들어	-11031
나는영화	-11032
대단하다	-11033
본영화중	-11034
시리즈는	-11035
용으로도	-11036
재밌었다	-11037
적으로도	-11038
하겠지만	-11039
▁감동으로	-11040
▁공감되는	-11041
▁기다리고	-11042
▁기다리는	-11043
▁나오는거	-11044
▁나오는게	-11045
▁나중에는	-11046
▁남자들의	-11047
▁눈물난다	-11048
▁말도안되	-11049
▁매미있네	-11050
▁맥라이언	-11051
▁멋집니다	-11052
▁못했지만	-11053
▁몽환적인	-11054
▁밋밋하고	-11055
▁볼만하고	-11056
▁분위기도	-11057
▁사람마다	-11058
▁생각밖에	-11059
▁아름다워	-11060
▁안나와서	-11061
▁안봤지만	-11062
▁어렸을적	-11063
▁어마어마	-11064
▁어머니의	-11065
▁어울린다	-11066
▁어이없네	-11067
▁에이리언	-11068
▁여자들은	-11069
▁영화들은	-11070
▁영화정말	-11071
▁이건아니	-11072
▁이해하고	-11073
▁이해하지	-11074
▁인내심을	-11075
▁있는영화	-11076
▁있었을까	-11077
▁작품인데	-11078
▁저평가된	-11079
▁전개되는	-11080
▁전문성우	-11081
▁조잡하고	-11082
▁주인공을	-11083
▁지들끼리	-11084
▁코미디의	-11085
▁판타스틱	-11086
▁필요할까	-11087
▁하는건지	-11088
▁해도해도	-11089
▁허술하다	-11090
▁형편없다	-11091
▁후회한다	-11092
▁휴머니즘	-11093
▁히어로물	-11094
보고싶네요	-11095
▁개인적으론	-11096
▁나왔습니다	-11097
▁대박입니다	-11098
▁못봐주겠다	-11099
▁수작입니다	-11100
▁시나리오를	-11101
▁시나리오와	-11102
▁아침드라마	-11103
▁어처구니가	-11104
▁인상깊었다	-11105
▁재미가없다	-11106
▁죽여버리고	-11107
▁초등학교때	-11108
▁킬링타임도	-11109
▁무슨생각으로	-11110
▁눌	-11111
▁닐	-11112
▁믹	-11113
▁뽕	-11114
▁쉣	-11115
▁츠	-11116
▁툭	-11117
▁험	-11118
게리	-11119
국민	-11120
굳굳	-11121
급의	-11122
날이	-11123
누군	-11124
대작	-11125
데스	-11126
도와	-11127
돼지	-11128
두개	-11129
따윈	-11130
란걸	-11131
래원	-11132
로봇	-11133
로얄	-11134
리어	-11135
무가	-11136
물도	-11137
본방	-11138
부턴	-11139
분명	-11140
불륜	-11141
뿐인	-11142
사냥	-11143
생겼	-11144
세한	-11145
셉션	-11146
스틸	-11147
심은	-11148
아놔	-11149
야오	-11150
어휴	-11151
없냐	-11152
에나	-11153
연애	-11154
오름	-11155
오바	-11156
올린	-11157
욕을	-11158
위를	-11159
을것	-11160
음의	-11161
이한	-11162
입고	-11163
잊혀	-11164
자신	-11165
잤다	-11166
전히	-11167
젝트	-11168
죽고	-11169
중요	-11170
진지	-11171
짝퉁	-11172
쩌네	-11173
차고	-11174
책을	-11175
해석	-11176
해질	-11177
햇음	-11178
훈이	-11179
▁ᄂᄂ	-11180
▁가다	-11181
▁가요	-11182
▁감당	-11183
▁개빡	-11184
▁걸어	-11185
▁고려	-11186
▁광팬	-11187
▁권력	-11188
▁김재	-11189
▁끄는	-11190
▁나게	-11191
▁나두	-11192
▁나지	-11193
▁내리	-11194
▁너도	-11195
▁넣어	-11196
▁넣은	-11197
▁네가	-11198
▁놓친	-11199
▁눈과	-11200
▁당최	-11201
▁대의	-11202
▁돌이	-11203
▁디아	-11204
▁몸에	-11205
▁무기	-11206
▁무미	-11207
▁무얼	-11208
▁문근	-11209
▁믿겨	-11210
▁반가	-11211
▁방어	-11212
▁버림	-11213
▁볼꺼	-11214
▁부각	-11215
▁부재	-11216
▁비난	-11217
▁뻔히	-11218
▁사귀	-11219
▁사토	-11220
▁삽입	-11221
▁섭외	-11222
▁성질	-11223
▁수식	-11224
▁수애	-11225
▁수정	-11226
▁수치	-11227
▁숨이	-11228
▁스며	-11229
▁시민	-11230
▁시스	-11231
▁안웃	-11232
▁알렉	-11233
▁암이	-11234
▁약해	-11235
▁언급	-11236
▁여진	-11237
▁예매	-11238
▁오만	-11239
▁옹박	-11240
▁우수	-11241
▁이고	-11242
▁자빠	-11243
▁잘라	-11244
▁잘만	-11245
▁적합	-11246
▁점만	-11247
▁졸립	-11248
▁종북	-11249
▁종합	-11250
▁지적	-11251
▁진솔	-11252
▁집단	-11253
▁짱구	-11254
▁초콜	-11255
▁크리	-11256
▁큰일	-11257
▁택시	-11258
▁파멸	-11259
▁포스	-11260
▁피어	-11261
▁한결	-11262
▁할듯	-11263
▁해학	-11264
▁호강	-11265
▁후한	-11266
▁흠뻑	-11267
▁히트	-11268
가족이	-11269
갔으면	-11270
거리고	-11271
곳에서	-11272
그것도	-11273
당하고	-11274
된영화	-11275
만드네	-11276
몰라도	-11277
발이고	-11278
봤는지	-11279
상으로	-11280
성으로	-11281
수준의	-11282
아닌듯	-11283
연기잘	-11284
웠는데	-11285
으니깐	-11286
을수가	-11287
이라곤	-11288
이유가	-11289
이유는	-11290
자에게	-11291
잔잔한	-11292
점이다	-11293
주의자	-11294
줄거리	-11295
티비로	-11296
하네여	-11297
합니까	-11298
▁가만히	-11299
▁같다는	-11300
▁개졸작	-11301
▁구성과	-11302
▁그레이	-11303
▁그만좀	-11304
▁극장서	-11305
▁기괴한	-11306
▁꺼버림	-11307
▁나라가	-11308
▁나라의	-11309
▁나쁜놈	-11310
▁나오냐	-11311
▁나온거	-11312
▁내생의	-11313
▁넘치고	-11314
▁눈요기	-11315
▁느끼지	-11316
▁단언컨	-11317
▁대단함	-11318
▁도가니	-11319
▁따듯한	-11320
▁따라가	-11321
▁때리고	-11322
▁레이싱	-11323
▁마누라	-11324
▁막장이	-11325
▁많았다	-11326
▁무식한	-11327
▁바꿔라	-11328
▁배경과	-11329
▁보자고	-11330
▁봤었던	-11331
▁분정도	-11332
▁불필요	-11333
▁비중이	-11334
▁사회적	-11335
▁생각에	-11336
▁서부극	-11337
▁서서히	-11338
▁세계를	-11339
▁슬프게	-11340
▁시선을	-11341
▁식으로	-11342
▁아들의	-11343
▁아쉽고	-11344
▁아시아	-11345
▁아침에	-11346
▁안가고	-11347
▁얘기가	-11348
▁어울리	-11349
▁없더라	-11350
▁연출에	-11351
▁영화본	-11352
▁왜이런	-11353
▁왜이럼	-11354
▁외로움	-11355
▁웃음도	-11356
▁원작과	-11357
▁위험한	-11358
▁이모양	-11359
▁이범수	-11360
▁이성재	-11361
▁잔잔함	-11362
▁잠이나	-11363
▁재미업	-11364
▁재밌냐	-11365
▁전기세	-11366
▁점드림	-11367
▁점이면	-11368
▁조승우	-11369
▁조재현	-11370
▁존나게	-11371
▁좋은거	-11372
▁죽어도	-11373
▁지하철	-11374
▁찍어라	-11375
▁천재다	-11376
▁철없는	-11377
▁청춘의	-11378
▁초반의	-11379
▁최초로	-11380
▁충격적	-11381
▁카타르	-11382
▁컨저링	-11383
▁팔아먹	-11384
▁필요는	-11385
▁하시길	-11386
▁한건지	-11387
▁흔적이	-11388
기대하고	-11389
남는영화	-11390
생각하게	-11391
아아아아	-11392
재미없네	-11393
잼있어요	-11394
짜증난다	-11395
하셨어요	-11396
▁가슴따뜻	-11397
▁거슬린다	-11398
▁깔끔하게	-11399
▁나오면서	-11400
▁능가하는	-11401
▁다가온다	-11402
▁다운로드	-11403
▁러브라인	-11404
▁만들어졌	-11405
▁만들었던	-11406
▁멋지네요	-11407
▁메세지는	-11408
▁명작이라	-11409
▁무협영화	-11410
▁미스터리	-11411
▁배우들만	-11412
▁보기드문	-11413
▁부끄럽다	-11414
▁불편하고	-11415
▁사랑하게	-11416
▁스타일이	-11417
▁시간아까	-11418
▁쓰레기도	-11419
▁안된다는	-11420
▁알게해준	-11421
▁액션으로	-11422
▁어중간한	-11423
▁여자들의	-11424
▁영화처럼	-11425
▁으리으리	-11426
▁이야기들	-11427
▁인터스텔	-11428
▁있었어요	-11429
▁재밌구만	-11430
▁재밌지만	-11431
▁좋아한다	-11432
▁주고싶은	-11433
▁중학교때	-11434
▁하기에는	-11435
보고있어요	-11436
하지마세요	-11437
▁공포영화의	-11438
▁너무좋아요	-11439
▁느꼈습니다	-11440
▁드라마네요	-11441
▁들었습니다	-11442
▁로그인하게	-11443
▁만들었네요	-11444
▁사랑입니다	-11445
▁아니었으면	-11446
▁억지스럽다	-11447
▁이스트우드	-11448
▁있었을텐데	-11449
▁재미있던데	-11450
▁최악이었다	-11451
▁최악입니다	-11452
▁해피엔딩이	-11453
쓰레기쓰레기	-11454
▁감사드립니다	-11455
▁지루하지않고	-11456
▁최고의드라마	-11457
▁흥미진진하고	-11458
▁곁	-11459
▁꺄	-11460
▁껄	-11461
▁껴	-11462
▁료	-11463
▁삭	-11464
▁샀	-11465
▁솜	-11466
▁줫	-11467
▁쩜	-11468
▁텅	-11469
▁틴	-11470
것중	-11471
게이	-11472
경의	-11473
그린	-11474
기리	-11475
기지	-11476
길이	-11477
끝이	-11478
나만	-11479
남겨	-11480
네ᄏ	-11481
놨다	-11482
달러	-11483
대도	-11484
대전	-11485
더의	-11486
데로	-11487
동엽	-11488
됬다	-11489
드러	-11490
디에	-11491
레쉬	-11492
려도	-11493
르가	-11494
마른	-11495
마트	-11496
말에	-11497
맞음	-11498
몸매	-11499
무라	-11500
미녀	-11501
버렷	-11502
보냐	-11503
부에	-11504
블리	-11505
비를	-11506
비판	-11507
사기	-11508
선가	-11509
세이	-11510
섹스	-11511
스텝	-11512
스토	-11513
신지	-11514
썼다	-11515
아마	-11516
앓이	-11517
야만	-11518
양은	-11519
어보	-11520
엉성	-11521
영씨	-11522
예상	-11523
왕짱	-11524
왜곡	-11525
왠지	-11526
우치	-11527
원래	-11528
유천	-11529
은혜	-11530
자면	-11531
절히	-11532
제국	-11533
제를	-11534
제의	-11535
죽음	-11536
준이	-11537
중독	-11538
진리	-11539
크는	-11540
투자	-11541
퍼스	-11542
포스	-11543
풀이	-11544
프가	-11545
현재	-11546
▁ᄉᄀ	-11547
▁개의	-11548
▁건진	-11549
▁건축	-11550
▁과한	-11551
▁구매	-11552
▁국뽕	-11553
▁군인	-11554
▁기사	-11555
▁까는	-11556
▁꿈에	-11557
▁끌려	-11558
▁나눠	-11559
▁낚이	-11560
▁내눈	-11561
▁놀랄	-11562
▁놈이	-11563
▁농구	-11564
▁높냐	-11565
▁눈감	-11566
▁느꼇	-11567
▁는게	-11568
▁닌자	-11569
▁다듬	-11570
▁대변	-11571
▁도로	-11572
▁둘의	-11573
▁들아	-11574
▁뚜렷	-11575
▁레드	-11576
▁로긴	-11577
▁리플	-11578
▁맞은	-11579
▁맥아	-11580
▁머니	-11581
▁먹은	-11582
▁몰려	-11583
▁미달	-11584
▁발악	-11585
▁본적	-11586
▁부조	-11587
▁비롯	-11588
▁빼놓	-11589
▁사나	-11590
▁서인	-11591
▁서정	-11592
▁성냥	-11593
▁속지	-11594
▁수술	-11595
▁수호	-11596
▁스탈	-11597
▁써야	-11598
▁씨네	-11599
▁아르	-11600
▁악플	-11601
▁안해	-11602
▁알맹	-11603
▁야기	-11604
▁얄팍	-11605
▁어렷	-11606
▁어쩐	-11607
▁에너	-11608
▁여지	-11609
▁오리	-11610
▁옥의	-11611
▁우익	-11612
▁이가	-11613
▁이랑	-11614
▁있죠	-11615
▁자라	-11616
▁잘된	-11617
▁저녁	-11618
▁적응	-11619
▁점에	-11620
▁점짜	-11621
▁정답	-11622
▁정은	-11623
▁제의	-11624
▁조디	-11625
▁조인	-11626
▁주의	-11627
▁주체	-11628
▁중년	-11629
▁진다	-11630
▁진자	-11631
▁짠한	-11632
▁창작	-11633
▁초라	-11634
▁총쏘	-11635
▁추상	-11636
▁치명	-11637
▁터짐	-11638
▁푹빠	-11639
▁피라	-11640
▁향수	-11641
▁획을	-11642
▁후유	-11643
▁힘듬	-11644
겁니까	-11645
극장판	-11646
네ᄏᄏ	-11647
녀유혼	-11648
데리고	-11649
도좋고	-11650
됐지만	-11651
때까지	-11652
맞추기	-11653
무서운	-11654
무서워	-11655
보라고	-11656
소설을	-11657
스럽네	-11658
아줌마	-11659
알바들	-11660
어이가	-11661
어지고	-11662
으라고	-11663
으므로	-11664
인트가	-11665
지모르	-11666
지못한	-11667
평점에	-11668
픕니다	-11669
하던가	-11670
하라고	-11671
할수록	-11672
할수있	-11673
했어도	-11674
▁공감은	-11675
▁괴물이	-11676
▁급하게	-11677
▁기대됨	-11678
▁김남길	-11679
▁끔찍한	-11680
▁나올수	-11681
▁나이트	-11682
▁나한테	-11683
▁납득이	-11684
▁넘친다	-11685
▁년대의	-11686
▁다니는	-11687
▁담백한	-11688
▁당연한	-11689
▁당하는	-11690
▁돌리도	-11691
▁됐는데	-11692
▁로멘틱	-11693
▁리뷰를	-11694
▁마음도	-11695
▁많았던	-11696
▁말해서	-11697
▁매력도	-11698
▁모두들	-11699
▁모처럼	-11700
▁못하게	-11701
▁무삭제	-11702
▁무책임	-11703
▁미쳤다	-11704
▁박신혜	-11705
▁범죄자	-11706
▁베리굿	-11707
▁별루다	-11708
▁보라는	-11709
▁보였다	-11710
▁분보고	-11711
▁비교해	-11712
▁빠순이	-11713
▁사나이	-11714
▁사다코	-11715
▁서로를	-11716
▁설정에	-11717
▁수작이	-11718
▁스릴감	-11719
▁슬픔을	-11720
▁습니다	-11721
▁신선함	-11722
▁심하네	-11723
▁아정말	-11724
▁아팠다	-11725
▁안드로	-11726
▁안들어	-11727
▁안성기	-11728
▁어느새	-11729
▁엄마는	-11730
▁여실히	-11731
▁여주는	-11732
▁영화면	-11733
▁외국인	-11734
▁웬만한	-11735
▁음악의	-11736
▁이순신	-11737
▁이유로	-11738
▁이해는	-11739
▁인간을	-11740
▁일본판	-11741
▁작가는	-11742
▁장난해	-11743
▁장르에	-11744
▁재평가	-11745
▁전작의	-11746
▁전쟁을	-11747
▁전편에	-11748
▁정치적	-11749
▁죽을뻔	-11750
▁중후반	-11751
▁즐거워	-11752
▁지나서	-11753
▁짜여진	-11754
▁최강의	-11755
▁최고지	-11756
▁추악한	-11757
▁충격이	-11758
▁클린트	-11759
▁팬인데	-11760
▁포스가	-11761
▁피터팬	-11762
▁한국형	-11763
▁한지민	-11764
▁했어야	-11765
▁허무함	-11766
보고나서	-11767
봣습니다	-11768
스럽지만	-11769
신분들은	-11770
재미있고	-11771
재밌었음	-11772
ᅲᅲᅲᅲᅲ	-11773
▁감동까지	-11774
▁기대하게	-11775
▁기억하고	-11776
▁나오는지	-11777
▁나온다고	-11778
▁노잼이다	-11779
▁모든것을	-11780
▁무서운거	-11781
▁보여줬다	-11782
▁수준이다	-11783
▁숨막히는	-11784
▁스릴러는	-11785
▁시리즈로	-11786
▁시청자를	-11787
▁식상하고	-11788
▁실화라는	-11789
▁싶은건지	-11790
▁아메리칸	-11791
▁아이들도	-11792
▁안나오나	-11793
▁안됩니다	-11794
▁어른들이	-11795
▁어이상실	-11796
▁억지웃음	-11797
▁여고괴담	-11798
▁영상으로	-11799
▁영화ᅲᅲ	-11800
▁영화로는	-11801
▁오래오래	-11802
▁오유에서	-11803
▁왠만해선	-11804
▁인간들이	-11805
▁인상깊은	-11806
▁임팩트가	-11807
▁있어보이	-11808
▁있어야지	-11809
▁잼있었다	-11810
▁좋았네요	-11811
▁중구난방	-11812
▁즐거웠다	-11813
▁현실이다	-11814
▁확실하게	-11815
▁감동이네요	-11816
▁공포영화를	-11817
▁내용도없고	-11818
▁뒤로갈수록	-11819
▁볼만하던데	-11820
▁사랑과전쟁	-11821
▁사실적으로	-11822
▁생각하는데	-11823
▁소름끼친다	-11824
▁실망시키지	-11825
▁아쉽습니다	-11826
▁없었습니다	-11827
▁엑소시스트	-11828
▁작품이라고	-11829
▁재밌음ᄏᄏ	-11830
▁정말재밌게	-11831
▁좋은영화다	-11832
▁지루하지도	-11833
▁지루합니다	-11834
▁충격적이다	-11835
▁할말이없다	-11836
▁ᄏᄏᄏᄏᄏᄏᄏᄏᄏᄏᄏᄏᄏᄏ	-11837
▁ᄁ	-11838
▁뚱	-11839
▁랜	-11840
▁론	-11841
▁롯	-11842
▁앗	-11843
▁좁	-11844
▁쭈	-11845
▁톡	-11846
▁횡	-11847
거중	-11848
겁고	-11849
겟지	-11850
곡도	-11851
관리	-11852
광수	-11853
국이	-11854
권을	-11855
그거	-11856
근래	-11857
글고	-11858
금지	-11859
나타	-11860
날에	-11861
내놔	-11862
내면	-11863
대요	-11864
도전	-11865
되냐	-11866
로움	-11867
류가	-11868
리브	-11869
리화	-11870
릴수	-11871
먼이	-11872
뭐임	-11873
바가	-11874
보일	-11875
볼때	-11876
분히	-11877
쁘다	-11878
생크	-11879
선의	-11880
스코	-11881
슨은	-11882
아픈	-11883
안습	-11884
앤딩	-11885
에여	-11886
역에	-11887
역이	-11888
와요	-11889
요원	-11890
우울	-11891
이구	-11892
자다	-11893
잔아	-11894
전체	-11895
제왕	-11896
져도	-11897
증을	-11898
지라	-11899
쩔어	-11900
차기	-11901
찮은	-11902
탈리	-11903
포트	-11904
피니	-11905
피아	-11906
항상	-11907
▁가게	-11908
▁각인	-11909
▁간의	-11910
▁강철	-11911
▁걸릴	-11912
▁공식	-11913
▁과감	-11914
▁구림	-11915
▁구원	-11916
▁균형	-11917
▁김동	-11918
▁날이	-11919
▁너네	-11920
▁넘버	-11921
▁놀람	-11922
▁대를	-11923
▁대리	-11924
▁대비	-11925
▁덕후	-11926
▁도박	-11927
▁독이	-11928
▁동방	-11929
▁동정	-11930
▁되냐	-11931
▁되도	-11932
▁되었	-11933
▁될까	-11934
▁두렵	-11935
▁레즈	-11936
▁리는	-11937
▁마술	-11938
▁맛을	-11939
▁맞고	-11940
▁메인	-11941
▁명예	-11942
▁모건	-11943
▁몰래	-11944
▁못된	-11945
▁뭐든	-11946
▁믿는	-11947
▁박상	-11948
▁박용	-11949
▁반해	-11950
▁베일	-11951
▁본드	-11952
▁붙여	-11953
▁비싼	-11954
▁빠순	-11955
▁사춘	-11956
▁살렸	-11957
▁성숙	-11958
▁성지	-11959
▁속상	-11960
▁수다	-11961
▁수백	-11962
▁스파	-11963
▁습작	-11964
▁신뢰	-11965
▁쓰레	-11966
▁안달	-11967
▁안죽	-11968
▁안티	-11969
▁야마	-11970
▁어줍	-11971
▁어필	-11972
▁역활	-11973
▁올인	-11974
▁욕할	-11975
▁웅장	-11976
▁위안	-11977
▁유작	-11978
▁으으	-11979
▁이길	-11980
▁이와	-11981
▁이질	-11982
▁일일	-11983
▁잃고	-11984
▁자존	-11985
▁잠만	-11986
▁잼따	-11987
▁적어	-11988
▁전성	-11989
▁전파	-11990
▁점임	-11991
▁조커	-11992
▁줄줄	-11993
▁중세	-11994
▁짧고	-11995
▁쫄깃	-11996
▁차지	-11997
▁참혹	-11998
▁책도	-11999
▁최저	-12000
▁치닫	-12001
▁토미	-12002
▁트루	-12003
▁파리	-12004
▁패턴	-12005
▁평작	-12006
▁한듯	-12007
▁한몫	-12008
▁해보	-12009
▁행운	-12010
▁휴지	-12011
간다는	-12012
걸까요	-12013
기분이	-12014
남자의	-12015
넘치고	-12016
는다면	-12017
되는거	-12018
되는게	-12019
됬는데	-12020
들과는	-12021
로버츠	-12022
릅니다	-12023
리우드	-12024
배우를	-12025
버리네	-12026
보는중	-12027
생각해	-12028
아름다	-12029
았다는	-12030
에서야	-12031
연기와	-12032
였다고	-12033
였다는	-12034
이나마	-12035
이예요	-12036
작가가	-12037
점수는	-12038
정말로	-12039
좋았던	-12040
주의에	-12041
줄알고	-12042
척하는	-12043
치도록	-12044
터지는	-12045
한것도	-12046
햇어요	-12047
했구나	-12048
▁같기도	-12049
▁개쩐다	-12050
▁것처럼	-12051
▁권상우	-12052
▁그녀를	-12053
▁그런건	-12054
▁그리스	-12055
▁그림이	-12056
▁기억남	-12057
▁기억도	-12058
▁기억은	-12059
▁김강우	-12060
▁김하늘	-12061
▁끝나네	-12062
▁나쁘진	-12063
▁나와는	-12064
▁남아돌	-12065
▁남주가	-12066
▁눈물샘	-12067
▁당하고	-12068
▁대박임	-12069
▁되다니	-12070
▁들어오	-12071
▁따분한	-12072
▁리얼한	-12073
▁말이지	-12074
▁말한다	-12075
▁모두를	-12076
▁모를까	-12077
▁목숨을	-12078
▁몸매는	-12079
▁묵직한	-12080
▁뭐하러	-12081
▁미국이	-12082
▁미치게	-12083
▁발전이	-12084
▁보기는	-12085
▁보내는	-12086
▁봤으니	-12087
▁분노가	-12088
▁분들께	-12089
▁브레이	-12090
▁설레는	-12091
▁소리를	-12092
▁속편은	-12093
▁스텝업	-12094
▁시걸의	-12095
▁신경쓰	-12096
▁신들린	-12097
▁심장을	-12098
▁싶을때	-12099
▁쒸레기	-12100
▁씹노잼	-12101
▁아이도	-12102
▁않은가	-12103
▁암울한	-12104
▁애니로	-12105
▁야동을	-12106
▁어떨지	-12107
▁어려서	-12108
▁어렵게	-12109
▁어울릴	-12110
▁여주의	-12111
▁연출로	-12112
▁였어요	-12113
▁영상물	-12114
▁와이프	-12115
▁왜그러	-12116
▁용기를	-12117
▁우리네	-12118
▁우리도	-12119
▁울림이	-12120
▁위로가	-12121
▁음악만	-12122
▁이것만	-12123
▁이들의	-12124
▁이러냐	-12125
▁이런데	-12126
▁있기에	-12127
▁있을듯	-12128
▁잘봤음	-12129
▁전세계	-12130
▁전쟁은	-12131
▁주었다	-12132
▁지못미	-12133
▁지저분	-12134
▁찍어도	-12135
▁차원이	-12136
▁충무로	-12137
▁캐서린	-12138
▁코믹물	-12139
▁크루즈	-12140
▁편보단	-12141
▁폴워커	-12142
▁프레데	-12143
▁하기도	-12144
▁하나경	-12145
▁하나다	-12146
▁한다면	-12147
▁해보고	-12148
▁행동이	-12149
▁후속편	-12150
▁흥미가	-12151
▁흥행을	-12152
봤었는데	-12153
스러워서	-12154
스토리를	-12155
시리즈중	-12156
영화이다	-12157
인것같다	-12158
잘봤어요	-12159
장면에서	-12160
하기만한	-12161
할수밖에	-12162
했을텐데	-12163
▁강추강추	-12164
▁거부감이	-12165
▁그래픽도	-12166
▁기대보다	-12167
▁기분이다	-12168
▁나비효과	-12169
▁남자들이	-12170
▁들었는데	-12171
▁떠오른다	-12172
▁로맨스도	-12173
▁명작인데	-12174
▁무언가를	-12175
▁미치겠다	-12176
▁배우들로	-12177
▁버금가는	-12178
▁보았지만	-12179
▁비현실적	-12180
▁빠져든다	-12181
▁산만하다	-12182
▁솔직하게	-12183
▁억지설정	-12184
▁연출력도	-12185
▁영화로써	-12186
▁완성도를	-12187
▁왜이러냐	-12188
▁원작보다	-12189
▁유치원생	-12190
▁유쾌하다	-12191
▁잔인하게	-12192
▁재미까지	-12193
▁재밌겠다	-12194
▁잼있는데	-12195
▁점이라도	-12196
▁제목부터	-12197
▁조잡하다	-12198
▁줄거리에	-12199
▁지루했던	-12200
▁집중하게	-12201
▁초반에는	-12202
▁토요명화	-12203
▁한순간도	-12204
▁허무하고	-12205
▁흥미롭다	-12206
영화중에서	-12207
재미도없고	-12208
추천합니다	-12209
▁가면갈수록	-12210
▁나도모르게	-12211
▁마이너스는	-12212
▁만들어내는	-12213
▁뭔내용인지	-12214
▁볼만한영화	-12215
▁쓰레기라고	-12216
▁알았습니다	-12217
▁이건아니다	-12218
▁이런쓰레기	-12219
▁지금까지도	-12220
▁지루하네요	-12221
▁친구들이랑	-12222
▁캐릭터들의	-12223
인줄알았는데	-12224
▁행복했습니다	-12225
▁감동적이었어요	-12226
▁수고하셨습니다	-12227
ᄅᄀ	-12228
ᅩᅩ	-12229
▁득	-12230
▁럼	-12231
▁묶	-12232
▁밟	-12233
▁얕	-12234
▁왼	-12235
▁잣	-12236
▁펑	-12237
개판	-12238
구구	-12239
구로	-12240
구여	-12241
규리	-12242
급조	-12243
기스	-12244
껀데	-12245
끄고	-12246
끝에	-12247
내기	-12248
내라	-12249
너의	-12250
느님	-12251
대표	-12252
도에	-12253
드레	-12254
드릴	-12255
들인	-12256
디다	-12257
디션	-12258
란이	-12259
러울	-12260
르의	-12261
릴라	-12262
만함	-12263
많네	-12264
면도	-12265
모가	-12266
뭉클	-12267
부르	-12268
부작	-12269
블랙	-12270
블록	-12271
산이	-12272
새벽	-12273
설레	-12274
소사	-12275
스티	-12276
신듯	-12277
씬도	-12278
역의	-12279
운다	-12280
운동	-12281
워라	-12282
유미	-12283
의사	-12284
이번	-12285
이소	-12286
이시	-12287
일라	-12288
점줌	-12289
졌고	-12290
좋앗	-12291
지식	-12292
진씨	-12293
질을	-12294
청춘	-12295
카이	-12296
커스	-12297
클럽	-12298
키스	-12299
키의	-12300
트리	-12301
하듯	-12302
했냐	-12303
행을	-12304
홍콩	-12305
▁강시	-12306
▁개운	-12307
▁거임	-12308
▁걸레	-12309
▁고수	-12310
▁그딴	-12311
▁기원	-12312
▁김대	-12313
▁끝장	-12314
▁나갈	-12315
▁나나	-12316
▁남김	-12317
▁낫네	-12318
▁내놔	-12319
▁넘기	-12320
▁년생	-12321
▁논리	-12322
▁높음	-12323
▁눈높	-12324
▁단막	-12325
▁대세	-12326
▁독백	-12327
▁동참	-12328
▁된게	-12329
▁될것	-12330
▁드립	-12331
▁또는	-12332
▁똥싸	-12333
▁리가	-12334
▁많지	-12335
▁말에	-12336
▁먹어	-12337
▁먹을	-12338
▁면도	-12339
▁무뇌	-12340
▁무방	-12341
▁뭐죠	-12342
▁뭔데	-12343
▁뭘말	-12344
▁미군	-12345
▁밀어	-12346
▁박한	-12347
▁변함	-12348
▁볼땐	-12349
▁부인	-12350
▁빨아	-12351
▁빼앗	-12352
▁산다	-12353
▁살자	-12354
▁색다	-12355
▁서사	-12356
▁선율	-12357
▁선전	-12358
▁신념	-12359
▁싫음	-12360
▁썩은	-12361
▁아시	-12362
▁안목	-12363
▁안성	-12364
▁앤딩	-12365
▁언더	-12366
▁에반	-12367
▁여우	-12368
▁완결	-12369
▁완존	-12370
▁윌스	-12371
▁유희	-12372
▁의존	-12373
▁이문	-12374
▁작정	-12375
▁잠안	-12376
▁장미	-12377
▁장점	-12378
▁존스	-12379
▁종결	-12380
▁좌파	-12381
▁지닌	-12382
▁지들	-12383
▁직장	-12384
▁진보	-12385
▁짓게	-12386
▁참다	-12387
▁창조	-12388
▁채민	-12389
▁쳐다	-12390
▁칼로	-12391
▁터져	-12392
▁파헤	-12393
▁폭파	-12394
▁플래	-12395
▁필립	-12396
▁합쳐	-12397
▁혹성	-12398
▁홍수	-12399
▁화해	-12400
▁회사	-12401
▁후후	-12402
가치가	-12403
감으로	-12404
꼭봐야	-12405
나와라	-12406
내시간	-12407
들었다	-12408
때부터	-12409
리는게	-12410
본다면	-12411
봤을까	-12412
분들도	-12413
빠지는	-12414
소리만	-12415
순없지	-12416
아이돌	-12417
어가고	-12418
없었던	-12419
엇지만	-12420
에게서	-12421
연기짱	-12422
왜이래	-12423
울었다	-12424
읍니다	-12425
인건가	-12426
일까요	-12427
일지도	-12428
재밋고	-12429
주려고	-12430
지금은	-12431
짜증남	-12432
코드가	-12433
티비티	-12434
파서블	-12435
할께요	-12436
할려고	-12437
해야만	-12438
햇지만	-12439
훌륭한	-12440
▁가네요	-12441
▁각본과	-12442
▁감독아	-12443
▁강혜정	-12444
▁같았음	-12445
▁개실망	-12446
▁고스트	-12447
▁관객은	-12448
▁구리고	-12449
▁그래두	-12450
▁그러니	-12451
▁글쎄요	-12452
▁기타노	-12453
▁김래원	-12454
▁꼬라지	-12455
▁꼽히는	-12456
▁꽝이다	-12457
▁노력한	-12458
▁느꼈던	-12459
▁돋보인	-12460
▁듣보잡	-12461
▁따라한	-12462
▁떠나는	-12463
▁또다시	-12464
▁또한번	-12465
▁만든것	-12466
▁모니카	-12467
▁모니터	-12468
▁모티브	-12469
▁몸부림	-12470
▁못하나	-12471
▁못한게	-12472
▁무개념	-12473
▁미국은	-12474
▁방식이	-12475
▁보기전	-12476
▁보는건	-12477
▁봤어야	-12478
▁빨리감	-12479
▁사회에	-12480
▁생각날	-12481
▁생각남	-12482
▁생생한	-12483
▁소녀의	-12484
▁소년의	-12485
▁순간이	-12486
▁시키는	-12487
▁신기할	-12488
▁신민아	-12489
▁아까웠	-12490
▁아프고	-12491
▁안나와	-12492
▁않겠다	-12493
▁않다는	-12494
▁애틋한	-12495
▁약빨고	-12496
▁어떨까	-12497
▁어렵고	-12498
▁어쨋든	-12499
▁엉성함	-12500
▁역할을	-12501
▁예술가	-12502
▁올만에	-12503
▁완벽히	-12504
▁완전한	-12505
▁요소를	-12506
▁웨스턴	-12507
▁유머도	-12508
▁이러지	-12509
▁이리도	-12510
▁이준기	-12511
▁자기만	-12512
▁장난이	-12513
▁잼있어	-12514
▁정당화	-12515
▁제목도	-12516
▁좋겠음	-12517
▁좋아라	-12518
▁좋은듯	-12519
▁죽음이	-12520
▁지독한	-12521
▁지브리	-12522
▁진수를	-12523
▁진행이	-12524
▁짱짱짱	-12525
▁차가운	-12526
▁처음봄	-12527
▁최고작	-12528
▁최악은	-12529
▁추억에	-12530
▁코믹도	-12531
▁킹왕짱	-12532
▁터무니	-12533
▁했네요	-12534
▁했다면	-12535
▁호기심	-12536
▁화난다	-12537
만으로는	-12538
봐야겠다	-12539
봤는데도	-12540
을정도로	-12541
이었는데	-12542
일뿐이다	-12543
적이었다	-12544
처음부터	-12545
▁괜찮았고	-12546
▁그립네요	-12547
▁기억하는	-12548
▁끝내주는	-12549
▁나발이고	-12550
▁난해하다	-12551
▁남자배우	-12552
▁느낄수있	-12553
▁돋보였던	-12554
▁드라마틱	-12555
▁만드는게	-12556
▁말할것도	-12557
▁망한영화	-12558
▁무의미한	-12559
▁보지말고	-12560
▁볼거리는	-12561
▁볼만했던	-12562
▁부족했다	-12563
▁브래드피	-12564
▁상상력을	-12565
▁생각하지	-12566
▁샤를리즈	-12567
▁선생님이	-12568
▁성장영화	-12569
▁아니에요	-12570
▁아무래도	-12571
▁아쉬웠다	-12572
▁안하는데	-12573
▁어이없게	-12574
▁영화라기	-12575
▁영화보면	-12576
▁영화평점	-12577
▁예술이다	-12578
▁옴니버스	-12579
▁욕하면서	-12580
▁용두사미	-12581
▁유치하긴	-12582
▁이거밖에	-12583
▁이쁘네요	-12584
▁있을까요	-12585
▁점이라니	-12586
▁좋아하면	-12587
▁주옥같은	-12588
▁주인공과	-12589
▁줄거리도	-12590
▁지루했고	-12591
▁짜증났음	-12592
▁찍었을까	-12593
▁촌스럽고	-12594
▁풋풋하고	-12595
▁필요없고	-12596
▁화끈하게	-12597
▁후반으로	-12598
점준것중에	-12599
▁괜찮은영화	-12600
▁내용이지만	-12601
▁니콜키드먼	-12602
▁대단하네요	-12603
▁대단하다고	-12604
▁되돌아보게	-12605
▁떨어지지만	-12606
▁리메이크작	-12607
▁마지막으로	-12608
▁만들었다면	-12609
▁매력적이고	-12610
▁보여줬는데	-12611
▁스크린으로	-12612
▁영화이지만	-12613
▁자연스럽고	-12614
▁재미없었던	-12615
▁중간중간에	-12616
▁지루하기도	-12617
▁추천해주고	-12618
▁훌륭합니다	-12619
▁말이필요없음	-12620
▁브루스윌리스	-12621
▁애니메이션은	-12622
▁영화보는내내	-12623
▁뷰	-12624
▁썅	-12625
▁쯔	-12626
▁쿡	-12627
▁퀄	-12628
▁훗	-12629
가수	-12630
각기	-12631
개뿔	-12632
걸고	-12633
검색	-12634
과정	-12635
괴물	-12636
그지	-12637
길바	-12638
꺼라	-12639
나를	-12640
나잇	-12641
남편	-12642
넘어	-12643
느낀	-12644
대결	-12645
대본	-12646
대서	-12647
도못	-12648
동네	-12649
동석	-12650
든데	-12651
따로	-12652
라드	-12653
랄라	-12654
랜든	-12655
레미	-12656
령이	-12657
루니	-12658
르르	-12659
리얼	-12660
마가	-12661
많아	-12662
물어	-12663
뭐라	-12664
바뀌	-12665
바다	-12666
바탕	-12667
박스	-12668
발랄	-12669
밤에	-12670
방에	-12671
분투	-12672
살짝	-12673
생의	-12674
세번	-12675
세용	-12676
습니	-12677
시킴	-12678
신다	-12679
신히	-12680
써서	-12681
씁쓸	-12682
아침	-12683
안보	-12684
안볼	-12685
애를	-12686
어느	-12687
어렵	-12688
어져	-12689
연습	-12690
예모	-12691
예뻐	-12692
워야	-12693
일도	-12694
일체	-12695
입견	-12696
작정	-12697
잼씀	-12698
저래	-12699
졌어	-12700
조심	-12701
졸잼	-12702
죽이	-12703
즈는	-12704
지구	-12705
짜는	-12706
쳐라	-12707
최강	-12708
칠때	-12709
침을	-12710
코비	-12711
코의	-12712
타닉	-12713
탄탄	-12714
태규	-12715
태웅	-12716
터의	-12717
해여	-12718
호는	-12719
황당	-12720
희씨	-12721
▁개쩌	-12722
▁겠다	-12723
▁고고	-12724
▁고향	-12725
▁공산	-12726
▁관광	-12727
▁광기	-12728
▁교차	-12729
▁긍정	-12730
▁기어	-12731
▁깔깔	-12732
▁낄낄	-12733
▁나누	-12734
▁놀이	-12735
▁눈은	-12736
▁달아	-12737
▁닮은	-12738
▁대다	-12739
▁동료	-12740
▁되요	-12741
▁딱딱	-12742
▁루이	-12743
▁망상	-12744
▁매년	-12745
▁매튜	-12746
▁명량	-12747
▁무튼	-12748
▁미련	-12749
▁바가	-12750
▁바꿀	-12751
▁바램	-12752
▁밝고	-12753
▁베낀	-12754
▁베니	-12755
▁베르	-12756
▁별을	-12757
▁보물	-12758
▁불꽃	-12759
▁비가	-12760
▁빌리	-12761
▁사막	-12762
▁사형	-12763
▁삼국	-12764
▁상을	-12765
▁생겨	-12766
▁서민	-12767
▁서우	-12768
▁설렘	-12769
▁성경	-12770
▁소비	-12771
▁손을	-12772
▁수목	-12773
▁스탭	-12774
▁스틸	-12775
▁슬플	-12776
▁쌍벽	-12777
▁쓰잘	-12778
▁씬이	-12779
▁안경	-12780
▁안듬	-12781
▁않길	-12782
▁알면	-12783
▁에디	-12784
▁왜들	-12785
▁우마	-12786
▁원초	-12787
▁으악	-12788
▁이념	-12789
▁이면	-12790
▁이슈	-12791
▁이주	-12792
▁일도	-12793
▁잃지	-12794
▁임신	-12795
▁작살	-12796
▁잡은	-12797
▁장선	-12798
▁정글	-12799
▁제맛	-12800
▁좋구	-12801
▁중고	-12802
▁지연	-12803
▁진출	-12804
▁쩔고	-12805
▁최수	-12806
▁타락	-12807
▁타짜	-12808
▁탄은	-12809
▁태극	-12810
▁터질	-12811
▁토이	-12812
▁패스	-12813
▁하얀	-12814
▁하필	-12815
▁한때	-12816
▁한지	-12817
▁했지	-12818
▁혹평	-12819
▁효민	-12820
▁훈련	-12821
▁흐르	-12822
▁희극	-12823
가보다	-12824
것이지	-12825
결말도	-12826
그렇고	-12827
기만한	-12828
나왔다	-12829
날로그	-12830
남네요	-12831
남자가	-12832
네ᅳᅳ	-12833
되어서	-12834
되어야	-12835
드럽게	-12836
들과의	-12837
들인가	-12838
맙소사	-12839
보지말	-12840
부분에	-12841
세상에	-12842
셨어요	-12843
시킨다	-12844
싸이코	-12845
아무튼	-12846
았을까	-12847
애들도	-12848
어보이	-12849
었다니	-12850
연출력	-12851
영상미	-12852
예쁘고	-12853
요일이	-12854
우이웃	-12855
이들이	-12856
인이다	-12857
있어야	-12858
자마자	-12859
잼있게	-12860
정도다	-12861
정신이	-12862
주의의	-12863
죽이는	-12864
줬는데	-12865
지마요	-12866
진짜로	-12867
칩니다	-12868
하진않	-12869
핵노잼	-12870
▁ᅮᅮᅮ	-12871
▁가깝다	-12872
▁가치는	-12873
▁감명깊	-12874
▁감정의	-12875
▁개망작	-12876
▁개명작	-12877
▁개봉작	-12878
▁개인의	-12879
▁갱스터	-12880
▁것들은	-12881
▁것일까	-12882
▁구하기	-12883
▁굿바이	-12884
▁그러지	-12885
▁그려진	-12886
▁기회를	-12887
▁나았을	-12888
▁나오나	-12889
▁나오니	-12890
▁남편이	-12891
▁노무현	-12892
▁놀라움	-12893
▁느낌과	-12894
▁다있어	-12895
▁되겠다	-12896
▁되버린	-12897
▁말하면	-12898
▁멋있게	-12899
▁몇년이	-12900
▁무난한	-12901
▁무료로	-12902
▁무한한	-12903
▁뭔내용	-12904
▁미래의	-12905
▁배우고	-12906
▁봐야될	-12907
▁봤어도	-12908
▁불쌍함	-12909
▁사랑함	-12910
▁사실에	-12911
▁새롭다	-12912
▁생각안	-12913
▁성우를	-12914
▁세번째	-12915
▁수밖에	-12916
▁스피드	-12917
▁신현준	-12918
▁싶다는	-12919
▁씨리즈	-12920
▁아시는	-12921
▁아이의	-12922
▁안가네	-12923
▁안되지	-12924
▁양조위	-12925
▁어딘가	-12926
▁어벤져	-12927
▁어울림	-12928
▁어지간	-12929
▁얼굴도	-12930
▁얼굴을	-12931
▁여고생	-12932
▁여자와	-12933
▁연기나	-12934
▁연기파	-12935
▁열연이	-12936
▁영혼을	-12937
▁와이어	-12938
▁욕나오	-12939
▁욕나옴	-12940
▁욕하고	-12941
▁욕하는	-12942
▁운명을	-12943
▁이걸로	-12944
▁이러면	-12945
▁이루는	-12946
▁이지만	-12947
▁인기가	-12948
▁인터뷰	-12949
▁일본인	-12950
▁일어난	-12951
▁있을때	-12952
▁자세히	-12953
▁자체를	-12954
▁저급한	-12955
▁조아요	-12956
▁좋으면	-12957
▁주는데	-12958
▁주연이	-12959
▁죽음의	-12960
▁중딩때	-12961
▁줘야지	-12962
▁진실은	-12963
▁진실이	-12964
▁집어넣	-12965
▁초중반	-12966
▁최고야	-12967
▁친구를	-12968
▁케이스	-12969
▁테스트	-12970
▁퍼펙트	-12971
▁평가할	-12972
▁표현해	-12973
▁하더라	-12974
▁하여간	-12975
▁합시다	-12976
▁현재의	-12977
▁홍진호	-12978
▁흐른다	-12979
보지마셈	-12980
생각보다	-12981
아버지가	-12982
액션영화	-12983
우면서도	-12984
지금봐도	-12985
▁ᅮᅮᅮᅮ	-12986
▁감독이나	-12987
▁개봉하지	-12988
▁개연성은	-12989
▁귀엽네요	-12990
▁기억속에	-12991
▁나뿐인가	-12992
▁나온다는	-12993
▁나왔는지	-12994
▁도대체가	-12995
▁돈아까움	-12996
▁되어버린	-12997
▁리얼하게	-12998
▁만드는데	-12999
▁말도안돼	-13000
▁명작이지	-13001
▁명작중의	-13002
▁모두에게	-13003
▁미국에서	-13004
▁보다보다	-13005
▁보여주지	-13006
▁보이네요	-13007
▁사이에서	-13008
▁살아있다	-13009
▁생각된다	-13010
▁손꼽히는	-13011
▁수준낮은	-13012
▁스릴러의	-13013
▁스타일은	-13014
▁싶어지는	-13015
▁씁쓸하다	-13016
▁아까운데	-13017
▁아버지와	-13018
▁안보는데	-13019
▁어디에도	-13020
▁어릴적에	-13021
▁어이없어	-13022
▁연기들도	-13023
▁엽기적인	-13024
▁영화까지	-13025
▁웃기려고	-13026
▁이딴영화	-13027
▁이야기와	-13028
▁일깨워준	-13029
▁일본애니	-13030
▁일어나는	-13031
▁있는것도	-13032
▁작품성을	-13033
▁작품으로	-13034
▁정신세계	-13035
▁좋은작품	-13036
▁진정으로	-13037
▁짱이에요	-13038
▁천녀유혼	-13039
▁출연하는	-13040
▁크리스틴	-13041
▁평점테러	-13042
▁프로젝트	-13043
▁했었는데	-13044
▁현실에서	-13045
▁혹성탈출	-13046
▁훌륭했다	-13047
스럽습니다	-13048
이런영화가	-13049
재미없어요	-13050
재밌었어요	-13051
최고입니다	-13052
▁감동이에요	-13053
▁궁금하네요	-13054
▁느낄수있는	-13055
▁더럽게없다	-13056
▁드라마보다	-13057
▁드라마중에	-13058
▁먹먹해지는	-13059
▁모든면에서	-13060
▁모르겠어요	-13061
▁보면볼수록	-13062
▁싶을정도로	-13063
▁아름답네요	-13064
▁억지스러움	-13065
▁영화보다는	-13066
▁영화에서는	-13067
▁영화인데도	-13068
▁우리나라에	-13069
▁이런드라마	-13070
▁잔인하기만	-13071
▁재미없던데	-13072
▁좋아했는데	-13073
▁재밌게봤습니다	-13074
ᄅᄅ	-13075
▁ᄎ	-13076
▁굵	-13077
▁낡	-13078
▁딜	-13079
▁밧	-13080
▁밸	-13081
▁빤	-13082
▁쌀	-13083
▁째	-13084
▁챔	-13085
▁킴	-13086
▁펜	-13087
▁헝	-13088
▁흰	-13089
▁힛	-13090
갈등	-13091
감성	-13092
값이	-13093
개는	-13094
걸린	-13095
겠니	-13096
과학	-13097
군데	-13098
그려	-13099
금이	-13100
기업	-13101
꺼임	-13102
끝도	-13103
나나	-13104
날듯	-13105
니발	-13106
답고	-13107
당신	-13108
래야	-13109
로이	-13110
르지	-13111
리냐	-13112
맞아	-13113
매가	-13114
명은	-13115
모양	-13116
밀한	-13117
반도	-13118
별한	-13119
상관	-13120
상상	-13121
서사	-13122
소나	-13123
슬링	-13124
실한	-13125
심심	-13126
십쇼	-13127
싶어	-13128
아련	-13129
연은	-13130
였군	-13131
오의	-13132
외엔	-13133
울고	-13134
윤아	-13135
이연	-13136
인형	-13137
입이	-13138
잇게	-13139
자이	-13140
전기	-13141
전설	-13142
젊은	-13143
조각	-13144
조합	-13145
종교	-13146
중기	-13147
줬음	-13148
즈를	-13149
지경	-13150
질수	-13151
천포	-13152
취급	-13153
키가	-13154
통을	-13155
트랙	-13156
트에	-13157
튼의	-13158
폭행	-13159
표절	-13160
햇던	-13161
확인	-13162
흑흑	-13163
힐링	-13164
▁간에	-13165
▁갈릴	-13166
▁감싸	-13167
▁건드	-13168
▁견디	-13169
▁결투	-13170
▁고루	-13171
▁고만	-13172
▁고의	-13173
▁고집	-13174
▁곳이	-13175
▁구려	-13176
▁극의	-13177
▁금성	-13178
▁급급	-13179
▁기네	-13180
▁김보	-13181
▁깊다	-13182
▁꼽는	-13183
▁끌지	-13184
▁끼어	-13185
▁나네	-13186
▁나았	-13187
▁남이	-13188
▁낮을	-13189
▁년의	-13190
▁뉴스	-13191
▁다죽	-13192
▁도는	-13193
▁도움	-13194
▁동급	-13195
▁두뇌	-13196
▁드릅	-13197
▁들었	-13198
▁디지	-13199
▁딴짓	-13200
▁리브	-13201
▁마마	-13202
▁마시	-13203
▁말까	-13204
▁맞을	-13205
▁멈출	-13206
▁면을	-13207
▁명곡	-13208
▁미사	-13209
▁박하	-13210
▁밝은	-13211
▁백미	-13212
▁버렸	-13213
▁벅찬	-13214
▁법칙	-13215
▁법한	-13216
▁베끼	-13217
▁보냐	-13218
▁보인	-13219
▁비급	-13220
▁빨려	-13221
▁뿐만	-13222
▁사례	-13223
▁산타	-13224
▁생김	-13225
▁서글	-13226
▁서태	-13227
▁쇼킹	-13228
▁스무	-13229
▁스폰	-13230
▁시점	-13231
▁식의	-13232
▁신부	-13233
▁실존	-13234
▁쌍팔	-13235
▁썩어	-13236
▁아리	-13237
▁아서	-13238
▁아자	-13239
▁아휴	-13240
▁안고	-13241
▁압축	-13242
▁앵글	-13243
▁양반	-13244
▁양산	-13245
▁언어	-13246
▁었다	-13247
▁연계	-13248
▁우베	-13249
▁웃어	-13250
▁웬지	-13251
▁유도	-13252
▁윤제	-13253
▁으면	-13254
▁이뿌	-13255
▁일은	-13256
▁잃어	-13257
▁잉여	-13258
▁작렬	-13259
▁작작	-13260
▁잘한	-13261
▁잡지	-13262
▁장백	-13263
▁장편	-13264
▁전환	-13265
▁정부	-13266
▁제길	-13267
▁조직	-13268
▁중때	-13269
▁줬어	-13270
▁지리	-13271
▁지속	-13272
▁지원	-13273
▁찾은	-13274
▁총질	-13275
▁최신	-13276
▁케미	-13277
▁타잔	-13278
▁통찰	-13279
▁한게	-13280
▁한쪽	-13281
▁허비	-13282
같지만	-13283
거린다	-13284
겟지만	-13285
겠구나	-13286
귀엽다	-13287
그렇지	-13288
그만큼	-13289
놈들아	-13290
다니고	-13291
더구만	-13292
또보고	-13293
리는거	-13294
말밖에	-13295
메이징	-13296
무서움	-13297
뮤지컬	-13298
받아야	-13299
보는거	-13300
보다더	-13301
보았다	-13302
본건데	-13303
사랑의	-13304
시켰다	-13305
싶네요	-13306
쓰는데	-13307
아닐까	-13308
액션도	-13309
어머니	-13310
없으면	-13311
역시나	-13312
열심히	-13313
영화만	-13314
영화와	-13315
이러스	-13316
인으로	-13317
일수도	-13318
있는듯	-13319
자들을	-13320
잘어울	-13321
장면만	-13322
장면을	-13323
질질끌	-13324
짱짱맨	-13325
테스크	-13326
폰으로	-13327
프랑스	-13328
해놓은	-13329
▁가난한	-13330
▁갑이다	-13331
▁같으니	-13332
▁고딩때	-13333
▁고통을	-13334
▁고현정	-13335
▁그래요	-13336
▁그러면	-13337
▁그치만	-13338
▁끌리는	-13339
▁나까지	-13340
▁나온건	-13341
▁남아도	-13342
▁남아요	-13343
▁노래와	-13344
▁놈들이	-13345
▁높은거	-13346
▁다시보	-13347
▁돋는다	-13348
▁돌아간	-13349
▁때까지	-13350
▁뜬금포	-13351
▁마디로	-13352
▁만들자	-13353
▁말기를	-13354
▁말장난	-13355
▁말하지	-13356
▁못봤다	-13357
▁뭐하자	-13358
▁민주화	-13359
▁믿을수	-13360
▁밖에는	-13361
▁발견한	-13362
▁범인은	-13363
▁별로네	-13364
▁본다는	-13365
▁봉태규	-13366
▁봣어요	-13367
▁비교할	-13368
▁빈디젤	-13369
▁빠지고	-13370
▁뿐이고	-13371
▁사회를	-13372
▁샌들러	-13373
▁생뚱맞	-13374
▁소설이	-13375
▁쇼생크	-13376
▁스러운	-13377
▁아깝게	-13378
▁안나올	-13379
▁안맞고	-13380
▁안보길	-13381
▁안에서	-13382
▁않았고	-13383
▁애매한	-13384
▁어쩐지	-13385
▁없었고	-13386
▁엉덩이	-13387
▁엉뚱한	-13388
▁여성의	-13389
▁연결이	-13390
▁영상을	-13391
▁영화군	-13392
▁예상치	-13393
▁오랫만	-13394
▁용가리	-13395
▁우리를	-13396
▁울린다	-13397
▁유아인	-13398
▁은은한	-13399
▁이것을	-13400
▁이네요	-13401
▁이라니	-13402
▁이런류	-13403
▁이름에	-13404
▁이민기	-13405
▁이번에	-13406
▁이종석	-13407
▁이후의	-13408
▁인물의	-13409
▁인셉션	-13410
▁있는것	-13411
▁자다가	-13412
▁자막이	-13413
▁자체로	-13414
▁재미난	-13415
▁잼있고	-13416
▁점인데	-13417
▁제작된	-13418
▁제작한	-13419
▁주다니	-13420
▁주말에	-13421
▁주제로	-13422
▁중국의	-13423
▁짠하다	-13424
▁짱인듯	-13425
▁	-13426
이	-13427
다	-13428
는	-13429
화	-13430
고	-13431
영	-13432
지	-13433
하	-13434
가	-13435
도	-13436
아	-13437
나	-13438
에	-13439
기	-13440
한	-13441
ᄏ	-13442
어	-13443
보	-13444
만	-13445
의	-13446
요	-13447
은	-13448
게	-13449
리	-13450
로	-13451
라	-13452
니	-13453
을	-13454
서	-13455
재	-13456
들	-13457
인	-13458
그	-13459
시	-13460
없	-13461
무	-13462
미	-13463
스	-13464
데	-13465
정	-13466
있	-13467
네	-13468
대	-13469
말	-13470
마	-13471
면	-13472
해	-13473
점	-13474
음	-13475
진	-13476
사	-13477
수	-13478
감	-13479
내	-13480
연	-13481
거	-13482
를	-13483
자	-13484
전	-13485
주	-13486
으	-13487
좋	-13488
작	-13489
었	-13490
너	-13491
안	-13492
우	-13493
오	-13494
장	-13495
드	-13496
여	-13497
까	-13498
상	-13499
야	-13500
짜	-13501
생	-13502
최	-13503
적	-13504
것	-13505
봤	-13506
ᅲ	-13507
제	-13508
더	-13509
간	-13510
같	-13511
했	-13512
밌	-13513
동	-13514
부	-13515
구	-13516
일	-13517
개	-13518
모	-13519
평	-13520
건	-13521
런	-13522
성	-13523
중	-13524
본	-13525
과	-13526
소	-13527
았	-13528
운	-13529
않	-13530
비	-13531
할	-13532
되	-13533
러	-13534
신	-13535
던	-13536
치	-13537
배	-13538
와	-13539
각	-13540
습	-13541
잘	-13542
분	-13543
때	-13544
히	-13545
려	-13546
유	-13547
용	-13548
ᄒ	-13549
세	-13550
공	-13551
레	-13552
랑	-13553
실	-13554
루	-13555
함	-13556
래	-13557
토	-13558
남	-13559
듯	-13560
못	-13561
저	-13562
느	-13563
국	-13564
난	-13565
볼	-13566
겠	-13567
봐	-13568
명	-13569
디	-13570
왜	-13571
터	-13572
조	-13573
임	-13574
알	-13575
독	-13576
ᅳ	-13577
싶	-13578
입	-13579
르	-13580
람	-13581
반	-13582
쓰	-13583
심	-13584
애	-13585
별	-13586
걸	-13587
악	-13588
준	-13589
편	-13590
물	-13591
바	-13592
든	-13593
원	-13594
막	-13595
역	-13596
타	-13597
금	-13598
력	-13599
버	-13600
노	-13601
름	-13602
좀	-13603
였	-13604
추	-13605
냥	-13606
많	-13607
망	-13608
단	-13609
냐	-13610
뭐	-13611
완	-13612
트	-13613
포	-13614
예	-13615
당	-13616
웃	-13617
잼	-13618
억	-13619
번	-13620
두	-13621
코	-13622
처	-13623
선	-13624
문	-13625
위	-13626
끝	-13627
현	-13628
년	-13629
매	-13630
품	-13631
션	-13632
렇	-13633
줄	-13634
발	-13635
울	-13636
참	-13637
속	-13638
ᅮ	-13639
긴	-13640
결	-13641
후	-13642
관	-13643
출	-13644
체	-13645
박	-13646
살	-13647
프	-13648
질	-13649
극	-13650
된	-13651
설	-13652
린	-13653
불	-13654
워	-13655
눈	-13656
넘	-13657
깝	-13658
절	-13659
직	-13660
따	-13661
계	-13662
잔	-13663
합	-13664
길	-13665
강	-13666
답	-13667
차	-13668
죽	-13669
경	-13670
님	-13671
액	-13672
릴	-13673
엔	-13674
청	-13675
메	-13676
천	-13677
식	-13678
행	-13679
허	-13680
군	-13681
짱	-13682
크	-13683
른	-13684
김	-13685
머	-13686
멋	-13687
돈	-13688
교	-13689
피	-13690
방	-13691
족	-13692
럽	-13693
즈	-13694
또	-13695
빠	-13696
먹	-13697
날	-13698
괜	-13699
낌	-13700
란	-13701
호	-13702
슬	-13703
초	-13704
판	-13705
몰	-13706
파	-13707
회	-13708
증	-13709
근	-13710
친	-13711
올	-13712
움	-13713
민	-13714
온	-13715
필	-13716
티	-13717
슨	-13718
겨	-13719
집	-13720
표	-13721
받	-13722
달	-13723
찮	-13724
순	-13725
급	-13726
형	-13727
캐	-13728
맞	-13729
특	-13730
귀	-13731
존	-13732
얼	-13733
져	-13734
학	-13735
꼭	-13736
엄	-13737
닌	-13738
목	-13739
새	-13740
언	-13741
록	-13742
복	-13743
끼	-13744
뻔	-13745
키	-13746
밋	-13747
글	-13748
씨	-13749
졸	-13750
뭔	-13751
카	-13752
맨	-13753
슴	-13754
돌	-13755
류	-13756
며	-13757
색	-13758
등	-13759
ᄃ	-13760
굿	-13761
테	-13762
충	-13763
누	-13764
왔	-13765
힘	-13766
케	-13767
림	-13768
외	-13769
낮	-13770
혀	-13771
뿐	-13772
딩	-13773
렸	-13774
희	-13775
흥	-13776
ᄍ	-13777
갈	-13778
양	-13779
잡	-13780
산	-13781
태	-13782
론	-13783
웠	-13784
통	-13785
담	-13786
높	-13787
녀	-13788
훈	-13789
격	-13790
약	-13791
술	-13792
욕	-13793
찍	-13794
열	-13795
브	-13796
쉬	-13797
럼	-13798
탄	-13799
씬	-13800
쉽	-13801
엇	-13802
봉	-13803
릭	-13804
능	-13805
황	-13806
쳐	-13807
베	-13808
될	-13809
밖	-13810
쁘	-13811
죠	-13812
놀	-13813
ᄋ	-13814
환	-13815
팅	-13816
종	-13817
투	-13818
떨	-13819
몇	-13820
찾	-13821
놓	-13822
범	-13823
솔	-13824
싸	-13825
딱	-13826
픈	-13827
엉	-13828
삼	-13829
졌	-13830
링	-13831
쾌	-13832
늘	-13833
접	-13834
랜	-13835
병	-13836
손	-13837
패	-13838
혼	-13839
깊	-13840
클	-13841
뜻	-13842
즐	-13843
큼	-13844
퍼	-13845
송	-13846
껴	-13847
립	-13848
블	-13849
승	-13850
께	-13851
향	-13852
났	-13853
믿	-13854
섭	-13855
꺼	-13856
잇	-13857
석	-13858
맛	-13859
백	-13860
갑	-13861
킬	-13862
싫	-13863
왕	-13864
잠	-13865
변	-13866
창	-13867
써	-13868
떻	-13869
즘	-13870
잊	-13871
광	-13872
권	-13873
빨	-13874
홍	-13875
뒤	-13876
겁	-13877
줘	-13878
딴	-13879
봄	-13880
앞	-13881
짐	-13882
법	-13883
벽	-13884
떠	-13885
놈	-13886
빼	-13887
찬	-13888
휴	-13889
커	-13890
쟁	-13891
먼	-13892
폭	-13893
죄	-13894
삶	-13895
팬	-13896
깨	-13897
락	-13898
채	-13899
짝	-13900
됨	-13901
덕	-13902
암	-13903
객	-13904
괴	-13905
봣	-13906
책	-13907
꾸	-13908
훌	-13909
확	-13910
륭	-13911
업	-13912
빈	-13913
큐	-13914
견	-13915
돋	-13916
흐	-13917
낭	-13918
짓	-13919
플	-13920
훨	-13921
걍	-13922
낫	-13923
쌍	-13924
쁜	-13925
곤	-13926
뭘	-13927
효	-13928
밀	-13929
룡	-13930
낚	-13931
빙	-13932
철	-13933
궁	-13934
총	-13935
닥	-13936
엽	-13937
틀	-13938
끔	-13939
월	-13940
맘	-13941
튼	-13942
굴	-13943
련	-13944
첨	-13945
탈	-13946
윤	-13947
텐	-13948
둘	-13949
낸	-13950
욱	-13951
끌	-13952
취	-13953
꿀	-13954
믹	-13955
풍	-13956
ᄉ	-13957
줌	-13958
옛	-13959
큰	-13960
끄	-13961
벌	-13962
갔	-13963
쓸	-13964
몸	-13965
찌	-13966
뛰	-13967
헐	-13968
숨	-13969
잖	-13970
랐	-13971
똥	-13972
쩔	-13973
쩌	-13974
침	-13975
혹	-13976
풀	-13977
페	-13978
얘	-13979
롭	-13980
굳	-13981
득	-13982
꼬	-13983
줬	-13984
됐	-13985
즌	-13986
빛	-13987
척	-13988
겟	-13989
빵	-13990
째	-13991
콩	-13992
겼	-13993
활	-13994
춘	-13995
꿈	-13996
셨	-13997
왠	-13998
험	-13999
돼	-14000
묘	-14001
흘	-14002
랄	-14003
떤	-14004
택	-14005
멘	-14006
착	-14007
혜	-14008
틱	-14009
꽤	-14010
웅	-14011
팔	-14012
똑	-14013
옴	-14014
멜	-14015
뜨	-14016
낄	-14017
랬	-14018
젠	-14019
골	-14020
징	-14021
슷	-14022
칠	-14023
햇	-14024
갖	-14025
멍	-14026
읽	-14027
셔	-14028
흑	-14029
ᄀ	-14030
응	-14031
땜	-14032
켜	-14033
럭	-14034
십	-14035
ᄇ	-14036
북	-14037
헤	-14038
슈	-14039
찰	-14040
딸	-14041
섹	-14042
깔	-14043
럴	-14044
압	-14045
흔	-14046
항	-14047
듬	-14048
픽	-14049
료	-14050
닐	-14051
젤	-14052
흠	-14053
첫	-14054
숙	-14055
앗	-14056
맥	-14057
쳤	-14058
곳	-14059
뻐	-14060
닝	-14061
듣	-14062
쓴	-14063
겐	-14064
랍	-14065
겹	-14066
쯤	-14067
츠	-14068
픔	-14069
널	-14070
펑	-14071
곡	-14072
익	-14073
굉	-14074
쇼	-14075
벗	-14076
빌	-14077
콜	-14078
킨	-14079
깐	-14080
ᄂ	-14081
넣	-14082
옥	-14083
엘	-14084
쿠	-14085
잃	-14086
밑	-14087
률	-14088
폐	-14089
놔	-14090
율	-14091
검	-14092
풋	-14093
컬	-14094
센	-14095
덜	-14096
령	-14097
륜	-14098
뮤	-14099
쪽	-14100
몽	-14101
씩	-14102
탕	-14103
축	-14104
규	-14105
념	-14106
힐	-14107
섬	-14108
탁	-14109
콤	-14110
틴	-14111
끈	-14112
협	-14113
밥	-14114
찝	-14115
량	-14116
싱	-14117
꼽	-14118
육	-14119
렵	-14120
묻	-14121
핵	-14122
엿	-14123
댓	-14124
꼈	-14125
촌	-14126
샤	-14127
깜	-14128
램	-14129
셈	-14130
ᄌ	-14131
땐	-14132
릿	-14133
꼴	-14134
뇌	-14135
낀	-14136
웨	-14137
짧	-14138
닿	-14139
렌	-14140
춤	-14141
푸	-14142
젊	-14143
염	-14144
렬	-14145
됬	-14146
균	-14147
논	-14148
맹	-14149
킹	-14150
잉	-14151
헌	-14152
냈	-14153
멀	-14154
볍	-14155
ᄅ	-14156
껏	-14157
쩐	-14158
앙	-14159
납	-14160
쥐	-14161
밤	-14162
봅	-14163
붙	-14164
찡	-14165
흡	-14166
뷰	-14167
씁	-14168
뜬	-14169
칼	-14170
ᄆ	-14171
촬	-14172
콘	-14173
힌	-14174
랫	-14175
엑	-14176
퀄	-14177
앤	-14178
잤	-14179
턴	-14180
닫	-14181
떡	-14182
혁	-14183
늙	-14184
옹	-14185
뭉	-14186
됩	-14187
쁨	-14188
윌	-14189
랙	-14190
홀	-14191
쏘	-14192
폰	-14193
렉	-14194
쥬	-14195
롱	-14196
맙	-14197
벨	-14198
뽕	-14199
얻	-14200
짠	-14201
컨	-14202
놨	-14203
빡	-14204
늦	-14205
벤	-14206
퇴	-14207
뒷	-14208
땅	-14209
쎄	-14210
씀	-14211
농	-14212
잭	-14213
퉁	-14214
썩	-14215
꽃	-14216
웬	-14217
몬	-14218
쯧	-14219
껄	-14220
좌	-14221
쩝	-14222
녹	-14223
뉴	-14224
뚱	-14225
뜩	-14226
꽝	-14227
쵝	-14228
헛	-14229
텔	-14230
톰	-14231
줍	-14232
끊	-14233
덤	-14234
밝	-14235
쫌	-14236
챙	-14237
폴	-14238
톤	-14239
삭	-14240
춰	-14241
획	-14242
벼	-14243
뿌	-14244
갓	-14245
덩	-14246
묵	-14247
숭	-14248
탑	-14249
갱	-14250
썼	-14251
값	-14252
닮	-14253
휘	-14254
ᅡ	-14255
팍	-14256
겉	-14257
둥	-14258
룬	-14259
팀	-14260
꿔	-14261
붕	-14262
뿔	-14263
떄	-14264
낙	-14265
맡	-14266
롯	-14267
푹	-14268
혐	-14269
냄	-14270
븐	-14271
므	-14272
첩	-14273
펐	-14274
ᅩ	-14275
낼	-14276
왓	-14277
쩜	-14278
틈	-14279
흉	-14280
낳	-14281
렁	-14282
탐	-14283
뢰	-14284
씹	-14285
꾼	-14286
넌	-14287
뽑	-14288
댄	-14289
듭	-14290
렷	-14291
멸	-14292
봇	-14293
례	-14294
엠	-14295
측	-14296
옷	-14297
뀌	-14298
셀	-14299
캬	-14300
갠	-14301
땡	-14302
튀	-14303
뱀	-14304
칭	-14305
퓨	-14306
냉	-14307
톱	-14308
깎	-14309
녕	-14310
략	-14311
섯	-14312
컴	-14313
털	-14314
ᅵ	-14315
넹	-14316
뚝	-14317
떼	-14318
빅	-14319
옆	-14320
칸	-14321
팩	-14322
혈	-14323
멈	-14324
뽀	-14325
쿵	-14326
뻤	-14327
섞	-14328
퀴	-14329
샘	-14330
컷	-14331
딘	-14332
젼	-14333
쩡	-14334
뎁	-14335
빗	-14336
닙	-14337
밍	-14338
곱	-14339
탓	-14340
펙	-14341
펜	-14342
헬	-14343
왤	-14344
닉	-14345
칙	-14346
ᄎ	-14347
벅	-14348
딧	-14349
껐	-14350
뎀	-14351
룩	-14352
쏟	-14353
윈	-14354
핑	-14355
롤	-14356
찜	-14357
덴	-14358
둔	-14359
셉	-14360
앉	-14361
웰	-14362
깍	-14363
쭉	-14364
폼	-14365
긋	-14366
깁	-14367
넷	-14368
렀	-14369
뭥	-14370
컥	-14371
콧	-14372
ᅥ	-14373
렐	-14374
켓	-14375
깡	-14376
쯔	-14377
텝	-14378
핀	-14379
층	-14380
틸	-14381
팝	-14382
찐	-14383
둑	-14384
곰	-14385
델	-14386
쿨	-14387
뎅	-14388
띄	-14389
쏠	-14390
짬	-14391
늑	-14392
쪼	-14393
싹	-14394
얄	-14395
닷	-14396
앵	-14397
걱	-14398
곽	-14399
삐	-14400
쿡	-14401
팠	-14402
펼	-14403
렛	-14404
랭	-14405
젖	-14406
곧	-14407
땀	-14408
닼	-14409
싼	-14410
앨	-14411
딜	-14412
뷔	-14413
죤	-14414
탱	-14415
낯	-14416
뗄	-14417
숀	-14418
찔	-14419
ᄡ	-14420
깃	-14421
뚜	-14422
옵	-14423
쨌	-14424
쫄	-14425
넬	-14426
츄	-14427
썰	-14428
읍	-14429
켰	-14430
뱅	-14431
컸	-14432
랩	-14433
맴	-14434
웟	-14435
ᄊ	-14436
ᅢ	-14437
삽	-14438
셋	-14439
욤	-14440
찢	-14441
ᄁ	-14442
껀	-14443
똘	-14444
샌	-14445
홧	-14446
닭	-14447
및	-14448
짤	-14449
렴	-14450
릅	-14451
퉤	-14452
틋	-14453
헉	-14454
눌	-14455
몫	-14456
밴	-14457
켄	-14458
템	-14459
맺	-14460
튜	-14461
둡	-14462
랴	-14463
뭣	-14464
쟈	-14465
겪	-14466
엣	-14467
뻥	-14468
셜	-14469
쌩	-14470
킥	-14471
툰	-14472
쩍	-14473
냅	-14474
셰	-14475
첼	-14476
뻑	-14477
홈	-14478
긍	-14479
덮	-14480
됫	-14481
맑	-14482
톡	-14483
릇	-14484
밧	-14485
뿜	-14486
셧	-14487
캅	-14488
핫	-14489
끗	-14490
쇄	-14491
쫓	-14492
캡	-14493
콕	-14494
킴	-14495
걷	-14496
꽉	-14497
땠	-14498
뜸	-14499
쉐	-14500
쉴	-14501
혔	-14502
겻	-14503
핸	-14504
듦	-14505
띠	-14506
뭇	-14507
빕	-14508
뻣	-14509
쏴	-14510
왈	-14511
밉	-14512
뺏	-14513
엮	-14514
짙	-14515
쭈	-14516
툭	-14517
ᄐ	-14518
귄	-14519
뤄	-14520
옳	-14521
푼	-14522
헷	-14523
뚫	-14524
캠	-14525
퀸	-14526
팡	-14527
훼	-14528
둠	-14529
랏	-14530
맷	-14531
멤	-14532
줫	-14533
뜯	-14534
쌓	-14535
썬	-14536
썸	-14537
앜	-14538
펭	-14539
룰	-14540
욬	-14541
웍	-14542
졋	-14543
솜	-14544
젝	-14545
턱	-14546
렘	-14547
삘	-14548
웹	-14549
캔	-14550
훗	-14551
꽁	-14552
릉	-14553
믄	-14554
밨	-14555
옮	-14556
헨	-14557
훔	-14558
힙	-14559
쌈	-14560
윽	-14561
넓	-14562
늬	-14563
덧	-14564
빤	-14565
숲	-14566
좆	-14567
텅	-14568
겄	-14569
궈	-14570
꾹	-14571
밟	-14572
붉	-14573
썻	-14574
잣	-14575
킵	-14576
팽	-14577
긔	-14578
쏙	-14579
쨋	-14580
뼈	-14581
즉	-14582
짖	-14583
껍	-14584
끓	-14585
덥	-14586
쇠	-14587
앓	-14588
췄	-14589
꺄	-14590
넼	-14591
닦	-14592
둬	-14593
쉣	-14594
얀	-14595
웩	-14596
펀	-14597
펴	-14598
헝	-14599
갇	-14600
곁	-14601
녁	-14602
댐	-14603
됌	-14604
빚	-14605
쑤	-14606
쒸	-14607
켈	-14608
탠	-14609
ᅦ	-14610
꼇	-14611
꿨	-14612
딕	-14613
엌	-14614
룸	-14615
륵	-14616
샬	-14617
펠	-14618
핳	-14619
힛	-14620
넋	-14621
뎌	-14622
떳	-14623
럿	-14624
뭡	-14625
벙	-14626
뻘	-14627
샀	-14628
잎	-14629
쫒	-14630
멕	-14631
뱉	-14632
쌀	-14633
쿄	-14634
탤	-14635
횽	-14636
뀐	-14637
뒀	-14638
탭	-14639
흰	-14640
겸	-14641
꽥	-14642
뉘	-14643
댈	-14644
댕	-14645
됴	-14646
듀	-14647
딨	-14648
륙	-14649
밸	-14650
뺨	-14651
칩	-14652
흙	-14653
귓	-14654
눠	-14655
띵	-14656
샷	-14657
쉰	-14658
슐	-14659
얌	-14660
욜	-14661
욧	-14662
쬐	-14663
췌	-14664
톨	-14665
펄	-14666
ᅭ	-14667
묶	-14668
숫	-14669
챔	-14670
텀	-14671
ᄑ	-14672
뺀	-14673
썅	-14674
얽	-14675
핏	-14676
횡	-14677
꼼	-14678
뇨	-14679
닳	-14680
돕	-14681
엎	-14682
젓	-14683
젬	-14684
쨩	-14685
쪄	-14686
쫙	-14687
칫	-14688
컵	-14689
쿼	-14690
퀀	-14691
퍽	-14692
픕	-14693
갤	-14694
룹	-14695
뤘	-14696
붐	-14697
샹	-14698
쌤	-14699
씽	-14700
왼	-14701
웁	-14702
좁	-14703
켠	-14704
탔	-14705
햄	-14706
ᅣ	-14707
괘	-14708
깬	-14709
꽂	-14710
녔	-14711
뺐	-14712
솟	-14713
쌔	-14714
얕	-14715
짚	-14716
펏	-14717
굵	-14718
넨	-14719
됀	-14720
롬	-14721
몹	-14722
뺴	-14723
얹	-14724
쟝	-14725
햐	-14726
깽	-14727
늠	-14728
뜰	-14729
빽	-14730
섰	-14731
쑈	-14732
씌	-14733
엥	-14734
촉	-14735
쵸	-14736
핡	-14737
홉	-14738
훅	-14739
휼	-14740
갸	-14741
곸	-14742
꺅	-14743
붓	-14744
빔	-14745
슌	-14746
썽	-14747
씻	-14748
앳	-14749
쥔	-14750
핍	-14751
ᅧ	-14752
겜	-14753
낡	-14754
놉	-14755
뎈	-14756
돠	-14757
뚤	-14758
릎	-14759
밭	-14760
뿅	-14761
쁠	-14762
셸	-14763
싯	-14764
윗	-14765
윙	-14766
퀼	-14767
킷	-14768
팜	-14769
굼	-14770
꾀	-14771
꿉	-14772
댜	-14773
멎	-14774
밈	-14775
뵈	-14776
쥑	-14777
짭	-14778
쳇	-14779
힝	-14780
꺽	-14781
딥	-14782
뮬	-14783
쉘	-14784
얔	-14785
옜	-14786
욯	-14787
좔	-14788
쨔	-14789
쪙	-14790
걔	-14791
겔	-14792
긁	-14793
꿋	-14794
낱	-14795
떴	-14796
뤽	-14797
뱃	-14798
벡	-14799
뷁	-14800
읎	-14801
쫑	-14802
쳣	-14803
텨	-14804
꺾	-14805
뛴	-14806
뵙	-14807
쁩	-14808
샴	-14809
슥	-14810
욘	-14811
웡	-14812
쟤	-14813
쾅	-14814
쿤	-14815
큽	-14816
킁	-14817
퉷	-14818
풉	-14819
겅	-14820
괞	-14821
괸	-14822
껑	-14823
낰	-14824
넴	-14825
뇬	-14826
멧	-14827
숴	-14828
얍	-14829
잌	-14830
찼	-14831
캣	-14832
콥	-14833
핥	-14834
훤	-14835
깼	-14836
뀔	-14837
넝	-14838
댔	-14839
땟	-14840
뭍	-14841
뻗	-14842
뿍	-14843
쒯	-14844
졷	-14845
첸	-14846
칵	-14847
퀘	-14848
큘	-14849
텍	-14850
헴	-14851
휩	-14852
뀜	-14853
넥	-14854
땔	-14855
룻	-14856
믓	-14857
뿡	-14858
잰	-14859
좃	-14860
촘	-14861
큭	-14862
툴	-14863
폄	-14864
퐁	-14865
ᄈ	-14866
꼐	-14867
끽	-14868
됏	-14869
딪	-14870
뤠	-14871
쏜	-14872
욥	-14873
융	-14874
잴	-14875
춥	-14876
헠	-14877
헿	-14878
홥	-14879
횟	-14880
ᆪ	-14881
곀	-14882
꿰	-14883
낍	-14884
냔	-14885
냨	-14886
넉	-14887
눅	-14888
돔	-14889
랖	-14890
맬	-14891
샐	-14892
샵	-14893
앍	-14894
앰	-14895
죵	-14896
츤	-14897
콱	-14898
휠	-14899
갚	-14900
굽	-14901
꺠	-14902
꽈	-14903
꿍	-14904
닠	-14905
벳	-14906
빴	-14907
섀	-14908
쎈	-14909
왁	-14910
쮸	-14911
촤	-14912
캄	-14913
컹	-14914
핰	-14915
훑	-14916
흣	-14917
갯	-14918
괄	-14919
뀨	-14920
냠	-14921
넛	-14922
닛	-14923
댁	-14924
뒈	-14925
뒹	-14926
렜	-14927
롹	-14928
륨	-14929
먀	-14930
뮈	-14931
빰	-14932
뽐	-14933
쉼	-14934
썹	-14935
옌	-14936
웽	-14937
윅	-14938
줏	-14939
촐	-14940
텼	-14941
팟	-14942
팰	-14943
햌	-14944
껌	-14945
덱	-14946
떵	-14947
롸	-14948
멱	-14949
뭄	-14950
밓	-14951
쌉	-14952
썪	-14953
쑥	-14954
읊	-14955
쥴	-14956
짘	-14957
짴	-14958
쨰	-14959
콰	-14960
햅	-14961
혓	-14962
휙	-14963
ᄄ	-14964
갘	-14965
굶	-14966
궤	-14967
깅	-14968
깸	-14969
꿇	-14970
끙	-14971
놧	-14972
뎃	-14973
떙	-14974
랗	-14975
뤼	-14976
볶	-14977
샛	-14978
숏	-14979
엾	-14980
옄	-14981
읭	-14982
졉	-14983
쥰	-14984
짰	-14985
찹	-14986
챈	-14987
챘	-14988
챦	-14989
촛	-14990
캉	-14991
흩	-14992
갉	-14993
괭	-14994
깟	-14995
덟	-14996
