<unk>	0
<s>	0
</s>	0
▁	-3.34231
이	-4.30791
▁영화	-4.36517
의	-4.58456
가	-4.65387
도	-4.65617
는	-4.69418
을	-4.88812
다	-5.00559
에	-5.01074
은	-5.0554
고	-5.09765
지	-5.12866
한	-5.35029
▁너무	-5.38871
를	-5.45438
만	-5.46628
▁이	-5.48454
▁정말	-5.5292
로	-5.64107
나	-5.68331
게	-5.71379
▁진짜	-5.73799
영화	-5.75056
어	-5.89525
기	-5.98658
과	-5.98976
네	-5.9904
라	-6.01066
리	-6.01117
인	-6.07979
으로	-6.08052
하고	-6.09924
요	-6.12069
아	-6.12387
▁안	-6.13437
▁잘	-6.13665
▁다	-6.16612
▁더	-6.17942
▁점	-6.18384
들	-6.22027
▁그	-6.22372
▁왜	-6.25492
서	-6.25861
▁수	-6.27647
네요	-6.27986
▁아	-6.30444
와	-6.30569
거	-6.32854
▁이런	-6.33896
해	-6.3402
에서	-6.36342
하는	-6.37745
음	-6.40776
자	-6.41372
▁그냥	-6.42004
스	-6.44703
▁드라마	-6.48174
면	-6.50152
▁본	-6.50248
지만	-6.51219
니	-6.5483
함	-6.58037
수	-6.60572
▁보고	-6.60902
야	-6.61483
▁연기	-6.62527
하	-6.62579
이다	-6.62775
▁한	-6.62862
시	-6.63551
▁좀	-6.65728
사	-6.65862
▁내	-6.66213
▁평점	-6.66443
▁ᄏᄏ	-6.67951
하다	-6.68267
대	-6.68943
▁개	-6.71408
여	-6.72505
▁최고	-6.73061
하게	-6.73506
▁참	-6.75486
임	-6.75488
▁쓰레기	-6.76975
는데	-6.77773
▁없는	-6.77922
▁최고의	-6.78581
▁없다	-6.79105
진	-6.79179
보다	-6.7932
냐	-6.7943
▁나	-6.79432
▁영화를	-6.79946
미	-6.8034
데	-6.80625
일	-6.80696
구	-6.81651
▁완전	-6.81793
▁이거	-6.82444
ᄏᄏ	-6.83572
주	-6.84871
▁봤는데	-6.85248
할	-6.86285
▁못	-6.86977
우	-6.87925
▁이건	-6.88
듯	-6.8959
보	-6.90573
▁스토리	-6.91568
드	-6.91643
성	-6.91748
▁영화는	-6.91864
▁좋은	-6.92148
▁있는	-6.92434
정	-6.93391
상	-6.93993
들이	-6.94744
▁것	-6.9591
▁영화가	-6.96209
▁내가	-6.96409
안	-6.97913
▁가	-6.97983
던	-6.98054
해서	-6.98619
▁다시	-6.9946
▁지	-6.99517
마	-7.00363
려	-7.0048
까지	-7.00546
▁이게	-7.00663
장	-7.0123
신	-7.01454
적	-7.0167
▁보는	-7.03163
ᄏ	-7.03609
치	-7.04681
▁말	-7.04937
▁난	-7.05092
▁이렇게	-7.05508
중	-7.05676
질	-7.06428
▁고	-7.06516
▁보	-7.07158
트	-7.08084
랑	-7.10143
전	-7.10352
부	-7.10663
히	-7.11203
▁넘	-7.11745
▁작품	-7.12288
▁볼	-7.12931
건	-7.1302
▁평점이	-7.13041
보고	-7.14035
▁역시	-7.14077
▁뭐	-7.14298
▁재밌게	-7.1432
▁많이	-7.14456
러	-7.15161
오	-7.15916
▁시간	-7.15949
때	-7.17321
▁오	-7.17736
▁하	-7.19796
▁재미	-7.2056
습니다	-7.20691
용	-7.21321
ᅲᅲ	-7.21987
비	-7.22102
원	-7.22511
어요	-7.22704
인데	-7.22783
것	-7.22943
▁무	-7.23533
▁저	-7.23884
▁감동	-7.24168
▁꼭	-7.24934
화	-7.25077
소	-7.25297
▁또	-7.25511
▁별로	-7.25852
▁대	-7.25928
▁전	-7.26901
▁하는	-7.27217
▁기	-7.27702
▁생각	-7.2814
▁주	-7.28181
했다	-7.28338
▁ᄏᄏᄏ	-7.28366
내	-7.2837
▁ᅲᅲ	-7.28464
▁마지막	-7.30218
그	-7.30987
입니다	-7.32518
적인	-7.33485
말	-7.34717
▁아깝다	-7.34828
▁감독	-7.34872
세	-7.34952
감	-7.35063
하지	-7.35206
선	-7.36189
물	-7.36617
▁ᅳᅳ	-7.36661
▁그리고	-7.37055
▁이야기	-7.37403
▁할	-7.38149
▁명작	-7.38317
▁하나	-7.38443
진짜	-7.38657
▁중	-7.39191
▁ᄏ	-7.39296
개	-7.3936
ᄏᄏᄏ	-7.4046
좀	-7.40702
라고	-7.40881
▁없고	-7.41758
같은	-7.41941
▁사	-7.4231
▁기대	-7.43709
디	-7.43956
▁자	-7.44107
작	-7.4417
▁액션	-7.4449
본	-7.45222
▁가장	-7.45286
걸	-7.4562
▁일	-7.46159
점	-7.46329
▁별	-7.46527
▁보면	-7.46589
군	-7.47004
▁만든	-7.47297
영	-7.47706
▁사랑	-7.47805
식	-7.47886
▁무슨	-7.48392
▁정	-7.48576
없는	-7.48692
▁미	-7.48802
너무	-7.49119
▁비	-7.49165
▁마	-7.49733
무	-7.49766
조	-7.50221
란	-7.50588
▁지금	-7.5133
더	-7.51422
▁느낌	-7.51686
당	-7.52348
드라마	-7.52404
유	-7.52944
▁김	-7.533
이나	-7.53977
▁배우	-7.54072
▁어	-7.54191
된	-7.54195
▁짱	-7.54419
▁다른	-7.54459
부터	-7.5467
에게	-7.54821
바	-7.54873
르	-7.55325
있는	-7.55778
▁영화다	-7.55875
ᅳᅳ	-7.55903
크	-7.55906
▁한국	-7.56557
씨	-7.5676
▁말이	-7.56838
동	-7.57103
제	-7.57225
▁조	-7.58052
▁좋다	-7.58588
심	-7.58633
래	-7.58742
한다	-7.58835
긴	-7.58868
으면	-7.58873
▁유	-7.59069
린	-7.59272
▁분	-7.59597
▁좋아	-7.5987
었다	-7.6021
▁해	-7.60425
정말	-7.60781
▁있다	-7.6104
▁같은	-7.61417
▁내용	-7.6153
남	-7.61829
▁거	-7.61956
죠	-7.6228
모	-7.62468
줄	-7.62485
▁와	-7.62578
▁아니	-7.62901
▁시	-7.63196
▁일본	-7.63749
분	-7.63807
간	-7.63866
연	-7.64084
호	-7.64234
운	-7.64634
▁ᄒᄒ	-7.64744
▁처음	-7.65211
▁돈	-7.6548
▁연출	-7.65788
워	-7.66288
합니다	-7.66663
▁끝까지	-7.67537
레	-7.67703
프	-7.67785
▁편	-7.68749
▁신	-7.68896
울	-7.6898
라는	-7.69004
노	-7.69314
▁같다	-7.69347
준	-7.69438
▁알	-7.69865
▁두	-7.70325
생	-7.70447
▁봤다	-7.70751
두	-7.71305
▁화	-7.71342
▁년	-7.71458
▁재밌다	-7.71464
난	-7.71534
▁제	-7.7156
하나	-7.71617
▁남	-7.72276
길	-7.72767
▁봐도	-7.7279
▁최악	-7.73118
▁때	-7.73338
▁애	-7.73495
▁아주	-7.73713
단	-7.74431
인가	-7.74495
▁구	-7.74948
▁소	-7.75813
들의	-7.76145
든	-7.76235
▁되	-7.76371
저	-7.76443
▁우	-7.76458
▁부	-7.76526
겨	-7.77114
잘	-7.77774
인지	-7.77912
▁여자	-7.78317
연기	-7.78667
▁한번	-7.78839
▁서	-7.79296
▁전혀	-7.79542
▁코미디	-7.79571
▁인	-7.79654
▁줄	-7.80001
판	-7.80147
▁모두	-7.80157
루	-7.80357
때문에	-7.8039
위	-7.80445
▁사람	-7.805
되는	-7.80777
타	-7.80868
▁대박	-7.8136
며	-7.81452
면서	-7.81655
▁듯	-7.82298
▁추천	-7.82424
▁후	-7.82478
▁실망	-7.8259
▁뭔가	-7.82646
▁재미있게	-7.82801
희	-7.82931
▁보기	-7.83295
발	-7.83501
▁대한	-7.83699
▁하지만	-7.8391
▁그래도	-7.83917
명	-7.84142
▁스	-7.84281
날	-7.84327
구나	-7.84408
▁계속	-7.84473
들은	-7.84513
겠다	-7.84548
처럼	-7.84872
했던	-7.84888
티	-7.85113
하면	-7.85224
▁도	-7.85241
▁최악의	-7.85542
▁세	-7.85794
방	-7.86218
▁모	-7.86331
까	-7.86356
경	-7.86395
▁이걸	-7.86623
▁장	-7.86686
▁아닌	-7.86708
애	-7.87443
파	-7.87854
▁번	-7.87889
ᄒᄒ	-7.88118
▁굿	-7.8819
되	-7.88203
▁많은	-7.88406
엔	-7.88676
▁재미없다	-7.88682
▁그런	-7.88733
림	-7.89006
하지만	-7.89096
▁보다	-7.89265
▁아니다	-7.89469
▁배우들	-7.89519
▁반	-7.8953
▁이영화	-7.90143
재	-7.9038
실	-7.90562
▁딱	-7.90615
으	-7.90815
▁만드는	-7.91167
피	-7.91217
▁내용이	-7.92221
다니	-7.923
▁나오는	-7.92427
▁배	-7.92499
없다	-7.92593
이라	-7.92657
이랑	-7.927
▁장면	-7.9278
ᅲ	-7.92785
▁박	-7.92822
지는	-7.93064
급	-7.93598
▁급	-7.93663
▁않고	-7.93698
민	-7.93862
봤는데	-7.9396
▁살	-7.94144
▁하고	-7.9439
하네	-7.94782
▁솔직히	-7.9481
▁어떻게	-7.94946
터	-7.95075
▁아니라	-7.95842
▁공포	-7.9609
살	-7.96123
▁내내	-7.96444
▁수준	-7.96596
져	-7.9681
▁아름다운	-7.96856
▁조금	-7.97551
▁연기가	-7.98422
카	-7.98495
▁우리	-7.9858
▁노	-7.98881
▁싶다	-7.98972
▁반전	-7.99288
국	-7.99553
▁이제	-7.99587
님	-7.99732
▁공	-8.00115
▁전개	-8.00142
▁시간이	-8.00261
▁건	-8.0032
▁제일	-8.007
관	-8.00935
달	-8.0096
없이	-8.01199
차	-8.01284
▁않는	-8.01536
어서	-8.01619
▁바	-8.01828
하네요	-8.02081
한테	-8.02184
▁강	-8.02484
반	-8.02661
▁모든	-8.02712
▁연기도	-8.02794
볼	-8.02823
▁욕	-8.02847
▁원	-8.02945
▁이해	-8.02967
▁이상	-8.03263
키	-8.03327
적으로	-8.03341
▁않은	-8.03394
ᄒ	-8.03438
▁인생	-8.03516
▁에	-8.0354
▁속	-8.03761
▁스릴러	-8.04073
▁불	-8.04133
▁근데	-8.04254
▁명	-8.04355
▁끝	-8.04519
짱	-8.04583
생각	-8.04745
▁발	-8.04941
지도	-8.05236
ᅮᅮ	-8.05797
따	-8.06149
형	-8.06402
▁걸	-8.06745
▁들	-8.06752
▁음악	-8.07047
보면	-8.07057
▁보다가	-8.0716
▁절대	-8.07492
해요	-8.07501
▁되는	-8.07532
뿐	-8.0804
니까	-8.0838
▁내용도	-8.08631
즈	-8.08923
▁게	-8.08923
▁기억	-8.09034
▁눈	-8.09036
매	-8.09106
체	-8.094
▁울	-8.09422
▁로	-8.0959
▁남는	-8.09709
▁재밌	-8.09834
였다	-8.09898
▁주인공	-8.09902
망	-8.09962
▁나는	-8.10069
▁아까운	-8.10075
년	-8.1025
▁감독이	-8.1041
▁없	-8.10578
▁엄청	-8.1065
▁좋았다	-8.11015
▁여운이	-8.11354
공	-8.11492
편	-8.11544
▁ᄏᄏᄏᄏ	-8.11562
▁애니	-8.11833
▁점도	-8.11857
▁아직도	-8.11875
정도	-8.12029
▁여	-8.12183
박	-8.12211
▁재미도	-8.12246
이란	-8.1226
보는	-8.12368
▁때문에	-8.12441
▁있	-8.12778
코	-8.12889
▁제대로	-8.13357
▁재	-8.13549
▁영화입니다	-8.13629
▁성	-8.13702
문	-8.1386
▁나름	-8.1387
하기	-8.13931
참	-8.14166
▁영화라고	-8.14334
▁동	-8.14337
인듯	-8.14348
▁피	-8.14353
▁남자	-8.14372
▁공감	-8.14732
▁연	-8.14739
버	-8.14964
▁만	-8.15054
것도	-8.15097
▁정도	-8.15236
후	-8.15357
▁현실	-8.1542
▁없음	-8.15625
▁차라리	-8.15755
현	-8.15781
▁만들어	-8.15784
던데	-8.15833
더라	-8.16187
▁걍	-8.1621
▁심	-8.16573
왜	-8.16697
▁좋고	-8.16846
▁결말	-8.17034
역	-8.17335
▁요즘	-8.17347
▁재밌어요	-8.17415
▁주는	-8.17547
▁아니고	-8.17581
예	-8.17727
▁영	-8.17916
▁날	-8.17918
▁초	-8.18144
다가	-8.18876
▁진	-8.19662
▁공포영화	-8.19742
죽	-8.19841
토	-8.19876
스토리	-8.20126
극	-8.20396
▁가슴	-8.20465
▁막	-8.20526
배	-8.20606
▁나도	-8.20702
▁진심	-8.2086
▁허	-8.20887
▁보세요	-8.21279
▁매	-8.21465
는게	-8.21486
▁최고다	-8.21521
이라는	-8.21634
▁않	-8.21756
했	-8.21793
▁눈물	-8.21814
속	-8.21875
▁수작	-8.21985
꺼	-8.22167
움	-8.2234
▁개봉	-8.22344
먹	-8.22384
▁시리즈	-8.22551
▁표현	-8.22657
▁나온	-8.22687
▁기분	-8.22701
태	-8.22767
스트	-8.22869
▁봤습니다	-8.22888
▁싶은	-8.22923
ᄏᄏᄏᄏ	-8.2294
못	-8.22978
▁스토리가	-8.23071
▁년대	-8.23277
력	-8.23576
▁막장	-8.23706
▁멋진	-8.23955
▁졸작	-8.24413
▁대사	-8.2443
넘	-8.24687
▁될	-8.24722
▁맞	-8.24788
는거	-8.24842
▁강추	-8.24936
▁오랜만에	-8.24967
▁파	-8.25186
▁쓰	-8.25204
구만	-8.25257
▁망	-8.25296
▁감독의	-8.25412
봄	-8.25531
▁제목	-8.25566
산	-8.2557
했는데	-8.25624
사람	-8.25628
포	-8.25633
▁캐릭터	-8.26142
▁지루한	-8.26157
▁알바	-8.26264
▁봤	-8.26357
▁기억에	-8.26431
녀	-8.26652
▁매력	-8.26689
▁재밌는	-8.26949
잼	-8.27025
이라고	-8.27067
▁지루하고	-8.27343
라도	-8.27465
▁지루함	-8.2761
밖에	-8.27667
▁스토리도	-8.27683
쳐	-8.27763
▁뻔한	-8.27842
는지	-8.2792
이고	-8.27993
▁후회	-8.28092
▁인간	-8.281
케	-8.28166
재밌	-8.28253
▁연기력	-8.28309
▁재미가	-8.28346
▁데	-8.28601
려고	-8.28675
배우	-8.28738
▁만들	-8.29045
종	-8.29072
석	-8.29103
▁특히	-8.2918
감동	-8.29187
▁미국	-8.29228
평점	-8.29594
않	-8.29646
없	-8.29866
▁영상	-8.2994
있다	-8.30166
▁봤던	-8.30439
름	-8.30473
▁위	-8.30769
▁시나리오	-8.3102
해도	-8.31273
▁뭘	-8.3138
▁이해가	-8.31426
격	-8.31472
통	-8.31694
중에	-8.31719
류	-8.3184
었는데	-8.32064
학	-8.32121
락	-8.32127
▁생각이	-8.32231
▁좋아하는	-8.32247
절	-8.32753
▁도대체	-8.32819
리는	-8.3286
그냥	-8.32865
▁사람들	-8.33122
들을	-8.33255
▁상	-8.33258
론	-8.3336
릴	-8.33567
▁ᅮᅮ	-8.33579
▁괜찮은	-8.33663
▁시작	-8.33973
▁가족	-8.34026
▁원작	-8.34091
▁영화의	-8.34342
▁졸	-8.34355
▁보면서	-8.34446
▁된	-8.34577
봤다	-8.34603
▁차	-8.34694
▁몇	-8.34911
▁우리나라	-8.34942
▁함께	-8.35198
주는	-8.35495
난다	-8.35524
▁긴장감	-8.35741
▁머	-8.35755
▁나오	-8.35869
▁노래	-8.35993
감독	-8.36042
▁점이	-8.36158
▁그저	-8.3647
집	-8.36715
악	-8.36794
불	-8.36893
만큼	-8.36976
최고	-8.37016
김	-8.37071
▁최	-8.37249
▁소재	-8.37364
사랑	-8.37804
▁봐야	-8.37819
▁ᄒ	-8.37866
계	-8.37912
작품	-8.37947
▁토	-8.38107
버린	-8.38137
▁리	-8.38141
▁음	-8.38219
▁지루하다	-8.38289
▁영화에	-8.38333
이런	-8.38376
▁호	-8.38476
건지	-8.38668
▁봤어요	-8.38754
▁뭔	-8.38908
▁예	-8.39128
▁애니메이션	-8.39138
▁사실	-8.39319
았다	-8.39319
돈	-8.39442
▁ᅲ	-8.39607
▁못한	-8.39717
▁큰	-8.3988
▁치	-8.39968
장면	-8.39993
▁좋아요	-8.40112
머	-8.40274
▁마지막에	-8.40421
등	-8.40761
행	-8.41073
된다	-8.4109
뭐	-8.41223
능	-8.41277
▁실	-8.41311
▁제발	-8.41397
▁재밌음	-8.41459
기도	-8.4159
슨	-8.42066
▁보는내내	-8.42177
▁필요	-8.42278
니다	-8.42545
▁물	-8.42656
이야	-8.42675
▁배우들의	-8.4287
▁선	-8.42951
잇	-8.43197
너	-8.43365
봐	-8.43636
▁모르겠다	-8.43697
▁재밋	-8.43742
▁억지	-8.43749
▁행복	-8.43839
보단	-8.44028
▁존나	-8.44084
맨	-8.44335
금	-8.44597
▁코믹	-8.44799
▁없이	-8.44893
▁영화로	-8.45224
▁걸작	-8.4526
담	-8.45276
른	-8.45346
▁않는다	-8.45587
▁베	-8.45595
▁안되는	-8.45784
대로	-8.45924
설	-8.46093
▁결국	-8.46296
군요	-8.46395
▁죽	-8.46431
▁한국영화	-8.46552
양	-8.46567
재미	-8.46655
이었다	-8.46695
이네	-8.46809
투	-8.46966
▁한다	-8.47038
▁극	-8.47228
회	-8.4732
▁준	-8.47321
▁연기는	-8.47458
▁점은	-8.47946
교	-8.47991
었던	-8.48101
▁매우	-8.48152
글	-8.48229
▁류	-8.48315
▁캐스팅	-8.48325
알	-8.48325
▁유치	-8.49008
▁예술	-8.49022
▁훨씬	-8.4913
▁않다	-8.49135
봐도	-8.49176
▁감동이	-8.49179
근	-8.49407
갈	-8.49511
잡	-8.49597
▁잼	-8.49881
▁극장에서	-8.49944
쓰레기	-8.49967
색	-8.50173
▁마음이	-8.50327
승	-8.5037
▁눈물이	-8.50538
입	-8.50674
시간	-8.5078
▁요	-8.50839
▁것이	-8.50873
▁야	-8.51032
업	-8.51143
▁만화	-8.51277
번	-8.51299
봤	-8.51317
▁어떤	-8.51398
▁그만	-8.51597
거야	-8.51641
▁마음	-8.519
하며	-8.51978
▁간	-8.52149
하면서	-8.52196
▁더빙	-8.52258
이네요	-8.52337
▁엔딩	-8.52484
▁타	-8.5266
기는	-8.52717
▁얼마나	-8.52832
▁점대	-8.5298
었	-8.53034
해야	-8.53076
▁아이	-8.53117
▁분위기	-8.53132
▁있고	-8.53192
▁잠	-8.53474
▁별점	-8.53504
▁위한	-8.53516
▁없었다	-8.53591
을까	-8.53728
권	-8.53768
였	-8.53829
▁없어	-8.53901
▁몰입도	-8.53977
▁길	-8.54061
▁영화네요	-8.54174
쓰	-8.54213
▁같이	-8.54223
▁사람이	-8.54308
▁밖에	-8.54364
▁추	-8.54473
▁개인적으로	-8.54588
있	-8.54635
뻔	-8.54665
언	-8.54863
▁총	-8.54885
▁정신	-8.55027
열	-8.5517
강	-8.55463
▁백	-8.55466
▁감	-8.55489
▁오늘	-8.55983
▁그렇게	-8.56137
외	-8.56223
이지	-8.5625
느낌	-8.56323
▁평	-8.56371
▁출연	-8.5645
▁기억이	-8.56534
했음	-8.56561
건가	-8.5668
기에	-8.56946
었음	-8.57154
▁잡	-8.57181
▁적	-8.57306
평	-8.57334
▁찾아	-8.57335
▁들어	-8.57407
▁보지	-8.57438
▁웃기	-8.57476
▁너	-8.57502
나요	-8.57972
▁안되	-8.58007
▁높	-8.58126
▁그나마	-8.5852
막	-8.58559
▁모습	-8.58677
에도	-8.58721
▁똥	-8.58794
▁그래서	-8.58861
완전	-8.58891
좋	-8.58898
▁회	-8.58912
▁쓰레기영화	-8.58921
씬	-8.59009
기를	-8.5917
액션	-8.59467
▁아쉽다	-8.5948
▁전쟁	-8.5949
▁지루	-8.59552
아니	-8.59573
▁애들	-8.59782
▁가슴이	-8.59859
▁결말이	-8.60046
▁노잼	-8.60054
다고	-8.60078
▁볼만	-8.60117
▁너무나	-8.60203
빠	-8.60273
▁느낌이	-8.60481
직	-8.60528
▁하나도	-8.60685
▁같	-8.60712
순	-8.60759
끼	-8.60891
▁있을	-8.60904
이지만	-8.61119
됨	-8.61203
▁입	-8.61214
법	-8.61308
▁영화중	-8.61372
▁달	-8.61467
▁재밌고	-8.61571
▁같아요	-8.61641
▁미친	-8.61712
이상	-8.61769
▁웃음	-8.61848
영화는	-8.61899
▁꽤	-8.61936
▁당	-8.61974
거지	-8.62239
천	-8.62284
▁감동적인	-8.62357
▁어설픈	-8.62403
짐	-8.62474
▁대체	-8.62614
플	-8.62708
좋아	-8.62714
▁문제	-8.62949
칠	-8.62967
▁악	-8.62986
▁산	-8.63026
창	-8.63031
보니	-8.63451
하는데	-8.63505
▁재미있다	-8.63883
▁누가	-8.63883
온	-8.64036
▁감동도	-8.64136
▁뿐	-8.64262
▁의미	-8.64295
내용	-8.64889
▁스릴	-8.64961
▁손	-8.6498
인줄	-8.65021
록	-8.65203
향	-8.65231
렸	-8.65254
될	-8.65315
나는	-8.65454
겠지	-8.655
▁많	-8.65534
수준	-8.6557
왕	-8.65644
▁레	-8.65684
▁보게	-8.65827
슬	-8.65865
련	-8.6606
증	-8.66064
▁성룡	-8.66183
션	-8.66248
▁영상미	-8.66521
▁재미없음	-8.66575
소리	-8.66585
▁볼만한	-8.66628
▁잔잔한	-8.66687
▁보여주는	-8.66754
▁약	-8.66811
출	-8.66828
▁준다	-8.66843
▁니	-8.67087
▁단	-8.67168
친	-8.67192
▁맘에	-8.67348
▁내용은	-8.67416
▁영화였다	-8.6747
▁여주인공	-8.67504
▁재미없	-8.67632
▁위해	-8.67637
▁갈수록	-8.67647
▁간만에	-8.67651
진다	-8.67763
▁경	-8.67766
▁글	-8.678
▁로맨스	-8.67811
▁알고	-8.67979
▁재미있는	-8.68073
▁구성	-8.68239
▁설정	-8.68678
듯한	-8.68698
결	-8.68897
훈	-8.69116
베	-8.69283
▁있었	-8.69334
▁다큐	-8.69398
길래	-8.69522
▁아무리	-8.69593
▁자체	-8.69603
표	-8.69839
새	-8.69936
린다	-8.69961
같	-8.7009
짓	-8.70161
▁주연	-8.70443
▁아님	-8.70661
▁발연기	-8.7083
해라	-8.71099
▁생	-8.71272
라서	-8.71382
커	-8.71575
백	-8.71613
▁관객	-8.71716
초	-8.71855
리고	-8.71858
맞	-8.7202
싶	-8.72111
병	-8.72114
▁시즌	-8.72183
▁배경	-8.72236
께	-8.7234
▁점수	-8.72359
▁뭐야	-8.72527
여자	-8.72569
기만	-8.72604
▁있을까	-8.72716
만들	-8.72744
▁메	-8.72822
▁바로	-8.72842
였음	-8.72942
▁것을	-8.72947
▁따라	-8.7308
▁찾	-8.73118
수가	-8.73149
▁작가	-8.73297
▁오래	-8.73375
▁전부	-8.73497
슴	-8.73593
▁코	-8.73627
▁주고	-8.73661
▁된다	-8.73728
▁드	-8.73774
▁등	-8.73825
▁중국	-8.73845
습	-8.73907
각	-8.73999
▁이딴	-8.74068
완	-8.74114
받	-8.74179
▁진정한	-8.742
▁재미없는	-8.74462
라면	-8.74519
▁외	-8.74832
▁찍	-8.74836
▁싶	-8.7497
▁웃	-8.75051
▁그러	-8.75079
적이	-8.75265
▁작	-8.75278
이건	-8.75336
▁장난	-8.75354
치는	-8.75447
허	-8.75473
할수	-8.75477
존	-8.75511
엇	-8.7559
욕	-8.75884
없음	-8.75887
했지만	-8.76004
▁따	-8.76191
합	-8.76213
▁허접	-8.76228
▁버	-8.76585
올	-8.76743
빈	-8.76825
재미있	-8.77008
▁금	-8.77256
▁잼있	-8.77393
▁카	-8.77396
▁영화임	-8.77483
▁연기를	-8.77696
▁변	-8.77749
▁약간	-8.77977
럽	-8.78072
약	-8.78151
▁천	-8.78364
▁생각하게	-8.78514
겠	-8.7859
스러운	-8.78614
으나	-8.78832
ᄋ	-8.78857
▁존재	-8.7887
그리고	-8.78872
▁생각보다	-8.7891
▁감동을	-8.78916
또	-8.78983
▁갈	-8.79271
▁재밌네요	-8.79324
▁다음	-8.79412
추	-8.79441
있고	-8.79446
블	-8.79521
▁짜	-8.79624
이라도	-8.7972
졌다	-8.7989
으니	-8.79892
▁재미는	-8.79968
더니	-8.79992
별	-8.80266
▁꿀잼	-8.80327
이거	-8.80433
▁평가	-8.80596
▁영화관에서	-8.8071
▁살아	-8.80738
메	-8.80867
▁상당히	-8.80893
찍	-8.80903
없고	-8.81029
▁높은	-8.81034
만한	-8.81133
이야기	-8.81148
징	-8.81154
나오는	-8.81159
▁생각을	-8.81164
▁먹	-8.81252
브	-8.81338
▁좋	-8.81366
짜	-8.81517
▁봐라	-8.81567
환	-8.81713
척	-8.81906
것이	-8.82018
▁얼굴	-8.82048
▁충격	-8.8206
▁첨	-8.82118
▁어느	-8.82119
▁않았	-8.82168
술	-8.82323
덕	-8.82467
▁같은데	-8.82482
복	-8.8258
▁끝나	-8.82698
주의	-8.82861
▁에서	-8.82862
ᅮ	-8.82987
▁엄마	-8.83126
어야	-8.83185
▁라	-8.83239
▁제작	-8.83316
▁종	-8.83426
▁마음에	-8.83459
탄	-8.8385
▁했다	-8.83985
▁다들	-8.84005
▁좋은데	-8.8406
해지는	-8.8408
영화가	-8.84083
낸	-8.8412
을때	-8.84224
을듯	-8.8432
▁것도	-8.84373
잔	-8.84412
▁하다	-8.8444
▁봤음	-8.84449
▁ᄍᄍ	-8.84507
▁초딩	-8.8475
▁올	-8.8477
▁봄	-8.84789
레이	-8.84826
▁감성	-8.85077
▁네이버	-8.85145
▁나왔	-8.85262
▁소리	-8.85402
는건	-8.85417
놈	-8.85511
▁과	-8.85672
했어요	-8.85683
▁하지	-8.8574
▁빠져	-8.85799
▁몰입	-8.85832
▁그리	-8.85849
구요	-8.8587
▁얘기	-8.8605
▁재미있어요	-8.86054
기대	-8.86084
처	-8.86084
느	-8.86189
▁포	-8.862
듬	-8.86233
▁대해	-8.86243
▁그대로	-8.86245
웃	-8.86251
▁빨리	-8.86407
▁나와서	-8.86431
▁열	-8.86567
조차	-8.86639
▁뭐냐	-8.86847
▁멜로	-8.86946
라니	-8.86955
▁크	-8.86973
▁추억	-8.87054
다는	-8.8707
들어	-8.87188
혜	-8.87337
채	-8.87468
들에게	-8.87556
▁부족	-8.87655
햇	-8.87811
▁이런영화	-8.87834
▁판타지	-8.87907
▁꿈	-8.87977
▁좋네요	-8.87978
▁중간에	-8.87991
청	-8.88068
▁존	-8.88186
▁힘들	-8.88263
돌	-8.88268
▁낫다	-8.88364
▁시대	-8.88375
료	-8.88512
▁혼자	-8.88553
▁몸	-8.8857
놓고	-8.88719
▁당시	-8.88761
튼	-8.88829
거다	-8.88922
퍼	-8.88958
▁감독님	-8.89014
▁역사	-8.8907
▁뭐지	-8.89089
▁떠	-8.89213
▁귀	-8.89227
▁디	-8.89387
▁좋은영화	-8.89402
탈	-8.89421
분들	-8.89431
눈	-8.89442
땜에	-8.8945
별로	-8.89527
▁대단	-8.89533
먼	-8.8971
▁친구	-8.89711
할때	-8.89737
광	-8.8977
▁안된다	-8.89911
▁봐서	-8.90062
간다	-8.90107
▁딸	-8.90145
익	-8.90231
▁각본	-8.90241
아서	-8.90263
다면	-8.90326
▁질	-8.90396
나오	-8.9041
최악	-8.9045
▁재미있	-8.90465
▁없네	-8.90637
한거	-8.90752
▁배우들이	-8.90754
▁짜증	-8.90823
침	-8.90884
▁나이	-8.90892
▁돌아	-8.90923
▁했는데	-8.90944
▁대단한	-8.91045
들도	-8.91055
▁집중	-8.91203
끝	-8.91286
▁여기	-8.91362
▁포스터	-8.91369
혀	-8.91382
철	-8.91426
▁비디오	-8.9143
보기	-8.91595
잖아	-8.91903
▁좋겠다	-8.92147
거냐	-8.92265
▁자기	-8.9227
▁언제	-8.92277
▁터	-8.92458
▁새	-8.92497
었어요	-8.92519
▁보니	-8.92654
▁목소리	-8.92658
▁비교	-8.92671
▁스토리는	-8.92676
곡	-8.92681
했습니다	-8.92769
아닌	-8.92815
영화를	-8.92816
▁현	-8.92831
▁빠	-8.92865
▁담	-8.92896
▁패	-8.92987
▁만들었	-8.93067
▁저런	-8.93102
▁거의	-8.9314
▁삼	-8.93246
▁머리	-8.9334
▁아까움	-8.93346
써	-8.93368
아깝다	-8.93397
에선	-8.93556
▁사람들이	-8.93572
건데	-8.93579
▁초반	-8.93677
▁어디서	-8.93719
▁관	-8.93795
▁상황	-8.93891
▁굉장히	-8.93904
▁정도로	-8.93909
▁한마디로	-8.93919
▁장르	-8.94027
▁훌륭한	-8.94095
▁생각해	-8.94114
겟	-8.94225
▁실화	-8.94252
▁흥행	-8.94285
▁점을	-8.94328
▁봐	-8.94372
▁이름	-8.94656
▁따뜻한	-8.94761
▁나올	-8.94807
▁아이들	-8.94887
▁장면이	-8.94946
스럽다	-8.95169
▁뭐가	-8.95218
족	-8.95422
▁있어	-8.95533
▁재밌었다	-8.95566
준다	-8.95668
귀	-8.95731
▁아무	-8.95799
치고	-8.95872
줘	-8.95907
▁헐	-8.95925
범	-8.95943
▁양	-8.95981
▁각	-8.96036
▁있었다	-8.96104
▁힘	-8.96152
▁있지만	-8.96213
대박	-8.96307
▁충분히	-8.96309
이라니	-8.96546
▁여배우	-8.96692
남자	-8.96956
정도로	-8.96965
하냐	-8.96984
말이	-8.97016
▁돌	-8.97096
▁그닥	-8.97154
▁못하는	-8.97334
▁새로운	-8.97338
▁봤지만	-8.97376
▁숨	-8.97464
▁줄거리	-8.97492
▁없을	-8.9751
▁까	-8.97537
▁평점을	-8.97591
▁떨	-8.97715
▁삼류	-8.97789
테	-8.97969
재밋	-8.97977
▁비해	-8.97982
▁으	-8.97993
▁슬픈	-8.98018
▁암	-8.9807
▁써	-8.98072
▁만족	-8.98077
▁옛날	-8.98154
에는	-8.98283
▁극장판	-8.98419
한영화	-8.98427
▁설	-8.98432
▁너무너무	-8.98433
▁윤	-8.98457
▁세계	-8.98788
본다	-8.98921
이라면	-8.98963
▁문	-8.98974
▁아직	-8.99022
만든	-8.99109
▁말도	-8.99213
▁영화인데	-8.99457
▁더욱	-8.99532
▁왕	-8.99543
좋은	-8.99703
앗	-8.9976
▁이영화를	-8.99855
쉬	-9.00027
났	-9.00106
▁두번	-9.00122
▁뒤	-9.00279
▁있어서	-9.0037
▁팬	-9.00405
지루	-9.00482
▁휴	-9.00489
▁통	-9.0049
같다	-9.00509
츠	-9.00529
걸까	-9.00595
▁연출력	-9.00638
▁화이팅	-9.00672
▁다시봐도	-9.00885
졌	-9.00946
▁감동적이	-9.00953
ᅳ	-9.01003
같이	-9.01017
마지막	-9.01069
다시	-9.01121
찬	-9.01144
▁좋음	-9.0117
봐라	-9.01233
시키	-9.0132
독	-9.01374
랄	-9.01728
▁해서	-9.01812
거리	-9.01817
패	-9.01823
▁자체가	-9.01875
▁합니다	-9.01889
▁쳐	-9.02113
굿	-9.02153
▁궁금	-9.02256
▁뻔	-9.023
염	-9.02357
동안	-9.02358
▁흠	-9.02466
▁감정	-9.02604
▁나와	-9.02673
땐	-9.02681
효	-9.02743
▁끌	-9.02968
▁만점	-9.03023
▁사회	-9.03029
▁먹먹	-9.03131
▁절	-9.03135
세요	-9.0314
였는데	-9.03144
▁지루하	-9.03152
▁낮	-9.03173
▁아닌가	-9.03207
▁아버지	-9.03297
▁깨	-9.03342
▁이것도	-9.03346
에요	-9.03474
▁나의	-9.03495
도록	-9.03568
엉	-9.03835
▁보여주	-9.03855
냥	-9.0395
▁점점	-9.04134
▁망작	-9.04158
▁예상	-9.04297
근데	-9.04358
▁재밌는데	-9.04383
삼	-9.0447
▁힘든	-9.04496
▁성우	-9.04504
▁화면	-9.04628
▁지루해	-9.04659
을텐데	-9.04674
▁알았	-9.04688
성이	-9.04689
▁누구	-9.04769
명작	-9.04842
▁나온다	-9.04867
끄	-9.04877
야지	-9.05144
▁좋았어요	-9.0519
▁놀	-9.05278
▁항상	-9.0535
시리즈	-9.05358
▁없어서	-9.05448
많	-9.05605
휴	-9.05639
▁선택	-9.05674
도없고	-9.05744
▁병맛	-9.05751
▁교	-9.05775
▁순	-9.05827
▁맛	-9.05916
▁흥미진진	-9.05966
틀	-9.06074
▁영화라	-9.06093
▁아쉬운	-9.0611
그런	-9.06152
▁더럽게	-9.06251
하여	-9.06415
▁ᄒᄒᄒ	-9.06574
▁어디	-9.06779
하세요	-9.06801
규	-9.06877
만으로도	-9.06892
▁월	-9.07135
▁있음	-9.07331
▁가는	-9.07331
는걸	-9.07369
이에요	-9.07394
▁알았다	-9.07436
▁감사	-9.07468
주세요	-9.07479
처음	-9.07523
▁알게	-9.07616
리가	-9.07717
▁완벽한	-9.07862
▁티	-9.07876
되어	-9.0789
▁바보	-9.07899
▁어색	-9.07917
한데	-9.07987
적이고	-9.07989
▁참고	-9.08034
겠지만	-9.08105
▁편이	-9.08124
▁진실	-9.08142
▁느끼	-9.08176
▁그러나	-9.08242
▁만들지	-9.08292
▁그런지	-9.08296
▁사람은	-9.08307
▁되어	-9.08323
나라	-9.08497
▁했	-9.0857
▁저질	-9.0859
한번	-9.08608
하니	-9.08822
▁코메디	-9.08853
▁원작을	-9.08855
▁싸	-9.09152
씩	-9.09152
추천	-9.09156
어도	-9.09209
▁주제	-9.09211
▁흐	-9.09297
▁엄청난	-9.09336
것이다	-9.0936
▁웃긴	-9.09374
▁집	-9.09397
부분	-9.09413
좋다	-9.0966
변	-9.09684
목	-9.0972
▁재미없어	-9.09729
▁어린	-9.09843
▁감상	-9.09872
▁영화도	-9.09992
꼭	-9.10183
▁독	-9.10188
▁첫	-9.10188
봐야	-9.10208
▁태	-9.10209
▁잘못	-9.10315
▁역	-9.10503
딩	-9.1081
많이	-9.10828
였습니다	-9.10857
전개	-9.10888
▁영화보다	-9.10894
사람들	-9.10905
닥	-9.1097
▁마무리	-9.11091
▁해도	-9.111
▁없네요	-9.11129
▁무조건	-9.11209
▁부족한	-9.11323
일까	-9.11383
▁유치한	-9.11385
였던	-9.11405
보다는	-9.11424
▁낮은	-9.11489
셨	-9.11495
▁대작	-9.11495
▁것이다	-9.11566
▁봤네요	-9.11569
▁느끼게	-9.11587
것같다	-9.11662
배우들	-9.11763
지금	-9.11831
▁노력	-9.11915
나서	-9.12148
▁재밌어	-9.12292
강추	-9.12701
끔	-9.12702
이냐	-9.12704
▁도저히	-9.12831
▁돈주고	-9.12838
▁유머	-9.12939
▁창	-9.13032
▁이상한	-9.13036
▁투	-9.13047
고싶다	-9.13084
▁속편	-9.13216
▁이유	-9.13299
▁영화였습니다	-9.13322
▁순간	-9.13331
▁어릴때	-9.1335
▁아까워	-9.13416
립	-9.1356
뻐	-9.13652
오는	-9.13684
▁이번	-9.13707
재미없	-9.13717
▁시절	-9.13881
▁싶어	-9.13943
▁편집	-9.14032
되고	-9.1406
킹	-9.14066
▁감독은	-9.14176
여서	-9.14226
▁여주	-9.14265
얼	-9.14297
기가	-9.14301
▁여운	-9.1436
음악	-9.14477
최고의	-9.14571
▁어쩌	-9.14592
반전	-9.14738
맛	-9.14786
윤	-9.14811
▁골	-9.1482
▁이정도	-9.14907
▁평점은	-9.15019
▁용	-9.15041
▁제가	-9.15095
속에	-9.15129
▁프로	-9.15135
▁스타일	-9.15203
마저	-9.15495
▁만드	-9.155
▁자꾸	-9.15619
벌	-9.15648
▁볼수	-9.15664
쯤	-9.1568
네여	-9.15711
▁일본영화	-9.15723
▁신기	-9.15733
▁늘	-9.16001
싸	-9.16051
▁비추	-9.16104
▁멋	-9.16189
▁년이	-9.16193
▁임	-9.16314
함이	-9.1637
▁만나	-9.16439
▁함	-9.16463
▁처	-9.16506
내가	-9.1659
▁재미있고	-9.16653
▁모르고	-9.16689
▁느낄	-9.16744
연출	-9.16812
▁방송	-9.16829
하던	-9.16862
묘	-9.16967
오히려	-9.17022
▁갑자기	-9.17028
주고	-9.17128
▁않을	-9.172
▁대단하다	-9.17223
떨	-9.17366
▁극장	-9.17382
▁불륜	-9.17449
리스	-9.17501
▁명작이다	-9.17548
▁가치	-9.17634
▁복	-9.17682
▁방	-9.17759
▁책	-9.1776
뜨	-9.1785
▁편은	-9.17861
▁벌	-9.1789
품	-9.1797
▁괜히	-9.18023
▁천재	-9.18139
▁하게	-9.18213
▁죽음	-9.18221
▁아쉽	-9.18257
▁가지고	-9.1827
▁슬	-9.18312
스럽	-9.18333
그래도	-9.18363
▁모르는	-9.18388
봐서	-9.18516
▁어이없	-9.18547
▁사랑을	-9.1857
▁킬링타임용	-9.18635
거나	-9.18635
▁이영화는	-9.18649
하자	-9.1868
▁불편	-9.18753
▁상상	-9.18786
▁좋았음	-9.18871
▁평점에	-9.18913
▁처음부터	-9.18974
역시	-9.19044
줌	-9.1905
▁반전이	-9.19079
▁그게	-9.1909
▁작품성	-9.19113
잉	-9.19139
▁작품이	-9.19157
▁리메이크	-9.19162
인거	-9.19185
하시	-9.19402
▁그때	-9.19517
껏	-9.19576
실망	-9.19716
▁보는데	-9.19724
▁국	-9.19809
▁대한민국	-9.19856
가서	-9.19903
런	-9.19927
답	-9.19961
▁저는	-9.19983
밀	-9.19988
괴	-9.20074
ᅲᅲᅲ	-9.20092
꼬	-9.20144
▁돈이	-9.20214
▁괜찮	-9.20229
는것	-9.20266
▁형	-9.20304
짝	-9.20381
▁수가	-9.20411
▁커	-9.20448
풍	-9.20546
▁별루	-9.20604
필	-9.20631
▁감사합니다	-9.20632
▁부분	-9.20641
▁액션영화	-9.20685
▁교훈	-9.20722
하긴	-9.20749
▁이런거	-9.20775
아이	-9.20911
릭	-9.20913
싱	-9.2092
렌	-9.20921
▁맥	-9.20947
▁믿고	-9.21029
링	-9.21105
시켜	-9.21141
팬	-9.2118
▁않음	-9.21336
▁액션도	-9.21337
▁좋았습니다	-9.21432
▁믿	-9.21454
▁온	-9.21524
▁프랑스	-9.21536
▁시간낭비	-9.21552
▁재미없고	-9.21629
웃음	-9.2165
셔	-9.21676
필요	-9.21695
▁해준	-9.21711
▁면	-9.21769
▁내인생	-9.21903
▁나만	-9.22111
영화다	-9.22222
▁나라	-9.22261
▁이리	-9.22279
▁트	-9.2232
▁쓴	-9.2233
▁왜이리	-9.22409
십	-9.22417
놀	-9.22423
▁무서운	-9.22458
▁개그	-9.22528
주인공	-9.22549
났다	-9.22562
▁목	-9.226
려서	-9.22607
▁같네요	-9.22623
힌	-9.22711
감이	-9.22772
▁만들었다	-9.22773
▁재밌었어요	-9.22813
페	-9.22839
▁댓글	-9.22861
없어	-9.22939
▁그래픽	-9.22944
▁뭔지	-9.22961
▁성장	-9.22972
함을	-9.22993
▁잘만든	-9.22996
▁ᄏᄏᄏᄏᄏ	-9.23044
▁있다는	-9.23091
▁입니다	-9.23111
▁해야	-9.23141
▁아닐까	-9.23144
▁아오	-9.23147
▁보여준	-9.2318
▁소설	-9.23214
숙	-9.23341
▁긴	-9.23377
▁똑같	-9.2344
보세요	-9.2359
니깐	-9.23649
▁괴	-9.23786
▁자연	-9.23801
▁계	-9.23804
▁사람들은	-9.23838
▁것은	-9.23858
곤	-9.23905
▁앞으로	-9.23922
하는거	-9.23997
▁청춘	-9.24082
시대	-9.24092
▁아무것도	-9.24115
웠	-9.2423
▁주인공이	-9.24271
▁둘	-9.24291
▁좀비	-9.24329
▁귀여운	-9.2455
▁삶	-9.24558
▁세상	-9.24642
▁낭비	-9.24642
인이	-9.24663
드는	-9.24677
졸	-9.24718
▁완성도	-9.24756
손	-9.24809
▁그래	-9.24876
더군요	-9.24891
됬	-9.24946
▁졸라	-9.24996
▁전형적인	-9.25025
놓	-9.25198
▁완벽	-9.2521
▁모습이	-9.2525
▁왠지	-9.25298
▁중에	-9.253
이게	-9.25437
▁로맨틱	-9.25448
들아	-9.25456
시절	-9.25473
였어요	-9.25554
▁운	-9.25603
했으면	-9.25659
▁없었	-9.25877
▁미화	-9.25898
춘	-9.25907
는영화	-9.25911
▁바람	-9.25921
▁키	-9.26006
려는	-9.26138
▁슬프다	-9.26158
▁억지로	-9.26267
▁듯한	-9.26292
▁예고편	-9.26334
▁잘봤습니다	-9.26366
버리	-9.26394
▁이쁘	-9.26414
거임	-9.26454
▁전개가	-9.26481
▁배우가	-9.26602
▁히	-9.26607
▁유쾌한	-9.26613
렸다	-9.26647
견	-9.26684
▁연출이	-9.26702
쁘	-9.26717
겠네	-9.26723
마다	-9.26747
▁설명	-9.26789
벨	-9.26859
▁짜증나	-9.2687
▁답	-9.26901
▁지금까지	-9.26931
▁진행	-9.26933
▁매력적인	-9.2699
자가	-9.27042
▁우울	-9.27083
었습니다	-9.27089
▁귀신	-9.27116
▁아름답다	-9.27224
▁해주는	-9.27231
텐데	-9.27276
엿	-9.2733
▁메세지	-9.27333
▁개연성	-9.27395
▁안보	-9.27424
최	-9.27534
▁전달	-9.27586
▁점준다	-9.27616
▁지금도	-9.27648
든다	-9.2768
딱	-9.277
팔	-9.27716
▁지금봐도	-9.27926
▁나쁜	-9.2795
버렸다	-9.28011
일뿐	-9.2802
▁있는데	-9.28035
▁복수	-9.28053
갑	-9.2807
▁의도	-9.28115
▁지루하지	-9.28151
▁훨	-9.28183
ᄂ	-9.28258
▁탄	-9.28261
▁않았다	-9.28279
▁깊은	-9.2828
들과	-9.28313
에겐	-9.28441
낮	-9.28603
▁흥미	-9.28681
▁알아	-9.28692
▁싫어	-9.28716
해주는	-9.28859
▁인정	-9.28861
애니	-9.28939
▁말고	-9.28958
▁법	-9.29119
▁자유	-9.29133
▁그녀	-9.29332
ᄀ	-9.29433
▁최악이다	-9.29446
▁ᄉᄇ	-9.29507
▁본다	-9.29527
▁게임	-9.2954
했고	-9.29578
▁하면	-9.29636
깔	-9.29715
▁리얼	-9.29834
거같다	-9.29861
▁멋있	-9.29899
랐	-9.299
▁허무	-9.29925
롭	-9.30066
▁아이들이	-9.30096
▁ᄃᄃ	-9.30163
ᄃ	-9.30183
턴	-9.30208
▁기대하고	-9.30217
ᄒᄒᄒ	-9.30245
▁같음	-9.30328
▁슬프	-9.30349
▁알았는데	-9.30354
수록	-9.30453
▁살인	-9.30507
점이	-9.30514
보게	-9.3057
▁드는	-9.30648
탕	-9.30665
땅	-9.30696
던가	-9.30749
▁관람	-9.30756
▁이러	-9.30757
▁그랬	-9.30758
▁예전에	-9.30801
▁성공	-9.30805
▁화가	-9.30808
킬	-9.30847
▁억	-9.30857
알바	-9.30873
▁특	-9.30892
▁후반부	-9.3098
▁일단	-9.3099
▁웃겨	-9.30993
▁이미	-9.31066
▁이런걸	-9.31071
▁테	-9.31141
▁낚	-9.31201
▁결혼	-9.31304
▁같습니다	-9.31343
▁맞는	-9.31432
놈들	-9.31588
▁허접한	-9.31678
응	-9.31716
▁지나	-9.31744
▁어렸을때	-9.318
▁바라	-9.31815
다운	-9.31964
로서	-9.321
스타	-9.32206
할듯	-9.32239
▁확	-9.32243
▁이런게	-9.32246
노잼	-9.32253
결말	-9.32255
▁상영	-9.32355
▁근	-9.32388
▁영웅	-9.32396
▁싫	-9.32419
이제	-9.32446
놓은	-9.32462
▁단순	-9.32518
득	-9.32529
▁권	-9.32555
봤음	-9.32572
지않은	-9.32617
ᄍᄍ	-9.32651
▁ᅳ	-9.32833
▁아빠	-9.32889
애들	-9.32917
픈	-9.32951
▁보고싶다	-9.32962
▁느껴지는	-9.32995
▁비슷한	-9.33056
▁한계	-9.33061
틴	-9.33111
▁안나오	-9.33136
▁장면은	-9.33152
골	-9.3321
▁어찌	-9.33231
모습	-9.33308
스런	-9.3338
▁추천합니다	-9.33385
▁분명	-9.33403
▁저도	-9.33412
▁젤	-9.33435
있게	-9.33437
마음	-9.33455
▁마음을	-9.33564
▁보지마세요	-9.33566
량	-9.33609
황	-9.33657
▁겁나	-9.33692
▁여전히	-9.3371
코미디	-9.33764
인간	-9.3378
▁까지	-9.33891
▁보시길	-9.339
▁친	-9.34
▁그렇고	-9.34029
▁꺼	-9.34068
▁감동적이고	-9.34116
높	-9.34151
▁유치하고	-9.34204
갔	-9.3422
▁상상력	-9.34324
▁좋았	-9.34393
보는데	-9.344
전에	-9.34517
▁명작이	-9.34528
▁남는다	-9.34543
빨	-9.3455
▁언	-9.34589
▁년전	-9.34643
▁이후	-9.34676
▁이야기를	-9.34739
▁질질	-9.34843
▁판	-9.34906
해주	-9.35185
영화중	-9.35187
▁표정	-9.35213
▁든다	-9.3527
했을	-9.35273
▁노출	-9.3528
것을	-9.35411
▁답답	-9.35416
▁황당	-9.35423
▁꼬	-9.35455
▁당신	-9.35617
▁보고나서	-9.35665
월	-9.35676
▁전체적으로	-9.35728
했어	-9.35756
▁밀	-9.35851
▁기분이	-9.35877
쪽	-9.35907
▁나에게	-9.35979
혹	-9.36009
▁굳	-9.36016
▁인간의	-9.36138
껄	-9.36225
버리고	-9.3633
▁그것	-9.36343
한듯	-9.36353
송	-9.36373
▁나왔으면	-9.36405
풀	-9.36423
▁취향	-9.36441
▁유쾌	-9.36521
▁느	-9.36614
쾌	-9.36616
▁보고싶	-9.36651
ᄅ	-9.36716
▁되었	-9.36745
▁잔인하	-9.36769
▁여성	-9.36918
▁표	-9.36921
념	-9.3706
▁아들	-9.37072
▁그림	-9.37075
▁짱짱	-9.37133
보다가	-9.37183
▁좋을	-9.37209
▁밑에	-9.37295
▁소름	-9.37376
▁자신	-9.37408
드리	-9.37491
이면	-9.37508
것은	-9.37544
인의	-9.37589
▁나를	-9.37702
잼있	-9.37759
▁와닿	-9.37814
▁감탄	-9.37825
▁촬영	-9.37851
▁너무나도	-9.37935
▁왜이렇게	-9.37954
찌	-9.3798
▁생각나	-9.37983
▁동화	-9.37995
▁눈이	-9.38188
봣	-9.38197
▁액션이	-9.38239
누	-9.38317
면서도	-9.38342
▁얼	-9.38401
하다니	-9.38419
눈물	-9.38435
해준	-9.38482
▁년도	-9.38488
▁범죄	-9.38507
나와	-9.38608
▁모르	-9.38612
▁아깝	-9.38675
▁있었던	-9.38686
▁놓	-9.38734
사람이	-9.38809
내요	-9.38813
지마라	-9.38858
▁좋았는데	-9.38965
▁인물	-9.38999
지마	-9.39013
폭	-9.39033
버려	-9.39058
▁재밌었음	-9.39075
▁진부한	-9.39092
▁영화중에	-9.39135
드라	-9.39136
으며	-9.3917
▁있나	-9.39193
앙	-9.39344
▁몰	-9.39348
재미없다	-9.39405
▁아놔	-9.3953
▁등장	-9.39555
▁보는게	-9.39574
▁처음으로	-9.39633
▁사랑이	-9.39657
책	-9.39667
었으면	-9.39672
▁꼴	-9.39698
▁싫다	-9.39756
람	-9.39905
ᄆ	-9.39909
예요	-9.3999
▁부분이	-9.39992
▁이어	-9.40018
▁받	-9.40133
겁	-9.40226
▁페	-9.40251
쿠	-9.40258
▁재밌었	-9.40264
▁미치	-9.40392
▁죽는	-9.40413
▁원래	-9.40666
령	-9.40682
▁황	-9.40755
모르	-9.40759
▁이젠	-9.4076
유치	-9.40773
▁성인	-9.40889
▁전작	-9.40934
킨	-9.41065
하라	-9.41202
▁전편	-9.41268
▁않아	-9.41303
으면서	-9.41344
암	-9.41362
더만	-9.4142
▁티비	-9.41471
▁돌려	-9.41472
▁깊이	-9.41531
▁섹시	-9.41534
▁잼있게	-9.41637
▁한편	-9.41652
있어	-9.41662
▁스토리에	-9.4167
자들	-9.41675
▁역대	-9.41682
만으로	-9.41812
▁재밌습니다	-9.41818
가족	-9.42015
▁짠	-9.42066
▁과거	-9.42086
▁딴	-9.42155
▁관심	-9.42168
▁눈을	-9.42197
없네	-9.42371
쇼	-9.42502
▁인상	-9.42503
보이	-9.42586
성을	-9.42615
▁멋지다	-9.42619
▁물론	-9.4262
▁화려한	-9.42631
▁예쁜	-9.42637
▁그런가	-9.42657
아님	-9.4266
▁모르겠	-9.42672
하는게	-9.4273
▁평생	-9.42738
▁떠나	-9.42768
▁나가	-9.42781
돌아	-9.42794
만들어	-9.42813
▁점짜리	-9.42832
내는	-9.42855
▁아니면	-9.42923
오빠	-9.42927
▁아닌듯	-9.42964
엄	-9.42968
▁재미있음	-9.42987
로운	-9.43037
▁킬링타임	-9.43102
▁귀엽고	-9.43133
꼽	-9.43142
▁관계	-9.43221
▁시청률	-9.43272
▁갑	-9.43273
▁좋았고	-9.43303
▁낫	-9.43323
▁시원	-9.43423
는건지	-9.43457
되지	-9.43515
르는	-9.43534
▁광	-9.43603
있었	-9.43618
쓴	-9.43649
육	-9.43702
▁끝내	-9.4375
▁수준이	-9.43774
무슨	-9.43806
▁출	-9.43824
▁봐야할	-9.44041
▁매력이	-9.44059
욱	-9.44083
만화	-9.44232
▁난다	-9.44235
아주	-9.44283
무섭	-9.44291
▁어이없는	-9.44292
왔다	-9.44302
▁몸매	-9.44348
▁어이가	-9.44394
▁중반	-9.44562
▁루	-9.44586
▁아름답고	-9.44625
짜증	-9.44645
▁어색한	-9.44669
▁보았	-9.4469
▁안됨	-9.44705
▁틀	-9.44722
▁결	-9.44724
충	-9.4473
▁마라	-9.44769
▁몰랐	-9.4482
짜리	-9.44837
▁아니지만	-9.44877
보면서	-9.45096
좋았	-9.45155
▁처음이다	-9.4516
▁삶을	-9.45205
▁같아	-9.45222
좋아요	-9.45325
인것	-9.45326
▁영화이다	-9.45329
쳤	-9.45344
나온	-9.45352
▁멀	-9.45356
▁보이	-9.45359
▁스케일	-9.45421
▁무엇보다	-9.45505
▁생각한다	-9.45517
▁이야기가	-9.45521
있음	-9.45582
▁병	-9.45708
기분	-9.45811
▁엉성	-9.45914
압	-9.45982
홍	-9.46013
▁해주	-9.46091
▁보이는	-9.46131
▁무섭	-9.46172
▁볼거리	-9.46218
한다면	-9.46243
▁후반	-9.46277
▁캐	-9.46412
친구	-9.46431
▁빈	-9.46438
▁몰입감	-9.46474
▁행	-9.46553
렉	-9.46556
▁메시지	-9.46567
끼리	-9.46592
▁확실히	-9.46602
▁빛	-9.46668
▁지난	-9.46688
▁특유의	-9.46691
▁추억의	-9.46714
▁청	-9.4676
▁정치	-9.46784
▁라는	-9.46891
▁ᅮ	-9.46964
특히	-9.47074
▁아저씨	-9.47076
잃	-9.47261
스터	-9.47277
▁이유가	-9.47376
▁음악이	-9.47399
▁독특한	-9.47439
▁했지만	-9.47457
영상	-9.47467
▁슬픔	-9.47718
재밌다	-9.47896
▁짓	-9.47912
▁반성	-9.47941
다른	-9.47983
했는지	-9.48043
▁용서	-9.48054
▁다행	-9.48174
나게	-9.4819
센	-9.48284
롱	-9.48294
값	-9.48294
▁이연걸	-9.48296
▁팔	-9.48402
▁시간을	-9.48419
▁연기력이	-9.48474
지않고	-9.48476
영환	-9.48515
시는	-9.48566
때마다	-9.48584
▁시도	-9.48623
지않는	-9.48654
기엔	-9.48698
시킨	-9.48796
▁돋보	-9.48855
▁압권	-9.4888
▁중간	-9.48978
▁뒷	-9.49078
▁호러	-9.49132
안되	-9.49231
온다	-9.49419
몰	-9.49514
곳	-9.49556
나올	-9.49583
▁모습을	-9.49586
▁폭	-9.49615
▁무섭다	-9.49622
어지는	-9.49644
돼	-9.49809
봐요	-9.49872
▁있다면	-9.49943
학교	-9.4997
▁했던	-9.50034
▁평론가	-9.5005
▁고생	-9.50058
ᅡ	-9.50059
▁표절	-9.50089
▁찍어	-9.50193
▁슬프고	-9.50218
확	-9.5022
▁죄	-9.50249
▁일상	-9.50271
▁여자들	-9.50298
▁실제	-9.50323
▁고전	-9.5035
▁애들이	-9.50376
▁다소	-9.50399
▁벗	-9.50412
▁생각합니다	-9.505
걸로	-9.50553
았던	-9.50624
▁신선한	-9.5066
취	-9.50781
▁훌륭	-9.5087
▁재밌었는데	-9.50883
▁끝난	-9.509
▁볼만함	-9.51013
▁프로그램	-9.51045
▁나중에	-9.51071
▁직	-9.51101
▁남주	-9.51119
▁희망	-9.51124
▁이영화가	-9.51125
율	-9.5118
퇴	-9.51235
▁그럭저럭	-9.51253
ᅲᅮ	-9.51254
▁역시나	-9.51266
▁뜨	-9.51269
▁필요없는	-9.51286
▁현재	-9.51325
▁과연	-9.51405
깨	-9.51415
▁이정도면	-9.51474
▁이것	-9.51479
▁사극	-9.51492
▁있지	-9.51701
▁평범한	-9.51815
▁실패	-9.51835
▁느낀	-9.51862
▁나서	-9.51872
줬	-9.51972
▁재밌네	-9.51991
둘	-9.52047
▁어쩔	-9.52052
▁덜	-9.52136
▁재밋게	-9.52146
현실	-9.52157
시고	-9.52308
▁순수한	-9.52312
▁무서워	-9.5239
▁보기엔	-9.52452
닝	-9.52462
폰	-9.52462
▁그들의	-9.52485
▁살짝	-9.52513
▁끝나고	-9.52533
옥	-9.52598
▁봤으면	-9.526
▁찍은	-9.52652
▁떨어지는	-9.52696
▁누	-9.52742
▁경찰	-9.52762
▁무지	-9.52776
▁아닌데	-9.52776
▁시선	-9.52924
던지	-9.5302
▁더이상	-9.53027
항	-9.53068
▁섹스	-9.53076
▁서로	-9.53107
▁우연히	-9.53108
▁먼저	-9.53116
이렇게	-9.53131
▁알바들	-9.53141
끝나	-9.53151
▁네	-9.53337
방송	-9.53355
▁그의	-9.53438
▁취	-9.53516
▁고민	-9.53605
▁재미없네	-9.5363
쏘	-9.53681
재밌어요	-9.5369
▁언제나	-9.53717
▁춤	-9.53729
더라구요	-9.53839
▁심심	-9.53871
▁되었다	-9.53943
했네	-9.53953
▁별로다	-9.54001
▁없나	-9.5411
▁소재는	-9.5414
▁몰입이	-9.54168
▁볼만하다	-9.54216
▁그런데	-9.54273
하셨	-9.54326
일이	-9.54391
줄이야	-9.54502
끌	-9.54505
▁능력	-9.54598
▁대충	-9.54686
클	-9.54704
▁시걸	-9.54731
▁해피엔딩	-9.54761
▁카메라	-9.54777
ᄏᄏᄏᄏᄏᄏᄏᄏᄏᄏᄏᄏᄏᄏᄏᄏ	-9.5478
▁붙	-9.54972
▁그다지	-9.55034
▁범인	-9.5519
죄	-9.55226
ᄃᄃ	-9.55375
것만	-9.55421
▁씨	-9.55444
▁드라마를	-9.55502
왔	-9.55556
▁행동	-9.55611
▁또한	-9.55642
▁풍	-9.55653
▁좋았던	-9.55683
▁다르	-9.55699
▁연애	-9.55714
▁독립영화	-9.55715
▁포장	-9.55742
▁설레	-9.55774
▁찡	-9.55777
▁제작진	-9.55815
▁하는데	-9.559
아까움	-9.55935
▁년에	-9.55988
하는지	-9.56131
좌	-9.56176
▁사이	-9.56181
▁받아	-9.56206
▁재미있었다	-9.56239
ᄏᄏᄏᄏᄏ	-9.56242
작가	-9.56248
ᄉ	-9.56289
▁재미를	-9.56339
인가요	-9.56343
▁넘어	-9.56374
▁액션은	-9.56404
나옴	-9.56415
▁못하고	-9.56455
북	-9.56536
에서는	-9.56557
▁먼	-9.56613
나와서	-9.56758
ᄇ	-9.56798
▁홍콩	-9.56804
▁글쎄	-9.56815
▁참신	-9.56817
▁조폭	-9.56873
웠다	-9.56917
그러	-9.56971
▁좋습니다	-9.56976
▁여자가	-9.57029
▁세상에	-9.57055
갔다	-9.57086
느라	-9.57104
▁풀어	-9.57108
▁주인공들	-9.5712
▁느낄수	-9.57205
▁기대를	-9.57282
▁만든다	-9.57337
낼	-9.57447
▁역할	-9.57477
▁불쾌	-9.57488
▁필	-9.57645
▁이쁜	-9.57672
▁맨	-9.57675
▁만큼	-9.57733
▁괴물	-9.57736
▁썩	-9.57752
▁엉성한	-9.57781
하구	-9.57789
▁사는	-9.57844
▁통해	-9.57845
뜻	-9.5785
▁그럼	-9.57877
시다	-9.57921
표현	-9.57925
▁열심히	-9.57937
▁생각나는	-9.5798
까진	-9.58029
▁무서웠	-9.58034
수도	-9.58056
▁포기	-9.58072
한건	-9.58074
▁채널	-9.58094
▁지루해서	-9.58096
감독이	-9.58124
▁점주는	-9.58179
▁캐릭터들	-9.58215
말고	-9.58223
▁사랑과	-9.58254
▁가볍게	-9.58261
혼	-9.58307
▁볼때마다	-9.58352
▁연기에	-9.58367
▁짜증나는	-9.58508
스러움	-9.58512
있는데	-9.58542
▁퍼	-9.58618
▁잊지	-9.58723
▁긴장	-9.5873
▁싸구려	-9.58733
▁클	-9.58954
흐	-9.58978
▁우정	-9.59002
▁보러	-9.59096
▁잊혀지지	-9.59118
웃기	-9.59185
▁있습니다	-9.59201
▁읽	-9.59252
인생	-9.59254
▁저예산	-9.59369
▁아깝지	-9.59377
▁영화관	-9.59395
▁올리	-9.59408
▁남을	-9.5945
▁식	-9.59458
▁어릴적	-9.59535
▁다시한번	-9.59539
스가	-9.59585
▁공감이	-9.59605
▁ᅲᅲᅲ	-9.59641
▁보고싶은	-9.59723
거같	-9.59842
남는	-9.59853
▁재미있네요	-9.59875
▁동물	-9.59877
괜찮	-9.59879
웅	-9.59947
힐	-9.60036
▁쵝오	-9.60037
▁많다	-9.60054
▁눈빛	-9.60057
연기가	-9.60079
진심	-9.60173
할까	-9.60182
▁봤었는데	-9.60205
▁가서	-9.60245
와서	-9.60256
▁죽을	-9.60306
머리	-9.60332
▁그린	-9.6039
▁만들어진	-9.60402
한게	-9.60417
▁스토리를	-9.60458
▁싶네요	-9.6049
놔	-9.60502
쩌	-9.60518
뒤	-9.60536
▁오버	-9.60586
▁믿을	-9.60595
잤	-9.60663
틱	-9.60687
멘	-9.60693
▁외국	-9.60777
▁되게	-9.60834
▁쇼	-9.60844
▁남아	-9.61035
랬	-9.61054
어진	-9.611
▁질리지	-9.61145
재밌음	-9.6116
▁정서	-9.61186
▁줌	-9.612
▁남기	-9.61219
▁맘	-9.61233
슈	-9.61258
에서도	-9.61281
▁필요없다	-9.61333
▁몇번을	-9.61337
뉴	-9.61356
볼만	-9.61373
찾	-9.61509
나고	-9.61532
학생	-9.6154
상을	-9.6158
소재	-9.61613
력이	-9.61733
▁드라마가	-9.61823
먹는	-9.61865
▁이건뭐	-9.61909
총	-9.61927
▁말로	-9.61964
해주세요	-9.61965
▁미래	-9.6197
헌	-9.62023
▁힐링	-9.62023
먹고	-9.62088
으론	-9.622
▁현실성	-9.62202
멋	-9.6222
▁심리	-9.62243
▁재밋다	-9.62254
▁나옴	-9.62392
▁아는	-9.62426
▁지루할	-9.62433
▁매력적이	-9.62532
▁유치함	-9.6255
▁죽어	-9.62618
▁흘러	-9.62648
몽	-9.62691
댄	-9.62694
▁현대	-9.62695
▁귀엽	-9.62724
순간	-9.62762
▁사랑스러운	-9.62827
▁볼수록	-9.62836
집니다	-9.62864
▁자막	-9.62877
하면서도	-9.62887
시키는	-9.62935
▁진심으로	-9.62981
었지만	-9.63019
아깝	-9.6308
▁환	-9.63126
▁끝나는	-9.63254
▁의심	-9.63323
▁나오고	-9.63349
▁드럽게	-9.63375
▁리뷰	-9.63386
르고	-9.63422
▁밥	-9.6344
했나	-9.63447
▁개판	-9.63461
▁식상	-9.6349
▁빨	-9.63505
▁못했다	-9.63547
▁오글	-9.63616
흔	-9.63658
▁그려	-9.63671
▁분노	-9.63733
▁유치하다	-9.63772
▁올라	-9.63795
▁앞	-9.63814
▁쓰래기	-9.63891
탁	-9.64004
▁종교	-9.641
▁잔	-9.641
▁중요한	-9.64144
▁홍보	-9.64177
▁할말이	-9.64189
평점이	-9.64216
▁예전	-9.64235
많은	-9.64255
▁제목이	-9.64256
▁말할	-9.64283
봉	-9.64337
▁사건	-9.64361
▁잔잔하고	-9.64418
렇	-9.64446
▁영화냐	-9.64478
랜	-9.6453
▁뮤지컬	-9.64574
봤어요	-9.64578
협	-9.64661
▁칼	-9.64692
엘	-9.64764
감을	-9.64783
▁마치	-9.64832
씨가	-9.64939
▁가끔	-9.64939
▁전에	-9.64953
▁넣	-9.65005
▁결과	-9.65251
내용이	-9.65302
▁달리	-9.65325
▁사람을	-9.65404
▁말이필요없	-9.65431
▁아쉬웠	-9.65441
▁반전도	-9.65495
▁스토리와	-9.65507
▁스타	-9.65511
▁철	-9.656
▁좋았을	-9.65672
▁발전	-9.65672
▁건지	-9.65734
▁없지만	-9.65807
▁아쉬움	-9.65838
▁에로	-9.65927
▁음악도	-9.66006
▁인기	-9.66026
▁브	-9.66054
▁시트콤	-9.66119
▁아름다움	-9.66119
▁디즈니	-9.66119
▁시시	-9.6612
▁볼게	-9.66141
▁죄다	-9.66226
▁꽝	-9.66228
▁마세요	-9.66232
▁요소	-9.66265
▁높아	-9.66269
널	-9.6627
▁나왔다	-9.66285
▁빌	-9.6634
보시	-9.66395
계속	-9.66487
기억	-9.66524
▁과정	-9.66577
▁있게	-9.66619
제목	-9.6663
좋고	-9.66731
지고	-9.66785
▁영화보고	-9.66817
▁다큐멘터리	-9.66839
▁뒤로	-9.66851
떠	-9.66898
들만	-9.669
재밌게	-9.66906
콩	-9.66912
영화의	-9.66913
▁에휴	-9.66922
▁크게	-9.66946
▁단연	-9.66961
▁민	-9.66961
▁안타깝다	-9.66966
▁높다	-9.66978
▁하네요	-9.66986
하더라	-9.67017
▁영화에서	-9.67034
이며	-9.67151
▁둘다	-9.67184
▁볼만하	-9.67202
▁킬링타임용으로	-9.67203
▁잇	-9.6722
는듯	-9.67234
▁힘들다	-9.67274
▁열정	-9.67313
▁봤다가	-9.67327
▁접	-9.67345
▁소녀	-9.67363
▁죽여	-9.67435
▁많았	-9.67444
님의	-9.67486
버림	-9.675
스러웠	-9.67509
▁보인다	-9.67522
텔	-9.67523
▁뛰어난	-9.67557
▁펑펑	-9.67565
▁감동과	-9.67585
대사	-9.67611
리지	-9.67649
▁있네요	-9.67711
져서	-9.67731
▁폭력	-9.67805
▁모든게	-9.67833
▁아쉽네요	-9.67835
▁얻	-9.67858
하려고	-9.67953
버렸	-9.67996
▁푹	-9.68043
▁홍	-9.68063
함과	-9.68082
가지고	-9.68098
▁돌아가	-9.68122
사람은	-9.68122
▁다가	-9.68151
▁올해	-9.68161
째	-9.68243
▁통쾌	-9.6825
자는	-9.68314
▁미드	-9.68349
▁삶의	-9.68371
▁빼	-9.68382
되서	-9.68403
스릴러	-9.68404
▁배우의	-9.68444
친다	-9.68477
▁찌	-9.68509
▁표현한	-9.68532
▁어른	-9.6854
면에서	-9.68632
▁웃기고	-9.68634
▁송	-9.68657
내용도	-9.68704
▁되지	-9.68725
막장	-9.68732
▁연기와	-9.68756
▁보길	-9.68835
용으로	-9.68938
▁영화에요	-9.68944
▁기본	-9.68957
▁벌써	-9.68969
▁ᄋᄋ	-9.69005
▁차이	-9.69008
인들	-9.69011
이해	-9.69026
▁베스트	-9.69041
▁굳이	-9.69044
접	-9.69054
▁코난	-9.69071
점도	-9.69134
에대한	-9.69205
▁의리	-9.69286
더라면	-9.69375
▁가진	-9.69498
룡	-9.69502
▁아나	-9.69507
겠어요	-9.69514
겟다	-9.69524
설정	-9.69543
▁쩐다	-9.69564
올리	-9.69598
▁퀄리티	-9.69624
▁산으로	-9.69645
▁즐거운	-9.69666
▁뭉클	-9.69666
▁안되고	-9.6967
겁니다	-9.69696
▁민망	-9.69704
스럽고	-9.69719
▁중간중간	-9.69733
공포	-9.69733
을수	-9.6979
빵	-9.69819
▁가지	-9.69834
굳	-9.69842
▁느끼는	-9.69843
캐	-9.69852
딸	-9.69855
▁나오지	-9.69923
▁달라	-9.69941
개봉	-9.69971
▁인생의	-9.69979
식이	-9.70024
얘기	-9.70082
▁무비	-9.70131
▁찍었	-9.70165
▁연속	-9.70228
▁분들	-9.70237
웨	-9.70245
뿌	-9.7035
▁게이	-9.70354
콜	-9.70366
솔	-9.70388
▁헐리우드	-9.7039
▁사기	-9.70399
ᅲᅲᅲᅲ	-9.70539
▁이거보고	-9.70575
▁광고	-9.70577
▁있어요	-9.70672
▁내용을	-9.70699
세계	-9.70719
봣는데	-9.70765
▁그렇다	-9.70799
▁슬퍼	-9.70816
식으로	-9.70823
▁망한	-9.7084
극장	-9.70842
▁이쁘고	-9.70845
▁어렵	-9.70873
한국	-9.70893
했네요	-9.70908
촌	-9.7101
▁나오면	-9.71055
혁	-9.71075
워서	-9.71157
▁흐름	-9.71167
▁빌려	-9.71198
헤	-9.712
▁악역	-9.71207
아무	-9.71211
▁생생	-9.71256
했으나	-9.71275
▁의문	-9.7129
재밌게봤	-9.71304
▁괜찮았	-9.71326
▁좋아할	-9.71336
착	-9.71366
형님	-9.71372
▁여기서	-9.71552
▁들었	-9.71685
늘	-9.71755
것들	-9.71811
▁짝퉁	-9.71856
▁저렇게	-9.71856
그렇	-9.71857
▁탄탄한	-9.71875
▁명품	-9.71913
즘	-9.71927
중에서	-9.72049
못한	-9.72099
메이	-9.72118
▁많아	-9.72135
셈	-9.72207
▁인생을	-9.72217
▁적당	-9.72254
▁극치	-9.72269
▁쫌	-9.72339
꾸	-9.72384
▁보여	-9.7239
▁발로	-9.72392
▁진리	-9.72462
▁런	-9.72467
▁결말도	-9.72491
제발	-9.725
▁헤	-9.72561
▁환상	-9.72569
털	-9.72596
▁어려운	-9.72597
▁쉽게	-9.72606
▁발견	-9.72649
▁말을	-9.72683
▁느와르	-9.72713
도아니고	-9.72748
첨	-9.72852
쩔	-9.72867
봤던	-9.72877
시길	-9.72953
자의	-9.72983
▁점수를	-9.7306
중의	-9.73173
▁굿굿	-9.73201
빼고	-9.73215
▁안하고	-9.73301
▁색	-9.73309
▁잭	-9.73315
챙	-9.73337
▁청소년	-9.73342
넹	-9.73342
뚱	-9.73342
ᅵ	-9.73343
▁즐겁게	-9.73347
아니다	-9.73384
▁영화지만	-9.73402
▁왜케	-9.73421
▁웃김	-9.7346
하는것	-9.73482
▁끄	-9.73522
▁쓸	-9.73687
▁한데	-9.73733
▁짧	-9.73739
정신	-9.73848
험	-9.73924
보자	-9.73932
였지만	-9.73994
▁젊은	-9.74012
만드는	-9.74042
야한다	-9.74063
▁노답	-9.74075
땡	-9.74094
▁결말은	-9.74157
같음	-9.74195
▁끼	-9.74204
▁생애	-9.74213
▁핵	-9.74225
▁아직까지	-9.74304
지를	-9.74322
▁문화	-9.74329
▁티비에서	-9.74348
하겠	-9.74383
▁세기	-9.74407
▁낮아서	-9.74425
젤	-9.74452
캐릭터	-9.74472
시간이	-9.7451
▁좀더	-9.74556
▁어렸을	-9.74667
▁영화였어요	-9.7467
겹	-9.74725
▁투자	-9.74731
▁사랑에	-9.74734
▁무엇	-9.74747
▁암튼	-9.74754
▁무시	-9.74801
흑	-9.74814
▁엘	-9.74818
▁이쁘다	-9.74836
▁상처	-9.74919
▁점준	-9.7493
정이	-9.74988
▁여러	-9.7499
▁미소	-9.75134
▁지루했다	-9.75219
하신	-9.75255
▁생각없이	-9.75257
▁이기	-9.75274
▁미모	-9.75356
▁없는데	-9.75366
▁살아있	-9.75521
영화임	-9.75523
▁불쌍	-9.75629
▁않게	-9.75643
▁보지마	-9.75758
냈	-9.75765
▁비슷	-9.75826
▁이유는	-9.75861
▁진정	-9.75871
▁군대	-9.75893
▁울었다	-9.75934
▁인상적이	-9.75948
잠	-9.75966
가슴	-9.76037
안되는	-9.76051
영화로	-9.76097
▁자극	-9.76141
▁놀라	-9.76217
섭	-9.76256
택	-9.76292
▁봣	-9.76349
▁웬	-9.76352
벽	-9.76354
퀴	-9.76385
모르겠	-9.76396
▁필름	-9.76416
▁울고	-9.76416
▁옛날에	-9.76416
▁웃음이	-9.76421
영화라고	-9.7645
▁좋겠어요	-9.76462
겠습니다	-9.76494
▁나쁘지	-9.76524
▁무척	-9.76576
점수	-9.7662
▁박수를	-9.76637
▁시대를	-9.7666
무비	-9.76706
▁몇번	-9.76715
어울리	-9.7673
넣	-9.76779
답답	-9.76843
▁정말로	-9.76846
▁눈물을	-9.7689
▁내려	-9.76925
▁울었	-9.76953
지가	-9.76955
▁이런영화가	-9.7696
▁최고입니다	-9.76992
▁동생	-9.77008
끝까지	-9.77053
▁연출도	-9.77069
연기도	-9.7708
▁평이	-9.77122
하지마라	-9.77123
▁자신의	-9.77145
신이	-9.77157
떄	-9.7716
컷	-9.7716
▁로그인	-9.77161
▁위대한	-9.77163
▁이제야	-9.77188
▁따뜻해지는	-9.7719
▁어머니	-9.7721
노래	-9.77235
▁평범	-9.77257
프로	-9.77271
▁어휴	-9.77288
한것	-9.77291
▁더러운	-9.77313
▁오글거리	-9.77374
▁옛	-9.77473
▁때문	-9.77618
야할	-9.77633
▁감동적	-9.77637
▁체	-9.77665
▁멋있다	-9.77711
갈수록	-9.7774
팅	-9.77862
▁느꼈	-9.77867
▁간다	-9.77886
긴한데	-9.77917
▁엉망	-9.77935
▁소재가	-9.77974
스타일	-9.78017
▁풀	-9.78048
▁받았	-9.78123
계의	-9.78149
▁못한다	-9.78186
▁뜻	-9.78211
▁묻	-9.78229
▁있으면	-9.78277
▁만들고	-9.78323
▁그걸	-9.78327
▁떨어지	-9.78409
물이	-9.78444
폐	-9.78472
▁영화인듯	-9.78509
▁안돼	-9.78533
▁음악과	-9.7858
▁ᄋ	-9.78598
슬프	-9.78598
아요	-9.78599
▁팬이	-9.78601
텐	-9.78616
아쉽	-9.78668
장난	-9.7867
해진다	-9.78683
껴	-9.78706
▁마이너스	-9.78728
셀	-9.78728
▁레전드	-9.78729
▁분이	-9.78729
▁전기세	-9.7873
▁마이클	-9.78734
▁끊	-9.78735
짜증나	-9.78755
▁희생	-9.78784
▁라고	-9.78785
전쟁	-9.78797
▁초반에	-9.78803
▁채	-9.78811
▁연결	-9.78821
▁빼고는	-9.78885
▁뻔하고	-9.78908
▁부르	-9.78921
▁보았다	-9.78922
었어	-9.78932
▁예쁘	-9.78934
매력	-9.79011
▁같아서	-9.79021
이런영화	-9.79039
스의	-9.79051
▁신경	-9.79062
셔서	-9.7907
했다는	-9.79093
하려	-9.791
▁소재로	-9.79104
▁알수	-9.79144
▁놈	-9.79166
축	-9.7919
▁갖	-9.79214
구성	-9.7922
하는건	-9.79308
▁콩	-9.79409
ᄏᄏᄏᄏᄏᄏᄏᄏᄏ	-9.79484
이었음	-9.79516
례	-9.79522
▁혼	-9.7953
▁바꿔	-9.79533
▁최강	-9.79603
▁주인공의	-9.79614
▁케	-9.79627
▁순수	-9.79643
▁시각	-9.79677
▁빼고	-9.79728
▁되고	-9.79759
리아	-9.79764
▁보아	-9.7978
▁오랜만	-9.79806
▁탈	-9.79825
▁부족하다	-9.79846
▁못할	-9.79881
▁공부	-9.79894
이유	-9.79911
으려	-9.79913
릿	-9.79915
깝	-9.79915
▁심장	-9.80011
장면이	-9.80015
▁덕분에	-9.80045
ᄌ	-9.80095
▁지구	-9.80148
푸	-9.80152
▁됨	-9.802
속에서	-9.80219
엄마	-9.8023
▁몰라도	-9.80231
▁우와	-9.80236
엇다	-9.8024
▁아마	-9.80242
▁한심	-9.8025
▁폴	-9.80282
대는	-9.80319
뽕	-9.80322
▁비주얼	-9.80322
▁헐리웃	-9.80322
▁주성치	-9.80324
▁들었다	-9.80389
▁이하	-9.8045
▁인간들	-9.8049
▁좋아서	-9.80514
ᅮᅮᅮ	-9.80594
젠	-9.80658
▁않을까	-9.80677
닌	-9.80714
빙	-9.80864
씬은	-9.80868
▁딱히	-9.80871
끈	-9.80877
쥐	-9.80929
새끼들	-9.80968
▁충	-9.81051
버리는	-9.81063
하기만	-9.81132
나온다	-9.81132
▁더불어	-9.81137
▁묘사	-9.81143
▁다만	-9.81208
봤지만	-9.81218
▁양심	-9.81255
▁기다리	-9.81259
▁부터	-9.81269
▁조합	-9.81279
▁없지	-9.8133
▁지나치	-9.81356
▁쩝	-9.81396
했을까	-9.81397
▁끝이	-9.81417
부족	-9.81426
하려는	-9.81436
▁단순한	-9.8144
쳤다	-9.81461
새끼	-9.81507
▁의미를	-9.81694
▁즐기	-9.81696
▁느껴	-9.81768
봅니다	-9.81769
▁훈훈	-9.81845
▁솔직	-9.81861
따라	-9.81897
▁급영화	-9.81907
낀	-9.81933
▁견자단	-9.81942
▁의외로	-9.81942
▁느껴진다	-9.8196
▁늘어	-9.81964
되면	-9.81967
▁하는지	-9.82023
▁재미있었어요	-9.82036
할수있	-9.82077
▁최근	-9.82092
▁악당	-9.82129
▁배우들도	-9.82135
▁곳	-9.82208
보지	-9.8223
▁지루하게	-9.8224
▁제작비	-9.82263
좋음	-9.82334
▁멍청한	-9.82362
▁긴장감도	-9.82415
▁희	-9.82451
▁신선하고	-9.82502
▁못해	-9.82588
▁가능	-9.82664
▁싶었	-9.82667
▁한참	-9.82748
렷	-9.82761
안에	-9.82771
▁보니까	-9.82793
▁장면에서	-9.82817
▁잔인한	-9.8282
것같	-9.82859
었고	-9.82861
▁사랑이야기	-9.82923
자나	-9.82949
흘	-9.82963
겠네요	-9.82984
▁느낌을	-9.83009
▁떠나서	-9.8308
▁현실적인	-9.83124
▁올려	-9.83135
▁출연진	-9.83167
▁들어가	-9.83194
▁증	-9.832
ᄋᄋ	-9.83264
로써	-9.83301
▁야한	-9.83414
▁싸이코	-9.83424
▁재미없어요	-9.83459
드립니다	-9.83541
▁죽이	-9.83543
▁특이	-9.83556
컬	-9.83585
▁기대안하고	-9.8359
▁무언가	-9.8359
▁뽑	-9.83615
▁시사회	-9.83633
▁방법	-9.8364
▁한번쯤	-9.83671
▁싶지	-9.83671
▁사랑은	-9.83672
▁일품	-9.83706
▁미안	-9.83732
▁받을	-9.83733
▁섬	-9.83771
▁드라마는	-9.8384
▁유쾌하고	-9.83949
▁블	-9.83958
▁전문가	-9.83991
▁멍청	-9.84005
지않았	-9.84068
▁아침	-9.84074
▁사랑하는	-9.84082
▁이해하기	-9.84162
▁본다면	-9.84265
▁좋지만	-9.84273
아쉬	-9.84311
하던데	-9.84331
밥	-9.84332
▁보자	-9.8441
▁있어야	-9.84411
몬	-9.84421
렁	-9.84421
▁카리스마	-9.84421
혈	-9.84421
▁개뿔	-9.84468
▁무협	-9.84561
▁아련	-9.84569
▁잼나	-9.84577
소재를	-9.84692
▁없었던	-9.84711
▁기대했는데	-9.84714
▁학교	-9.84743
▁허세	-9.84757
▁왜이래	-9.84786
자체가	-9.84819
▁이따위	-9.84836
소름돋	-9.84868
▁친구들	-9.84879
▁꾸	-9.84943
사는	-9.84995
▁한국인	-9.85081
꿀잼	-9.85094
▁지금은	-9.85107
▁이후로	-9.85112
▁이해할	-9.85113
하지도	-9.85166
맥	-9.85212
으로서	-9.85244
수있는	-9.85254
▁포르노	-9.85261
▁이래	-9.85281
▁역대급	-9.85317
▁지켜	-9.85368
감동적	-9.85384
힘	-9.85425
▁돋	-9.85434
▁중에서	-9.85437
였어	-9.85474
▁우주	-9.8558
점을	-9.85662
▁뿐이다	-9.85672
거라	-9.85717
더라도	-9.85738
언니	-9.85747
▁고통	-9.85764
▁작은	-9.85772
▁재미잇	-9.85974
겼	-9.86016
하시는	-9.86053
▁필요한	-9.86083
차라리	-9.86089
▁무엇을	-9.86106
칙	-9.86109
▁연예인	-9.8611
지도않고	-9.86133
사가	-9.86159
▁레알	-9.86185
▁빡	-9.86251
▁찬	-9.86329
▁야동	-9.86359
ᄏᄏᄏᄏᄏᄏᄏᄏᄏᄏᄏᄏᄏ	-9.86385
그래	-9.86465
님들	-9.86479
▁북한	-9.86578
▁논	-9.86611
▁샤	-9.86688
해진	-9.8671
보고싶	-9.86731
이였다	-9.86733
▁편보다	-9.86738
▁비극	-9.86744
만하다	-9.86765
님이	-9.86795
기위해	-9.86855
▁보내	-9.86891
지말고	-9.86952
▁눈에	-9.86952
▁니들	-9.86966
▁흔한	-9.86984
없어서	-9.87059
▁작품이다	-9.87064
▁아픔	-9.87088
적이다	-9.87118
▁잊을	-9.87125
▁남녀	-9.87192
▁와우	-9.87208
▁빵점	-9.87219
▁이럴	-9.87407
▁한마디	-9.87473
▁안맞	-9.8757
사이	-9.87575
냈다	-9.87657
이자	-9.87708
▁힘들었	-9.87759
▁합	-9.87792
▁뇌	-9.87811
▁보고나면	-9.87839
▁홍콩영화	-9.87842
▁아까울	-9.87849
▁웃기지도	-9.87866
▁ᄏᄏᄏᄏᄏᄏ	-9.87873
뭔	-9.87879
▁쓰레기다	-9.87898
▁변태	-9.87909
▁볼수있	-9.87944
▁그렇지	-9.87952
지지	-9.88042
▁않나	-9.88061
학년	-9.881
관계	-9.88229
라는게	-9.88244
점은	-9.88244
티비	-9.88348
만점	-9.88372
▁망치	-9.88573
▁봣는데	-9.88575
대단	-9.88609
렬	-9.88661
고싶은	-9.88662
멸	-9.88664
춰	-9.88668
수없는	-9.88669
버릴	-9.88684
스러워	-9.88684
거면	-9.88684
만큼은	-9.88736
멍	-9.88759
▁봤더니	-9.88773
▁잼없	-9.88778
▁찌질	-9.88805
▁생각하는	-9.88851
겠음	-9.88889
▁재밌을	-9.88917
▁어린이	-9.8895
이라서	-9.88961
보여	-9.88987
있나	-9.89004
▁생각하고	-9.89008
쉽	-9.89018
▁말하는	-9.8905
▁피해자	-9.89056
▁추억이	-9.89097
본영화	-9.89178
▁쪽	-9.89235
▁행복한	-9.89248
▁먹고	-9.8951
▁무섭지도	-9.89512
▁아줌마	-9.89523
틈	-9.89526
▁오바	-9.89533
옹	-9.8955
▁어처구니	-9.89572
핑	-9.89572
▁이것이	-9.89585
▁흥미로운	-9.89587
몰입	-9.89725
▁외모	-9.89733
▁보여줬	-9.89777
하기도	-9.89789
▁힘이	-9.8995
▁승	-9.89951
▁신선하	-9.89954
▁국내	-9.9002
▁지루하기	-9.9003
▁한국영화는	-9.90079
▁할까	-9.90216
▁대사가	-9.90232
▁현실적이	-9.90256
▁졸리	-9.90354
▁안나	-9.90422
▁슈퍼	-9.90448
꾼	-9.90451
롤	-9.90457
▁김기덕	-9.90458
▁불구하고	-9.90459
냄새	-9.90464
▁핵노잼	-9.90468
▁손발이	-9.90474
잔인	-9.90489
▁방금	-9.90508
평가	-9.90532
공감	-9.90594
▁제로	-9.90606
▁기술	-9.90689
▁생각함	-9.90714
▁몰입해서	-9.90725
▁죽는줄	-9.90759
▁보지마라	-9.90775
할만한	-9.90847
억지	-9.90867
▁속에	-9.90868
줘야	-9.91035
안됨	-9.91037
▁넘치는	-9.9104
▁장면들	-9.91072
▁주기	-9.91094
▁별개	-9.91174
으니까	-9.91208
쟁이	-9.91213
▁멍	-9.9127
▁꽃	-9.91291
▁끌어	-9.91298
▁용기	-9.9131
▁이때	-9.91331
둔	-9.9135
▁떨어진다	-9.9135
▁바뀌	-9.9136
▁색다른	-9.91361
▁완전히	-9.91363
▁사랑의	-9.91365
모양	-9.91385
왔는데	-9.91392
▁짜증난다	-9.91417
▁앞으로도	-9.91448
보는내내	-9.91607
▁형님	-9.9165
켜	-9.9169
▁하면서	-9.91718
▁사람의	-9.91722
▁알겠	-9.91737
▁남겨	-9.91742
▁시청자	-9.91746
타임	-9.91782
▁답이	-9.9184
▁그렇	-9.91914
랄까	-9.91965
▁집에서	-9.91979
려면	-9.9208
는줄	-9.92097
▁착	-9.92119
▁아니었	-9.92128
기까지	-9.92131
▁듣	-9.92131
밑	-9.92163
▁모를	-9.92172
▁명작입니다	-9.92191
▁못하다	-9.92217
균	-9.9223
럭	-9.92251
▁훈훈한	-9.92253
▁검색	-9.92271
▁보여준다	-9.92292
똥	-9.92312
▁본영화	-9.92387
하길	-9.92418
▁견	-9.92435
▁가져	-9.92461
뭔가	-9.92481
럴	-9.92487
▁있구나	-9.9249
▁싶은데	-9.92517
떡	-9.92518
▁줬	-9.92746
치곤	-9.92764
적은	-9.92764
▁긴장감이	-9.92779
▁훌륭하다	-9.92891
▁시청	-9.92908
잖	-9.92913
▁보게되	-9.92923
는구나	-9.92932
▁갔	-9.92959
주기도	-9.9302
감독님	-9.93031
▁동안	-9.93036
와는	-9.93094
▁않지만	-9.93103
뽀	-9.9316
▁에피소드	-9.9316
▁하나하나	-9.93218
▁맨날	-9.93223
엔딩	-9.93226
좋아하는	-9.93229
드러	-9.9332
▁영국	-9.93369
얼굴	-9.934
▁점수가	-9.93483
▁전체	-9.93516
그리	-9.93534
▁씬	-9.93561
▁타임	-9.93563
한다는	-9.93585
▁못함	-9.93623
있냐	-9.93653
▁왠	-9.9367
▁안타깝	-9.93731
▁뛰어	-9.93735
씨의	-9.93738
▁필요없	-9.93748
만의	-9.9376
저리	-9.93807
▁어제	-9.93827
▁하는거	-9.93831
▁보기에	-9.93833
▁잼있다	-9.93889
는것도	-9.93914
나가는	-9.93977
해야지	-9.94004
▁시리즈중	-9.94023
▁기다려	-9.94097
▁영원히	-9.94127
누나	-9.94155
특	-9.94209
▁조연	-9.94224
▁가치가	-9.94243
▁보긴	-9.94254
쟁	-9.94272
영화에	-9.94327
나왔	-9.94368
원작	-9.94398
▁좋겠	-9.94407
후회	-9.94429
▁감히	-9.94453
▁빵	-9.94514
어라	-9.94519
▁웃기다	-9.94576
편이	-9.9477
다는게	-9.94803
▁살고	-9.94822
▁최고였다	-9.94842
흡	-9.94974
▁앤	-9.94997
컨	-9.95003
쿵	-9.95003
▁바랍니다	-9.95021
▁상업	-9.9512
▁깔끔	-9.95154
▁캬	-9.95183
▁빼면	-9.95205
▁쥐	-9.95232
▁괜찮다	-9.95233
샤	-9.95303
▁재미있어	-9.95441
▁반개도	-9.95447
▁가면	-9.95466
세상	-9.95475
▁자살	-9.95476
있어서	-9.95482
▁멋지	-9.95492
었을	-9.95567
▁괜찮은데	-9.95569
▁검	-9.95633
줘서	-9.95665
옴	-9.95672
▁레이	-9.95673
▁국민	-9.95679
▁착한	-9.95727
▁싶을	-9.95742
▁아이가	-9.95789
도안	-9.95807
잡고	-9.9586
▁얘	-9.95911
브라	-9.95937
칸	-9.95938
▁크리스마스	-9.95938
▁바꾸	-9.95982
▁재미와	-9.96031
▁반복	-9.96058
었지	-9.96121
하고싶	-9.96141
받고	-9.96175
▁철학	-9.96218
▁틀어	-9.9624
▁척	-9.96277
갓	-9.96289
▁아픈	-9.96299
내고	-9.96333
▁십	-9.96369
▁없어요	-9.96394
만듬	-9.96412
▁누구나	-9.96435
그래서	-9.96493
▁이미지	-9.96505
▁하루	-9.96616
베리	-9.96628
▁조잡	-9.96635
▁가슴에	-9.96637
줬다	-9.96667
▁부모	-9.96784
하지마	-9.96808
▁몇년	-9.96809
▁영어	-9.9682
▁이런영화를	-9.96843
▁말아먹	-9.96896
▁겨우	-9.96913
▁풍경	-9.96942
▁신선했	-9.9698
낚	-9.96999
▁깨닫게	-9.97024
따위	-9.9703
듣	-9.97066
▁좋겠네요	-9.9709
▁남편	-9.97111
▁재미없게	-9.97141
▁당시에	-9.97155
▁모르겠지만	-9.97172
이즈	-9.97176
▁점주	-9.9718
허접	-9.97228
찰	-9.97241
ᄍ	-9.97249
꼴	-9.97256
▁처음엔	-9.97266
없는영화	-9.97327
▁알려	-9.97343
▁여행	-9.97411
럼	-9.97489
▁소름이	-9.9756
▁헤어	-9.97561
▁미쳤	-9.97571
소설	-9.97574
▁말하고	-9.97627
▁조화	-9.97678
▁작품을	-9.97696
▁우리의	-9.97725
▁없다는	-9.97761
빨리	-9.97777
리를	-9.97789
콧	-9.97834
▁외계인	-9.97834
▁다운	-9.97883
었나	-9.97885
▁전설의	-9.97901
거같아요	-9.97907
▁주말	-9.97922
▁이유를	-9.97923
▁다룬	-9.97951
▁그럴	-9.97975
않다	-9.98127
기로	-9.98128
▁좋아하는데	-9.98252
봤네요	-9.98254
시간에	-9.98296
▁맞추	-9.98318
했었는데	-9.98334
▁가족영화	-9.98341
▁가득	-9.98341
▁편의	-9.98367
▁ᄉ	-9.98381
▁년전에	-9.98389
▁한심한	-9.98461
▁재미없었다	-9.98471
시작	-9.98495
▁돼	-9.98548
▁군	-9.98567
받는	-9.986
▁유명	-9.98608
▁쓰레기같은	-9.98635
튀	-9.98769
ᅥ	-9.98795
▁스스로	-9.98801
▁감흥	-9.98815
▁진지	-9.98842
하기엔	-9.98857
하하하	-9.98889
▁전설	-9.98909
▁넌	-9.98913
▁좋게	-9.9895
▁안보고	-9.98963
속의	-9.99024
▁살려	-9.99153
까요	-9.9917
빛	-9.99183
▁남자가	-9.99223
▁보고싶어	-9.99266
▁없습니다	-9.99278
덤	-9.99281
머니	-9.99338
내내	-9.9934
▁있네	-9.99355
감독의	-9.99411
▁끝났	-9.99429
인건	-9.99487
새롭	-9.99539
▁잊을수	-9.99583
엽	-9.9973
콤	-9.99763
우리	-9.99766
사회	-9.99784
▁로봇	-9.99785
▁어린시절	-9.9979
▁나은	-9.99806
삭제	-9.99814
▁화끈	-9.99824
▁그거	-9.99832
▁감동적이다	-9.99841
▁러	-9.99853
▁오락	-9.99914
▁빠진	-9.99918
들고	-9.99926
▁대화	-9.99948
▁안볼	-9.99949
▁깎	-9.9995
▁여름	-9.99952
▁재밌던데	-9.99964
스럽게	-9.99999
▁할수	-10.0007
▁자식	-10.0009
려나	-10.0014
▁억지스럽	-10.0015
▁진부하고	-10.0021
일본	-10.0026
▁관한	-10.003
스를	-10.0037
륜	-10.0071
숭	-10.0075
뮤	-10.0075
▁답답한	-10.0076
▁고양이	-10.0076
거같은데	-10.0076
▁우리가	-10.0081
▁잼잇	-10.0085
▁공포물	-10.0086
▁그녀의	-10.0088
▁인물들	-10.0088
▁열연	-10.0091
있네	-10.0102
하고싶은	-10.0108
있을	-10.0114
▁침	-10.0115
▁낚시	-10.0116
▁밤	-10.0119
보셈	-10.0126
쓸	-10.0127
▁자주	-10.0127
덜	-10.0128
것같아요	-10.0128
▁탑	-10.0132
▁재미있었	-10.0136
▁웃겼	-10.0146
고싶어	-10.0152
▁농	-10.0153
▁심하게	-10.0155
▁그렇다고	-10.016
▁감안	-10.0161
▁무리	-10.0163
▁매력적	-10.0166
▁만한	-10.0169
시오	-10.0173
믿	-10.0173
▁기독교	-10.0174
▁초등학생	-10.0174
층	-10.0174
▁안타까운	-10.0174
납니다	-10.0175
▁노래가	-10.0179
▁낮아	-10.018
▁연기력도	-10.0185
▁테러	-10.019
었네	-10.0191
▁봤었	-10.0203
▁모르겠음	-10.0205
▁술	-10.0206
▁기가	-10.0206
ᅮᅲ	-10.0207
큐	-10.0215
▁색감	-10.0215
▁악마	-10.0218
▁원작의	-10.0229
주면	-10.0233
▁충격적이	-10.0234
▁뛰어나	-10.0235
▁조작	-10.0236
모두	-10.0236
자체	-10.0256
되나	-10.0266
▁정도의	-10.0269
략	-10.0272
엠	-10.0273
찐	-10.0274
▁크리스	-10.0278
아까웠	-10.028
▁아이돌	-10.0281
▁존경	-10.0282
출연	-10.0283
▁느꼈다	-10.0284
▁교육	-10.0292
▁워	-10.0296
했지	-10.0298
앞	-10.0302
▁ᄀ	-10.0303
▁받는	-10.0308
▁인간이	-10.0308
▁쿠	-10.0309
▁씹	-10.0312
▁꿈을	-10.0312
▁결론	-10.0315
▁죽이는	-10.0323
▁썼	-10.0329
▁영화인	-10.033
른다	-10.033
큰	-10.0335
갑니다	-10.0339
자를	-10.0341
▁그립다	-10.0341
▁낮다	-10.0343
화이팅	-10.0344
▁만들면	-10.0346
▁세상을	-10.0349
▁안습	-10.0354
▁커플	-10.0354
당한	-10.0358
부끄럽	-10.0375
▁경험	-10.0377
아까운	-10.0386
보시길	-10.0391
▁든	-10.0397
▁갈등	-10.0398
▁학교에서	-10.0398
▁기대이상	-10.0402
기에는	-10.0406
▁따로	-10.0409
▁맞아	-10.0414
돋	-10.0419
▁노래도	-10.0423
▁남은	-10.0424
▁비하면	-10.0427
▁명화	-10.0429
▁봤네	-10.043
▁옷	-10.0434
▁감동의	-10.0438
논	-10.044
되었	-10.0445
▁점정도	-10.0447
시즌	-10.0447
으로써	-10.0449
▁낚였다	-10.0454
같네	-10.0456
▁싶어요	-10.0456
▁여운을	-10.0461
▁장르가	-10.0461
▁뭘까	-10.0465
▁뭐라	-10.0466
보고싶다	-10.0474
거리는	-10.0475
주고싶다	-10.0476
붕	-10.0476
쥬	-10.0477
▁러닝타임	-10.0477
닉	-10.0477
▁엿	-10.0477
▁잔뜩	-10.0477
▁이런건	-10.0477
▁후속작	-10.0477
▁잠깐	-10.0478
▁만든영화	-10.048
▁할머니	-10.0484
되었다	-10.0485
▁비디오로	-10.0487
▁전율	-10.0489
▁방영	-10.0492
▁않네요	-10.0492
▁해라	-10.0495
▁남자들	-10.0495
▁푸	-10.0496
▁단어	-10.0498
명이	-10.0505
▁수도	-10.0506
▁게다가	-10.0511
▁궁금하다	-10.0512
▁뻔하	-10.0512
▁격	-10.0521
▁잼나게	-10.0522
▁밋밋	-10.0524
▁단지	-10.0528
▁나타	-10.0529
빌	-10.0536
▁애기	-10.0538
여주	-10.0542
▁헛	-10.0547
▁관객을	-10.0559
졸작	-10.0559
▁불쌍하다	-10.0564
섹	-10.0579
쿨	-10.058
▁패러디	-10.058
▁즐거웠	-10.058
절대	-10.0581
▁결코	-10.0586
▁살린	-10.0587
뻔한	-10.0588
뭐야	-10.059
▁밝	-10.059
▁하늘	-10.0591
재미없음	-10.0596
▁빠지	-10.0599
▁남아있	-10.06
것같은	-10.0602
▁대중	-10.0602
▁아름답	-10.0603
▁무술	-10.0605
▁화려하	-10.0606
▁이래서	-10.0608
▁재밌다고	-10.061
▁낚였	-10.0624
▁정말이지	-10.0629
▁아니야	-10.0631
▁만남	-10.0631
보니까	-10.0632
▁한명	-10.0633
란다	-10.0634
▁작가가	-10.0637
▁잘만들었	-10.0638
▁지나도	-10.0644
ᄏᄏᄏᄏᄏᄏᄏᄏᄏᄏᄏᄏ	-10.0648
낫	-10.0649
▁낮네	-10.065
흠	-10.0653
▁본거	-10.066
로우	-10.0661
▁북	-10.0662
보는게	-10.0668
▁별로임	-10.0669
▁스트레스	-10.0684
쳐서	-10.0684
▁소중한	-10.0685
▁이제서야	-10.0687
▁영혼	-10.0689
▁안봤	-10.0691
▁최초	-10.0693
▁다시는	-10.0702
▁맹	-10.0703
오오	-10.0703
▁봐도봐도	-10.0706
것만으로도	-10.0708
▁최대	-10.0714
▁만들다니	-10.0716
지루함	-10.0717
▁번째	-10.0727
오글	-10.0731
코드	-10.0745
▁모르게	-10.0755
됩니다	-10.0756
읽	-10.0762
▁현실이	-10.0774
▁헬	-10.0775
▁효과	-10.0779
▁남네요	-10.078
배경	-10.0783
▁흥	-10.0783
▁만들기	-10.0784
▁낮지	-10.0784
있어요	-10.0784
▁축	-10.0785
▁젠장	-10.079
쓰레기영화	-10.079
▁직접	-10.079
▁예쁘다	-10.0792
▁촌스럽	-10.0793
싶다	-10.0794
▁인상적	-10.0797
▁일어나	-10.0798
▁드립니다	-10.0799
▁탄생	-10.08
▁위로	-10.0801
▁모르겠고	-10.0803
▁당연	-10.0804
햇다	-10.0805
▁전쟁영화	-10.0807
▁코미디영화	-10.0807
▁주변	-10.0809
▁개성	-10.081
▁만들어도	-10.0812
▁구성이	-10.0815
▁ᄌ	-10.0818
▁설마	-10.0818
▁관객들	-10.082
상태	-10.082
▁좋았지만	-10.0822
▁해석	-10.0823
영화입니다	-10.0823
보이는	-10.0823
▁쉬	-10.0829
▁많고	-10.0831
까지는	-10.0832
▁보지말	-10.0833
▁업	-10.0835
▁다르다	-10.0836
▁예쁘고	-10.0849
▁좀비영화	-10.0853
이더	-10.0854
▁야구	-10.0855
▁에로영화	-10.0858
▁삶에	-10.0861
▁실제로	-10.0865
우스	-10.0871
▁남자의	-10.0886
제로	-10.0888
있습니다	-10.0893
보구	-10.0894
묵	-10.0895
▁심각	-10.0895
랫	-10.0896
▁특수효과	-10.0896
▁소소한	-10.0896
▁울컥	-10.0896
▁비현실적	-10.0897
▁좋았으나	-10.0899
한다고	-10.09
연기력	-10.0902
▁전투	-10.0905
▁최고임	-10.091
▁운명	-10.0917
▁아프	-10.0926
▁재미있습니다	-10.0928
버전	-10.0931
이었습니다	-10.0934
▁괜찮음	-10.0936
▁속에서	-10.0937
▁만들수	-10.0958
▁선생님	-10.0964
요즘	-10.0968
▁ᄍᄍᄍ	-10.0971
▁도전	-10.0973
▁편견	-10.0974
흥	-10.0979
녕	-10.0981
굴	-10.0981
▁보며	-10.0982
맹	-10.0983
▁식상한	-10.0985
생활	-10.0986
▁소장	-10.0991
▁생각하면	-10.0991
▁이상하게	-10.0992
닿	-10.0998
▁충분	-10.1003
때문	-10.1003
▁쩌	-10.101
겠죠	-10.101
▁엄	-10.1013
지도않	-10.1016
▁슈	-10.1017
공포영화	-10.1018
▁수준의	-10.1019
▁낙	-10.102
▁봤을까	-10.102
▁단편	-10.1021
▁톰	-10.1025
▁귀여워	-10.1031
▁나에겐	-10.1031
▁어쩔수	-10.1037
▁점대는	-10.1038
러운	-10.1038
였고	-10.1066
못해	-10.1069
▁캐릭터가	-10.1069
▁있었지만	-10.1071
▁사진	-10.1071
살아	-10.1071
▁연출과	-10.1077
▁있다니	-10.1082
밤	-10.1096
▁품	-10.1099
딴	-10.11
더빙	-10.1101
이랄까	-10.1105
ᄒᄒᄒᄒ	-10.1106
는거야	-10.1108
하겠다	-10.1111
▁블랙	-10.1111
롯	-10.1112
싹	-10.1112
▁시간가는줄	-10.1112
▁연기자들	-10.1114
하는영화	-10.1114
▁극장가서	-10.1115
▁눈물나	-10.1115
배우들의	-10.1115
때부터	-10.1116
▁모험	-10.1118
▁버리	-10.1122
나올때	-10.1123
라곤	-10.1126
▁개막장	-10.1131
▁어설프고	-10.1137
▁당신은	-10.1137
▁아역	-10.1138
▁끈	-10.1139
▁선동	-10.1143
▁만든거	-10.1145
▁아쉽지만	-10.1151
▁부실	-10.1153
▁본인	-10.116
▁점줌	-10.1164
▁내가본	-10.1165
었을까	-10.1167
라스	-10.1174
▁작품은	-10.1181
그만	-10.1184
▁가슴을	-10.1188
이니	-10.1188
했더니	-10.1191
박한	-10.1196
지않아	-10.1198
▁탄탄	-10.12
빡	-10.1203
▁얼마	-10.1203
▁거지	-10.1206
느껴	-10.1211
때매	-10.1216
어가는	-10.1217
마지막에	-10.122
액	-10.122
▁어른들	-10.1221
엑	-10.1221
룩	-10.1222
▁클레멘타인	-10.1222
닷	-10.1222
핀	-10.1222
야겠다	-10.1222
▁아류작	-10.1222
▁잔혹	-10.1223
▁돋보이는	-10.1225
관람	-10.1225
▁형사	-10.1227
일듯	-10.1228
▁무엇인지	-10.1228
▁감정을	-10.123
▁읽어	-10.1234
▁내면	-10.1237
받은	-10.1238
▁결정	-10.1246
▁죽은	-10.1247
지게	-10.125
▁재미도없고	-10.1255
문화	-10.1261
▁똑같은	-10.1265
▁귀엽다	-10.1268
▁갑니다	-10.127
▁감동받	-10.127
▁짜증나서	-10.1272
▁알수있	-10.1278
▁내용인지	-10.1278
▁옥	-10.1283
지말자	-10.1293
될듯	-10.1294
적이지	-10.1296
같은영화	-10.131
▁쩔	-10.1313
오래	-10.1313
▁있던	-10.1314
거같음	-10.1318
받아	-10.1322
▁코드	-10.1323
붙	-10.1324
춤	-10.1325
▁확실	-10.1328
▁웃고	-10.133
듯하다	-10.1331
딘	-10.1333
웃김	-10.1333
삐	-10.1333
팠	-10.1333
▁가벼운	-10.1333
▁아닐	-10.1333
▁재미로	-10.1348
▁따뜻하고	-10.135
어이없	-10.1351
▁오래된	-10.1355
재미도	-10.1355
웨이	-10.1355
▁홀	-10.1358
▁조절	-10.1365
요소	-10.1367
▁많아서	-10.1368
▁잘봤어요	-10.1369
▁점이다	-10.1369
▁참신한	-10.1375
▁신파	-10.1377
때까지	-10.1381
▁재밌지	-10.1388
검	-10.1391
▁여전	-10.1396
▁녹	-10.1396
▁사랑해요	-10.1399
▁놀랍다	-10.1401
문제	-10.1404
개그	-10.1408
▁아진짜	-10.1408
▁볼수있는	-10.1412
덕에	-10.1416
과는	-10.1425
▁포스	-10.1428
뇌	-10.1429
지요	-10.1435
하군	-10.1436
레스	-10.144
▁아닙니다	-10.1445
▁교과서	-10.1445
▁끔찍	-10.1445
▁유일한	-10.1446
▁대부분	-10.1447
▁마이	-10.1448
휘	-10.1448
▁아까웠다	-10.1449
▁특별한	-10.1449
▁흑인	-10.1449
▁충실	-10.1451
▁그저그런	-10.1452
▁복잡	-10.1454
▁감각	-10.1454
▁보다니	-10.1456
▁한숨	-10.1457
▁어울리는	-10.1464
▁보여주고	-10.1466
키드	-10.147
▁욕망	-10.1471
▁분위기가	-10.1474
되네요	-10.1483
▁궁	-10.1485
▁여러분	-10.1489
건가요	-10.1489
▁높게	-10.149
하시길	-10.1499
봤습니다	-10.1499
▁탐	-10.1504
▁비판	-10.1506
▁길게	-10.1509
보소	-10.1523
▁최고의영화	-10.1527
다음	-10.153
▁대단하	-10.1535
▁수입	-10.1546
▁기회	-10.1549
주연	-10.1551
배우가	-10.1552
렵	-10.1553
▁잘하고	-10.1555
ᄎ	-10.1559
랭	-10.1559
벼	-10.1559
젖	-10.1559
▁주윤발	-10.1559
▁짜임새	-10.1559
▁그자체	-10.1559
몸	-10.1562
▁느껴지	-10.1565
▁다섯	-10.1568
보여주	-10.1579
▁맡	-10.1582
▁나머지	-10.1582
하진	-10.1583
▁봅니다	-10.1583
▁아예	-10.1583
▁ᄏᄏᄏᄏᄏᄏᄏ	-10.1584
▁출연한	-10.1584
쓰는	-10.1587
▁괜찮았다	-10.1589
▁손에	-10.1591
관에서	-10.1597
▁겉	-10.1597
▁엔딩이	-10.1601
▁어렵다	-10.1604
▁엉성하고	-10.1604
▁모든걸	-10.1608
좋았다	-10.161
이걸	-10.1626
본영화중	-10.1627
▁풍자	-10.1627
▁먼가	-10.163
▁강한	-10.1637
▁재미없어서	-10.164
후반	-10.1641
▁열받	-10.1651
▁어릴	-10.166
▁쌍	-10.1661
좋은영화	-10.1665
▁다신	-10.1669
팍	-10.1674
땀	-10.1674
▁심형래	-10.1674
▁인내심	-10.1674
▁아이디어	-10.1674
▁반드시	-10.1674
▁이따구	-10.1674
앤	-10.1675
▁허술하	-10.1677
▁니콜	-10.1677
헐	-10.1678
걍	-10.1678
▁좋아해서	-10.1681
답니다	-10.1682
하기에	-10.1682
▁비밀	-10.1689
▁디워	-10.1693
▁자랑	-10.1698
▁이딴걸	-10.1698
▁해결	-10.1698
상황	-10.17
▁변화	-10.1703
▁우리는	-10.1704
▁정의	-10.1705
▁본듯	-10.1708
▁아름답게	-10.1711
▁평론가들	-10.1714
보인다	-10.1714
해야할	-10.1716
▁매력을	-10.1717
▁아내	-10.1722
었네요	-10.1724
스키	-10.1725
둥	-10.1725
▁무한	-10.1728
긴하지만	-10.173
▁많은걸	-10.1731
자리	-10.1733
씀	-10.1742
▁있었는데	-10.1743
▁시간아깝다	-10.1745
함은	-10.1746
▁이상의	-10.1747
▁삼류영화	-10.175
게하는	-10.1754
▁짐	-10.1762
▁편도	-10.1763
같아서	-10.1763
라는걸	-10.1764
▁신비	-10.1767
바라	-10.1767
▁누군가	-10.1768
수밖에	-10.1768
▁방식	-10.1772
▁반전은	-10.1773
▁분들은	-10.1773
닮	-10.1775
▁형편없	-10.1776
콘	-10.1778
▁낮게	-10.1779
본사람	-10.178
삶	-10.1786
닼	-10.179
싼	-10.179
▁로버트	-10.179
▁집착	-10.1792
▁영상이	-10.1792
▁ᄃᄃᄃ	-10.1794
봣다	-10.1794
▁줘야	-10.1795
▁거짓말	-10.1797
▁놀라운	-10.1797
꽃	-10.1798
▁진수	-10.18
▁아까운영화	-10.18
▁돈을	-10.181
▁대해서	-10.1812
사건	-10.1812
▁뜬금없	-10.1816
있었다	-10.1817
▁영화보는	-10.1818
거죠	-10.182
▁집중해서	-10.1823
▁기억나는	-10.1826
▁볼만했다	-10.1832
물을	-10.1836
▁돌리	-10.1838
▁답답하고	-10.1843
않음	-10.1847
▁보통	-10.1847
▁개연성이	-10.1849
어디	-10.1851
▁나오네	-10.1853
재밌어	-10.1861
▁시청률이	-10.1864
▁영화였음	-10.187
▁몰라	-10.1871
▁둘이	-10.1871
영화인데	-10.1878
▁응	-10.1882
▁모두가	-10.1883
놈이	-10.1886
닐	-10.1888
▁있으	-10.1889
객	-10.19
생각이	-10.1904
뭉	-10.1908
딜	-10.1908
미가	-10.1908
▁제이슨	-10.1908
로는	-10.191
▁착각	-10.191
아까워	-10.1911
▁두번째	-10.1914
▁몰랐다	-10.1917
했다면	-10.1919
▁안맞는	-10.192
▁만들었는지	-10.1921
아저씨	-10.1922
▁또다른	-10.1923
씬이	-10.1926
▁케이블에서	-10.1927
▁아깝고	-10.193
노답	-10.1932
▁봤어	-10.1933
였으면	-10.1934
재미있게	-10.1934
없었	-10.1936
사람들이	-10.194
멋있	-10.1942
▁주기도	-10.1943
▁동심	-10.195
조금	-10.195
▁범	-10.1963
뿐이다	-10.197
▁오빠	-10.1971
모든	-10.1976
▁느낌의	-10.1978
알아	-10.1982
▁폐	-10.1987
▁하나로	-10.1989
▁액션씬	-10.1997
▁보라	-10.2003
▁아니지	-10.2004
▁하나의	-10.2004
▁영화라는	-10.201
감정	-10.2015
들에	-10.2021
▁에이	-10.2022
었는지	-10.2024
▁블록버스터	-10.2027
▁임팩트	-10.2027
긋	-10.2027
탱	-10.2027
▁왠만하면	-10.2027
▁몽	-10.2027
▁모른다	-10.2032
▁한국에서	-10.2033
▁넘게	-10.2039
져요	-10.204
▁갖고	-10.204
긴장감	-10.2042
▁없으면	-10.2042
짱짱	-10.2042
▁케이블	-10.2043
▁나름대로	-10.2044
▁반담	-10.2049
▁꼬마	-10.2049
싸움	-10.2051
쩐다	-10.2063
왓	-10.2063
이후	-10.2063
연기는	-10.2064
▁영원한	-10.2064
▁새벽에	-10.2072
▁위해서	-10.2074
▁보다는	-10.2076
트리	-10.2079
▁없었음	-10.2086
맘	-10.2087
▁보려고	-10.209
▁왔	-10.2092
▁잼있음	-10.21
▁연기력은	-10.2102
▁죽었	-10.2106
▁밀려	-10.2108
▁재밌어서	-10.2113
▁제외	-10.2114
▁그당시	-10.2115
▁즐	-10.2117
▁죽이고	-10.2118
께요	-10.2121
▁잘만들	-10.2122
▁뭐하나	-10.2124
▁거리	-10.2124
▁망친	-10.2127
달아	-10.2131
오브	-10.2136
▁한편의	-10.2137
앉	-10.2147
▁왤케	-10.2147
▁조니뎁	-10.2147
램	-10.2147
낯	-10.2147
찔	-10.2147
퓨	-10.2147
▁하네	-10.2147
▁스크린	-10.2147
▁제임스	-10.2147
▁원작이	-10.2148
▁동시에	-10.2148
▁망했	-10.2148
▁봉	-10.2149
▁말도안되는	-10.2149
▁하나같이	-10.2169
추억	-10.2169
▁하품	-10.2169
▁연극	-10.217
▁울리는	-10.2171
겐	-10.2173
포스터	-10.2174
줬으면	-10.2178
▁살아가는	-10.218
웃겨	-10.2181
▁잼있어요	-10.2181
▁것들	-10.2182
▁짜증만	-10.2186
▁싸우는	-10.2191
▁ᅲᅲᅲᅲ	-10.2192
▁기자	-10.2205
▁맛이	-10.2208
▁도망	-10.2208
▁맞지	-10.2212
▁했으면	-10.2217
다큐	-10.2218
▁요리	-10.2219
▁쩔어	-10.2219
▁시리즈는	-10.222
▁처럼	-10.222
구석	-10.223
▁본방사수	-10.2236
보기싫	-10.2239
▁가볍	-10.224
▁안본	-10.224
받아서	-10.2241
측	-10.2267
뜬	-10.2269
깃	-10.2269
▁디테일	-10.2269
▁제니퍼	-10.2269
여운이	-10.227
▁여러가지	-10.227
▁개인	-10.2272
▁담배	-10.228
▁사랑해	-10.2281
주기	-10.2285
▁멋있는	-10.2288
▁부럽	-10.2289
▁성격	-10.2292
벗	-10.2295
▁쓰는	-10.2296
아직도	-10.2297
▁끝날	-10.2297
▁재밋어요	-10.2302
뛰	-10.2305
▁감동은	-10.2305
▁영화보면서	-10.2308
려다가	-10.2308
있네요	-10.2308
▁못보겠	-10.2311
▁강렬한	-10.2312
기전에	-10.2317
▁조카	-10.2319
▁ᄏᄏᄏᄏᄏᄏᄏᄏ	-10.2323
▁국가	-10.2324
▁지겹	-10.2332
▁소년	-10.2333
▁키스	-10.2335
▁실력	-10.2336
▁점이상	-10.2338
보신분	-10.2345
▁지겹다	-10.2348
▁듣고	-10.2353
▁안간다	-10.2355
▁그립	-10.2356
▁교훈을	-10.2357
▁의미가	-10.2363
▁떨어지고	-10.2365
▁아냐	-10.2366
▁ᄒᄒᄒᄒ	-10.2366
▁유명한	-10.2368
▁인생에	-10.2369
▁선물	-10.2374
▁개봉한	-10.2375
▁줄수	-10.2381
▁무섭지	-10.2385
▁휘	-10.2389
▁대본	-10.239
▁숨겨진	-10.2393
▁장국영	-10.2393
▁동성애	-10.2393
▁다양한	-10.2393
▁내생에	-10.2394
▁즐겨	-10.2397
▁명대사	-10.2399
▁죽인	-10.2399
애들이	-10.24
▁억지스러운	-10.2402
년이	-10.2403
▁애들은	-10.2408
▁님	-10.241
▁짜증남	-10.2412
했다고	-10.2414
▁아래	-10.2415
▁순수함	-10.2421
▁배역	-10.2422
▁개념	-10.2422
비디오	-10.2423
▁보기에는	-10.2426
주고싶	-10.2427
▁예수	-10.2427
커플	-10.2431
▁났	-10.2431
▁막장드라마	-10.2433
▁입장	-10.2436
▁과장	-10.2446
높은	-10.2447
어색	-10.2449
무시	-10.2452
▁영화인지	-10.2453
▁기대되	-10.2453
▁덤	-10.2455
▁시간만	-10.2461
둥이	-10.2462
존나	-10.2465
낮은	-10.2468
장면은	-10.247
멜로	-10.2472
이름	-10.2477
▁조선	-10.2486
나오고	-10.2489
할것	-10.25
▁짧은	-10.25
▁수작이다	-10.2501
▁두고	-10.2507
▁최근에	-10.2508
낭	-10.2509
ᅲᅲᅲᅲᅲᅲᅲᅲ	-10.2509
▁깜짝	-10.2511
▁이런류	-10.2515
폼	-10.2516
칭	-10.2518
컴	-10.2518
▁박중훈	-10.2518
▁뭥미	-10.2518
▁영환데	-10.2518
장르	-10.2519
▁정도면	-10.2522
▁잤다	-10.2524
▁어쩜	-10.2524
▁거북	-10.2529
▁어째	-10.2529
▁불쌍한	-10.2529
▁재난영화	-10.2532
▁내용전개	-10.2533
▁보았습니다	-10.2534
▁집에	-10.2537
어린	-10.2546
치고는	-10.2547
어떻게	-10.2554
줄알았	-10.2556
관객	-10.2557
▁하는게	-10.2563
▁생각난다	-10.2565
제작	-10.2566
▁인해	-10.2568
서야	-10.2573
▁생각나서	-10.2584
▁안본다	-10.2587
오늘	-10.2588
▁치고	-10.2591
▁사랑합니다	-10.2594
▁화를	-10.2595
빠져	-10.2595
▁마지막장면	-10.2607
▁작가님	-10.2609
▁진부	-10.2614
▁이런영화는	-10.2614
▁짜증이	-10.2617
▁연기자	-10.263
▁웃었	-10.2631
▁실망스럽	-10.2634
▁싸움	-10.2636
▁구리	-10.2636
보내	-10.2638
배우들이	-10.264
깍	-10.2642
갠	-10.2644
▁뱀파이어	-10.2644
읍	-10.2644
▁러시아	-10.2644
▁유일하게	-10.2644
▁뭐하자는	-10.2646
▁감정이입	-10.2646
▁폭풍	-10.2647
▁있는지	-10.2647
▁독특	-10.2648
▁웃으면서	-10.2648
▁안봐도	-10.2648
▁배경음악	-10.2649
▁흔들	-10.2651
▁남자주인공	-10.2653
버스	-10.2656
▁프리	-10.2658
▁때려	-10.266
▁봤을때	-10.2662
▁재능	-10.2664
할뿐	-10.2664
▁쉽지	-10.2665
▁배우를	-10.2668
하러	-10.267
씁쓸	-10.2675
몇	-10.2681
스토	-10.2685
후에	-10.2687
먹은	-10.2692
▁놀랍	-10.2695
▁아깝네	-10.2695
▁아쉬움이	-10.2696
▁제목만	-10.2697
▁영상과	-10.2698
장애	-10.2699
▁막판에	-10.27
▁재미없을	-10.2701
▁주제가	-10.2701
하실	-10.2703
스톤	-10.2713
▁유발	-10.2713
▁좋을듯	-10.2716
▁못보겠다	-10.2722
▁없냐	-10.274
▁반전을	-10.2741
볼수있	-10.2744
이딴	-10.2753
셔야	-10.2756
글자	-10.2765
▁삶이	-10.2766
갱	-10.2772
뢰	-10.2772
▁설득력	-10.2772
▁초등학교	-10.2772
▁떨어짐	-10.2772
▁흐르는	-10.2776
▁작위적	-10.2776
▁그만큼	-10.2781
▁적당히	-10.2787
▁벤	-10.2788
▁감정이	-10.2789
▁불편한	-10.2794
볼까	-10.2801
▁부모님	-10.2803
▁오락영화	-10.281
▁재밌었던	-10.2814
▁평점보고	-10.2814
즐	-10.2816
이었던	-10.2835
▁추리	-10.2839
아빠	-10.2841
▁찰	-10.2841
▁폐지	-10.2856
▁다시보니	-10.2859
▁그건	-10.2862
▁들고	-10.2862
▁소설을	-10.2863
▁잠이	-10.2865
신분	-10.2866
뻔했다	-10.2869
▁연인	-10.2871
▁봐야하는	-10.2871
부러	-10.288
▁이상해	-10.2885
▁포스터가	-10.2891
쩜	-10.2896
▁감독을	-10.2896
기억이	-10.2899
윌	-10.2902
▁익숙	-10.2902
▁늑대	-10.2903
▁우려먹	-10.2903
보느니	-10.2903
▁귀여움	-10.2904
▁케빈	-10.2905
▁허무한	-10.2911
▁폭발	-10.2911
▁그야말로	-10.2915
맞는	-10.292
부분이	-10.2922
▁알겠는데	-10.2923
▁꼭보세요	-10.2923
▁알겠다	-10.2925
▁굴	-10.2927
두고	-10.2929
▁개노잼	-10.2935
▁녹아	-10.2938
▁나랑	-10.2941
였나	-10.2944
▁언니	-10.2946
▁살면서	-10.2947
▁개연성도	-10.2952
▁떠오르	-10.2952
불쌍	-10.2953
코믹	-10.2954
▁절정	-10.2957
▁자리	-10.2959
▁유치해	-10.296
▁볼때	-10.2971
▁어디에	-10.2972
놀랐	-10.2973
▁명작을	-10.2974
▁땜에	-10.2975
있지	-10.2975
▁뭐니	-10.2977
▁원작에	-10.2977
▁생겼	-10.2978
▁년작	-10.2981
없나	-10.2982
▁생각으로	-10.2987
▁멋지고	-10.2991
늙	-10.2995
▁봐야지	-10.3002
▁거기에	-10.3002
▁못보	-10.3004
▁형제	-10.3013
픔	-10.3014
▁명장면	-10.3016
▁어른이	-10.3017
윈	-10.3017
▁넘치	-10.3019
▁난해하	-10.302
▁마리	-10.3022
▁좋네	-10.3022
싫어	-10.3024
▁많은데	-10.3029
▁관점	-10.3032
랩	-10.3034
▁이뻐서	-10.3034
사람들은	-10.3035
▁몇몇	-10.3036
▁즐길	-10.3039
▁돈아까워	-10.3039
▁발상	-10.304
▁은근히	-10.3041
▁마음으로	-10.3042
▁언제봐도	-10.3042
엇는데	-10.3043
부터가	-10.3045
있으면	-10.3051
▁나네요	-10.3051
▁최고봉	-10.3057
▁중독	-10.3057
해주고	-10.3058
▁다행이다	-10.3067
▁본게	-10.3068
▁희망을	-10.3069
쁜	-10.3072
▁로코	-10.3072
▁울면서	-10.3073
▁아우	-10.3087
탑	-10.309
▁주인공은	-10.309
분위기	-10.3091
▁않아서	-10.3092
엄청	-10.3094
▁본건데	-10.3095
▁영화라니	-10.3103
▁불러	-10.3111
▁내게	-10.3114
▁별로고	-10.3114
▁생긴	-10.3115
▁재밋음	-10.312
▁황당한	-10.3123
혼자	-10.3124
▁그지같	-10.3129
인물	-10.3135
▁아이들과	-10.3138
▁주연배우	-10.3141
건만	-10.3151
▁머리가	-10.3162
▁찾아볼	-10.3164
뷰	-10.3164
스토리도	-10.3164
▁잡아	-10.3165
꼈	-10.3166
ᅢ	-10.3167
▁우뢰매	-10.3167
셋	-10.3167
욤	-10.3167
▁내생애	-10.3167
▁짜집기	-10.3167
▁허술한	-10.3167
쯧쯧	-10.3167
▁사운드	-10.3167
▁희대의	-10.3167
▁없게	-10.3168
▁되네요	-10.3169
▁센스	-10.317
▁박수	-10.3173
▁집중이	-10.3174
▁했음	-10.3174
▁데리고	-10.3183
▁작품입니다	-10.3196
옆	-10.32
▁이해를	-10.3202
▁바라보	-10.3204
물로	-10.3204
기도하고	-10.3204
▁공감할	-10.3208
▁계기	-10.322
▁난잡	-10.3222
썼	-10.3229
솔직히	-10.323
▁적당한	-10.3231
▁최고로	-10.3235
▁저급	-10.3247
봐야지	-10.3248
▁호구	-10.3248
▁보던	-10.3255
▁강렬	-10.326
언제	-10.326
년전	-10.3261
▁이보다	-10.3263
▁부부	-10.3274
▁터지	-10.3278
▁샘	-10.3278
▁문제가	-10.3283
픽	-10.3298
▁생각할	-10.3299
젊	-10.33
▁으리	-10.3302
덴	-10.3302
밍	-10.3302
껀	-10.3302
ᄁ	-10.3302
똘	-10.3302
▁아놀드	-10.3302
▁스포츠	-10.3303
▁흘리	-10.3308
▁재개봉	-10.3308
▁할아버지	-10.3309
▁첫사랑	-10.331
르게	-10.3312
▁적어도	-10.3312
▁그것도	-10.3314
▁만들었을까	-10.3314
▁판단	-10.3316
▁근래	-10.3317
▁거장	-10.332
▁거품	-10.332
▁우연	-10.3321
▁말하고자	-10.3327
수없다	-10.3327
▁말자	-10.3334
▁초딩때	-10.3336
▁사상	-10.334
▁잔잔하게	-10.3342
▁난리	-10.3346
▁높아서	-10.3348
▁빛을	-10.3349
역사	-10.3349
▁인형	-10.335
▁활	-10.3353
▁욕심	-10.3354
긴다	-10.3355
▁상영관	-10.3358
▁깜	-10.3361
아버지	-10.3363
외엔	-10.3363
꿀	-10.3366
▁꿀	-10.3369
▁숙	-10.3375
ᄏᄏᄏᄏᄏᄏ	-10.3376
▁냉	-10.3381
▁유치해서	-10.3382
▁만들어라	-10.3387
소녀	-10.3389
없지	-10.3389
시원	-10.3395
나왓	-10.3398
▁매일	-10.3399
재미없어	-10.3403
제대로	-10.3405
극장에서	-10.3407
갈때	-10.3409
차별	-10.341
▁장난치	-10.3418
당시	-10.342
없구	-10.342
빠진	-10.3427
▁같지	-10.3431
ᅩ	-10.3438
▁잘만들었다	-10.3439
쯔	-10.3439
및	-10.3439
짤	-10.3439
▁깊게	-10.3439
▁역겨운	-10.3439
닭	-10.3439
▁빨갱이	-10.3439
▁유덕화	-10.3439
▁이소룡	-10.3439
덩어리	-10.3439
이예요	-10.3441
동생	-10.3442
▁평균	-10.3442
▁응원	-10.3444
못하는	-10.3447
▁믿고보는	-10.3449
▁등등	-10.3451
▁람	-10.3453
▁말아야	-10.3453
▁주제를	-10.3454
쓰고	-10.3456
하고싶다	-10.3457
빼	-10.3459
▁동양	-10.346
▁매니아	-10.3462
▁알았네	-10.3465
게임	-10.3469
▁대놓고	-10.3472
▁정도가	-10.3476
▁정상	-10.3479
▁생기	-10.3481
표정	-10.3484
▁받은	-10.3487
▁년도에	-10.3493
▁괜찮고	-10.3495
▁영화예요	-10.3497
▁아니라고	-10.3501
▁축구	-10.3503
▁남긴	-10.3504
▁전개도	-10.3504
▁기대이하	-10.3509
할수가	-10.3515
갔는데	-10.3518
▁미스	-10.3519
조아	-10.3521
▁결론은	-10.3527
▁소재도	-10.3535
겠어	-10.354
자들의	-10.3541
에대해	-10.3543
▁적절	-10.3547
▁따위	-10.3548
▁하아	-10.3555
▁마니	-10.3562
▁반대	-10.3563
▁이름이	-10.3566
▁망쳐	-10.3574
능력	-10.3574
빗	-10.3578
▁인상깊었	-10.3578
▁해리포터	-10.3578
퉤	-10.3578
헉	-10.3578
▁강력	-10.3581
▁여러번	-10.3582
리오	-10.3583
▁만들었나	-10.3586
▁사라지	-10.3588
뭐냐	-10.3591
▁따름	-10.3591
▁여자주인공	-10.3591
▁잘한다	-10.3592
찾아	-10.3596
▁담겨	-10.3597
▁속았다	-10.3602
로드	-10.3608
▁슬픈영화	-10.3608
▁편에	-10.3617
또한	-10.3621
▁치유	-10.3622
▁아무도	-10.3628
▁정신병자	-10.363
▁꽤나	-10.3633
▁마지막까지	-10.3634
▁바다	-10.3635
다시보고싶	-10.3635
▁찍는	-10.3638
▁괜찮네요	-10.3639
▁엔	-10.3641
▁살리	-10.3642
▁확인	-10.3646
▁없나요	-10.3648
짜릿	-10.3648
앞에서	-10.3652
캐스팅	-10.3654
▁만들어주	-10.3655
▁한번더	-10.3656
▁설정이	-10.3657
느끼	-10.3661
그럼	-10.3664
▁늦	-10.3668
▁잔잔하면서	-10.3669
▁철학적	-10.3682
같아	-10.3687
▁아프다	-10.3688
앞으로	-10.3689
▁기준	-10.369
▁재미있을	-10.3695
▁결말을	-10.3697
안돼	-10.3701
▁재미있는데	-10.3706
해줄	-10.3718
븐	-10.3719
펜	-10.3719
눌	-10.3719
몫	-10.3719
밴	-10.3719
앨	-10.3719
츄	-10.3719
켄	-10.3719
▁나레이션	-10.3719
▁탁월	-10.3719
▁화장실	-10.3719
▁플롯	-10.3719
▁부탁	-10.372
▁이도저도	-10.3723
▁생각해보게	-10.3726
만큼이나	-10.3726
▁부자	-10.3726
▁자세	-10.3727
분들은	-10.3727
▁루즈	-10.3728
▁여자친구	-10.373
▁당연히	-10.373
줄알았는데	-10.3732
▁빼곤	-10.3733
▁촌스러	-10.3736
▁보는거	-10.3736
▁줍니다	-10.3736
▁괜찮았는데	-10.3741
▁재난	-10.3746
▁무너	-10.3747
▁재미있었음	-10.3751
▁답답하다	-10.3755
▁원조	-10.3758
방식	-10.376
▁짜증나고	-10.3769
▁싶었다	-10.3772
▁ᄡ	-10.3772
▁찾는	-10.3773
하니까	-10.3777
톤	-10.3785
▁자체는	-10.3787
▁실감	-10.3797
▁곧	-10.3798
하는건지	-10.3798
▁이루어	-10.38
꿈	-10.3803
시나리오	-10.3804
▁프랑스영화	-10.3807
▁갓	-10.3808
▁다시보고	-10.3811
도좋고	-10.3813
▁떡	-10.3819
▁불가능	-10.3819
▁가득한	-10.3821
상영	-10.3822
맞추	-10.3825
없네요	-10.3831
▁토리	-10.3832
▁이해할수	-10.3834
졌음	-10.3835
재미있어요	-10.3844
편은	-10.3845
것처럼	-10.3855
▁따뜻	-10.3857
좋아하	-10.3858
한건지	-10.3862
▁케릭터	-10.3862
▁터미네이터	-10.3862
맺	-10.3862
▁걱정	-10.3862
▁헛웃음	-10.3863
▁보시면	-10.3864
▁꿈꾸	-10.3865
▁실험	-10.3866
▁빛나는	-10.3868
▁돼지	-10.387
▁돈내고	-10.387
▁웃을	-10.387
▁저평가	-10.3874
립니다	-10.3875
외에는	-10.3876
▁다운받	-10.3879
▁시간에	-10.3881
▁히어로	-10.3882
▁떼	-10.3885
▁세번	-10.3885
▁부작	-10.3886
▁오랫만에	-10.3887
▁비슷하	-10.3887
▁유럽	-10.3888
여행	-10.389
▁볼만합니다	-10.3891
▁후에	-10.3891
▁따뜻해	-10.3896
▁이름을	-10.3898
발연기	-10.39
▁책임	-10.3902
▁어설프다	-10.3903
▁포스터에	-10.3908
▁쭉	-10.3916
▁액션과	-10.3918
▁끝내주	-10.392
▁멋있었	-10.3926
▁나을듯	-10.3927
싫다	-10.3929
▁신고	-10.3932
숨	-10.3934
간만에	-10.3936
▁감동적이네요	-10.394
여운	-10.3944
장에서	-10.3944
지않는다	-10.3944
▁링	-10.3946
▁세상이	-10.3946
너무너무	-10.3948
잖아요	-10.3948
임에도	-10.3948
궁	-10.3951
포인트	-10.3953
찡	-10.3954
귀엽	-10.3955
▁사고	-10.3957
나오네	-10.3961
▁매력에	-10.3969
▁무난	-10.397
▁이상은	-10.397
▁씁쓸하	-10.397
스크	-10.397
므	-10.3971
▁배신	-10.3971
▁괜찮게	-10.3973
▁좋지	-10.3979
▁책을	-10.398
▁깔끔한	-10.3983
랍	-10.4003
▁한국영화의	-10.4005
덩	-10.4007
앵	-10.4007
▁웰메이드	-10.4007
랴	-10.4007
쟈	-10.4007
▁명불허전	-10.4007
▁닥치고	-10.4007
▁하정우	-10.4007
▁신선함	-10.4008
▁겉멋	-10.4008
▁내용과	-10.4008
▁엉망이	-10.4008
▁심지어	-10.4008
하하하하	-10.4009
▁앞뒤	-10.401
▁다운받아	-10.401
▁아무런	-10.4011
▁절로	-10.4012
▁장진	-10.4016
▁이끌어	-10.4016
▁배꼽	-10.4017
▁끼워	-10.4017
▁낫겠다	-10.4017
▁먹는	-10.4019
내용은	-10.4021
▁오브	-10.4023
습니까	-10.4023
▁훈훈하	-10.4024
▁손발	-10.4028
▁빅	-10.403
▁자아	-10.4032
▁내돈	-10.4033
▁만드네	-10.4042
▁하지원	-10.4048
힘들	-10.4057
▁진한	-10.4057
▁인상적인	-10.4064
▁알았음	-10.407
게만드는	-10.4072
▁점수는	-10.4074
▁이것보다	-10.408
▁보이지	-10.4085
▁어색하고	-10.4093
▁아니었다	-10.4093
멜	-10.4095
갖	-10.4097
▁ᄒᄃᄃ	-10.4097
쩝	-10.4105
평론가	-10.4106
하지말고	-10.4109
자들이	-10.4119
▁보려	-10.412
▁잔잔	-10.4122
한편	-10.4123
▁않은데	-10.4128
부분은	-10.4136
▁편안	-10.4137
▁얼굴이	-10.4138
▁목적	-10.4139
멋잇	-10.4142
▁내일	-10.4144
괜	-10.4146
▁굉장	-10.4146
▁괜찮아	-10.4149
녀석	-10.415
납	-10.4151
▁스티븐	-10.4154
▁어정쩡	-10.4154
▁소중함을	-10.4154
▁대통령	-10.4154
▁배트맨	-10.4154
▁브루스	-10.4154
▁제시카	-10.4154
▁양아치	-10.4154
▁베드신	-10.4154
▁담은	-10.4154
▁향연	-10.4155
펙트	-10.4156
▁한개도	-10.4157
▁보는것	-10.4159
▁묻어	-10.416
▁그림체	-10.4163
▁상관없	-10.4165
▁말고는	-10.4165
▁마시길	-10.4169
▁무섭고	-10.417
▁아니잖아	-10.4173
거에요	-10.4174
▁모욕	-10.4175
▁다루	-10.4178
▁조낸	-10.418
▁생활	-10.4183
▁스릴도	-10.4183
▁독일	-10.42
잼씀	-10.4204
▁갔다	-10.4204
▁생각했는데	-10.4215
번째	-10.4218
▁끝에	-10.4221
▁사랑스럽다	-10.4227
드림	-10.4228
▁서울	-10.4228
▁믿기지	-10.4229
였지	-10.4234
▁김치	-10.4235
법한	-10.4245
▁인생은	-10.4246
▁봤다면	-10.425
▁이상하고	-10.4257
▁이루	-10.4258
뭘	-10.426
도대체	-10.4261
목소리	-10.4263
줄알았다	-10.4266
올라	-10.4267
▁망할	-10.4268
▁정신없	-10.427
ᄏᄏᄏᄏᄏᄏᄏ	-10.4276
▁어디가	-10.4278
▁새끼	-10.4281
겟네	-10.4282
▁최악의영화	-10.4284
퀄	-10.4303
▁네티즌	-10.4303
뻥	-10.4303
▁임창정	-10.4303
▁이토록	-10.4303
▁호기심	-10.4303
▁도무지	-10.4304
▁놀랐다	-10.4306
▁위험	-10.4308
▁이것보단	-10.4309
▁일부러	-10.4311
▁태어나서	-10.4313
최고다	-10.4317
▁재미있었습니다	-10.4319
▁암울	-10.4323
▁짜리	-10.4324
▁라스트	-10.4325
ᄀᄀ	-10.4326
▁미안하다	-10.4326
▁김정	-10.4333
▁평점점	-10.4334
▁괜찮았음	-10.4337
▁무료	-10.4338
재밋다	-10.434
▁있었으면	-10.4341
그러나	-10.4341
▁스토리전개	-10.4341
▁귀여웠	-10.4344
▁안보는게	-10.4346
▁안나온다	-10.4347
▁순수하고	-10.4347
▁로망	-10.4349
▁한방	-10.4349
▁않았던	-10.4357
▁포인트	-10.4359
▁예술영화	-10.4363
지마세요	-10.4365
▁누나	-10.4369
▁기적	-10.4372
▁가족의	-10.4373
▁나음	-10.4381
▁승리	-10.4385
볼수	-10.439
▁한다는	-10.4394
봤으면	-10.4394
재미있다	-10.4412
낭비	-10.4413
▁생에	-10.4414
더스	-10.4419
왠	-10.4419
▁뒤에	-10.4419
▁정작	-10.442
▁잘생겼	-10.4421
지루해	-10.4433
▁달려	-10.4441
행복	-10.4448
▁잊혀	-10.4453
▁의지	-10.4454
뚝	-10.4455
▁살다살다	-10.4455
▁할리우드	-10.4455
▁이병헌	-10.4455
▁전반적으로	-10.4455
▁비호감	-10.4455
▁박진감	-10.4455
▁사투리	-10.4455
▁오글오글	-10.4456
▁민폐	-10.4456
▁만화책	-10.4461
▁아무튼	-10.4461
▁깨알	-10.4463
▁최소	-10.4464
▁쓰고	-10.4464
▁조아	-10.447
▁좋겠습니다	-10.447
특별	-10.4471
▁실수	-10.4473
▁충분하다	-10.4473
▁예능	-10.4473
▁억지감동	-10.4474
▁영원	-10.4474
▁무겁	-10.4476
▁웃었다	-10.4484
▁보았는데	-10.4486
▁귀여워요	-10.4486
것같네요	-10.4491
미국	-10.4491
▁됩니다	-10.4495
▁웃기는	-10.4504
보긴	-10.4508
▁뛰	-10.4511
하겠습니다	-10.4522
년대	-10.4526
▁상대	-10.4528
▁한국판	-10.4528
꺼야	-10.4529
러스	-10.4529
▁넘넘	-10.453
▁위트	-10.4531
▁느낌이다	-10.4532
▁아깝네요	-10.4537
▁받고	-10.4538
▁하다가	-10.4543
▁약간의	-10.4544
▁전편보다	-10.4549
드립	-10.4552
였네요	-10.4569
홀	-10.4573
▁널	-10.4574
섬	-10.4574
낫다	-10.4574
비슷	-10.4577
▁살리지	-10.4578
핵	-10.458
▁열라	-10.4581
초반	-10.4585
▁안될	-10.4586
▁간지	-10.4591
▁맞나	-10.4592
보고있어요	-10.4592
허무	-10.4596
작이라	-10.4597
▁어디로	-10.4598
▁탓	-10.46
▁쪼	-10.46
▁겨울	-10.4601
▁봤을	-10.4603
으려고	-10.4605
ᄃᄃᄃ	-10.4608
퉁	-10.4608
▁짐캐리	-10.4609
▁홍상수	-10.4609
▁도데체	-10.4609
흑흑	-10.461
▁낭만	-10.461
▁친구가	-10.4611
▁탈출	-10.4612
▁좋았을텐데	-10.4614
▁멋짐	-10.4615
▁절망	-10.4622
▁밌	-10.4623
▁만들어낸	-10.4623
▁같았다	-10.4624
▁쩌는	-10.4625
▁갖다	-10.4626
지루하다	-10.463
▁멋져요	-10.4631
▁음식	-10.4631
▁에효	-10.4632
▁팀	-10.4633
▁한심하다	-10.4633
놈들은	-10.4634
▁이거보다	-10.4635
▁포스터만	-10.4636
▁제작비가	-10.4637
▁무엇인가	-10.4637
▁힘을	-10.4641
▁생명	-10.4645
모자	-10.4653
▁어거지	-10.4654
▁대사들	-10.4654
▁남성	-10.4655
▁못했	-10.4657
▁좋앗	-10.4662
햇는데	-10.4664
밖	-10.4665
▁가정	-10.4667
조연	-10.4668
▁느껴졌다	-10.4671
▁자신이	-10.4688
▁벗어	-10.4688
▁보게된	-10.4692
▁이거보단	-10.4693
▁나무	-10.4693
좋네요	-10.4696
나름	-10.4704
▁잔잔하	-10.4712
▁마지막엔	-10.4732
▁보겠다	-10.4732
▁혹시	-10.4732
▁만화영화	-10.474
나왔으면	-10.4745
▁이만한	-10.4746
▁표현할	-10.4752
큼	-10.4753
▁엄마가	-10.4754
혹은	-10.4765
▁쏟아	-10.4765
뻑	-10.4765
렐	-10.4765
▁리얼리티	-10.4765
▁가까운	-10.4765
▁드디어	-10.4765
▁이해불가	-10.4765
드려요	-10.4766
▁죄송	-10.4767
엇음	-10.4768
▁예측	-10.4768
▁맞춰	-10.477
▁하하	-10.477
▁말그대로	-10.4771
▁파괴	-10.4775
▁뭐임	-10.4778
▁느리	-10.4778
▁넣어	-10.478
▁개콘	-10.4782
▁천국	-10.4784
▁곰	-10.4784
▁진지하게	-10.4785
▁여친	-10.4786
▁가수	-10.4789
▁사랑한다	-10.479
봤어	-10.4793
랜드	-10.4793
주제	-10.4795
▁멋있어	-10.4796
▁혹시나	-10.4799
▁늦게	-10.4802
▁답답함	-10.4808
▁소름돋는	-10.4812
▁풋풋한	-10.4818
▁역사를	-10.4819
▁여주가	-10.482
▁거지같은	-10.4821
보임	-10.483
느냐	-10.4836
▁드림	-10.484
맘에	-10.4843
▁말밖에	-10.4847
▁무서움	-10.4852
▁책으로	-10.4852
자신을	-10.4865
▁앞에	-10.4871
▁벗어나	-10.4873
▁선사	-10.4877
클라	-10.4878
▁보여줘	-10.4879
▁잼있는	-10.488
훌륭	-10.4881
▁끝나서	-10.4882
▁파리	-10.4885
안나오	-10.4893
▁때리	-10.4894
▁짜증나게	-10.4894
팀	-10.4898
떼	-10.4898
못하고	-10.4898
▁재밋엇	-10.4905
셨으면	-10.4908
어지고	-10.4911
획	-10.4914
▁따라가	-10.4916
▁소재와	-10.4917
아이들	-10.4918
▁여신	-10.492
▁캐리	-10.4921
벅	-10.4923
▁흡입력	-10.4924
▁아무생각없이	-10.4924
덮	-10.4924
됫	-10.4924
맑	-10.4924
▁깡패	-10.4924
▁공짜로	-10.4924
▁갠적으로	-10.4924
▁역량	-10.4927
▁답답해	-10.4929
는것을	-10.493
▁기획	-10.4931
▁은근	-10.4932
▁돌아보게	-10.4932
▁감동적이에요	-10.4932
▁불쌍해	-10.4934
▁그럴듯	-10.4934
▁먹칠	-10.4934
전혀	-10.494
되길	-10.4943
것같은데	-10.4943
▁로빈	-10.4948
▁겪	-10.4949
긴했지만	-10.4956
▁부분도	-10.4957
▁스포	-10.4965
같아요	-10.4967
▁강추합니다	-10.4969
▁수많은	-10.497
▁가히	-10.4976
였다면	-10.4986
▁사람들에게	-10.4994
▁첨이다	-10.5001
지루하고	-10.5001
▁모르겠네요	-10.5002
▁상어	-10.5004
▁것인가	-10.5005
▁방해	-10.5007
▁대신	-10.5007
▁읽고	-10.5008
▁왜곡	-10.5017
▁별하나	-10.5018
▁무섭게	-10.5021
▁멋져	-10.5021
할수있는	-10.5023
델	-10.5025
스릴	-10.5027
▁단점	-10.5029
▁기타	-10.5039
▁영구	-10.5043
▁교훈도	-10.505
▁빵빵	-10.5056
소름	-10.5064
▁충분한	-10.5064
벤	-10.5065
▁찾아서	-10.5066
줍니다	-10.5067
있던	-10.507
쁨	-10.5071
지않게	-10.5076
몰라	-10.5077
닫	-10.5083
▁러브	-10.5084
밧	-10.5085
숀	-10.5085
릇	-10.5085
셧	-10.5085
핫	-10.5085
▁쓸데없이	-10.5085
▁즐거움	-10.5085
뱀	-10.5085
▁아쉬울	-10.5085
▁아동	-10.5085
▁의도가	-10.5086
▁보지마셈	-10.5086
▁엽기	-10.5086
▁그려낸	-10.5088
▁당황	-10.5091
▁관련	-10.5094
▁엄청나게	-10.5094
시켰	-10.5097
▁이쁨	-10.5102
▁빠졌	-10.5105
▁잘못된	-10.5107
▁개똥	-10.5107
더군	-10.5108
나쁜	-10.5108
▁담긴	-10.5115
같고	-10.5118
▁충격적인	-10.5121
▁모든것이	-10.5132
▁평화	-10.5136
그렇게	-10.514
▁적절한	-10.5141
▁준비	-10.5146
▁처음이네	-10.5149
▁나와야	-10.5153
미친	-10.5156
▁이딴영화	-10.5162
비추	-10.5171
▁비중	-10.5177
▁남는게	-10.5184
▁그렇지만	-10.5194
▁명배우	-10.5194
ᄏᄏᄏᄏᄏᄏᄏᄏ	-10.5195
▁피해	-10.52
광고	-10.52
봣어요	-10.52
▁왔습니다	-10.5201
▁다르게	-10.5202
당시엔	-10.5206
▁그리워	-10.5207
▁있기	-10.5212
▁분들이	-10.5219
▁어이없다	-10.5231
▁타고	-10.5235
빼곤	-10.5236
코메디	-10.5236
▁짝이	-10.5246
▁킬링	-10.5248
캡	-10.5249
킴	-10.5249
▁타란티노	-10.5249
▁언젠가	-10.5249
▁괜찬	-10.5249
▁손가락	-10.5249
▁섬뜩	-10.5249
▁스타뎀	-10.5249
▁산만하고	-10.5249
▁감명깊게	-10.525
까봐	-10.525
파이팅	-10.525
▁죽고	-10.5252
▁소장하고	-10.5255
▁가능한	-10.5259
▁극복	-10.5261
▁살렸다	-10.5262
▁태국	-10.5264
▁창피	-10.5265
▁고뇌	-10.5265
▁아쉬워요	-10.5265
▁아만다	-10.5274
▁는데	-10.5275
▁ᄏᄏᄏᄏᄏᄏᄏᄏᄏᄏᄏ	-10.5276
▁멋진영화	-10.5277
▁좋더라	-10.5281
있지만	-10.5284
브리	-10.5285
▁싶습니다	-10.5295
줘야지	-10.5297
이후로	-10.5298
▁시대에	-10.5299
▁실망이다	-10.5299
▁뻔하다	-10.5299
▁멋있고	-10.5299
▁여배우들	-10.5307
▁당신이	-10.5307
유발	-10.5314
▁또보고싶	-10.5319
▁아름다웠	-10.5343
▁부족함	-10.5352
겠는데	-10.5354
에비해	-10.5355
▁밤에	-10.5365
망작	-10.5367
▁개봉했	-10.537
▁같고	-10.5374
▁만났	-10.538
▁들게	-10.5383
▁별로였다	-10.5385
▁막판	-10.5386
▁뻔뻔	-10.5389
▁흉내	-10.539
▁심하다	-10.5392
▁안나오는	-10.5393
▁장난아니	-10.5399
▁싸우	-10.54
밋	-10.5409
범죄	-10.5412
병맛	-10.5415
멈	-10.5415
렀	-10.5415
걷	-10.5415
렴	-10.5415
맴	-10.5415
▁자동차	-10.5415
▁칭찬	-10.5415
▁몽환적	-10.5416
▁블랙코미디	-10.5417
▁ᄌᄂ	-10.5417
▁짜증났	-10.5419
▁분만에	-10.5421
였구나	-10.5424
▁묘한	-10.5424
▁어느정도	-10.5433
▁찍고	-10.5434
합시다	-10.5438
▁전설이	-10.5442
왔어요	-10.5445
▁울었어요	-10.5446
▁사람이라면	-10.5448
▁싶다면	-10.5451
▁연기잘하	-10.5467
▁역겹다	-10.5471
▁인공	-10.5471
▁어이없음	-10.548
이었어요	-10.5482
▁욕먹	-10.5482
▁되야	-10.5483
▁환상적인	-10.5484
▁장점	-10.5496
▁광구	-10.5497
▁말인가	-10.5497
▁어울리지	-10.5499
아까운영화	-10.5505
답게	-10.551
▁볼것	-10.5512
▁모르겠네	-10.5512
▁행복하게	-10.5514
▁소화	-10.5538
▁낮네요	-10.5538
▁있었음	-10.5542
▁보라고	-10.5544
동화	-10.5546
▁그것을	-10.5554
▁여인	-10.5573
▁현실감	-10.5577
보게되	-10.5578
시대에	-10.5583
오랜만에	-10.5584
씁	-10.5584
ᄊ	-10.5585
뜸	-10.5585
쉐	-10.5585
혔	-10.5585
▁스타워즈	-10.5585
렛	-10.5585
쉴	-10.5585
▁점수준것들	-10.5585
▁납득	-10.5585
▁무거운	-10.5585
▁라이언	-10.5585
▁누군지	-10.5585
▁미스캐스팅	-10.5585
▁정우성	-10.5585
옵니다	-10.5586
▁쓸쓸	-10.5586
달라	-10.559
▁오래전에	-10.5591
▁장난하냐	-10.5593
▁기대하지	-10.5594
예술	-10.5599
ᅲᅲᅲᅲᅲ	-10.5599
▁요새	-10.5603
▁형편없는	-10.5606
제일	-10.5607
▁에라이	-10.561
▁화나	-10.5611
터짐	-10.5611
▁필요한가	-10.5612
었구나	-10.5615
구먼	-10.5615
▁낚인	-10.5619
▁대표	-10.5621
▁친구랑	-10.563
좋은데	-10.5638
▁명연기	-10.5641
▁만들다	-10.5641
▁뭣	-10.5643
못함	-10.5646
▁최고에요	-10.5647
▁공간	-10.5649
▁잃었	-10.5652
▁말투	-10.5658
▁좋아하지만	-10.566
▁않아요	-10.5661
▁웃는	-10.5663
▁못하겠다	-10.5666
놈들이	-10.5683
하나하나가	-10.5685
아니면	-10.5695
▁세월이	-10.5695
▁날아	-10.57
▁현실과	-10.5709
여배우	-10.5714
▁옆에	-10.5715
▁선정	-10.5725
▁재미없었	-10.5725
▁읽는	-10.5727
▁될수	-10.5727
▁만점에	-10.5729
났음	-10.5737
삭	-10.5749
▁디카프리오	-10.5757
▁아마추어	-10.5757
겻	-10.5757
▁강동원	-10.5757
▁후속편	-10.5757
▁명복을	-10.5757
▁혐오	-10.5758
▁명성에	-10.5758
▁어둡	-10.5758
▁스파이	-10.5759
것같아	-10.5759
▁굳굳	-10.5759
밖엔	-10.5762
▁부활	-10.5762
▁잃은	-10.5764
▁귀여	-10.5765
로맨스	-10.5765
▁동영상	-10.5767
▁놓치	-10.577
▁감동입니다	-10.5772
해지고	-10.5779
▁과학	-10.578
자마자	-10.5781
▁십점	-10.5782
▁개꿀잼	-10.5783
▁믿어	-10.5783
▁감동적이었다	-10.5786
▁첨부터	-10.5788
▁액션신	-10.5789
▁살인마	-10.579
▁잠들	-10.5791
▁마약	-10.5793
▁탄탄하고	-10.5793
▁서양	-10.5798
▁두시간	-10.5801
▁미소가	-10.5802
릴때	-10.5803
할줄	-10.5806
▁사랑스럽고	-10.5811
▁내시간	-10.5814
였네	-10.5815
▁이하도	-10.5817
▁궁금해서	-10.582
보길	-10.582
▁불쌍하	-10.5821
▁아까	-10.5825
입니까	-10.5825
것인가	-10.5828
▁느껴지지	-10.5831
▁싫어하는	-10.5836
▁않았지만	-10.5845
▁조잡한	-10.5845
▁등장인물	-10.5857
안되고	-10.5862
▁꼭봐야	-10.5862
▁새벽	-10.5869
그저	-10.5873
귀신	-10.5883
▁어쩌면	-10.5902
▁코믹영화	-10.5914
그랬	-10.592
남아	-10.5922
▁가족들	-10.5929
▁진지한	-10.5929
▁의상	-10.593
▁지경	-10.5931
▁뒤죽박죽	-10.5933
▁알파치노	-10.5933
▁짬뽕	-10.5933
듦	-10.5933
뭇	-10.5933
쏴	-10.5933
왈	-10.5933
▁오프닝	-10.5933
▁피아노	-10.5933
▁흑백	-10.5933
▁흥미로웠	-10.5934
▁극혐	-10.5935
▁전성기	-10.5936
▁상큼	-10.5936
잭	-10.5939
폴	-10.5942
탓	-10.5943
▁재앙	-10.5943
칼	-10.5944
▁바닥	-10.5948
▁후하게	-10.5952
▁여자애	-10.5952
바람	-10.5961
▁능가	-10.5962
것같음	-10.5967
▁싶었던	-10.5967
▁풋풋	-10.5971
▁완벽하다	-10.5982
▁놀란	-10.5983
▁앞서	-10.5985
▁기대된다	-10.5987
▁최소한	-10.5988
곳이	-10.5989
▁대박이다	-10.599
돌리	-10.5991
▁역작	-10.6008
▁아까워서	-10.6018
▁만난	-10.6019
겨울	-10.602
▁반영	-10.602
▁인생영화	-10.6021
시작해서	-10.6032
우드	-10.6032
활	-10.6033
▁잠시	-10.6035
▁심한	-10.6042
▁못하네	-10.6049
돌려	-10.6051
봤네	-10.6054
▁건질	-10.6059
▁뭐라고	-10.606
▁천사	-10.6064
▁소름끼치는	-10.6065
▁머야	-10.6065
▁짱이다	-10.6065
▁것들이	-10.6082
쿡	-10.6111
뚜	-10.6111
▁둘째치고	-10.6111
▁못봐주겠	-10.6111
▁비쥬얼	-10.6111
▁엉망진창	-10.6111
▁컴퓨터	-10.6111
밉	-10.6111
뺏	-10.6111
엮	-10.6111
▁신하균	-10.6111
▁인터넷	-10.6111
쭈	-10.6111
툭	-10.6111
▁여러모로	-10.6111
▁찬사를	-10.6111
▁드니로	-10.6112
▁목숨	-10.6112
▁첩보	-10.6112
▁두고두고	-10.6112
▁니콜라스	-10.6112
▁총체적	-10.6112
▁수면제	-10.6112
할정도로	-10.6115
▁로맨틱코미디	-10.6115
졌으면	-10.6116
▁새삼	-10.6118
▁흥분	-10.612
▁빠른	-10.6123
뒤에	-10.6131
초딩	-10.6135
▁분동안	-10.6137
▁기억난다	-10.6141
삼류	-10.6141
하시고	-10.6144
▁재밌었습니다	-10.6148
▁보고싶은데	-10.6155
▁듣는	-10.6155
자연스럽게	-10.6159
▁인류	-10.616
▁류영화	-10.6161
좋겠다	-10.6161
▁울림	-10.6161
▁대결	-10.6163
▁오그라들	-10.6163
▁모르지만	-10.6166
▁역사상	-10.6166
돈주고	-10.6168
으셨	-10.6174
▁멋지게	-10.6178
▁요소가	-10.6182
▁만들려	-10.6184
짓을	-10.6185
▁만들어서	-10.6193
▁자극적	-10.6197
▁사람에게	-10.6204
▁편까지	-10.6207
▁나오는데	-10.621
▁천만	-10.6213
유쾌하게	-10.6223
▁잼있네요	-10.6233
당신	-10.6234
안된다	-10.6253
▁신인	-10.6254
▁낮은지	-10.6256
▁나머지는	-10.6257
▁어우	-10.6259
▁정점	-10.6261
▁안보면	-10.6272
효과	-10.6273
▁시점	-10.6278
깐	-10.6278
흥미롭	-10.6284
거라고	-10.6286
▁가족애	-10.6291
▁홧팅	-10.6293
곽	-10.6293
옳	-10.6293
켓	-10.6293
푼	-10.6293
ᄐ	-10.6293
▁고등학교	-10.6293
▁왕조현	-10.6293
▁유치찬란	-10.6293
▁마찬가지	-10.6293
▁완죤	-10.6293
▁섬세한	-10.6293
▁박보영	-10.6293
▁원숭이	-10.6293
▁하이틴	-10.6294
마누라	-10.6295
▁풀어낸	-10.6297
▁아무나	-10.6297
▁격투	-10.6298
▁정체	-10.6298
▁바란다	-10.63
▁공룡	-10.6302
▁개그맨	-10.6302
▁할말없	-10.6305
▁흘러가는	-10.6306
▁전체적인	-10.6306
멀	-10.6314
ᄃᄃᄃᄃ	-10.6315
▁훌륭하	-10.6316
▁괜찮았던	-10.632
▁다운받아서	-10.632
샘	-10.6325
강력추천	-10.6326
중국	-10.633
곳에서	-10.6331
▁자극적인	-10.6338
▁파워	-10.6347
▁미학	-10.6354
각본	-10.6357
▁안나옴	-10.6359
▁좋으나	-10.6363
▁웃겨서	-10.6367
▁공유	-10.637
▁등장인물들	-10.6373
▁다시금	-10.6376
물론	-10.6381
▁구분	-10.6388
버그	-10.639
믿고	-10.64
▁뛰어넘는	-10.6401
재밋음	-10.6405
▁졸잼	-10.6411
▁웃겼다	-10.6417
순수	-10.642
피곤	-10.6428
▁커버	-10.6429
▁웃어	-10.6429
▁중심	-10.6431
못할	-10.6432
▁신화	-10.6435
▁뜬금없는	-10.6438
▁본격	-10.6449
민호	-10.6459
드릴	-10.6468
뎀	-10.6478
랍니다	-10.6478
▁마시	-10.6478
뚫	-10.6478
캠	-10.6478
퀸	-10.6478
홈	-10.6478
스파이더맨	-10.6478
▁완젼	-10.6478
▁비행기	-10.6479
▁컬트	-10.6479
▁잊지못할	-10.6479
▁오그라드는	-10.6479
▁부정	-10.6479
▁거부감	-10.6479
▁쏘우	-10.6479
▁깜놀	-10.648
▁킬러	-10.648
▁동감	-10.6481
▁밝혀	-10.6481
땜시	-10.6482
▁레옹	-10.6482
▁잔인함	-10.6483
▁군인	-10.6483
▁닮았	-10.6485
▁알려주는	-10.6488
거같아	-10.6489
▁보여줄	-10.6491
처리	-10.6499
▁재미없네요	-10.6503
▁채우	-10.6505
▁최후	-10.6507
무서워	-10.6508
분들께	-10.6512
암튼	-10.6515
▁감명	-10.6515
▁옛날영화	-10.6517
▁리즈	-10.652
선택	-10.6526
▁기존	-10.653
결국	-10.6531
무엇	-10.6534
▁잼없다	-10.6537
▁보았던	-10.6538
▁미국식	-10.6539
▁마지막회	-10.6539
▁미녀	-10.6544
▁대부	-10.6546
공부	-10.6551
▁가짜	-10.6559
▁먹어	-10.6561
▁기대없이	-10.6563
▁말았다	-10.6565
▁않습니다	-10.6565
▁최고최고	-10.6569
속으로	-10.6573
▁약하다	-10.6574
졌어요	-10.6581
▁재밋어	-10.6584
▁맡은	-10.6584
▁필요하다	-10.6598
버렸네	-10.6599
할수없는	-10.66
▁빠지는	-10.6606
▁불안	-10.661
복수	-10.6612
누님	-10.6622
실력	-10.6631
▁지키	-10.6636
▁좋으	-10.6638
▁못만들	-10.6648
▁두명	-10.6651
▁그이상	-10.6654
이쁨	-10.666
랙	-10.6666
랏	-10.6667
▁빕니다	-10.6667
▁애니매이션	-10.6667
둠	-10.6667
줫	-10.6667
▁그냥저냥	-10.6667
▁데이빗	-10.6667
▁어두운	-10.6667
▁송강호	-10.6668
▁혁명	-10.6668
점준것중	-10.6671
주려고	-10.6671
▁슈퍼맨	-10.6672
▁도둑	-10.6673
▁밑도	-10.6674
▁궁금해	-10.6686
▁원하는	-10.6687
▁분량	-10.6687
▁순위	-10.6689
▁늙어	-10.6696
나보네	-10.6702
농	-10.6703
▁나오네요	-10.6705
시청률	-10.6706
판타지	-10.6708
▁마법	-10.6713
해줘서	-10.6714
줘요	-10.6714
▁불쌍해서	-10.6714
▁알게되	-10.672
▁언제까지	-10.672
▁주온	-10.6723
▁고독	-10.6724
▁올드	-10.6731
▁끝남	-10.6735
재밋어요	-10.6746
상관	-10.6747
▁독특하고	-10.6755
될까	-10.6759
▁라마	-10.6761
▁대학	-10.6783
▁한시간	-10.6787
답다	-10.6788
▁지났	-10.6798
▁봐주	-10.681
별점	-10.6815
▁ᄏᄏᄏᄏᄏᄏᄏᄏᄏᄏ	-10.6824
는뎅	-10.6825
하거나	-10.6828
▁의사	-10.6834
룬	-10.6836
▁광기	-10.6839
▁무협영화	-10.6848
▁다시보기	-10.6856
줍	-10.6857
뜯	-10.6859
튜	-10.6859
썬	-10.6859
썸	-10.6859
앜	-10.6859
▁나루토	-10.6859
▁안타까움	-10.6859
▁한효주	-10.686
▁일주일	-10.686
▁빠져들게	-10.686
▁틀림없	-10.686
▁기발한	-10.686
▁흥미롭게	-10.6861
▁택시	-10.6861
▁환상적	-10.6861
머릿속	-10.6861
맞아	-10.6863
▁난해한	-10.6866
▁직업	-10.6867
▁각색	-10.6871
▁재탕	-10.6872
▁스릴러물	-10.6873
▁어색함	-10.6879
됬다	-10.6879
▁모독	-10.6881
▁또라이	-10.6882
▁재밌게봤어요	-10.6883
▁아깝습니다	-10.6888
▁더욱더	-10.6889
겠는가	-10.6892
▁우왕	-10.6895
▁얻어	-10.6896
▁지옥	-10.6896
▁조연들	-10.6901
아름다운	-10.6907
▁편하게	-10.6908
ᅳᅮ	-10.6909
▁유행	-10.6911
▁팬들	-10.6913
잘봤습니다	-10.6914
보지마라	-10.6915
▁몰아	-10.6919
▁강간	-10.693
별루	-10.6933
하자면	-10.6933
▁당장	-10.6938
▁한동안	-10.694
멋진	-10.694
역할	-10.6951
▁안봐서	-10.6959
▁아이유	-10.6961
특집	-10.6962
▁완성	-10.6962
▁밋밋한	-10.6964
했을때	-10.6973
▁열자	-10.698
▁연상	-10.699
지않나	-10.7006
▁논리	-10.7011
극히	-10.7015
▁최고인듯	-10.7016
▁나오기	-10.7025
ᄍᄍᄍ	-10.7036
▁중국영화	-10.7042
▁전문	-10.7055
▁허허	-10.7055
릅	-10.7055
졋	-10.7055
▁류승범	-10.7055
▁아기자기	-10.7055
룰	-10.7055
▁펼쳐	-10.7055
▁미스터리	-10.7056
▁고마워	-10.7056
▁힘내세요	-10.7057
▁질질끌	-10.7058
▁늙은	-10.7059
▁픽사	-10.7059
▁찬양	-10.7061
웠던	-10.7063
▁받았다	-10.7067
▁시간아까워	-10.7069
▁꺼져	-10.707
▁말씀	-10.7071
▁분짜리	-10.7074
▁던져	-10.7078
반갑	-10.7085
▁나올까	-10.7089
▁재미있었는데	-10.7094
▁의미있는	-10.7097
▁아이들에게	-10.7102
▁에로물	-10.7103
졌던	-10.7107
▁빠질	-10.7109
▁채워	-10.7116
▁케미	-10.7118
▁오직	-10.7121
개인적으로	-10.7125
▁제대로된	-10.7126
▁있으나	-10.7133
▁잔잔함	-10.7133
▁보고싶네요	-10.7135
▁구경	-10.7138
▁없으니	-10.7144
▁들어간	-10.7154
▁가슴아프	-10.7164
▁그동안	-10.7165
▁않으면	-10.7165
▁머냐	-10.7179
▁진부하다	-10.7179
누구	-10.7181
보지마세요	-10.7188
▁고문	-10.7199
▁만들어야	-10.7207
충격	-10.7226
여주인공	-10.7227
▁향수	-10.7241
▁되는데	-10.7242
▁일깨워	-10.7253
▁넘어서	-10.7254
낄	-10.7254
곱	-10.7255
템	-10.7255
▁고맙습니다	-10.7255
▁군더더기	-10.7255
▁시종일관	-10.7255
▁컨셉	-10.7255
젝	-10.7255
턱	-10.7255
솜	-10.7255
▁클래식	-10.7255
▁흑역사	-10.7255
▁스페인	-10.7255
습니당	-10.7255
▁멈추	-10.7255
▁왠만한	-10.7259
▁장애인	-10.7263
▁낮추	-10.7264
해놓고	-10.7265
빠짐	-10.7265
▁야하지도	-10.7266
▁내취향	-10.7266
▁반개	-10.7268
▁환경	-10.7268
▁국산	-10.7269
▁시험	-10.727
▁반응	-10.7271
▁상징	-10.7274
▁중학생	-10.7275
▁일반	-10.7275
▁느껴질	-10.7277
▁말하려는	-10.728
▁웃다가	-10.7281
▁적극	-10.7283
▁재미나게	-10.7285
▁장난하나	-10.7288
굿굿	-10.7294
▁향기	-10.7299
▁학생들	-10.7308
▁없애	-10.7308
▁재방	-10.7308
▁부산	-10.731
마무리	-10.7317
한마디로	-10.7319
▁만들었냐	-10.7323
▁좋구	-10.7325
▁모방	-10.7326
▁무리수	-10.7335
▁아름다웠다	-10.7343
▁뛰어넘	-10.7346
▁힘내	-10.7348
▁볼만한데	-10.7355
▁갖게	-10.7363
▁인연	-10.7364
▁비교해	-10.7366
▁아련한	-10.7372
▁추천한다	-10.7375
편집	-10.7378
▁안가는	-10.7385
오르는	-10.7393
▁정신병	-10.7398
두번	-10.7402
지않을	-10.7418
강호	-10.7423
형제	-10.7423
뗄	-10.7452
첩	-10.7457
흉	-10.7459
렘	-10.7459
훗	-10.7459
▁송승헌	-10.7459
▁스필버그	-10.7459
▁오랫동안	-10.7459
▁차태현	-10.7459
삘	-10.7459
팩	-10.7459
▁최민수	-10.746
▁배급사	-10.746
▁흠잡을	-10.746
▁떡밥	-10.746
취급	-10.746
▁지겨워	-10.7461
▁클라스	-10.7462
▁무의미	-10.7463
▁거기다	-10.7468
▁모자라	-10.7469
▁등록	-10.7473
▁프레	-10.748
▁백배	-10.7485
▁알아야	-10.7486
테니	-10.7487
▁반감	-10.7489
▁여태	-10.7493
▁적당하다	-10.7495
▁만세	-10.7497
▁이딴거	-10.75
▁맛있	-10.7504
하였다	-10.7505
므로	-10.7506
▁소통	-10.7511
▁살아야	-10.7513
▁필요없음	-10.7513
영활	-10.7523
▁또봐도	-10.7529
▁액션물	-10.753
쫌	-10.7531
덕분에	-10.7531
프로그램	-10.7531
얼마나	-10.7532
달라고	-10.7537
▁피식	-10.7541
▁만날	-10.7542
▁봐줄만	-10.7549
▁나왔음	-10.757
▁싶음	-10.7586
▁하나님	-10.763
웃긴	-10.7634
▁부담	-10.7634
보여서	-10.7637
자꾸	-10.7642
▁미안해	-10.7644
냄	-10.7666
인것같다	-10.7667
삽	-10.7668
풋	-10.7668
▁포켓몬	-10.7668
꽁	-10.7668
믄	-10.7668
밨	-10.7668
옮	-10.7668
헨	-10.7668
훔	-10.7668
▁팝콘	-10.7668
▁움직이	-10.7668
▁차승원	-10.7668
▁미스테리	-10.7668
▁김희선	-10.7668
▁데뷔작	-10.7668
▁원피스	-10.7668
▁어수선	-10.7668
▁도움이	-10.7669
▁챙겨보	-10.7669
왔습니다	-10.7672
▁찢어	-10.7672
▁농담	-10.7672
▁러브스토리	-10.7673
▁호흡	-10.7673
▁강아지	-10.7673
올린	-10.7675
▁오로지	-10.7676
▁존경합니다	-10.7678
십니다	-10.7678
▁철저	-10.7682
▁혼란	-10.7683
페이스	-10.7684
▁씨발	-10.7685
▁감동적입니다	-10.7687
▁경악	-10.7688
국민	-10.7692
▁음향	-10.7693
▁선생	-10.7694
▁감동적임	-10.7702
▁못하겠	-10.7706
▁식상하다	-10.7707
▁재미있네	-10.7717
▁람보	-10.7718
▁성형	-10.7718
▁이은주	-10.7723
즐겁고	-10.7728
중간에	-10.7733
▁공연	-10.7748
귀여워	-10.7748
애니메이션	-10.7749
▁좋아하네요	-10.775
그나마	-10.775
▁슬프네요	-10.7751
우리나라	-10.7751
힘든	-10.7758
하잖아	-10.7763
▁훌륭했	-10.7766
▁느껴졌	-10.777
성룡	-10.7774
꺼같	-10.7778
▁외면	-10.7787
좋아하는데	-10.7808
눈물흘	-10.7814
끝내	-10.7822
▁다음편	-10.7828
▁받아야	-10.7842
즐겁	-10.7842
잘못	-10.7853
야말로	-10.7865
혐	-10.7878
쎄	-10.7879
쯧	-10.788
뱅	-10.788
▁듭니다	-10.7881
▁말았어야	-10.7881
윽	-10.7881
▁영웅본색	-10.7881
▁원주율	-10.7881
▁테이큰	-10.7881
▁박평식	-10.7881
▁김수현	-10.7881
▁보낸다	-10.7881
▁거기서	-10.7882
▁갖춘	-10.7883
▁크리스찬	-10.7883
징그러	-10.7887
▁극단적	-10.7887
▁증명	-10.7892
▁기대됩니다	-10.7893
할게요	-10.7893
▁돌려줘	-10.7895
▁허탈	-10.7899
▁영광	-10.7901
▁승부	-10.7903
보려고	-10.7905
▁동화같은	-10.7906
해줘	-10.7908
▁첨엔	-10.7908
▁흉내내	-10.7914
▁뻔한스토리	-10.7915
▁존스	-10.7921
▁마블	-10.7924
▁독특하	-10.7932
▁히트	-10.7933
싫	-10.794
▁향한	-10.7948
▁망쳐놓	-10.7955
▁잼나요	-10.7958
싶은데	-10.796
옷	-10.797
갈수	-10.798
▁전라도	-10.7981
졌습니다	-10.7988
▁없을까	-10.7992
▁미쳐	-10.7993
▁기대했던	-10.7995
▁삶과	-10.7998
▁만들었으면	-10.8016
▁나타나	-10.8017
그자체	-10.8019
▁따뜻함	-10.8025
시킬	-10.8029
▁범죄자	-10.8029
▁세상에서	-10.8031
▁진정성	-10.804
▁진부하	-10.8041
겠군	-10.8058
뿔	-10.8086
둑	-10.8091
믹	-10.8093
▁스릴감	-10.8097
늬	-10.8098
덧	-10.8098
▁다세포소녀	-10.8098
▁뒤늦게	-10.8098
▁새록새록	-10.8098
▁소피마르소	-10.8098
▁엔딩크레딧	-10.8098
▁인상깊게	-10.8098
넓	-10.8098
빤	-10.8098
숲	-10.8098
좆	-10.8098
쩍	-10.8098
텅	-10.8098
띠	-10.8098
▁쓸데없는	-10.8098
▁한석규	-10.8098
▁엄정화	-10.8098
▁예뻐서	-10.8098
▁흘렀	-10.8098
찜찜	-10.8098
▁평점조절	-10.8098
▁감성팔이	-10.8098
▁러브라인	-10.8098
▁아바타	-10.8098
▁고마운	-10.8098
▁왕가위	-10.8098
▁캐릭	-10.8098
▁엠마	-10.8099
▁돋보인다	-10.81
▁예쁨	-10.8101
▁경의를	-10.8102
ᄂᄂ	-10.8102
▁흘렸	-10.8103
▁응원합니다	-10.8105
▁황금	-10.8107
▁억지스런	-10.8108
▁기다렸	-10.811
▁놀라울	-10.8111
▁소품	-10.8121
▁마틴	-10.8124
▁늙었	-10.8126
▁못따라	-10.8127
▁처음본다	-10.8129
▁재미없었음	-10.8136
▁대실망	-10.8136
그대로	-10.814
▁나은듯	-10.8144
▁네이버평점	-10.8146
▁나올수	-10.8149
▁만든건지	-10.8166
▁거짓	-10.8167
더라고요	-10.8169
▁정석	-10.8172
▁빠지게	-10.8173
▁비교하면	-10.8173
▁있었습니다	-10.8175
생겼	-10.8175
제국	-10.8192
▁경우	-10.8193
무서움	-10.8197
옛날	-10.82
ᄉᄇ	-10.8201
▁흥미롭지	-10.8213
다시봐도	-10.8213
보고나서	-10.8214
▁진부함	-10.8217
어떤	-10.8218
▁중년	-10.8251
짱짱짱	-10.826
아닌데	-10.8272
▁살아남	-10.8281
▁다시보고싶은	-10.8293
설명	-10.8294
즌	-10.83
▁아쉬워	-10.8309
봇	-10.8316
감명깊	-10.8319
썰	-10.832
▁박찬욱	-10.832
▁슬펐다	-10.832
▁흐지부지	-10.832
겄	-10.832
궈	-10.832
썻	-10.832
잣	-10.832
팽	-10.832
▁엑스맨	-10.832
꾹	-10.832
▁세련된	-10.832
▁어설퍼	-10.832
▁김혜수	-10.832
▁외로움	-10.832
▁멘탈	-10.832
▁점만점에	-10.8321
▁전지현	-10.8321
억	-10.8321
▁미친듯이	-10.8321
▁무간도	-10.8322
▁괴롭	-10.8325
▁사라진	-10.8326
▁돈낭비	-10.8327
했었다	-10.8331
▁쉬운	-10.8332
▁바랬	-10.8332
▁재방송	-10.8332
▁복수극	-10.8333
▁있겠지만	-10.8337
▁간직	-10.8341
▁실패작	-10.8342
▁보고나니	-10.8343
▁어설프게	-10.8348
▁알려준	-10.8351
줄알고	-10.8353
▁나오다니	-10.8366
▁안타깝네요	-10.8367
수가없다	-10.8368
▁보는동안	-10.8376
▁차분	-10.8381
하더니	-10.8405
하시면	-10.8415
▁세월	-10.842
▁알게된	-10.8426
첫	-10.8429
탐	-10.843
선생님	-10.843
그래픽	-10.8432
궁금	-10.8434
▁기억될	-10.8438
저런	-10.8453
▁시간아깝	-10.8464
천재	-10.8465
스테	-10.8474
▁봐줄	-10.8484
▁나왔던	-10.8489
투성이	-10.8492
▁허접하다	-10.8494
▁가능성	-10.8507
▁기억남	-10.8518
댓	-10.8545
긔	-10.8547
뎁	-10.8547
쏙	-10.8547
▁과대평가	-10.8547
▁윌리엄	-10.8547
▁재발견	-10.8547
▁파워레인저	-10.8547
▁브래드	-10.8547
▁다이하드	-10.8547
▁손예진	-10.8547
▁빈약한	-10.8547
▁윌리스	-10.8548
▁다니엘	-10.8548
▁모자란	-10.8549
▁첫번째	-10.8549
▁그럴싸	-10.855
▁치밀하	-10.8551
▁안성기	-10.8554
▁역쉬	-10.8555
▁성찰	-10.8555
왔던	-10.8556
▁열광	-10.8558
터졌	-10.8559
▁지루했음	-10.8567
▁권력	-10.8567
하려면	-10.8568
으세요	-10.8571
보기엔	-10.8573
▁냉정	-10.8576
ᄋᄋᄋᄋ	-10.8585
뎅	-10.8589
▁브레	-10.8589
▁귀여워서	-10.859
▁안녕	-10.8595
▁처음에는	-10.8595
▁일찍	-10.8596
▁존내	-10.86
▁중병	-10.8603
▁있어보이	-10.8608
▁드물	-10.8612
▁작화	-10.8614
▁시작부터	-10.8624
▁믿음	-10.8632
필드	-10.8655
타령	-10.8655
슬퍼	-10.8663
▁상식	-10.8665
썩	-10.8669
경찰	-10.8678
넘치는	-10.8693
재미잇	-10.8693
▁역겹	-10.8707
▁되어야	-10.8737
▁깨닫	-10.8747
▁오랜	-10.8763
완벽하게	-10.8767
알려주	-10.8768
넬	-10.878
뼈	-10.878
▁맙시다	-10.878
쇄	-10.878
즉	-10.878
▁어우러진	-10.878
▁사무라이	-10.878
▁드래곤볼	-10.878
▁묵직	-10.878
▁조용히	-10.878
▁나머진	-10.878
▁손색이	-10.878
▁사라져	-10.8782
▁보여줌	-10.8783
▁민족	-10.8785
▁상당한	-10.8787
▁ᄅᄋ	-10.8792
▁패션	-10.8793
▁드러나	-10.8794
▁재수없	-10.8794
끝날때까지	-10.8795
▁많은것을	-10.8799
것같습니다	-10.8802
▁잔잔하지만	-10.8809
▁재밌기만	-10.881
▁볼만해요	-10.8813
▁남자배우	-10.8813
씩이나	-10.8815
▁건강	-10.8818
▁미술	-10.8827
▁엉성하다	-10.8832
▁어디까지	-10.8837
▁없구나	-10.8846
▁일반인	-10.8864
깜	-10.8912
묻	-10.8912
무서운	-10.8913
떨어지는	-10.892
▁형식	-10.8936
있을까	-10.8937
좋았어요	-10.8944
약간	-10.8953
갔으면	-10.8969
▁굿굿굿	-10.9007
팝	-10.9018
▁런닝타임	-10.9018
▁펭귄	-10.9018
웰	-10.9018
▁곱씹	-10.9018
▁숨막히	-10.9018
▁키아누	-10.9018
껍	-10.9018
▁심리묘사	-10.9018
끓	-10.9018
▁김민종	-10.9018
▁김태희	-10.9018
▁소지섭	-10.9018
▁ᄇᄉ	-10.9018
▁안타까울	-10.9018
▁레이첼	-10.9018
ᅩᅩ	-10.9019
▁색다르	-10.902
▁록키	-10.9021
▁창있네	-10.9021
▁방황	-10.9024
▁대표작	-10.9026
▁몰락	-10.903
▁틈이	-10.9031
▁사이코	-10.9031
▁치료	-10.9038
▁지나친	-10.9038
▁볼만했음	-10.9038
▁존잼	-10.9038
▁증말	-10.9039
싶을때	-10.9043
▁시골	-10.9044
▁심각하게	-10.9045
▁단역	-10.9047
역활	-10.9049
▁매번	-10.9049
▁돈아깝다	-10.9053
▁모순	-10.9058
▁없었으면	-10.9059
▁감정선	-10.906
▁인간적으로	-10.9064
▁잼없음	-10.9082
▁정체성	-10.911
▁머리속	-10.9127
▁수준이하	-10.9142
것일까	-10.9148
▁재미있었던	-10.9151
짧	-10.9162
왜이래	-10.9163
▁비극적	-10.9168
영웅	-10.9184
▁데려다	-10.9203
▁첨이네	-10.9206
검사	-10.9209
▁배우분들	-10.9213
지마시길	-10.9247
▁드림웍스	-10.9262
▁어쨌든	-10.9262
같았음	-10.9262
셜	-10.9262
쇠	-10.9262
욬	-10.9262
췄	-10.9262
▁구혜선	-10.9262
▁팍팍	-10.9262
▁바탕으로	-10.9262
▁설경구	-10.9262
▁장동건	-10.9262
▁저절로	-10.9262
▁그들만의	-10.9263
▁심오한	-10.9263
▁훈남	-10.9264
▁어려웠	-10.9265
▁흥해라	-10.9266
▁죽기전에	-10.9267
▁색채	-10.9267
▁달달하	-10.9272
▁이나영	-10.9273
▁좋아하시는	-10.9278
꼬라지	-10.9279
▁커피	-10.9284
▁유령	-10.9286
▁남자라면	-10.9289
▁노튼	-10.929
▁원표	-10.9295
▁불법	-10.9296
▁예산	-10.9297
▁허무함	-10.9297
▁기념	-10.93
▁만약	-10.9301
▁울었습니다	-10.9301
▁소중하	-10.9308
▁주목	-10.9308
▁재현	-10.9311
▁어린아이	-10.9326
우월	-10.934
지말라	-10.9386
취향	-10.9408
쭉	-10.9418
더럽게	-10.942
시간낭비	-10.9423
▁풀어내	-10.9433
괜히	-10.9433
명성을	-10.9448
해지네요	-10.946
젼	-10.9483
만들엇	-10.9488
꿔	-10.9508
▁부끄러운	-10.9512
▁트랜스포머	-10.9512
닦	-10.9512
둬	-10.9512
쉣	-10.9512
웩	-10.9512
펀	-10.9512
▁조기종영	-10.9512
꺄	-10.9512
얀	-10.9512
펴	-10.9512
헝	-10.9512
넼	-10.9512
▁가슴아픈	-10.9512
▁이탈리아	-10.9512
▁깨달음	-10.9512
▁웬만하면	-10.9512
▁권상우	-10.9512
▁오우삼	-10.9512
▁지저분	-10.9512
▁뉴욕	-10.9512
▁엽문	-10.9512
▁엉엉	-10.9512
▁젊음	-10.9513
▁침묵	-10.9513
▁황홀	-10.9513
▁슈렉	-10.9514
깁니다	-10.9514
▁간첩	-10.9515
▁뛰쳐	-10.9516
▁파격적	-10.9517
▁퇴보	-10.952
▁방향	-10.9524
▁뿌리	-10.9526
▁지루했어요	-10.9528
▁생존	-10.9528
▁않았을까	-10.9529
▁빠져들었	-10.953
▁만들어주세요	-10.9533
▁뭐랄까	-10.9535
▁절반	-10.9536
▁질문	-10.954
▁빼놓	-10.9544
▁카피	-10.9547
▁기분좋은	-10.9564
아아아아	-10.9567
아아아	-10.9587
▁유혹	-10.9598
멋대로	-10.963
웃겼	-10.9676
댓글	-10.9685
▁실화라는	-10.9686
이쁘고	-10.969
이쁘다	-10.9695
제작비	-10.9699
만드네	-10.9704
▁한가지	-10.9759
낌	-10.9765
등급	-10.9768
펑	-10.9768
펼	-10.9768
깡	-10.9768
짬	-10.9768
댐	-10.9768
쑤	-10.9768
▁내러티브	-10.9768
▁똑바로	-10.9768
▁신데렐라	-10.9768
▁크레딧	-10.9768
▁클리셰	-10.9768
▁팀버튼	-10.9768
곁	-10.9768
녁	-10.9768
됌	-10.9768
맷	-10.9768
켈	-10.9768
탠	-10.9768
▁양동근	-10.9768
▁이것저것	-10.9768
갇	-10.9768
▁국어책	-10.9768
▁절제된	-10.9768
▁황정민	-10.9768
▁예뻐요	-10.9768
▁달콤한	-10.9768
▁어차피	-10.9768
▁정주행	-10.9768
▁성유리	-10.9769
▁거슬리	-10.9769
▁학살	-10.977
▁사기꾼	-10.977
▁압도적	-10.9771
봣던	-10.9771
▁씁쓸한	-10.9773
▁담백하	-10.9773
▁눈요기	-10.9775
▁문득	-10.9776
▁언제쯤	-10.9777
죽이고	-10.9778
▁욕나온다	-10.9779
작가님	-10.978
▁여태까지	-10.978
왜이럼	-10.9783
▁제정신	-10.9785
▁지브리	-10.9788
▁빨간	-10.9788
▁여튼	-10.9796
▁돈벌	-10.9798
▁경계	-10.9808
▁광팬	-10.9814
▁느껴져	-10.9814
▁아동용	-10.9826
영화자체는	-10.9843
▁주고싶은	-10.9854
활동	-10.9899
수있을까	-10.99
조각	-10.9904
▁독립	-10.9944
좋앗	-10.9965
폭력	-10.998
안타까	-11.0026
깁	-11.0029
끗	-11.0031
킥	-11.0031
엣	-11.0032
ᅦ	-11.0032
▁다크나이트	-11.0032
▁시끄럽	-11.0032
꿨	-11.0032
넷	-11.0032
딕	-11.0032
엌	-11.0032
▁고등학생	-11.0032
▁싸이코패스	-11.0032
▁더더욱	-11.0032
▁멘붕	-11.0032
▁스피드	-11.0032
▁어딘가	-11.0032
▁임청하	-11.0032
▁뮤직비디오	-11.0032
▁아이러니	-11.0032
▁비정상	-11.0032
▁아까웠던	-11.0033
▁리즈시절	-11.0033
▁잃어버린	-11.0033
▁일깨워주는	-11.0035
▁가까이	-11.0036
▁배속으로	-11.0037
▁미치도록	-11.0038
▁담담하	-11.0039
▁튀어	-11.0039
▁웃으며	-11.004
▁자연스러운	-11.0041
▁빠져드는	-11.0043
겁니까	-11.0047
▁개인적인	-11.0048
영환줄	-11.005
▁어린이들	-11.0055
▁히어로물	-11.0056
▁총알	-11.0056
▁청년	-11.0062
▁졸았다	-11.0065
따윈	-11.0065
▁실화라니	-11.009
▁어린이용	-11.0097
▁소름끼치	-11.0101
▁어설프	-11.0129
▁사랑스럽	-11.0148
하지마세요	-11.0168
돋는다	-11.0174
죽는줄	-11.0191
억울	-11.0213
볼때마다	-11.0246
뷔	-11.0302
긍	-11.0302
핸	-11.0302
륵	-11.0302
▁겨울왕국	-11.0302
▁도라에몽	-11.0302
▁보냅니다	-11.0302
▁카메론	-11.0302
▁호불호가	-11.0302
룸	-11.0302
핳	-11.0302
힛	-11.0302
▁끝판왕	-11.0302
▁오글거려서	-11.0302
▁졸업작품	-11.0302
펠	-11.0302
▁불면증	-11.0302
▁어떠한	-11.0302
▁큐브	-11.0302
▁타이틀	-11.0302
▁워낙	-11.0302
▁가르쳐	-11.0302
뜨거운	-11.0303
▁온몸	-11.0304
▁에로틱	-11.0305
▁묻어나는	-11.0306
▁안타까웠	-11.0306
▁안쓰러	-11.0307
▁꺼버렸다	-11.0307
▁적나라하	-11.0308
▁즐겁다	-11.0308
▁프레디	-11.031
▁미안하지만	-11.0315
▁못생겼	-11.0315
▁매혹	-11.0317
▁활용	-11.0317
▁장혁	-11.0318
▁교회	-11.0318
▁팬이라면	-11.0318
▁괜찮던데	-11.032
▁성숙	-11.0322
▁넘어선	-11.033
헤헤	-11.0333
ᄉᄉ	-11.0334
지났지만	-11.0345
▁전투씬	-11.0371
▁소소하	-11.0375
클럽	-11.0376
▁사나이	-11.0385
실화라	-11.0416
▁걸렸	-11.0435
▁흔하	-11.0439
느님	-11.0442
▁몰입되	-11.0491
몇번	-11.0511
특유의	-11.0516
감사합니다	-11.0516
히어로	-11.052
완벽	-11.0521
네이버	-11.0522
결혼	-11.0523
흥미를	-11.0525
▁맞지않	-11.0546
말곤	-11.0558
스러울	-11.0578
률	-11.0579
쵝	-11.0579
륭	-11.058
넋	-11.058
샀	-11.058
▁엉터리	-11.058
▁에드워드	-11.058
▁인종차별	-11.058
▁일베충	-11.058
▁후덜덜	-11.058
뎌	-11.058
떳	-11.058
벙	-11.058
뻘	-11.058
쌩	-11.058
잎	-11.058
툰	-11.058
▁깨달았다	-11.058
럿	-11.058
▁양조위	-11.058
▁헷갈	-11.058
▁홍금보	-11.058
▁두려움	-11.058
떄문에	-11.058
▁구역질	-11.058
▁나쁘진	-11.058
▁기분좋게	-11.058
▁오페라	-11.058
▁콤비	-11.058
톰	-11.0807
캬	-11.081
섯	-11.0842
쌀	-11.0865
쿄	-11.0865
횽	-11.0865
멕	-11.0865
깎	-11.1103
낙	-11.1112
빅	-11.1112
꽝	-11.1113
꽤	-11.1113
쏠	-11.1159
뒀	-11.1159
흰	-11.1159
얘	-11.1322
곰	-11.1424
넌	-11.1425
밝	-11.1427
훼	-11.1462
겸	-11.1462
댈	-11.1462
댕	-11.1462
됴	-11.1462
듀	-11.1462
륙	-11.1462
밸	-11.1462
칩	-11.1462
흙	-11.1462
뉘	-11.1462
밌	-11.174
떤	-11.1742
뀌	-11.1771
눠	-11.1775
톨	-11.1775
귓	-11.1775
샷	-11.1775
쉰	-11.1775
슐	-11.1775
욜	-11.1775
쬐	-11.1775
콕	-11.1775
펄	-11.1775
띵	-11.1775
얌	-11.1775
욧	-11.1775
뜩	-11.2096
ᅭ	-11.2098
딧	-11.2098
묶	-11.2098
샌	-11.2098
숫	-11.2098
챔	-11.2098
텀	-11.2098
뽑	-11.242
끊	-11.2426
쌈	-11.2431
썅	-11.2431
핏	-11.2431
ᄑ	-11.2431
뺀	-11.2431
죤	-11.2776
젬	-11.2776
컵	-11.2776
뇨	-11.2776
닳	-11.2776
돕	-11.2776
젓	-11.2776
쨩	-11.2776
쪄	-11.2776
쫙	-11.2776
칫	-11.2776
엎	-11.2776
퍽	-11.2776
짠	-11.2783
쩡	-11.3132
냅	-11.3133
릉	-11.3133
땠	-11.3133
캅	-11.3133
웬	-11.3148
쪼	-11.3152
찢	-11.3496
캔	-11.3502
갤	-11.3503
웁	-11.3503
탔	-11.3503
붐	-11.3503
샹	-11.3503
쌤	-11.3503
씽	-11.3503
좁	-11.3503
톡	-11.3503
햄	-11.3503
뭥	-11.3887
깬	-11.3888
뺐	-11.3888
짖	-11.3888
괘	-11.3888
꽂	-11.3888
셰	-11.3888
솟	-11.3888
쌔	-11.3888
얕	-11.3888
짚	-11.3888
ᅣ	-11.3888
쌍	-11.3926
늦	-11.3937
헬	-11.3942
훌	-11.4288
몹	-11.4288
햐	-11.4288
됀	-11.4288
쟝	-11.4288
굵	-11.4288
덥	-11.4288
롬	-11.4288
뺴	-11.4288
훨	-11.4353
녹	-11.4354
볍	-11.4692
팡	-11.4705
엥	-11.4705
훅	-11.4705
늠	-11.4705
뜰	-11.4705
빚	-11.4705
빽	-11.4705
섰	-11.4705
씌	-11.4705
쵸	-11.4705
핡	-11.4705
홉	-11.4705
휼	-11.4705
깽	-11.4705
쑈	-11.4705
촉	-11.4705
옵	-11.5137
첼	-11.5139
곸	-11.5139
빔	-11.5139
썽	-11.5139
갸	-11.5139
꺅	-11.5139
앳	-11.5139
핍	-11.5139
붓	-11.5139
맡	-11.5243
ᅧ	-11.5594
킷	-11.5594
돠	-11.5594
뚤	-11.5594
쁠	-11.5594
윙	-11.5594
겜	-11.5594
놉	-11.5594
밭	-11.5594
뿅	-11.5594
싯	-11.5594
윗	-11.5594
퀼	-11.5594
뎈	-11.5594
푹	-11.5718
찜	-11.607
굼	-11.607
쳇	-11.607
꾀	-11.607
댜	-11.607
뵈	-11.607
꿉	-11.607
짭	-11.607
힝	-11.607
냉	-11.6219
헛	-11.622
걱	-11.6569
옜	-11.657
딥	-11.657
얔	-11.657
욯	-11.657
쨔	-11.657
쪙	-11.657
쉘	-11.657
얻	-11.6746
굉	-11.7096
헷	-11.7096
꿋	-11.7096
걔	-11.7096
겔	-11.7096
낱	-11.7096
떴	-11.7096
뤽	-11.7096
뱃	-11.7096
읎	-11.7096
쳣	-11.7096
텨	-11.7096
벡	-11.7096
뷁	-11.7096
쫑	-11.7096
닙	-11.7652
쿤	-11.7652
꺾	-11.7652
뛴	-11.7652
샴	-11.7652
욘	-11.7652
웡	-11.7652
웹	-11.7652
쟤	-11.7652
퉷	-11.7652
풉	-11.7652
슥	-11.7652
쾅	-11.7652
킁	-11.7652
켰	-11.8195
촬	-11.8234
괸	-11.824
캣	-11.824
겅	-11.824
넴	-11.824
멧	-11.824
얍	-11.824
찼	-11.824
훤	-11.824
뇬	-11.824
숴	-11.824
잌	-11.824
핥	-11.824
횡	-11.824
곧	-11.8514
땜	-11.8757
쩐	-11.8763
늑	-11.8864
힙	-11.8865
첸	-11.8865
댔	-11.8865
뻗	-11.8865
뀔	-11.8865
넝	-11.8865
땟	-11.8865
뿍	-11.8865
쒯	-11.8865
칵	-11.8865
퀘	-11.8865
텍	-11.8865
깼	-11.8865
퐁	-11.9532
넥	-11.9532
땔	-11.9532
룻	-11.9532
믓	-11.9532
잰	-11.9532
큭	-11.9532
툴	-11.9532
뿡	-11.9532
좃	-11.9532
폄	-11.9532
펙	-12.0238
됏	-12.0246
꼐	-12.0246
끽	-12.0246
넨	-12.0246
욥	-12.0246
ᄈ	-12.0246
뤠	-12.0246
쏜	-12.0246
쒸	-12.0246
융	-12.0246
잴	-12.0246
헿	-12.0246
옛	-12.0656
붉	-12.1013
쿼	-12.1015
낍	-12.1015
앰	-12.1015
ᆪ	-12.1015
넉	-12.1015
눅	-12.1015
랖	-12.1015
맬	-12.1015
샵	-12.1015
죵	-12.1015
팜	-12.1015
곀	-12.1015
냔	-12.1015
돔	-12.1015
콱	-12.1015
꿰	-12.1015
꼇	-12.1848
굽	-12.1849
꽈	-12.1849
촤	-12.1849
갚	-12.1849
꺠	-12.1849
꿍	-12.1849
벳	-12.1849
섀	-12.1849
쎈	-12.1849
왁	-12.1849
컹	-12.1849
핰	-12.1849
흣	-12.1849
캄	-12.1849
씹	-12.2404
ᄡ	-12.2407
슷	-12.2745
둡	-12.2751
컥	-12.2755
뀨	-12.2758
빰	-12.2758
뒈	-12.2758
렜	-12.2758
먀	-12.2758
뮈	-12.2758
웽	-12.2758
팟	-12.2758
갯	-12.2758
괄	-12.2758
냠	-12.2758
넛	-12.2758
롹	-12.2758
륨	-12.2758
뽐	-12.2758
썹	-12.2758
옌	-12.2758
윅	-12.2758
줏	-12.2758
촐	-12.2758
팰	-12.2758
뒹	-12.2758
닛	-12.2758
댁	-12.2758
뭣	-12.3406
겉	-12.3407
뒷	-12.3408
밓	-12.3758
떵	-12.3758
콰	-12.3758
퀀	-12.3758
롸	-12.3758
뭄	-12.3758
짘	-12.3758
쨰	-12.3758
햅	-12.3758
휙	-12.3758
멱	-12.3758
쥴	-12.3758
펭	-12.3758
혓	-12.3758
킵	-12.4864
궤	-12.4869
숏	-12.4869
졉	-12.4869
캉	-12.4869
ᄄ	-12.4869
깅	-12.4869
끙	-12.4869
뎃	-12.4869
떙	-12.4869
뤼	-12.4869
볶	-12.4869
샛	-12.4869
옄	-12.4869
읭	-12.4869
쥰	-12.4869
짰	-12.4869
찹	-12.4869
챈	-12.4869
챦	-12.4869
깸	-12.4869
놧	-12.4869
갘	-12.4869
봅	-12.6116
깟	-12.6119
갉	-12.6119
밈	-12.9214
겪	-13.0863
췌	-13.3712
덟	-14.1924
괭	-14.1925
흩	-14.1926
촛	-14.1927
챘	-14.1928
엾	-14.1929
랗	-14.193
꿇	-14.1931
굶	-14.1932
짴	-14.1933
읊	-14.1934
쑥	-14.1935
썪	-14.1936
쌉	-14.1937
덱	-14.1938
껌	-14.1939
햌	-14.194
텼	-14.1941
쉼	-14.1942
훑	-14.1943
쮸	-14.1944
빴	-14.1945
닠	-14.1946
휠	-14.1947
츤	-14.1948
앍	-14.1949
샐	-14.195
냨	-14.1951
횟	-14.1952
홥	-14.1953
헠	-14.1954
춥	-14.1955
딪	-14.1956
촘	-14.1957
뀜	-14.1958
휩	-14.1959
헴	-14.196
큘	-14.1961
졷	-14.1962
뭍	-14.1963
콥	-14.1964
낰	-14.1965
껑	-14.1966
괞	-14.1967
큽	-14.1968
쁩	-14.1969
뵙	-14.197
긁	-14.1971
좔	-14.1972
뮬	-14.1973
꺽	-14.1974
쥑	-14.1975
멎	-14.1976
셸	-14.1977
릎	-14.1978
낡	-14.1979
쥔	-14.198
씻	-14.1981
슌	-14.1982
얹	-14.1983
펏	-14.1984
녔	-14.1985
켠	-14.1986
왼	-14.1987
뤘	-14.1988
룹	-14.1989
픕	-14.199
꼼	-14.1991
얽	-14.1992
뺨	-14.1993
딨	-14.1994
꽥	-14.1995
탭	-14.1996
뀐	-14.1997
탤	-14.1998
뱉	-14.1999
쫒	-14.2
뭡	-14.2001
샬	-14.2002
앓	-14.2003
쨋	-14.2004
밟	-14.2005
웍	-14.2006
쌓	-14.2007
멤	-14.2008
뤄	-14.2009
귄	-14.201
짙	-14.2011
뻣	-14.2012
빕	-14.2013
꽉	-14.2014
쫓	-14.2015
뿜	-14.2016
틋	-14.2017
홧	-14.2018
웟	-14.2019
컸	-14.202
쫄	-14.2021
쨌	-14.2022
얄	-14.2023
띄	-14.2024
틸	-14.2025
텝	-14.2026
셉	-14.2027
쏟	-14.2028
껐	-14.2029
왤	-14.203
섞	-14.2031
뻤	-14.2032
톱	-14.2033
듭	-14.2034
낳	-14.2035
펐	-14.2036
놨	-14.2037
맙	-14.2038
됩	-14.2039
찝	-14.204
똑	-14.2041
됐	-14.2042
잊	-14.2043
떻	-14.2044
깊	-14.2045
찮	-14.2046
았	-14.2047
