<unk>	0
<s>	0
</s>	0
▁	-3.59496
▁영화	-4.2975
이	-4.51655
의	-4.59875
도	-4.75037
가	-4.79326
는	-4.7981
을	-4.95712
에	-5.12522
다	-5.21924
은	-5.22241
고	-5.29842
▁너무	-5.30142
지	-5.32306
▁정말	-5.42676
▁이	-5.46383
를	-5.51327
만	-5.60848
▁진짜	-5.6431
한	-5.66845
로	-5.78105
게	-5.83048
나	-5.85722
영화	-5.85949
과	-6.04417
▁더	-6.11451
▁다	-6.1265
으로	-6.13779
▁점	-6.1424
▁잘	-6.14755
▁왜	-6.15938
▁수	-6.21608
▁그	-6.22799
하고	-6.23908
▁이런	-6.27087
네	-6.28206
라	-6.2909
▁그냥	-6.31162
어	-6.31443
▁안	-6.32819
기	-6.33613
와	-6.3398
요	-6.34406
인	-6.34931
▁아	-6.35637
서	-6.43391
들	-6.45258
▁본	-6.4844
에서	-6.48657
▁드라마	-6.49588
리	-6.5061
아	-6.50728
▁보고	-6.5122
하는	-6.5212
▁좀	-6.5448
해	-6.55417
▁ᄏᄏ	-6.57416
네요	-6.58067
거	-6.59586
▁평점	-6.60746
▁연기	-6.61936
면	-6.65136
▁한	-6.65693
지만	-6.66004
▁내	-6.66902
▁최고의	-6.67484
▁영화를	-6.68672
이다	-6.69134
▁참	-6.69719
▁없다	-6.70462
자	-6.70663
▁완전	-6.70976
▁없는	-6.71399
▁이거	-6.71706
야	-6.72855
▁쓰레기	-6.73355
니	-6.76472
▁봤는데	-6.76535
▁최고	-6.76727
ᄏᄏ	-6.79229
▁영화는	-6.79395
음	-6.80057
▁좋은	-6.82255
▁이건	-6.8252
▁영화가	-6.83313
▁있는	-6.84882
수	-6.85186
▁내가	-6.85583
▁개	-6.8628
보다	-6.88949
▁스토리	-6.89312
함	-6.90283
▁다시	-6.92779
▁이게	-6.92809
임	-6.93364
시	-6.9371
▁것	-6.94557
ᄏ	-6.9552
▁못	-6.96182
▁이렇게	-6.96678
진	-6.96918
스	-6.9704
하게	-6.97102
하다	-6.98085
듯	-6.98399
하	-6.98404
사	-6.98689
▁보는	-6.99527
▁나	-6.99696
데	-7.00248
냐	-7.00309
까지	-7.00955
해서	-7.01665
▁평점이	-7.02066
▁난	-7.03018
▁역시	-7.03251
▁많이	-7.03435
대	-7.03526
구	-7.04405
할	-7.04456
여	-7.05197
일	-7.05293
▁가	-7.06714
미	-7.08608
안	-7.09361
는데	-7.09737
▁작품	-7.09921
랑	-7.10716
▁넘	-7.11572
건	-7.12829
ᅲᅲ	-7.13172
들이	-7.1399
▁재밌게	-7.15182
▁재미	-7.15248
▁하는	-7.17215
▁ᄏᄏᄏ	-7.17402
▁ᅲᅲ	-7.17531
▁꼭	-7.18408
던	-7.19152
▁볼	-7.19383
▁또	-7.20566
우	-7.20819
▁뭐	-7.20823
▁고	-7.21098
▁감동	-7.2295
정	-7.23313
▁아깝다	-7.23797
▁말	-7.24703
치	-7.25009
▁ᅳᅳ	-7.25196
주	-7.25809
▁그리고	-7.26077
적	-7.26699
인데	-7.26819
▁시간	-7.26984
보고	-7.2721
▁별로	-7.28201
▁ᄏ	-7.28441
마	-7.288
▁마지막	-7.29329
▁없고	-7.30601
중	-7.3192
▁하나	-7.33245
전	-7.33476
ᄏᄏᄏ	-7.33648
오	-7.33655
▁보면	-7.35148
드	-7.35301
성	-7.3543
상	-7.35797
용	-7.35885
장	-7.36564
질	-7.36785
▁감독	-7.3705
진짜	-7.37405
▁지	-7.37704
▁만든	-7.38087
▁전	-7.38477
▁가장	-7.38731
것	-7.39599
입니다	-7.40007
신	-7.40389
▁오	-7.40733
▁이야기	-7.41175
▁대	-7.41179
했다	-7.41635
▁명작	-7.41795
보	-7.41845
▁무슨	-7.42045
▁영화다	-7.42463
비	-7.42933
좀	-7.43542
▁기	-7.44742
습니다	-7.45188
▁저	-7.45797
▁중	-7.46016
▁할	-7.4643
내	-7.46433
너무	-7.47495
하지	-7.48352
소	-7.49054
라고	-7.49414
같은	-7.496
▁같은	-7.49744
▁느낌	-7.50368
트	-7.50505
▁하	-7.50704
부	-7.51204
려	-7.51535
ᅳᅳ	-7.5218
▁액션	-7.52545
▁좋다	-7.52706
히	-7.53073
▁ᄒᄒ	-7.53563
▁주	-7.53624
그	-7.53884
▁지금	-7.54495
▁말이	-7.54765
▁자	-7.54933
▁별	-7.55467
란	-7.55725
▁있다	-7.56423
정말	-7.56592
▁끝까지	-7.56649
말	-7.56669
때	-7.57363
▁와	-7.5754
▁다른	-7.57564
없는	-7.57578
▁같다	-7.58125
▁보	-7.59004
군	-7.59336
된	-7.59497
더	-7.60449
적인	-7.60558
▁생각	-7.61248
▁무	-7.6144
▁봐도	-7.61484
드라마	-7.61832
▁아주	-7.62863
▁한국	-7.63774
물	-7.64915
러	-7.65005
▁미	-7.65393
▁봤다	-7.65531
▁재밌다	-7.65613
▁연출	-7.65748
화	-7.66127
▁기대	-7.66171
씨	-7.66234
▁내용	-7.66464
▁배우	-7.66812
▁사	-7.67389
▁일	-7.67835
개	-7.67858
걸	-7.6789
▁짱	-7.67962
▁거	-7.68473
▁사랑	-7.68615
한다	-7.68653
▁듯	-7.68879
▁전혀	-7.69079
세	-7.69292
에게	-7.70169
▁화	-7.70224
▁때	-7.70242
이나	-7.7055
부터	-7.70747
긴	-7.70997
당	-7.71002
라는	-7.71581
▁하지만	-7.71904
선	-7.71941
▁모두	-7.71966
어요	-7.72531
▁대한	-7.727
▁처음	-7.72759
▁그래도	-7.72947
점	-7.73177
▁대박	-7.73454
▁계속	-7.73628
▁재미있게	-7.73878
디	-7.7467
▁최악의	-7.74802
때문에	-7.74825
▁최악	-7.75509
인가	-7.75672
▁하고	-7.75869
▁뭔가	-7.76067
▁코미디	-7.76148
무	-7.76455
▁보다	-7.76994
영	-7.77143
▁많은	-7.77416
처럼	-7.77628
▁시	-7.77885
▁한번	-7.78005
있는	-7.78076
▁아니다	-7.78106
▁줄	-7.78735
두	-7.78834
▁년	-7.78946
▁이걸	-7.79206
조	-7.79315
인지	-7.79802
본	-7.79817
▁후	-7.79949
▁굿	-7.80066
▁도	-7.80148
▁비	-7.81094
▁내용이	-7.81273
▁해	-7.81382
▁배우들	-7.81479
▁보기	-7.82147
▁돈	-7.82252
▁정	-7.82415
▁딱	-7.8245
▁않고	-7.82764
유	-7.83055
제	-7.83091
감	-7.83276
ᅲ	-7.83281
합니다	-7.83393
심	-7.83418
ᄒᄒ	-7.83478
식	-7.83658
▁만드는	-7.83782
▁솔직히	-7.84012
▁재미없다	-7.84073
▁나오는	-7.84093
원	-7.8438
▁일본	-7.84542
호	-7.84737
▁알	-7.85123
▁내내	-7.8543
▁분	-7.85475
면서	-7.85601
▁두	-7.85641
▁제	-7.85824
▁아름다운	-7.86087
난	-7.86357
구나	-7.86393
▁연기가	-7.86671
잘	-7.86675
하면	-7.86712
▁어떻게	-7.86931
단	-7.87193
▁유	-7.8722
▁급	-7.87273
▁여자	-7.87548
모	-7.87989
▁싶다	-7.88026
▁시간이	-7.88376
길	-7.89566
노	-7.8965
▁제일	-7.89865
타	-7.89917
들의	-7.89951
▁아닌	-7.89992
▁조	-7.90199
▁추천	-7.90449
▁아니	-7.9055
▁게	-7.90658
▁마	-7.9082
으면	-7.90952
▁연기도	-7.91948
며	-7.92383
죠	-7.92508
▁않은	-7.92565
▁않는	-7.92678
▁편	-7.92693
▁스릴러	-7.9313
▁근데	-7.93243
동	-7.93795
린	-7.93934
분	-7.9405
이랑	-7.94483
남	-7.94588
▁어	-7.94592
▁반	-7.94859
▁이영화	-7.94984
ᅮᅮ	-7.95553
▁아니라	-7.95597
▁수준	-7.95826
▁보다가	-7.959
▁사람	-7.95982
줄	-7.96212
엔	-7.96341
▁나는	-7.9696
었다	-7.96963
연	-7.97028
▁그런	-7.97985
하지만	-7.9803
▁세	-7.98236
▁김	-7.98353
▁이제	-7.98685
▁되는	-7.98848
짱	-7.98853
▁아까운	-7.99048
▁좋아	-7.99053
▁감독이	-7.99104
했던	-7.99185
ᄒ	-7.99266
▁내용도	-7.99414
다니	-7.99624
▁로	-7.99656
되는	-7.9972
이라	-7.99921
▁만	-8.00031
▁좋았다	-8.00087
▁우리	-8.00286
▁주인공	-8.00292
▁때문에	-8.0048
▁ᄏᄏᄏᄏ	-8.0052
작	-8.00707
▁살	-8.00868
날	-8.00925
▁아직도	-8.01026
▁에	-8.01204
연기	-8.01406
▁재미도	-8.01428
▁실망	-8.02006
▁모든	-8.02218
▁엄청	-8.02388
▁영화입니다	-8.0241
▁제대로	-8.02544
▁번	-8.02904
▁영화라고	-8.03016
▁나름	-8.03018
▁절대	-8.0303
들은	-8.0307
워	-8.03549
▁부	-8.03728
▁소	-8.03873
간	-8.04102
루	-8.04264
▁없음	-8.04322
봤는데	-8.04609
▁건	-8.04631
▁애	-8.04738
울	-8.04761
▁차라리	-8.04898
운	-8.04916
래	-8.05159
▁여운이	-8.05379
▁걍	-8.05389
▁스	-8.05597
▁주는	-8.05683
▁좋고	-8.05841
재	-8.0603
▁재밌어요	-8.063
▁아니고	-8.06588
▁남는	-8.0666
▁점도	-8.06861
발	-8.06936
▁원	-8.06975
▁서	-8.06982
인듯	-8.07228
레	-8.07538
▁인생	-8.0785
바	-8.07876
▁조금	-8.08567
▁반전	-8.08684
▁나도	-8.08819
하나	-8.08938
▁신	-8.0924
명	-8.0926
위	-8.09516
하네요	-8.09538
▁이상	-8.09592
▁최고다	-8.09864
▁진심	-8.09948
▁보세요	-8.10134
크	-8.10281
방	-8.10321
하네	-8.10545
▁장면	-8.10594
▁전개	-8.10797
▁는	-8.11134
준	-8.11273
르	-8.11551
▁스토리가	-8.11876
없이	-8.11928
▁봤습니다	-8.11993
까	-8.12116
없다	-8.12504
▁멋진	-8.12988
▁인	-8.13312
▁결말	-8.13521
보면	-8.13577
▁남	-8.13922
▁요즘	-8.13991
▁오랜만에	-8.14104
▁감독의	-8.14228
저	-8.14335
희	-8.14852
편	-8.15014
▁남자	-8.15167
▁지루한	-8.15288
ᄏᄏᄏᄏ	-8.15426
카	-8.1565
▁음악	-8.15868
민	-8.15986
피	-8.16103
▁스토리도	-8.16136
지는	-8.16157
되	-8.16184
▁이해	-8.16289
▁지루하고	-8.16304
▁뻔한	-8.16629
님	-8.16648
급	-8.1666
터	-8.16685
▁구	-8.16768
▁싶은	-8.16939
▁장	-8.16973
애	-8.17052
▁특히	-8.18207
▁모	-8.18225
▁기억	-8.18247
▁기억에	-8.19008
생	-8.20156
▁졸작	-8.20573
▁년대	-8.20653
▁피	-8.20687
▁영화의	-8.2073
프	-8.20763
져	-8.2089
▁공포영화	-8.2102
후	-8.21223
니까	-8.21415
▁수작	-8.21535
는게	-8.21582
▁ᅮᅮ	-8.2161
▁가슴	-8.2162
한테	-8.21647
▁재미가	-8.21844
▁좋아하는	-8.21846
▁도대체	-8.22009
림	-8.22096
살	-8.22225
적으로	-8.22348
▁생각이	-8.22578
겠다	-8.22679
▁애니	-8.22821
그냥	-8.22884
▁막	-8.22891
▁괜찮은	-8.22997
판	-8.23219
▁걸	-8.23255
▁보면서	-8.23257
▁재밌는	-8.23277
라도	-8.23311
▁영화에	-8.23463
생각	-8.23642
왜	-8.23685
▁강추	-8.23731
▁시리즈	-8.23781
지도	-8.23849
▁정도	-8.23886
따	-8.24041
▁나온	-8.24202
▁이해가	-8.24211
▁되	-8.24287
▁함께	-8.24587
코	-8.24632
▁눈물	-8.24661
▁봤던	-8.24664
▁바	-8.24904
으	-8.25297
▁우	-8.25399
▁노	-8.25684
▁ᄒ	-8.25845
▁발	-8.26258
▁뭘	-8.26514
이란	-8.26625
못	-8.26743
현	-8.26846
달	-8.26913
▁음	-8.26979
▁지루하다	-8.2708
▁들	-8.27184
▁못한	-8.27292
▁개봉	-8.27397
▁봤어요	-8.27492
▁기분	-8.27581
티	-8.277
▁막장	-8.27737
▁명	-8.27769
▁속	-8.27789
밖에	-8.27802
이라는	-8.27967
보는	-8.28003
▁ᅲ	-8.28181
▁애니메이션	-8.2835
▁만들어	-8.28363
▁될	-8.2842
키	-8.28459
산	-8.28494
▁박	-8.28513
▁좋아요	-8.28692
파	-8.28875
▁큰	-8.28959
▁마지막에	-8.29168
▁공포	-8.29346
▁사람들	-8.29632
최고	-8.29785
더라	-8.29847
▁그저	-8.29903
▁영	-8.29965
▁초	-8.3012
정도	-8.30229
▁제발	-8.30444
해요	-8.30583
▁배	-8.30793
▁캐릭터	-8.30807
즈	-8.31098
▁보는내내	-8.31282
▁없이	-8.31309
뿐	-8.31471
▁배우들의	-8.31825
반	-8.32078
▁알바	-8.32416
차	-8.32519
참	-8.32712
든	-8.32825
실	-8.32826
경	-8.32931
▁모르겠다	-8.3305
▁존나	-8.3313
▁된	-8.332
▁점이	-8.33214
했는데	-8.33214
겨	-8.33452
속	-8.33456
▁눈	-8.33527
이라고	-8.33619
는거	-8.34114
공	-8.34132
관	-8.34217
▁몇	-8.34246
박	-8.34575
이고	-8.34629
▁않는다	-8.34763
▁한다	-8.35143
배	-8.35323
만큼	-8.35429
▁연기는	-8.35456
봄	-8.35557
▁영화로	-8.35573
▁점은	-8.35645
▁연기력	-8.35675
태	-8.35693
▁리	-8.35968
건지	-8.36162
▁재밌음	-8.36319
배우	-8.36553
▁안되는	-8.3678
▁류	-8.36817
▁현실	-8.36892
▁않다	-8.37312
▁매우	-8.3757
스토리	-8.37614
▁것이	-8.38298
국	-8.38308
▁훨씬	-8.38354
▁준	-8.38845
▁우리나라	-8.38891
▁극장에서	-8.39071
것도	-8.3926
▁시작	-8.39261
▁공감	-8.39589
▁눈물이	-8.39699
버	-8.401
▁표현	-8.40283
▁인간	-8.40291
▁한국영화	-8.40416
▁재	-8.4046
▁마음이	-8.40479
▁야	-8.4051
▁어떤	-8.40602
▁여	-8.40737
▁영화네요	-8.41019
▁있고	-8.41082
감동	-8.4114
▁뭔	-8.41337
▁상	-8.41385
형	-8.41433
있다	-8.41668
▁쓰	-8.41835
▁얼마나	-8.4202
였다	-8.42025
다가	-8.42044
▁같이	-8.42141
이런	-8.42252
▁재밌	-8.42256
▁밖에	-8.42295
케	-8.42398
▁위한	-8.42413
▁사람이	-8.4249
▁강	-8.42551
역	-8.42583
▁심	-8.42753
문	-8.42888
▁성	-8.43016
▁데	-8.43209
이야	-8.43222
▁지루함	-8.43339
▁요	-8.43744
중에	-8.43761
▁개인적으로	-8.43781
▁날	-8.43996
감독	-8.4417
▁끝	-8.44596
▁긴장감	-8.44786
해도	-8.44975
했음	-8.45115
▁그렇게	-8.45291
▁걸작	-8.45294
▁만들	-8.45394
던데	-8.45605
년	-8.4566
▁기억이	-8.45673
▁그만	-8.4577
▁대사	-8.45889
작품	-8.45935
▁은	-8.45944
어서	-8.45993
▁진	-8.46137
이네	-8.46676
는지	-8.46872
▁원작	-8.46934
쓰레기	-8.46982
▁매력	-8.47409
봤다	-8.47504
▁그나마	-8.47715
▁공	-8.47815
▁그래서	-8.47916
거야	-8.48196
군요	-8.48274
▁쓰레기영화	-8.48345
▁있	-8.48478
▁너무나	-8.48512
이었다	-8.48783
▁아쉽다	-8.48785
▁가슴이	-8.48851
완전	-8.48856
▁시나리오	-8.49073
▁결말이	-8.4912
▁없었다	-8.49325
넘	-8.49336
쳐	-8.49339
볼	-8.49351
▁오늘	-8.49575
▁머	-8.49877
▁동	-8.49886
구만	-8.5001
▁하나도	-8.50372
사랑	-8.50402
평점	-8.50574
▁재밌고	-8.50703
▁같아요	-8.50792
▁필요	-8.50793
▁불	-8.50859
▁꽤	-8.51209
▁노래	-8.5146
극	-8.51496
▁어설픈	-8.51648
▁감동적인	-8.51779
들을	-8.51853
업	-8.52007
▁대체	-8.52156
▁억지	-8.52197
불	-8.52491
▁느낌이	-8.52885
토	-8.52983
계	-8.53076
▁누가	-8.53216
▁몰입도	-8.53382
악	-8.53435
주는	-8.53646
▁파	-8.53694
▁영상	-8.53703
▁영화중	-8.53937
▁보지	-8.53947
▁감동이	-8.54091
하기	-8.54128
▁않	-8.54439
했	-8.54529
▁준다	-8.54755
▁코믹	-8.54954
입	-8.55096
▁입	-8.55156
망	-8.55424
▁감동도	-8.55494
▁볼만한	-8.55544
▁재미없음	-8.55578
▁노잼	-8.55591
▁위	-8.55681
▁찾아	-8.5582
▁잔잔한	-8.55837
▁미친	-8.55871
▁보여주는	-8.55897
봐도	-8.55981
▁내용은	-8.56065
▁결국	-8.56115
▁미국	-8.56214
하며	-8.56281
▁갈수록	-8.56324
▁소재	-8.56608
▁간만에	-8.56686
▁문제	-8.56803
매	-8.56821
사람	-8.56826
▁위해	-8.5683
김	-8.5693
▁로맨스	-8.56979
▁선	-8.57018
종	-8.57178
▁영화였다	-8.57179
하면서	-8.57243
▁재미있는	-8.5733
꺼	-8.57537
▁마음	-8.58094
▁보게	-8.58114
▁매	-8.58473
▁간	-8.58555
▁만화	-8.58597
양	-8.58693
▁연	-8.58698
▁뿐	-8.58732
▁후회	-8.58788
▁에서	-8.5884
▁점수	-8.59045
▁아무리	-8.59072
▁아님	-8.59305
알	-8.59626
체	-8.5982
격	-8.59827
▁등	-8.59917
▁주고	-8.60074
금	-8.60404
담	-8.60539
▁것을	-8.60656
▁예	-8.60693
봐	-8.60865
뭐	-8.61175
▁뭐야	-8.61211
이네요	-8.61234
▁시즌	-8.61262
▁치	-8.61298
된다	-8.61381
이지만	-8.61576
▁욕	-8.6158
▁있을까	-8.61885
▁없어	-8.61972
론	-8.62095
려고	-8.62188
▁바로	-8.62278
통	-8.62423
▁없	-8.6256
▁알고	-8.62661
▁재미있다	-8.62847
라면	-8.6303
▁진정한	-8.63345
있	-8.63362
력	-8.6339
▁별점	-8.63601
▁물	-8.63799
▁전쟁	-8.63998
죽	-8.6421
▁점대	-8.64788
▁제목	-8.64859
▁하다	-8.65041
잼	-8.65131
글	-8.65174
▁잼	-8.65223
▁단	-8.65232
▁영화임	-8.6525
느낌	-8.65376
이지	-8.65642
▁차	-8.65925
▁했다	-8.66036
내용	-8.66085
리는	-8.66265
먹	-8.66373
너	-8.66413
▁죽	-8.66569
기는	-8.66599
▁연기를	-8.6675
될	-8.67011
▁약간	-8.67158
▁봐야	-8.67424
액션	-8.67431
릴	-8.67585
▁감동을	-8.67637
천	-8.67714
▁분위기	-8.67746
잡	-8.67755
▁울	-8.67763
짐	-8.67782
이거	-8.67793
▁생각보다	-8.68121
▁생각하게	-8.68273
기도	-8.68368
▁재밌네요	-8.68774
그리고	-8.68795
▁재미는	-8.68868
시간	-8.69161
포	-8.69208
▁생각을	-8.69446
색	-8.69556
▁모습	-8.69564
하는데	-8.69611
▁것도	-8.69672
머	-8.69693
강	-8.69726
▁발연기	-8.69788
재미	-8.69818
▁맘에	-8.69836
▁봐라	-8.6992
난다	-8.70004
▁영화관에서	-8.70086
녀	-8.70098
했지만	-8.7017
▁상당히	-8.70293
▁맞	-8.70459
회	-8.70657
▁가족	-8.70728
▁하지	-8.7099
▁꿀잼	-8.70991
맨	-8.71028
없음	-8.71071
이야기	-8.71117
인줄	-8.71126
수준	-8.71254
▁얼굴	-8.71268
▁애들	-8.71297
승	-8.71352
▁다큐	-8.71515
에도	-8.71582
대로	-8.71628
진다	-8.71665
해야	-8.71685
▁적	-8.71702
▁봄	-8.71891
▁타	-8.7193
됨	-8.71943
예	-8.72063
▁작가	-8.7211
▁같은데	-8.72195
▁구성	-8.72234
▁손	-8.72526
▁봤음	-8.7259
▁다들	-8.72613
▁마음에	-8.72661
온	-8.72722
다고	-8.72918
능	-8.72969
영화는	-8.73032
잇	-8.73065
▁중국	-8.73157
▁좋은데	-8.73374
▁캐스팅	-8.73419
절	-8.73452
스트	-8.73516
보단	-8.73557
거지	-8.73592
▁허	-8.73618
▁너	-8.73746
▁네이버	-8.738
▁재미없는	-8.739
▁ᄍᄍ	-8.74062
을까	-8.74131
었	-8.74221
슨	-8.74628
교	-8.74704
▁나오	-8.74761
▁똥	-8.74775
나요	-8.74836
▁더빙	-8.74867
▁나와서	-8.75016
▁재미있어요	-8.75103
▁극	-8.75243
▁전부	-8.75259
▁빨리	-8.75363
▁그대로	-8.75376
▁지루	-8.75498
▁대해	-8.75521
좋	-8.75614
해라	-8.75677
▁악	-8.75688
었는데	-8.7574
류	-8.75769
▁사실	-8.75908
▁뭐냐	-8.75937
쓰	-8.76046
병	-8.76054
▁잡	-8.76583
▁회	-8.76597
않	-8.76636
ᅮ	-8.76654
번	-8.76814
또	-8.76824
▁중간에	-8.76931
갈	-8.76967
▁좋네요	-8.77036
▁판타지	-8.77062
나는	-8.77114
▁낫다	-8.77161
이건	-8.77228
열	-8.77291
▁출연	-8.77455
이상	-8.77462
▁호	-8.77562
이라도	-8.77621
▁당시	-8.7764
▁뭐지	-8.77771
▁유치	-8.77945
▁했는데	-8.77973
슴	-8.78033
▁이딴	-8.78065
ᄋ	-8.78298
▁정신	-8.78368
건가	-8.78508
▁안된다	-8.79061
▁라	-8.79108
▁없네	-8.79144
▁짜증	-8.79247
▁있을	-8.79301
▁각본	-8.79358
▁엔딩	-8.7936
땜에	-8.7947
▁니	-8.79556
▁배우들이	-8.79623
집	-8.79644
▁보니	-8.79663
▁카	-8.79829
▁된다	-8.79953
▁대단한	-8.80068
니다	-8.80229
▁감	-8.80294
여자	-8.80978
▁좋겠다	-8.81029
투	-8.81067
▁스릴	-8.81068
▁스토리는	-8.81103
▁설정	-8.81322
▁언제	-8.81407
▁점을	-8.81422
▁아까움	-8.8151
▁거의	-8.81511
▁짜	-8.81523
▁정도로	-8.81643
언	-8.81687
영화가	-8.81776
장면	-8.81829
돈	-8.81936
▁사람들이	-8.82007
▁장면이	-8.82058
구요	-8.82063
▁봐서	-8.82095
추	-8.82213
▁저런	-8.82249
기를	-8.82458
▁열	-8.82614
▁코	-8.82646
▁친구	-8.82755
기만	-8.8287
▁뭐가	-8.82976
기에	-8.8304
▁한마디로	-8.83055
초	-8.83084
▁어디서	-8.83214
▁해서	-8.83301
▁굉장히	-8.83317
▁훌륭한	-8.83355
▁따뜻한	-8.83855
▁졸	-8.84099
행	-8.84123
었던	-8.84198
▁볼만	-8.84427
씬	-8.84644
▁재밌었다	-8.84863
였음	-8.84864
권	-8.84898
움	-8.84995
등	-8.85116
스러운	-8.85133
▁있지만	-8.85139
▁행복	-8.85256
없고	-8.85266
▁따라	-8.85299
▁토	-8.85445
창	-8.85579
▁길	-8.85653
▁충분히	-8.8574
▁좋은영화	-8.85776
▁못하는	-8.85796
나오는	-8.85864
▁봐	-8.85883
▁봤지만	-8.86004
▁합니다	-8.86053
이라니	-8.8619
대박	-8.86207
▁망	-8.86361
▁약	-8.86372
▁변	-8.86402
▁자체	-8.86453
아니	-8.86579
▁삼류	-8.86581
▁얘기	-8.86614
▁그닥	-8.86634
▁평점을	-8.86674
▁슬픈	-8.86683
▁새로운	-8.86797
▁주연	-8.87015
▁줄거리	-8.87075
보기	-8.87171
▁옛날	-8.87186
▁잠	-8.87221
▁이런영화	-8.8778
▁재밋	-8.87813
▁엄마	-8.88052
커	-8.8812
순	-8.88258
▁너무너무	-8.88336
▁여주인공	-8.8839
증	-8.8847
▁평	-8.88556
라니	-8.88562
▁아직	-8.88677
▁영화도	-8.8878
▁더욱	-8.88798
▁이영화를	-8.8881
플	-8.88858
겠지	-8.88892
▁실	-8.89015
▁있어서	-8.89134
평	-8.89251
받	-8.89429
▁최	-8.89601
▁생	-8.89637
▁화이팅	-8.89683
▁백	-8.8971
▁나의	-8.89867
거다	-8.89876
세요	-8.89935
▁좋음	-8.90005
▁다시봐도	-8.90025
▁자체가	-8.90092
했어요	-8.90167
설	-8.90298
▁영화인데	-8.90316
욕	-8.90356
보니	-8.90413
좋아	-8.90416
▁혼자	-8.90613
▁아이	-8.90635
직	-8.91203
▁감독님	-8.91394
잖아	-8.91532
▁비해	-8.91554
▁딸	-8.91755
▁허접	-8.9187
남자	-8.91955
▁이것도	-8.91983
라서	-8.92172
었음	-8.92186
별로	-8.92248
있고	-8.9243
뻔	-8.92551
표	-8.92595
범	-8.92696
영화를	-8.9277
▁망작	-8.92837
▁아무	-8.92942
것이	-8.92965
▁나올	-8.93044
▁총	-8.93143
친	-8.93264
▁편이	-8.93273
▁있었다	-8.93292
빠	-8.93369
백	-8.93698
▁예술	-8.93756
듯한	-8.93806
▁외	-8.93812
▁헐	-8.93865
▁재밌는데	-8.939
들에게	-8.93912
▁평가	-8.93937
▁자기	-8.93982
▁없어서	-8.94019
▁까	-8.94071
왕	-8.94101
▁들어	-8.94184
▁비디오	-8.94229
학	-8.94278
근데	-8.94289
▁좋았어요	-8.94348
▁힘	-8.94352
더니	-8.94446
▁점점	-8.94522
허	-8.94818
▁병맛	-8.94855
▁항상	-8.94897
▁금	-8.94931
린다	-8.94934
출	-8.94944
▁하게	-8.9525
▁만족	-8.95279
▁아쉬운	-8.95576
▁있음	-8.95594
▁ᄒᄒᄒ	-8.95619
▁여기	-8.95925
▁알았다	-8.95944
▁있어	-8.95956
다는	-8.95989
▁두번	-8.96068
치는	-8.96158
▁사람은	-8.96197
소리	-8.96378
▁성룡	-8.96442
기대	-8.96589
▁어느	-8.96797
▁상황	-8.96839
▁쳐	-8.96862
훈	-8.96901
▁그런지	-8.9691
▁완벽한	-8.96924
▁그러나	-8.97123
▁장난	-8.97211
▁높은	-8.97263
할수	-8.97616
▁코메디	-8.9765
▁웃음	-8.97681
▁그리	-8.97712
▁원작을	-8.97716
▁같	-8.97878
▁달	-8.9789
▁충격	-8.97915
웃	-8.98037
거냐	-8.98065
이라면	-8.98078
▁추억	-8.98093
▁만들지	-8.98202
▁존	-8.98275
락	-8.98394
▁재미없어	-8.98474
츠	-8.98494
치고	-8.98505
▁포스터	-8.98536
▁엄청난	-8.98598
석	-8.9878
막	-8.98786
▁경	-8.98875
건데	-8.99096
▁그러	-8.99122
▁없을	-8.99131
을듯	-8.99241
▁것이다	-8.99321
길래	-8.99455
찍	-8.99476
▁잘못	-8.99494
에는	-8.99521
▁부족한	-8.99527
▁를	-8.99562
는건	-8.9959
름	-8.99806
▁흥행	-8.99848
▁없네요	-8.99851
▁유치한	-8.99978
▁멜로	-9.00019
▁만점	-9.00089
▁가는	-9.00096
주의	-9.00115
▁봤네요	-9.00187
▁레	-9.00195
▁관객	-9.00199
▁소리	-9.00478
각	-9.00521
▁봤	-9.00528
ᅳ	-9.00625
▁무조건	-9.00696
것같다	-9.00841
근	-9.00848
▁돌	-9.0088
▁뒤	-9.01045
▁극장판	-9.01147
슬	-9.01365
▁좋	-9.01424
▁과	-9.01445
▁예상	-9.01503
▁디	-9.01599
▁오래	-9.01772
퍼	-9.01857
버린	-9.01858
▁흠	-9.0193
▁돈주고	-9.0194
▁재미없	-9.02006
별	-9.02155
▁질	-9.02291
▁년이	-9.02349
▁도저히	-9.02356
▁이상한	-9.02451
▁여주	-9.02456
▁영화였습니다	-9.02457
았다	-9.02508
척	-9.02524
▁지루해	-9.02737
▁나온다	-9.02762
▁목소리	-9.02841
▁어릴때	-9.02851
▁감독은	-9.03028
▁존재	-9.03029
에선	-9.03132
▁편집	-9.03134
채	-9.03136
많이	-9.03146
복	-9.03187
환	-9.03337
▁평점은	-9.0334
▁의미	-9.0346
▁재밌어	-9.03474
▁사회	-9.03499
다시	-9.03552
▁제가	-9.03556
을때	-9.03784
▁용	-9.03936
▁수가	-9.03967
끝	-9.04047
베	-9.04166
봐라	-9.04371
명작	-9.04454
▁더럽게	-9.04505
▁자꾸	-9.04725
▁여배우	-9.04728
▁재미있	-9.04919
▁입니다	-9.04943
▁방송	-9.05412
▁아닌가	-9.05416
짓	-9.055
▁느낄	-9.05711
좋은	-9.0574
▁편은	-9.05793
▁먹	-9.05822
▁버	-9.05869
▁갈	-9.05949
▁재미있고	-9.05986
메	-9.05988
들도	-9.06029
▁모르고	-9.06064
▁휴	-9.06075
새	-9.06083
▁책	-9.06183
▁갑자기	-9.06211
같이	-9.06228
▁말도	-9.0624
▁찍	-9.06277
도록	-9.0629
오히려	-9.06293
▁명작이다	-9.06411
▁모르는	-9.06536
▁사랑을	-9.06549
이게	-9.06605
처	-9.06638
▁대단하다	-9.06647
▁가지고	-9.06803
거나	-9.06864
눈	-9.06886
▁느끼게	-9.06917
▁불륜	-9.07033
철	-9.07045
▁평점에	-9.07137
▁괜히	-9.07186
▁힘든	-9.07198
▁해도	-9.07231
▁맛	-9.07269
▁글	-9.0731
할때	-9.07325
마지막	-9.07325
▁이영화는	-9.07357
나오	-9.0737
▁저는	-9.07404
▁돈이	-9.07409
▁그게	-9.07427
▁화면	-9.07465
▁보는데	-9.07476
영화다	-9.07587
이냐	-9.07587
법	-9.07643
▁이름	-9.07684
▁않을	-9.07752
▁반전이	-9.07909
▁추	-9.07965
규	-9.08008
인거	-9.0808
▁순간	-9.0809
였	-9.08124
▁배경	-9.08131
▁나라	-9.08172
굿	-9.08236
▁트	-9.08264
그래도	-9.08365
외	-9.08403
했습니다	-9.0843
내가	-9.08453
▁알게	-9.08514
▁좋았음	-9.08536
▁왕	-9.0869
▁낮은	-9.08708
▁선택	-9.08719
▁비추	-9.08763
▁다음	-9.08766
역시	-9.08887
▁그때	-9.08977
▁믿고	-9.09071
▁역사	-9.09071
▁대한민국	-9.09081
▁액션도	-9.09421
▁함	-9.09442
수가	-9.09455
빈	-9.09612
▁별루	-9.09634
▁않음	-9.09662
으나	-9.09739
▁감사합니다	-9.09776
목	-9.09849
없	-9.09898
▁저질	-9.099
조차	-9.09975
▁이런거	-9.09977
시리즈	-9.10005
블	-9.10007
올	-9.10141
재밌	-9.10216
▁터	-9.1025
▁액션영화	-9.10268
▁것은	-9.10366
▁첫	-9.10388
한거	-9.10395
▁윤	-9.10475
였는데	-9.10549
▁작	-9.10553
찬	-9.10602
▁좋았습니다	-9.1068
▁시간낭비	-9.10691
▁설	-9.107
간다	-9.10855
▁재미없고	-9.10872
▁개그	-9.10917
하냐	-9.10964
▁웃기	-9.11029
▁당	-9.111
▁연출력	-9.11106
▁참고	-9.11133
▁프랑스	-9.11138
먼	-9.11152
▁살아	-9.11375
어야	-9.11383
▁세계	-9.11384
아깝다	-9.11457
▁왜이리	-9.11578
▁감정	-9.11626
으니	-9.11807
▁소설	-9.11839
▁중에	-9.11888
혜	-9.1201
것이다	-9.12085
거리	-9.12136
만한	-9.12191
▁사람들은	-9.12196
▁영화보다	-9.12278
탄	-9.12292
▁같네요	-9.12328
▁아닐까	-9.1233
▁재밌었어요	-9.12355
▁초딩	-9.12377
분들	-9.12524
▁앞으로	-9.12609
ᅲᅲᅲ	-9.12654
▁뭔지	-9.12673
▁포	-9.12723
▁순	-9.12755
▁듯한	-9.12826
같다	-9.12864
▁까지	-9.12892
▁메	-9.12914
▁보여준	-9.12957
▁형	-9.12992
▁바보	-9.13192
▁첨	-9.13233
보다는	-9.13313
▁어디	-9.13328
지루	-9.13374
▁아무것도	-9.13384
▁ᄏᄏᄏᄏᄏ	-9.13408
▁낭비	-9.13526
▁배우가	-9.13632
▁본다	-9.13663
▁볼수	-9.1374
▁주인공이	-9.13863
▁실화	-9.13885
▁감성	-9.13899
▁완성도	-9.14016
▁귀여운	-9.14032
▁하면	-9.14139
▁방	-9.14149
▁나만	-9.14181
▁웃	-9.14194
▁졸라	-9.14226
한번	-9.14259
▁전형적인	-9.14307
▁모습이	-9.14363
처음	-9.14429
▁해주는	-9.14468
놈	-9.1454
▁쓴	-9.14547
덕	-9.14732
좋다	-9.14779
▁왠지	-9.14862
재밋	-9.14908
▁연출이	-9.14968
▁역	-9.15081
▁양	-9.15084
▁탄	-9.15123
▁말고	-9.15154
▁보여주	-9.15173
▁전개가	-9.15207
▁억지로	-9.15318
정도로	-9.1539
▁잘봤습니다	-9.15472
▁이리	-9.15489
▁귀	-9.15526
▁슬프다	-9.15535
▁유쾌한	-9.15562
▁대단	-9.15663
삼	-9.15728
▁천재	-9.15735
▁면	-9.15775
▁지금도	-9.158
▁않았다	-9.15825
▁올	-9.15835
▁몰입	-9.15954
▁대작	-9.15961
되어	-9.15985
▁있는데	-9.15999
일까	-9.16109
▁매력적인	-9.16116
틀	-9.16251
거임	-9.16371
▁아름답다	-9.16374
▁지금까지	-9.16472
▁비교	-9.1648
▁나쁜	-9.16486
▁암	-9.16577
하세요	-9.16638
▁드는	-9.16644
▁영상미	-9.1668
▁감사	-9.16687
놓고	-9.16753
▁관	-9.16757
▁맞는	-9.16975
광	-9.17034
▁처음부터	-9.17105
▁부족	-9.17145
쉬	-9.17165
▁속편	-9.17186
끼	-9.17194
▁점준다	-9.17199
▁드	-9.17338
▁베	-9.17342
▁훨	-9.17382
▁시절	-9.17474
▁지금봐도	-9.1748
▁문	-9.17496
▁깊은	-9.17561
에겐	-9.17562
졌다	-9.17583
는걸	-9.17608
련	-9.17675
▁인정	-9.1788
▁되어	-9.17893
▁국	-9.17941
습	-9.17947
▁삼	-9.18017
사람들	-9.18022
였습니다	-9.18062
▁아이들이	-9.18077
준다	-9.18108
▁ᄃᄃ	-9.18216
테	-9.18272
잔	-9.18396
짜	-9.18598
▁ᄉᄇ	-9.1862
▁진실	-9.18761
▁낮	-9.18828
▁머리	-9.18863
른	-9.18865
▁최악이다	-9.1887
▁같음	-9.18922
▁몸	-9.18952
▁제작	-9.18957
▁천	-9.18966
▁판	-9.19095
▁꿈	-9.19098
▁깨	-9.19209
▁관람	-9.19209
▁긴	-9.19238
▁기대하고	-9.19286
▁집중	-9.19352
렸다	-9.1938
▁나왔	-9.1953
▁알았는데	-9.19554
▁히	-9.19624
▁빠	-9.1971
이에요	-9.19836
브	-9.1991
▁팬	-9.19913
연출	-9.19923
▁네	-9.20017
▁예전에	-9.20023
꼭	-9.20221
야지	-9.20351
▁아이들	-9.20444
▁허접한	-9.20453
▁만들었다	-9.20489
배우들	-9.20533
▁일본영화	-9.20547
▁이런게	-9.20583
▁저도	-9.20596
▁일단	-9.20622
▁이런걸	-9.20653
▁ᅳ	-9.20664
침	-9.20671
려는	-9.20694
▁댓글	-9.20858
▁보고싶다	-9.20924
돌	-9.20938
해지는	-9.20993
▁같습니다	-9.21027
▁끝나	-9.21028
▁장면은	-9.21049
느	-9.21107
실망	-9.21115
▁어렸을때	-9.21204
▁여운	-9.21341
▁아까워	-9.21384
▁영웅	-9.21519
스럽다	-9.21657
걸까	-9.21752
▁나와	-9.21764
▁굳	-9.21848
랄	-9.21976
어도	-9.22048
네여	-9.22052
▁느껴지는	-9.2207
▁든다	-9.22092
나라	-9.22124
▁로맨틱	-9.22169
▁초반	-9.22265
▁마무리	-9.22273
▁보시길	-9.2231
▁비슷한	-9.22418
였던	-9.22475
▁안되	-9.22499
▁떠	-9.22578
싶	-9.22602
▁보지마세요	-9.22653
강추	-9.22779
▁마음을	-9.22808
봐서	-9.22862
반전	-9.2288
▁추천합니다	-9.22958
▁여전히	-9.22973
봐야	-9.22988
▁감동적이	-9.23059
▁남는다	-9.2312
▁힘들	-9.23203
▁년전	-9.23231
▁그렇고	-9.23242
▁유치하고	-9.23265
▁이유	-9.23298
▁감동적이고	-9.23329
▁이정도	-9.23336
▁성우	-9.23358
▁겁나	-9.23374
▁이야기를	-9.23448
약	-9.23557
▁새	-9.23576
▁으	-9.23729
코미디	-9.23789
한데	-9.23844
말이	-9.2389
▁리메이크	-9.24037
▁싸	-9.24108
엇	-9.2414
▁싫어	-9.24197
▁투	-9.24308
▁무서운	-9.24483
▁기분이	-9.24484
점이	-9.24596
▁보고나서	-9.24725
▁인간의	-9.2481
▁유머	-9.24886
▁전체적으로	-9.25002
▁나를	-9.25031
▁노출	-9.25054
봤	-9.25073
시대	-9.25111
▁액션이	-9.25145
▁청춘	-9.25296
▁눈이	-9.25327
▁영화라	-9.25355
웃음	-9.25462
▁산	-9.25491
▁감상	-9.25521
▁현	-9.2557
가서	-9.25616
▁내인생	-9.25637
▁부분	-9.25837
최악	-9.25852
주고	-9.25886
잉	-9.26003
▁흥미	-9.26047
그런	-9.26231
겠지만	-9.26262
결	-9.26266
▁지루하지	-9.2627
▁여성	-9.26295
▁싶	-9.26453
▁개연성	-9.26458
▁권	-9.26482
▁잘만든	-9.2651
했으면	-9.26516
▁둘	-9.26547
▁죽음	-9.26582
▁담	-9.26617
여서	-9.26761
주세요	-9.26762
▁나왔으면	-9.26777
▁아빠	-9.26834
맛	-9.26964
▁난다	-9.26968
▁감탄	-9.27087
▁너무나도	-9.27173
▁많	-9.27197
▁범죄	-9.27247
되고	-9.27251
▁통	-9.27252
▁독	-9.27271
▁년도	-9.2736
▁이미	-9.27422
들어	-9.27437
풍	-9.27461
십	-9.27527
▁왜이렇게	-9.27551
내요	-9.27564
맞	-9.27579
없어	-9.27629
▁프로	-9.27655
▁보는게	-9.27695
▁작품이	-9.27724
레이	-9.27737
셨	-9.27739
ᄍᄍ	-9.27794
일뿐	-9.27848
리고	-9.27881
▁목	-9.2791
고싶다	-9.27921
▁좀비	-9.27923
▁생각해	-9.27985
▁젤	-9.27989
▁싫다	-9.27993
▁부분이	-9.28047
▁인물	-9.2805
▁온	-9.28124
뜨	-9.28263
성이	-9.28269
▁있었던	-9.28317
▁누구	-9.28418
▁좋았는데	-9.28444
씩	-9.28525
▁억	-9.28533
▁있다는	-9.28555
▁꼴	-9.2856
▁진부한	-9.28561
▁재밌었음	-9.28617
▁킬링타임용	-9.28621
이제	-9.28622
▁처음으로	-9.28626
께	-9.28686
재미없다	-9.28743
▁그래픽	-9.28754
겟	-9.28756
▁좋을	-9.2881
더군요	-9.2892
빨	-9.28996
전개	-9.29024
쯤	-9.29137
▁아놔	-9.2915
할듯	-9.29203
귀	-9.29363
▁스토리에	-9.29364
향	-9.29562
▁노력	-9.29612
보세요	-9.29648
패	-9.29684
딱	-9.29693
보이	-9.30003
칠	-9.30209
▁원래	-9.30231
▁라는	-9.30357
▁이젠	-9.30392
했고	-9.30464
스타	-9.30476
▁눈을	-9.30507
청	-9.30655
앗	-9.30656
▁따	-9.30681
드는	-9.30753
송	-9.30794
▁역대	-9.30887
▁잼있게	-9.30892
▁그런가	-9.30918
만들	-9.31129
랐	-9.31158
▁과거	-9.31159
하니	-9.31174
▁재밌습니다	-9.31261
▁매력이	-9.31328
힌	-9.31332
▁아니면	-9.31374
▁웃긴	-9.31382
도없고	-9.31382
염	-9.31406
▁운	-9.31785
ᄒᄒᄒ	-9.31788
듬	-9.3179
▁태	-9.31802
▁영화이다	-9.31813
▁결혼	-9.31848
▁멋지다	-9.31946
션	-9.31965
▁해준	-9.32001
동안	-9.32091
▁떠나	-9.32109
혀	-9.32109
렸	-9.32168
▁화려한	-9.32188
▁어이없는	-9.32208
▁예쁜	-9.32211
▁귀엽고	-9.32257
▁사랑이	-9.32277
▁좋았고	-9.32317
하는거	-9.32321
▁궁금	-9.32414
▁평생	-9.32486
▁점짜리	-9.32501
들과	-9.3252
▁시청률	-9.32567
▁아닌듯	-9.32569
▁영화중에	-9.32669
이면	-9.32682
적이고	-9.32752
▁재미있음	-9.3277
▁있었	-9.32843
▁했던	-9.32858
오빠	-9.32862
추천	-9.32871
▁이야기가	-9.3289
▁보이는	-9.32967
▁안됨	-9.33055
한영화	-9.33076
적이	-9.33084
존	-9.33132
아닌	-9.33141
▁어색한	-9.33243
▁마라	-9.33284
▁돌려	-9.33364
▁봐야할	-9.33378
▁생각한다	-9.33434
있게	-9.33482
하자	-9.33488
보는데	-9.33548
햇	-9.33695
▁아니지만	-9.33741
▁아름답고	-9.33779
▁종	-9.33869
▁수준이	-9.33902
▁몸매	-9.33993
▁같아	-9.34007
만으로도	-9.34019
▁삶을	-9.34195
▁아오	-9.34204
▁자연	-9.34223
▁처음이다	-9.34231
▁복수	-9.34234
▁캐	-9.34257
▁어린	-9.34458
튼	-9.34501
료	-9.34509
보면서	-9.34519
▁짜증나	-9.3465
▁답	-9.34657
▁장르	-9.34665
▁화가	-9.34722
품	-9.34729
▁처	-9.3477
벌	-9.34779
▁진행	-9.34829
▁했지만	-9.34839
나온	-9.34906
무슨	-9.34946
▁음악이	-9.34964
▁크	-9.35053
▁성공	-9.35061
▁무엇보다	-9.35091
셔	-9.35114
▁메세지	-9.35463
써	-9.35513
▁확	-9.35515
▁추억의	-9.35597
▁시간을	-9.35797
▁특유의	-9.35816
▁확실히	-9.35854
▁아저씨	-9.3599
재밌다	-9.36004
다면	-9.3615
▁동화	-9.36161
▁지난	-9.36186
▁연기력이	-9.36299
ᄂ	-9.36318
페	-9.36328
록	-9.36389
▁키	-9.36407
▁미화	-9.36488
나서	-9.36502
아이	-9.36506
▁싶어	-9.36509
들아	-9.36586
▁이유가	-9.36666
▁독특한	-9.36702
가족	-9.36708
▁흥미진진	-9.36736
▁촬영	-9.36919
특히	-9.37006
▁아깝	-9.37074
▁그래	-9.37101
▁게임	-9.37214
음악	-9.37223
▁자유	-9.37244
▁바람	-9.37278
▁나서	-9.3729
없네	-9.37356
▁티	-9.37468
▁빠져	-9.37514
▁흐	-9.37565
▁완벽	-9.37618
▁애들이	-9.3763
익	-9.37666
▁느끼	-9.37722
마저	-9.37742
윤	-9.37798
지금	-9.38012
지고	-9.38158
▁압권	-9.3816
▁숨	-9.38178
거같다	-9.38192
▁상영	-9.38203
▁한계	-9.38228
▁늘	-9.38491
▁설명	-9.38518
리가	-9.38564
싸	-9.38738
▁주제	-9.38833
▁스타일	-9.38835
해주는	-9.38855
▁이후	-9.38867
▁평론가	-9.38959
▁모습을	-9.38992
▁이영화가	-9.39038
▁고전	-9.39044
▁다소	-9.39047
▁무섭다	-9.39139
답	-9.39208
기가	-9.39216
▁분명	-9.39263
ᅡ	-9.3934
▁실제	-9.39348
술	-9.39382
▁재밋게	-9.39398
▁슬프고	-9.39404
▁그의	-9.39428
합	-9.39454
▁나이	-9.39487
▁생각합니다	-9.39577
책	-9.39579
▁깊이	-9.39616
▁있다면	-9.39639
▁그림	-9.39651
낸	-9.39658
▁작품성	-9.39743
겠네	-9.39962
하는게	-9.39987
▁남주	-9.40023
보다가	-9.40049
▁필요없는	-9.40067
립	-9.40094
졌	-9.40097
▁프로그램	-9.40108
찌	-9.40112
본다	-9.40141
▁나중에	-9.40201
▁잼있	-9.40299
▁재밌었는데	-9.4036
▁이번	-9.4038
▁떨어지는	-9.40421
▁볼만함	-9.40434
량	-9.40455
에요	-9.40476
▁역시나	-9.40574
▁과연	-9.40612
▁신선한	-9.40641
끄	-9.40641
▁그럭저럭	-9.40659
▁있지	-9.407
손	-9.40845
▁절	-9.40858
함이	-9.40881
시켜	-9.40903
▁평범한	-9.40909
▁재밌네	-9.40962
같	-9.40973
▁현재	-9.41014
▁이정도면	-9.41014
▁끝내	-9.4102
▁귀신	-9.41044
최고의	-9.41105
▁봤으면	-9.41136
▁알아	-9.41142
▁창	-9.41292
▁찍은	-9.41326
▁사극	-9.41358
▁어쩔	-9.41387
▁보기엔	-9.4146
▁사는	-9.41465
▁그들의	-9.41472
▁하는데	-9.41503
▁리얼	-9.41531
▁아들	-9.41601
▁복	-9.41641
지마라	-9.41708
렌	-9.41739
▁아닌데	-9.41759
▁순수한	-9.41781
▁벌	-9.41792
▁되었다	-9.4183
▁경찰	-9.41838
▁끝나고	-9.41925
▁ᅮ	-9.41982
작가	-9.42008
▁별로다	-9.42046
▁성장	-9.42094
쿠	-9.421
▁살짝	-9.42152
▁몰입이	-9.42159
▁춤	-9.42321
▁우연히	-9.42382
버렸다	-9.42423
▁소재는	-9.4249
▁알바들	-9.42496
▁더이상	-9.42533
함을	-9.42559
▁소름	-9.42628
▁물론	-9.42629
▁고민	-9.42663
▁높	-9.42733
▁임	-9.4279
▁시대	-9.42801
▁먼저	-9.42876
▁어이가	-9.4288
기엔	-9.42892
▁볼만하다	-9.42906
▁언제나	-9.42906
킹	-9.42955
▁황당	-9.43144
▁질질	-9.43162
▁재미없네	-9.43186
▁드라마를	-9.43223
▁받	-9.43236
자가	-9.43287
만든	-9.43551
ᄏᄏᄏᄏᄏᄏᄏᄏᄏᄏᄏᄏᄏᄏᄏᄏ	-9.43672
ᄀ	-9.43694
▁시걸	-9.43841
▁골	-9.43848
유치	-9.43931
취	-9.43941
▁카메라	-9.43953
드라	-9.44002
▁나에게	-9.44092
▁각	-9.44141
▁액션은	-9.4415
▁단순	-9.44163
▁없나	-9.44205
스런	-9.44255
▁그다지	-9.44271
▁그런데	-9.44283
▁아버지	-9.4433
▁대충	-9.44428
▁못하고	-9.4447
▁한편	-9.44556
숙	-9.4458
골	-9.44617
▁관계	-9.44623
▁청	-9.44637
▁살인	-9.44708
마다	-9.44782
는것	-9.44806
싱	-9.44815
ᄏᄏᄏᄏᄏ	-9.44863
▁년에	-9.44902
▁생각나는	-9.45012
▁재미를	-9.45087
탈	-9.45158
▁상상력	-9.45193
▁좋았던	-9.45344
▁기대를	-9.45381
▁섹스	-9.45391
▁독립영화	-9.45392
▁연애	-9.45397
▁연기에	-9.45441
었으면	-9.45499
아님	-9.45511
▁또한	-9.45533
오는	-9.45568
▁루	-9.45584
▁재미있었다	-9.45595
얼	-9.45689
▁죄	-9.45768
속에	-9.45817
밀	-9.45898
▁만든다	-9.45919
애니	-9.45923
▁남을	-9.4594
▁세상에	-9.46124
▁좋습니다	-9.46184
▁공감이	-9.46216
▁드라마가	-9.46276
변	-9.46286
한듯	-9.46376
던가	-9.46447
▁상상	-9.46481
▁무지	-9.4652
▁홍콩	-9.46534
▁웃겨	-9.46544
하라	-9.46577
였어요	-9.46581
▁여자가	-9.46581
▁가서	-9.46582
▁전달	-9.46603
▁엉성한	-9.46643
▁월	-9.46789
▁짜증나는	-9.46997
▁병	-9.47002
인가요	-9.47019
▁성인	-9.47021
▁열심히	-9.47109
▁덜	-9.4716
▁지루해서	-9.47211
▁없었	-9.47407
▁볼때마다	-9.47428
▁우정	-9.47461
▁줌	-9.47608
하긴	-9.47622
곡	-9.47629
▁있습니다	-9.47644
▁아깝지	-9.47676
▁가볍게	-9.4768
▁밑에	-9.47716
▁있나	-9.47755
▁법	-9.47972
▁만큼	-9.48009
까진	-9.48173
▁싸구려	-9.48203
▁짓	-9.48314
▁집	-9.48327
▁무섭	-9.48379
▁많다	-9.48381
▁보고싶은	-9.48383
독	-9.48403
▁삶	-9.48444
만으로	-9.48731
▁얼	-9.48754
▁아는	-9.48773
▁어릴적	-9.48791
▁스토리를	-9.48887
탕	-9.48958
▁짱짱	-9.49
▁어찌	-9.49041
ᄉ	-9.49058
▁다시한번	-9.49083
▁ᅲᅲᅲ	-9.49111
▁만나	-9.49211
결말	-9.4923
었습니다	-9.49234
▁어색	-9.49249
▁제목이	-9.49352
▁재미있네요	-9.49451
사람이	-9.49455
겠	-9.4946
▁미래	-9.49463
▁인상	-9.49484
▁만들어진	-9.4951
▁싶네요	-9.49592
▁하네요	-9.49603
▁말로	-9.49607
▁재밋다	-9.4966
▁쵝오	-9.49709
▁점주는	-9.49824
득	-9.49833
징	-9.49867
▁봤었는데	-9.49895
진심	-9.49896
▁되게	-9.4996
▁그랬	-9.49992
▁나옴	-9.50016
▁전에	-9.50062
▁커	-9.50121
만화	-9.50122
▁심리	-9.5016
풀	-9.50186
▁필요없다	-9.50358
엉	-9.50495
을텐데	-9.50495
▁맨	-9.50552
▁끝나는	-9.50626
필요	-9.50637
▁이쁜	-9.50737
재밌음	-9.50768
▁건지	-9.50783
만들어	-9.50792
▁나오고	-9.50889
있음	-9.51018
▁영화냐	-9.51025
▁표절	-9.51085
▁교훈	-9.5113
던지	-9.51272
▁패	-9.51295
▁등장	-9.51341
▁유치함	-9.51384
났	-9.5142
효	-9.51455
소재	-9.51573
아서	-9.51643
▁힐링	-9.51705
으며	-9.51764
▁않아	-9.51922
런	-9.52049
▁사랑스러운	-9.52066
했어	-9.5214
▁영화에서	-9.52145
더라구요	-9.52157
▁진심으로	-9.52207
▁인기	-9.52235
▁볼수록	-9.52338
▁드럽게	-9.52412
전에	-9.52465
▁이건뭐	-9.52485
감독이	-9.52488
▁사건	-9.5256
▁했	-9.5263
▁못했다	-9.52787
▁개판	-9.52861
▁자막	-9.52891
▁쓰래기	-9.53058
▁유치하다	-9.53149
▁뜨	-9.53239
많은	-9.53507
▁잔잔하고	-9.5351
인이	-9.53528
▁높다	-9.5372
▁뮤지컬	-9.53739
▁종교	-9.53763
▁마치	-9.53828
아주	-9.53844
다운	-9.5385
▁홍보	-9.53908
▁반전도	-9.53948
나와	-9.53956
▁있게	-9.54017
▁사람을	-9.54041
방송	-9.54096
▁가끔	-9.54104
▁예전	-9.5414
▁되지	-9.54167
▁에로	-9.54182
해주	-9.54245
하던	-9.54275
했네	-9.54284
봉	-9.54388
땐	-9.54414
▁스토리와	-9.54459
욱	-9.54481
▁몰입감	-9.5453
▁음악도	-9.54582
짝	-9.546
▁발전	-9.54672
롱	-9.54676
링	-9.54748
이며	-9.54781
둘	-9.54794
▁가지	-9.54856
▁용서	-9.54869
▁취향	-9.54915
좋고	-9.54935
▁찍어	-9.54935
▁세상	-9.54949
▁해야	-9.55081
▁없지만	-9.55101
▁봤다가	-9.55199
시절	-9.55305
▁죄다	-9.55306
▁디즈니	-9.554
암	-9.55448
▁영화보고	-9.55454
▁마세요	-9.55475
깨	-9.55478
완	-9.55545
▁아름다움	-9.55564
다른	-9.55582
▁높아	-9.55599
▁시트콤	-9.55603
▁스케일	-9.55663
▁힘들다	-9.55685
▁접	-9.5576
▁안타깝다	-9.55785
▁아쉬움	-9.55795
▁크게	-9.55796
쪽	-9.55821
▁배우의	-9.55841
▁찾	-9.55923
▁표현한	-9.56015
▁라고	-9.5602
꼬	-9.56056
▁있네요	-9.56111
▁다큐멘터리	-9.5612
▁둘다	-9.56146
갑	-9.56309
▁식	-9.56321
▁보인다	-9.56328
▁감동과	-9.56458
계속	-9.56459
▁신기	-9.56472
▁그린	-9.56484
친구	-9.56571
았던	-9.56575
하면서도	-9.56638
▁나오지	-9.56649
▁볼게	-9.56691
▁영화지만	-9.56721
했을	-9.56738
▁모든게	-9.56772
견	-9.56807
▁뛰어난	-9.56827
▁폭력	-9.56887
쇼	-9.56911
좋아요	-9.56915
애들	-9.56933
▁통해	-9.56957
▁아쉽네요	-9.56958
▁에휴	-9.57077
시키는	-9.57097
▁답답	-9.57162
▁미드	-9.57182
팔	-9.57193
령	-9.57193
내용도	-9.57216
▁다르	-9.57364
씨가	-9.57388
▁안되고	-9.57398
웅	-9.57443
▁체	-9.57479
▁지나	-9.57497
▁연기와	-9.5752
▁느끼는	-9.5753
▁웃기고	-9.57554
▁놀	-9.57583
엄	-9.57584
▁볼거리	-9.57607
팬	-9.5766
▁올해	-9.57666
걸로	-9.57729
▁민	-9.5778
▁정치	-9.57792
▁영화에요	-9.5785
휴	-9.57876
▁쩐다	-9.57877
▁가진	-9.57895
▁삶의	-9.57929
었어요	-9.57981
▁굳이	-9.58039
봤음	-9.58107
평점이	-9.58109
▁서로	-9.58135
▁틀	-9.58248
▁무비	-9.58303
▁코난	-9.58313
▁말을	-9.58337
기분	-9.5838
▁인생의	-9.58498
▁극장	-9.58522
▁산으로	-9.5856
영상	-9.58594
▁벌써	-9.58606
킨	-9.58667
▁교	-9.58671
▁나가	-9.58714
▁빈	-9.58722
▁퀄리티	-9.58755
▁스타	-9.58824
▁팔	-9.58837
현실	-9.58892
이렇게	-9.58909
▁있어요	-9.58929
▁즐거운	-9.58947
▁잔	-9.58993
겁니다	-9.59007
▁부터	-9.59116
▁광고	-9.59168
▁잊지	-9.59212
하다니	-9.59218
▁어른	-9.59246
▁연속	-9.59262
에대한	-9.5934
▁중간중간	-9.59354
▁이쁘고	-9.59386
▁내용을	-9.59496
▁보이	-9.59504
껏	-9.59572
클	-9.59642
▁이연걸	-9.59727
▁안하고	-9.59829
▁헐리우드	-9.59843
▁티비	-9.59852
▁한데	-9.59884
딸	-9.59886
봣는데	-9.59911
▁써	-9.59915
표현	-9.59938
▁그렇다	-9.5997
▁맥	-9.60011
▁보길	-9.60042
더만	-9.60081
ᄃᄃ	-9.6031
하는지	-9.60314
▁엉성	-9.60473
▁이거보고	-9.60514
▁멀	-9.6054
▁악역	-9.60563
낮	-9.60605
대사	-9.60606
▁분들	-9.60625
▁반성	-9.60691
▁여기서	-9.60709
▁인생을	-9.6073
▁긴장	-9.60745
▁뻔	-9.60876
▁발로	-9.60933
▁탄탄한	-9.60956
놓	-9.60998
가지고	-9.61018
▁결말도	-9.61031
▁명품	-9.6117
▁포장	-9.61177
▁예고편	-9.61211
▁죽는	-9.61252
돼	-9.61275
것은	-9.61277
▁쫌	-9.6135
시고	-9.61364
▁극치	-9.61379
갔	-9.61381
빵	-9.61425
럽	-9.61436
되지	-9.61452
▁런	-9.61478
▁저렇게	-9.61536
했네요	-9.61614
▁남아	-9.6165
▁적당	-9.61665
▁짝퉁	-9.6168
▁씨	-9.617
▁울고	-9.61788
내용이	-9.61795
▁느와르	-9.61797
▁사랑에	-9.61805
▁뒷	-9.61855
▁세기	-9.61967
부분	-9.62027
▁어려운	-9.62073
월	-9.62124
▁웃김	-9.62197
인간	-9.62203
▁쓸	-9.6221
▁페	-9.62328
▁굿굿	-9.62348
▁점수를	-9.6237
제발	-9.62383
▁쉽게	-9.62398
▁글쎄	-9.62449
때마다	-9.62474
머리	-9.62547
값	-9.62611
넹	-9.62623
▁즐겁게	-9.62626
▁간다	-9.62639
▁보여	-9.62693
▁분이	-9.62696
딩	-9.62745
▁결말은	-9.6278
▁메시지	-9.62801
응	-9.62805
▁노답	-9.62826
▁명작이	-9.62862
▁정말로	-9.62883
노잼	-9.62904
첨	-9.62921
였지만	-9.62985
었지만	-9.63023
▁꼬	-9.63068
하여	-9.6312
▁좋았	-9.63129
▁왜케	-9.63136
▁낮아서	-9.63173
▁게이	-9.63196
▁이쁘다	-9.63202
ᄃ	-9.63335
▁웃음이	-9.63443
▁생애	-9.63453
▁영화였어요	-9.63464
봐요	-9.63509
인생	-9.63551
▁킬링타임	-9.63551
재미있	-9.63567
▁아직까지	-9.63584
▁평이	-9.63608
▁테	-9.63614
▁슬픔	-9.63649
▁암튼	-9.63713
▁좀더	-9.63728
▁몇번을	-9.63781
▁후반부	-9.63808
▁여러	-9.63997
▁색	-9.64003
그러	-9.64022
는건지	-9.64022
▁저예산	-9.64023
▁티비에서	-9.64056
있어	-9.64062
▁끝이	-9.64071
재밌게	-9.64084
같음	-9.64087
이었음	-9.64141
▁않게	-9.64262
▁근	-9.6431
▁제작진	-9.64326
▁생각없이	-9.64363
몰	-9.644
▁지루했다	-9.64402
캐릭터	-9.64482
영화중	-9.64504
말고	-9.64591
연기가	-9.64591
▁미모	-9.64595
▁직	-9.64643
눈물	-9.64651
▁괜찮	-9.64716
끔	-9.64725
▁짠	-9.64783
놀	-9.64796
▁없는데	-9.64814
▁희망	-9.64882
힐	-9.64889
▁친	-9.64904
▁연출도	-9.64919
▁ᄋᄋ	-9.64947
났다	-9.65025
▁사랑과	-9.65099
▁이어	-9.65142
▁울었다	-9.65142
▁다행	-9.6515
▁내려	-9.65203
접	-9.65218
▁이유는	-9.65242
▁군대	-9.65242
충	-9.65242
▁뭉클	-9.65425
▁유쾌	-9.65432
▁시대를	-9.65438
▁눈물을	-9.65494
▁옛날에	-9.65539
▁출	-9.6556
▁됨	-9.65561
보자	-9.65582
황	-9.65666
▁이런영화가	-9.65695
성을	-9.65725
▁동생	-9.65726
닥	-9.65743
재밌어요	-9.65744
▁떨	-9.65761
으론	-9.65778
▁소재가	-9.65793
▁자신의	-9.65862
▁박수를	-9.65881
▁기본	-9.65911
인것	-9.6592
▁최고입니다	-9.65999
▁있으면	-9.66048
▁좋겠어요	-9.66065
잠	-9.66066
▁아나	-9.66098
▁멋있다	-9.66305
▁이제야	-9.66311
▁돌아	-9.6639
▁필름	-9.66394
▁헤	-9.66394
▁계	-9.66397
▁일상	-9.66406
떄	-9.6644
▁위대한	-9.66448
▁어머니	-9.66461
▁따뜻해지는	-9.66461
나와서	-9.66479
에서도	-9.66489
것을	-9.6649
▁시선	-9.66531
▁더러운	-9.66541
무비	-9.66556
▁못한다	-9.6656
▁불편	-9.66597
▁갑	-9.66599
▁그걸	-9.66796
▁고생	-9.66801
땅	-9.66856
답답	-9.6689
▁잊혀지지	-9.66908
▁안돼	-9.66967
▁어휴	-9.67054
픈	-9.67066
나고	-9.67073
▁같아서	-9.67083
니깐	-9.67083
면서도	-9.67106
나올	-9.67135
팅	-9.67151
▁의심	-9.67171
▁빼고	-9.67214
▁달라	-9.67236
▁만들고	-9.67245
▁초반에	-9.67249
점수	-9.67253
영화임	-9.67256
▁찡	-9.67298
▁폭	-9.67314
▁점준	-9.67328
▁괴물	-9.67395
▁보았다	-9.67456
▁다만	-9.67545
▁역할	-9.67592
▁하는지	-9.67621
리스	-9.67627
ᄆ	-9.67664
▁뻔하고	-9.67665
르는	-9.67677
▁없지	-9.67736
쓴	-9.67784
놈들	-9.6781
▁멋	-9.67812
▁몰	-9.67838
▁보지마	-9.67838
▁괴	-9.67845
▁소재로	-9.67874
겟다	-9.67886
▁영화인듯	-9.67927
▁끌	-9.67948
▁단연	-9.67962
▁레전드	-9.68009
▁전기세	-9.6801
▁희생	-9.68031
▁광	-9.68071
▁그럼	-9.68071
▁드라마는	-9.68146
▁음악과	-9.68169
▁귀엽	-9.68263
▁마이너스	-9.68263
▁지루할	-9.68266
▁아마	-9.6837
▁느낄수	-9.68377
형님	-9.68396
▁풀	-9.68476
▁좋아할	-9.68516
▁공부	-9.68533
엿	-9.68548
▁먼	-9.68556
▁주인공의	-9.68657
기억	-9.68676
▁중요한	-9.68739
최	-9.68756
▁우와	-9.68809
▁시각	-9.68891
짜리	-9.68892
▁빼고는	-9.68902
▁부족하다	-9.68962
노래	-9.68973
이런영화	-9.68993
주인공	-9.69014
▁덕분에	-9.69034
▁표정	-9.69053
람	-9.6908
▁몰라도	-9.69191
▁포기	-9.69195
▁받았	-9.69207
줌	-9.69235
▁한심	-9.69265
▁ᄋ	-9.69322
▁들었다	-9.6946
▁이하	-9.69499
▁범인	-9.6951
▁몰랐	-9.69515
▁밥	-9.69562
▁헐리웃	-9.69603
▁주성치	-9.69603
▁좋아서	-9.69679
▁사기	-9.69738
▁무서워	-9.69775
▁비주얼	-9.69837
▁알았	-9.69855
▁황	-9.69859
▁채널	-9.69913
▁딱히	-9.69954
헤	-9.69974
▁긴장감도	-9.69981
▁않을까	-9.70019
죄	-9.70027
▁딴	-9.70124
엄마	-9.70184
랜	-9.70209
▁사이	-9.70212
▁쩝	-9.70261
▁많아	-9.70372
▁의미를	-9.70384
봣	-9.70409
▁질리지	-9.70413
▁더불어	-9.70414
시는	-9.70424
▁단순한	-9.70436
▁못할	-9.70449
▁사랑은	-9.70482
▁읽	-9.70534
▁취	-9.70538
▁양심	-9.70582
용으로	-9.70615
▁지나치	-9.70639
▁자신	-9.70656
흐	-9.70724
새끼	-9.70749
재미없	-9.70792
와서	-9.70857
▁중간	-9.70859
소재를	-9.70892
▁지루하게	-9.70903
끈	-9.70914
▁조합	-9.70944
▁혼	-9.71001
▁놓	-9.71036
▁무시	-9.71052
구성	-9.71096
▁느낌을	-9.71158
▁베스트	-9.71161
▁보니까	-9.71163
▁학교	-9.71175
▁배우들도	-9.7123
▁느껴진다	-9.71232
▁멍청한	-9.71237
▁의외로	-9.71272
▁정서	-9.71315
따라	-9.7132
▁제작비	-9.71332
▁묘사	-9.71359
▁견자단	-9.71415
떨	-9.71582
▁신선하고	-9.71595
에서는	-9.71703
지않는	-9.71745
앙	-9.71776
▁한참	-9.71777
▁최근	-9.71781
▁재미있었어요	-9.71815
영화라고	-9.71882
▁가능	-9.71882
버리	-9.71955
이였다	-9.71961
닝	-9.72028
▁리뷰	-9.72061
것만	-9.72075
▁급영화	-9.72161
정신	-9.72161
▁사랑이야기	-9.72172
▁만들었	-9.72177
▁보내	-9.72184
▁장면에서	-9.72215
▁현실적인	-9.72244
짜증	-9.72251
▁재밌었	-9.72256
▁나오면	-9.72281
웠다	-9.72288
▁떠나서	-9.72297
ᅮᅮᅮ	-9.72315
사람은	-9.72342
▁싸이코	-9.72397
▁주인공들	-9.725
▁이해하기	-9.72521
놓은	-9.72533
▁결	-9.72588
력이	-9.72632
▁능력	-9.72829
좋음	-9.72838
▁철	-9.72881
▁시사회	-9.72906
▁분노	-9.72931
▁채	-9.7295
▁보고싶	-9.72953
▁잔인한	-9.72976
공포	-9.72987
▁사랑하는	-9.73007
시킨	-9.73017
▁안나오	-9.7304
▁재미없어요	-9.73044
▁유쾌하고	-9.7308
▁되고	-9.73108
▁실패	-9.73165
▁지금은	-9.73292
▁좋지만	-9.73362
▁조폭	-9.73371
▁시도	-9.73438
하려	-9.73462
한게	-9.73467
▁꽝	-9.73483
느라	-9.73483
▁필요한	-9.7361
▁행	-9.737
▁미안	-9.73791
▁이후로	-9.73838
▁없었던	-9.73843
필	-9.73891
▁본다면	-9.73891
▁나왔다	-9.73894
▁기대했는데	-9.73895
▁못해	-9.73902
▁왜이래	-9.73903
▁카리스마	-9.73923
▁망한	-9.73935
▁뿐이다	-9.73939
▁작은	-9.73968
▁앞	-9.74016
버리는	-9.74024
▁허세	-9.74029
줘	-9.74071
▁올리	-9.74141
▁잼나	-9.74192
▁해피엔딩	-9.74213
▁개뿔	-9.74246
였어	-9.74329
착	-9.74334
▁먹고	-9.74363
▁쓰레기다	-9.74373
스릴러	-9.74374
사는	-9.74408
지않은	-9.74434
▁전편	-9.74445
▁무협	-9.74448
▁멋있	-9.745
압	-9.74507
멘	-9.74541
일이	-9.74577
▁말하는	-9.74578
▁역대급	-9.74595
▁눈에	-9.74662
▁벗	-9.74917
▁무엇을	-9.74923
▁포르노	-9.74932
▁주기	-9.7497
▁이해할	-9.74989
시간이	-9.75011
하구	-9.75089
모습	-9.75096
갔다	-9.75166
▁속에	-9.75292
▁할말이	-9.75307
ᄅ	-9.75349
▁않나	-9.75353
▁현실성	-9.75459
▁캐릭터들	-9.75469
▁편보다	-9.75481
언니	-9.75537
▁작품이다	-9.75565
▁오버	-9.75597
▁야동	-9.75608
예요	-9.75622
만드는	-9.75696
▁북한	-9.75729
봤던	-9.7581
지를	-9.75829
혹	-9.75846
▁퍼	-9.75851
▁하면서	-9.75853
▁의리	-9.75862
▁푹	-9.75872
들만	-9.75873
▁비극	-9.75874
▁레알	-9.75938
▁젊은	-9.75996
하지도	-9.76062
감이	-9.76093
▁와우	-9.76114
속에서	-9.76114
엘	-9.76119
스럽	-9.76123
차라리	-9.76126
껄	-9.76143
지마	-9.762
▁흔한	-9.76252
끝나	-9.76401
▁되었	-9.76443
▁순수	-9.76477
▁우울	-9.76622
상을	-9.76702
▁추억이	-9.76704
▁뒤로	-9.76812
▁생각하고	-9.76838
▁봣는데	-9.76909
것들	-9.7691
▁행복한	-9.76936
ᅲᅲᅲᅲ	-9.77061
▁홍콩영화	-9.77072
그래	-9.77162
▁어린이	-9.7723
▁모르	-9.77266
기위해	-9.77336
▁그렇지	-9.77367
▁제로	-9.77372
▁빵점	-9.77373
▁의도	-9.77381
▁한마디	-9.77465
웠	-9.77519
▁풀어	-9.77522
▁사랑의	-9.77527
▁변태	-9.7761
▁감동적	-9.77622
▁청소년	-9.7763
▁풍	-9.77669
▁대사가	-9.77669
버림	-9.77676
▁보고나면	-9.7771
떠	-9.7784
해진다	-9.77847
줬	-9.77849
▁보았	-9.77852
ᄌ	-9.7789
▁할까	-9.7789
순간	-9.77987
▁넘어	-9.78008
▁졸리	-9.78042
▁열정	-9.7808
▁받아	-9.78133
▁안보	-9.78187
로서	-9.78225
▁동안	-9.7823
▁후반	-9.78269
▁그녀	-9.78326
▁피해자	-9.78327
끌	-9.78328
님의	-9.78433
연기도	-9.78468
할까	-9.78468
▁하나하나	-9.78477
▁무섭지도	-9.785
▁돌아가	-9.78508
시다	-9.78714
▁봤더니	-9.78722
족	-9.78737
▁한국영화는	-9.78775
뜻	-9.78794
옹	-9.78838
▁긴장감이	-9.78861
▁흥미로운	-9.78861
▁소녀	-9.78909
▁생각함	-9.7892
▁여자들	-9.78964
하려고	-9.7897
지도않고	-9.78976
해진	-9.79021
▁잊을	-9.79023
▁사람의	-9.7906
▁오바	-9.79066
▁비슷	-9.79075
▁넘치는	-9.79123
▁ᄏᄏᄏᄏᄏᄏ	-9.79146
▁설레	-9.79156
▁힘이	-9.79204
▁죽는줄	-9.79228
▁국내	-9.79292
엇다	-9.79359
▁웃기지도	-9.79431
▁손발이	-9.79484
▁호러	-9.79492
▁그렇	-9.79565
▁보지마라	-9.79581
있나	-9.79645
▁십	-9.79661
쥐	-9.7969
뿌	-9.797
확	-9.79713
▁형님	-9.79729
▁불구하고	-9.79738
와는	-9.79744
▁말할	-9.79752
▁방금	-9.79776
▁브	-9.79777
▁얻	-9.79845
개봉	-9.79859
▁몰입해서	-9.79908
▁동물	-9.7995
▁완전히	-9.80029
안되	-9.80068
▁김기덕	-9.80072
했다는	-9.80112
▁별개	-9.80179
▁펑펑	-9.80208
▁못하다	-9.80212
만의	-9.80252
▁핵노잼	-9.803
▁평범	-9.80319
괴	-9.80321
▁든	-9.8048
옥	-9.80522
▁행동	-9.80553
혁	-9.80596
▁이래	-9.8062
▁색다른	-9.8064
▁바라	-9.80783
▁이쁘	-9.80807
▁훈훈한	-9.80866
▁보긴	-9.80885
▁빌려	-9.80909
▁꺼	-9.8105
대는	-9.81077
▁못함	-9.81202
▁싶은데	-9.81203
거라	-9.81289
▁보여준다	-9.81297
▁떨어진다	-9.81299
▁명작입니다	-9.81305
켜	-9.81315
▁앞으로도	-9.81333
한다면	-9.81345
▁짜증난다	-9.81365
버리고	-9.81384
▁전작	-9.814
북	-9.81462
씬은	-9.81479
▁남겨	-9.81514
영화로	-9.81556
웃기	-9.81574
▁왠	-9.81579
보는내내	-9.81608
째	-9.81657
▁있구나	-9.81681
혼	-9.81762
치곤	-9.81774
▁집에서	-9.8178
▁잼있다	-9.81812
▁웃기다	-9.81819
씨의	-9.81895
▁훌륭하다	-9.81896
▁허무	-9.81986
먹고	-9.8207
힘	-9.82146
▁점수가	-9.82153
뭔가	-9.82206
▁보기에	-9.82215
▁표	-9.82237
▁가치가	-9.82262
똥	-9.82379
졸	-9.82466
총	-9.82475
슈	-9.82479
밥	-9.82483
나옴	-9.82497
▁하는거	-9.82525
▁영국	-9.82551
▁씬	-9.82568
▁에피소드	-9.82631
▁않지만	-9.82638
싶다	-9.82652
매력	-9.82722
▁어제	-9.82758
▁조연	-9.8285
▁나쁘지	-9.82894
▁나은	-9.82919
▁맨날	-9.82958
▁군	-9.82977
▁묻	-9.82993
왔	-9.83059
시키	-9.83094
▁괜찮다	-9.83109
협	-9.83266
설정	-9.83324
얘기	-9.83326
▁쥐	-9.83335
감독님	-9.8334
려서	-9.83367
▁그려	-9.8343
얼굴	-9.83436
▁끝난	-9.83455
▁해주	-9.83465
▁시리즈중	-9.83468
내는	-9.83485
▁감히	-9.83519
쁘	-9.83555
▁생각하는	-9.83617
끝까지	-9.83624
▁아쉽	-9.83669
누나	-9.83753
▁영원히	-9.83754
괜찮	-9.83771
하더라	-9.83822
ᅲᅮ	-9.83834
▁최고였다	-9.83836
스터	-9.83939
공감	-9.83973
▁아이가	-9.84023
겠습니다	-9.84024
드리	-9.84042
친다	-9.84091
려면	-9.84174
원작	-9.84199
▁캬	-9.84219
▁진리	-9.84268
우리	-9.84275
좌	-9.84281
▁만한	-9.84287
▁착한	-9.84296
했는지	-9.84337
있었	-9.84346
▁문화	-9.84356
겠음	-9.84374
▁이것이	-9.8443
▁진정	-9.84465
▁합	-9.84481
식이	-9.84482
▁자살	-9.84568
▁국민	-9.84576
▁환상	-9.84605
사이	-9.84606
롭	-9.8462
짜증나	-9.84622
▁달리	-9.84657
▁말하고	-9.84672
▁반개도	-9.84687
▁이때	-9.84722
▁편의	-9.84746
옴	-9.84753
▁술	-9.84786
▁바랍니다	-9.84849
▁엉망	-9.8486
▁최강	-9.84887
▁괜찮은데	-9.8496
▁좋았을	-9.84987
자들	-9.84998
프로	-9.85021
▁재미와	-9.85035
▁가슴에	-9.85084
룡	-9.85086
▁고통	-9.85092
▁작품을	-9.85094
▁영어	-9.85227
함과	-9.85251
▁싫	-9.85282
지말고	-9.85286
▁누구나	-9.85289
샤	-9.853
▁부모	-9.85341
▁빼면	-9.85359
▁크리스마스	-9.85441
▁발견	-9.85455
▁이미지	-9.85461
곤	-9.85461
▁헤어	-9.85527
랄까	-9.85625
▁여행	-9.8566
▁바꾸	-9.85724
해주세요	-9.85762
▁가족영화	-9.85885
▁반복	-9.85888
▁이런영화를	-9.85895
▁재미없게	-9.85929
▁안보고	-9.85946
긴한데	-9.85967
아니다	-9.85986
▁우리의	-9.86004
줄이야	-9.86014
했나	-9.86018
▁격	-9.86024
▁아픈	-9.8607
▁죽여	-9.86076
폭	-9.86104
▁멍청	-9.86106
▁없어요	-9.86128
▁겨우	-9.86171
▁돼	-9.86173
▁소름이	-9.86208
▁논	-9.86253
▁당시에	-9.86282
▁모르겠지만	-9.86285
▁좋겠네요	-9.86288
▁수도	-9.86301
▁지루하	-9.86364
▁빨	-9.86393
▁탈	-9.8641
▁할수	-9.86418
▁주말	-9.86423
▁하루	-9.86439
▁처음엔	-9.8646
그래서	-9.86493
▁무리	-9.86526
▁빼	-9.86576
것같	-9.86642
시길	-9.86681
▁안나	-9.86765
▁남편	-9.86831
럼	-9.8684
▁풍경	-9.86846
▁흐름	-9.86847
▁조화	-9.86897
▁이유를	-9.86946
▁섹시	-9.86948
▁재밌을	-9.86972
이라서	-9.87033
▁남자가	-9.87047
▁죽어	-9.87057
찾	-9.87142
▁뜻	-9.87156
▁다룬	-9.87159
▁좋아하는데	-9.87244
▁우주	-9.87247
▁불쌍	-9.87261
▁있네	-9.87262
▁외모	-9.87276
꼴	-9.87286
▁놀라	-9.87297
▁갔	-9.87321
거같아요	-9.8733
▁외계인	-9.87343
스가	-9.87443
점도	-9.87457
▁재미없었다	-9.87484
▁년전에	-9.87503
▁쓰레기같은	-9.87559
▁한심한	-9.87572
▁받을	-9.87599
빨리	-9.87617
뒤	-9.87621
겠네요	-9.87688
▁가득	-9.87744
▁넌	-9.87821
▁좋게	-9.87833
▁빠진	-9.87917
스러움	-9.88004
▁살려	-9.88012
▁그럴	-9.88022
춘	-9.88026
일본	-9.8804
▁기가	-9.88065
▁스스로	-9.88078
▁깨닫게	-9.88133
홍	-9.88134
▁그거	-9.88204
낼	-9.88205
장면이	-9.88247
▁악당	-9.88459
자는	-9.88514
▁밀	-9.8856
ᄋᄋ	-9.88674
▁싶지	-9.88713
▁우리가	-9.88732
▁다운	-9.88739
▁감동적이다	-9.88829
▁관한	-9.88832
▁차이	-9.88869
▁해라	-9.88877
▁없습니다	-9.88924
도아니고	-9.88926
율	-9.88957
▁끌어	-9.88976
봤지만	-9.88994
렁	-9.89047
▁답답한	-9.8905
▁마이클	-9.89052
▁어린시절	-9.89059
▁본영화	-9.89081
▁돋	-9.89155
▁그녀의	-9.89214
감독의	-9.89264
젤	-9.8928
▁노래가	-9.89393
후회	-9.89394
▁진부하고	-9.89415
알바	-9.89463
▁재밌던데	-9.89483
관계	-9.89503
점은	-9.89523
즘	-9.89534
장난	-9.89617
줘서	-9.89626
사회	-9.8974
로운	-9.89741
▁자주	-9.89823
▁연기력도	-9.89832
▁밤	-9.89839
안에	-9.89843
▁탑	-9.89849
▁로봇	-9.89852
으로서	-9.899
▁로그인	-9.89933
▁지켜	-9.89963
▁대화	-9.89971
▁출연진	-9.89994
▁공포물	-9.90127
▁열연	-9.90132
편이	-9.90132
하길	-9.90154
하신	-9.90215
▁남은	-9.90245
ᅵ	-9.90267
▁원작의	-9.90352
▁꽃	-9.90425
▁심하게	-9.90456
▁고양이	-9.90519
님이	-9.90529
▁낚시	-9.9061
▁조작	-9.90638
▁정도의	-9.90663
▁안맞	-9.90665
▁낮아	-9.90665
▁그렇다고	-9.90745
하시	-9.9081
인건	-9.90836
제목	-9.90869
▁척	-9.90871
▁인간이	-9.90912
▁송	-9.90939
▁남녀	-9.90966
틴	-9.90971
이자	-9.90984
▁찬	-9.91008
뚱	-9.91017
▁안타까운	-9.91018
납니다	-9.91028
거같은데	-9.91059
으면서	-9.91081
것같아요	-9.91114
자나	-9.91131
영화의	-9.91205
▁느꼈	-9.91245
큐	-9.91267
덜	-9.91314
▁악마	-9.9132
▁연예인	-9.91357
▁봤네	-9.9138
▁한국인	-9.91455
▁꿈을	-9.91486
는듯	-9.91554
▁죽이는	-9.91564
▁눈빛	-9.91607
▁모르겠음	-9.91609
스럽고	-9.91679
▁인간들	-9.91798
▁노래도	-9.9181
릭	-9.91811
꿀잼	-9.91828
야한다	-9.91884
▁교육	-9.91924
▁느꼈다	-9.91969
▁낮다	-9.92014
▁무척	-9.92091
▁세상을	-9.92095
▁쇼	-9.92113
▁칼	-9.92123
중의	-9.9213
했지	-9.92153
▁커플	-9.92191
받고	-9.9225
모두	-9.92278
자체	-9.92283
▁팬이	-9.92289
▁그립다	-9.92295
▁남자들	-9.92312
▁거지	-9.9233
깔	-9.92333
이즈	-9.92337
▁아픔	-9.92349
▁기대안하고	-9.9241
흔	-9.92453
▁찌	-9.92477
▁장르가	-9.92505
▁업	-9.9256
다음	-9.92564
▁따로	-9.92627
져서	-9.92649
▁만들면	-9.92759
줘야	-9.92795
▁감동의	-9.92832
▁아이돌	-9.9288
억지	-9.92896
수록	-9.92902
막장	-9.92906
절대	-9.92907
엔딩	-9.92936
▁지구	-9.92963
퇴	-9.92975
▁관객들	-9.92978
▁이러	-9.92988
으니까	-9.93053
▁뭐라	-9.93123
▁안습	-9.93136
▁기대이상	-9.93189
▁학교에서	-9.93233
▁낚였다	-9.93248
▁옷	-9.93267
▁낫	-9.93307
하기도	-9.93322
▁명화	-9.93331
▁바꿔	-9.93374
갑니다	-9.93404
▁비하면	-9.93411
▁내가본	-9.93438
▁여운을	-9.93464
화이팅	-9.93482
텐데	-9.93518
▁경험	-9.93523
▁뭘까	-9.93537
봅니다	-9.9356
▁현대	-9.93595
▁재미잇	-9.93609
▁본거	-9.93636
쳤	-9.93637
▁북	-9.93651
▁쉬	-9.93656
▁않네요	-9.93683
릿	-9.93708
▁다시는	-9.9376
▁갈등	-9.93814
▁이런건	-9.93846
▁단지	-9.93892
▁철학	-9.93895
▁단어	-9.93897
▁비디오로	-9.93906
는영화	-9.93926
▁시원	-9.9399
▁잔뜩	-9.9405
▁재밌다고	-9.94051
▁잠깐	-9.94055
있네	-9.94092
▁방영	-9.94149
▁싶어요	-9.94195
▁궁금하다	-9.94223
▁잘만들었	-9.94348
▁썩	-9.944
▁후속작	-9.94415
▁잼나게	-9.9443
논	-9.94442
봤어요	-9.9446
시즌	-9.94476
시작	-9.94579
▁이것	-9.94601
있는데	-9.94604
봤네요	-9.94616
리지	-9.94619
▁할머니	-9.94645
▁드립니다	-9.94703
만이	-9.94711
▁불쌍하다	-9.94798
▁관객을	-9.948
▁느낀	-9.94811
▁살린	-9.94828
▁불쾌	-9.94846
▁작가가	-9.94865
볼만	-9.94927
▁한명	-9.94991
았어요	-9.95005
▁야한	-9.95021
한건	-9.95059
▁찍었	-9.95064
▁지나도	-9.95066
킬	-9.95107
▁결코	-9.95113
▁정말이지	-9.9514
▁죽을	-9.95186
시오	-9.95253
▁이래서	-9.953
없어서	-9.95304
▁번째	-9.95351
▁만든영화	-9.95375
▁아줌마	-9.95375
▁게다가	-9.95377
▁만남	-9.95408
▁별로임	-9.95463
속의	-9.95463
▁패러디	-9.95468
넣	-9.95539
▁낮네	-9.95593
▁빵	-9.95593
▁구성이	-9.95637
햇다	-9.95642
버려	-9.9566
▁무술	-9.95671
▁본인	-9.95682
▁신선	-9.95688
재미없음	-9.95709
▁ᄀ	-9.95734
새끼들	-9.95795
▁하늘	-9.95871
▁맞아	-9.95874
지않고	-9.95875
▁아니야	-9.95889
▁남네요	-9.95944
▁편견	-9.96034
▁슈	-9.96047
한국	-9.96055
▁핵	-9.96089
▁소중한	-9.96124
더라도	-9.96139
▁최초	-9.96164
온다	-9.96166
있어서	-9.96239
▁낮지	-9.96251
집니다	-9.96277
▁봐도봐도	-9.96326
▁끄	-9.96327
좋았	-9.96406
▁위로	-9.96406
▁효과	-9.96475
▁통쾌	-9.96512
한것	-9.96517
냈다	-9.9657
지가	-9.96571
고싶은	-9.96574
흠	-9.96581
▁모르겠고	-9.96602
낫	-9.96609
▁만들어도	-9.96644
▁이제서야	-9.96652
시간에	-9.96665
▁스트레스	-9.9669
곳	-9.96761
▁삶에	-9.9677
▁만들다니	-9.9682
▁엄	-9.96827
수있는	-9.96853
인의	-9.96864
▁속에서	-9.96871
무섭	-9.96926
▁예쁘다	-9.96944
지루함	-9.97023
하셨	-9.97023
▁가치	-9.97061
▁다르다	-9.97087
▁많고	-9.97091
본영화	-9.97139
▁예쁘고	-9.97144
솔	-9.97157
▁남자의	-9.97163
ᅥ	-9.97173
럭	-9.97173
▁직접	-9.97182
▁모르게	-9.97211
보니까	-9.97252
▁그것	-9.97262
▁좋았지만	-9.97358
▁만들수	-9.97371
▁해석	-9.97451
▁최고임	-9.97486
▁영화관	-9.97504
▁보자	-9.97511
보는게	-9.97548
되었다	-9.97554
높	-9.9757
▁일어나	-9.97617
▁야구	-9.9766
잼있	-9.97678
▁전쟁영화	-9.9775
▁탄생	-9.97782
▁생각하면	-9.97845
부족	-9.97853
쓰레기영화	-9.97888
▁엘	-9.97893
배경	-9.97934
자의	-9.97951
하는건	-9.97985
▁젠장	-9.97985
겠죠	-9.98067
빼고	-9.98113
▁여름	-9.98162
엽	-9.9821
묵	-9.98223
▁소소한	-9.98238
▁좋았으나	-9.98253
▁작품은	-9.98319
▁설마	-9.98349
▁운명	-9.98379
▁캐릭터가	-9.98385
▁괜찮음	-9.98394
▁도전	-9.98401
▁실제로	-9.98402
식으로	-9.98427
였고	-9.98445
▁재미있습니다	-9.98454
▁점대는	-9.98469
▁수준의	-9.98499
▁특수효과	-9.9852
▁없다는	-9.9853
▁코미디영화	-9.98549
이걸	-9.98554
▁식상한	-9.98574
나게	-9.98625
▁에로영화	-9.98631
▁선생님	-9.98644
▁이상하게	-9.98873
▁살고	-9.99036
▁신경	-9.9904
녕	-9.99129
▁중에서	-9.99137
▁있어야	-9.99178
▁들어가	-9.99207
▁낙	-9.99217
▁귀여워	-9.9927
요즘	-9.99283
▁하네	-9.99321
▁있던	-9.99335
되서	-9.99395
▁보며	-9.99422
로써	-9.99424
이니	-9.99428
누	-9.99499
▁충분	-9.99504
▁나에겐	-9.99538
는구나	-9.99546
▁있다니	-9.99558
▁있었지만	-9.99587
사가	-9.9961
▁연출과	-9.99626
하겠다	-9.99658
▁끈	-9.99659
것같은	-9.99659
겠어요	-9.99667
▁기다려	-9.99691
▁좀비영화	-9.99785
▁당신은	-9.99814
▁킬링타임용으로	-9.99981
▁홍	-10.0007
냈	-10.0009
▁웬	-10.0011
려나	-10.0011
스럽게	-10.0016
▁이기	-10.0017
안됨	-10.0022
▁가슴을	-10.0026
▁싶었	-10.0027
▁봤을까	-10.003
▁웃고	-10.003
▁사진	-10.0036
공포영화	-10.0039
좋아하는	-10.0041
▁ᄍᄍᄍ	-10.0041
▁일품	-10.0041
▁극장가서	-10.0042
셈	-10.0044
▁소장	-10.0046
▁모르겠	-10.0047
▁내면	-10.0049
▁어른들	-10.0064
때매	-10.0068
일듯	-10.0069
▁연기자들	-10.0072
냥	-10.0076
었나	-10.0079
▁꾸	-10.0082
▁어설프고	-10.0083
▁받는	-10.0084
▁자극	-10.0086
▁똑같은	-10.0087
▁정의	-10.0088
물이	-10.0088
▁점이다	-10.0089
기까지	-10.0093
갓	-10.0094
쓸	-10.0099
더빙	-10.0102
밤	-10.0102
▁봣	-10.0103
▁감정을	-10.0103
▁모험	-10.0104
▁갑니다	-10.0114
▁아쉽지만	-10.0115
더라면	-10.0116
스타일	-10.0118
수도	-10.0121
▁얼마	-10.0129
텐	-10.0136
연기력	-10.0138
많	-10.0139
▁인상적	-10.014
요소	-10.0141
▁점줌	-10.0146
▁클레멘타인	-10.015
▁무엇인지	-10.0153
만큼은	-10.0153
하시는	-10.0163
▁엔딩이	-10.0163
마지막에	-10.0166
▁참신한	-10.0174
▁개막장	-10.018
▁는데	-10.0185
▁아류작	-10.019
▁돋보이는	-10.0194
▁내용인지	-10.0196
▁잘하고	-10.0201
▁맹	-10.0205
▁보여주고	-10.0209
▁느	-10.0214
▁싶을	-10.0215
▁읽어	-10.0226
▁영상이	-10.0226
▁귀엽다	-10.0228
▁출연한	-10.0229
▁탄탄	-10.0229
▁형사	-10.0233
▁용기	-10.0234
왔다	-10.0238
▁옛	-10.024
▁짜증나서	-10.0244
▁전설의	-10.0245
▁분위기가	-10.0245
▁연결	-10.0246
▁의문	-10.0246
▁재미로	-10.0251
▁재미도없고	-10.0252
▁가벼운	-10.0261
꾸	-10.0265
쩌	-10.0267
▁증	-10.0268
▁생각나	-10.0269
▁따뜻하고	-10.0269
▁강한	-10.0272
폐	-10.0272
▁오래된	-10.0275
▁조절	-10.0275
▁신파	-10.0277
▁시간가는줄	-10.0288
▁아진짜	-10.0291
▁시청	-10.0295
▁편도	-10.0307
거같음	-10.0307
▁높게	-10.0315
▁보다니	-10.032
아깝	-10.0322
계의	-10.0324
▁알려	-10.0328
▁봅니다	-10.0333
웃김	-10.0335
▁보지말	-10.0341
▁놀랍다	-10.0342
▁많아서	-10.0342
▁누	-10.0344
▁처럼	-10.0346
▁대부분	-10.0349
든다	-10.035
▁볼수있는	-10.0359
자체가	-10.0359
▁답이	-10.036
▁길게	-10.0363
▁잘봤어요	-10.0363
층	-10.0373
▁교과서	-10.0373
▁유일한	-10.0374
문제	-10.0374
▁특별한	-10.0374
▁욕망	-10.0382
로는	-10.0391
▁그저그런	-10.0391
▁사랑해요	-10.0392
센	-10.0399
▁흑인	-10.0401
▁다신	-10.0404
▁아닙니다	-10.0409
▁아까웠다	-10.041
감을	-10.0413
자리	-10.0419
했으나	-10.0423
▁손에	-10.0434
▁응	-10.0438
▁슈퍼	-10.0439
▁어렵다	-10.0444
▁그자체	-10.0444
큰	-10.0445
▁괜찮았다	-10.0448
▁우리는	-10.0449
▁버리	-10.0453
▁돈을	-10.0457
▁품	-10.0461
▁수입	-10.0464
▁죽이	-10.0465
▁여러분	-10.0466
▁기술	-10.0483
▁주윤발	-10.0487
▁매력을	-10.0488
▁비판	-10.049
한다는	-10.0493
▁끼	-10.0496
▁아예	-10.0497
▁맞지	-10.0499
▁쪽	-10.0499
▁전체	-10.0499
▁맡	-10.0501
▁친구들	-10.051
▁먼가	-10.051
▁짜임새	-10.0511
▁방식	-10.0511
▁잭	-10.0515
▁케	-10.0516
▁어울리는	-10.0516
▁겉	-10.0517
▁엉성하고	-10.0518
▁쓰는	-10.0522
▁모든걸	-10.0522
라는걸	-10.0524
돌아	-10.0526
▁이상의	-10.0529
▁분들은	-10.053
▁반전은	-10.053
▁풍자	-10.053
▁잼없	-10.0532
간의	-10.0534
▁부르	-10.0536
묘	-10.054
좋았다	-10.0545
해준	-10.0547
▁보다는	-10.0548
▁재미없어서	-10.0549
▁보라	-10.0554
생각이	-10.0557
▁좋아해서	-10.0558
세계	-10.0559
▁요소	-10.0562
붙	-10.0562
▁아까울	-10.0562
▁어릴	-10.057
듯하다	-10.0573
▁주변	-10.0575
늘	-10.0579
▁믿	-10.058
▁나머지	-10.0581
껴	-10.0581
▁먹먹	-10.0586
어지는	-10.0587
재밌어	-10.0591
보이는	-10.0591
▁잼잇	-10.0593
▁아니지	-10.0594
가요	-10.0595
▁나오네	-10.0597
▁반드시	-10.0602
답니다	-10.0606
▁아이디어	-10.0607
▁인내심	-10.0608
▁비밀	-10.061
▁디워	-10.0612
▁흘러	-10.0614
이름	-10.0624
▁폴	-10.0625
▁아름답게	-10.0627
▁이딴걸	-10.0629
했었는데	-10.063
하시길	-10.0635
할만한	-10.0639
▁넣	-10.064
▁심형래	-10.0642
이죠	-10.0642
▁많은걸	-10.0648
▁ᄏᄏᄏᄏᄏᄏᄏ	-10.0652
▁모두가	-10.0653
돋	-10.0654
▁에이	-10.0656
하진	-10.0664
▁원작이	-10.0664
낚	-10.0665
중에서	-10.0668
▁어처구니	-10.0669
▁죽이고	-10.0669
▁투자	-10.0669
▁낮게	-10.0673
▁맘	-10.0676
▁평론가들	-10.0678
▁대해서	-10.0678
씀	-10.068
걍	-10.0682
▁아까운영화	-10.0682
상황	-10.0687
▁어렸을	-10.0693
▁둘이	-10.0693
잃	-10.0696
보인다	-10.0697
▁죽은	-10.0701
있어요	-10.0702
▁시간아깝다	-10.0706
▁뛰어	-10.0708
건가요	-10.0709
▁몰랐다	-10.0709
▁아닐	-10.0715
컨	-10.0718
▁영화였음	-10.0719
▁개연성이	-10.072
쟁이	-10.072
▁집착	-10.0721
▁놀라운	-10.0722
▁거짓말	-10.0724
▁망치	-10.073
▁멋있는	-10.073
▁집중해서	-10.074
▁보통	-10.074
리를	-10.0742
▁변화	-10.0742
▁시청률이	-10.0743
▁볼만했다	-10.0745
▁올라	-10.0746
▁ᄃᄃᄃ	-10.0747
따위	-10.0748
았는데	-10.0748
▁답답하고	-10.0751
▁전문가	-10.0752
▁안맞는	-10.0761
▁느낌의	-10.0762
▁진수	-10.0763
▁있었는데	-10.0768
멋있	-10.0768
▁모를	-10.0774
좋은영화	-10.0775
▁하나의	-10.0775
▁삼류영화	-10.0786
하지마라	-10.0793
거리는	-10.0796
하는영화	-10.0798
▁영혼	-10.0799
삶	-10.0805
▁아깝고	-10.0818
▁최고의영화	-10.0823
▁현실이	-10.0825
객	-10.083
▁곳	-10.0831
▁제이슨	-10.0836
올리	-10.0837
▁착각	-10.0837
감정	-10.0838
▁두번째	-10.084
▁만든거	-10.0843
였으면	-10.0846
지게	-10.0846
▁또다른	-10.0849
살아	-10.0851
재미있게	-10.0852
▁케이블에서	-10.0852
▁기자	-10.0855
이여	-10.0857
받는	-10.0857
하기만	-10.0861
▁유명	-10.0864
보고싶	-10.0874
할수있	-10.0874
▁한국에서	-10.0887
▁만들었는지	-10.0895
▁언	-10.0901
보지	-10.0902
▁연기력은	-10.0905
▁한번쯤	-10.091
▁훌륭	-10.0912
어라	-10.0922
▁멍	-10.0922
푸	-10.0923
아저씨	-10.0925
▁필	-10.0925
까지는	-10.0925
렇	-10.0925
거죠	-10.0926
▁넘게	-10.0929
▁견	-10.0933
노답	-10.0935
▁보려고	-10.0936
▁갖고	-10.0936
▁엿	-10.0938
었을	-10.0943
▁감동은	-10.0945
▁봉	-10.0945
보여	-10.0946
없는영화	-10.0947
▁액션씬	-10.0949
사람들이	-10.0951
꾼	-10.0951
▁개봉한	-10.0957
▁하나로	-10.0963
▁위해서	-10.0964
▁나름대로	-10.0968
▁블록버스터	-10.097
▁반담	-10.0971
전쟁	-10.0971
▁주기도	-10.0972
적이다	-10.0973
었지	-10.0973
모든	-10.0974
▁영원한	-10.0975
▁임팩트	-10.098
▁없었음	-10.0981
▁방법	-10.0993
▁모른다	-10.0994
▁요리	-10.0994
▁새벽에	-10.0996
▁맛이	-10.0998
▁놈	-10.0998
럴	-10.0998
▁왠만하면	-10.1003
▁재미있어	-10.1004
▁망친	-10.1007
▁시리즈는	-10.1011
▁뭐하나	-10.1011
▁재밌어서	-10.1013
봤습니다	-10.1017
▁즐	-10.1019
▁당신	-10.102
▁많았	-10.1029
▁꼬마	-10.1031
▁괜찮았	-10.1032
되면	-10.1032
▁한편의	-10.1032
허접	-10.1038
축	-10.1039
몽	-10.1041
빛	-10.1043
▁참신	-10.1044
▁했으면	-10.1045
▁잼있음	-10.1047
긴장감	-10.1047
그리	-10.105
▁그당시	-10.1053
▁끊	-10.1057
▁빛	-10.1059
▁아니었	-10.1061
례	-10.1069
▁영화인	-10.1069
▁뽑	-10.1071
▁왤케	-10.1075
▁조니뎁	-10.1075
찔	-10.1075
▁의미가	-10.1075
▁동시에	-10.1076
▁진지	-10.1079
▁두고	-10.1079
▁기억나는	-10.1081
▁울리는	-10.1085
▁연극	-10.1085
▁하품	-10.1088
있었다	-10.1088
▁짜증만	-10.1093
▁하나같이	-10.1094
▁줄수	-10.1095
▁어쩔수	-10.1098
▁초등학생	-10.1099
▁관심	-10.1099
▁전설	-10.1103
▁아내	-10.1111
보게	-10.1113
▁시간만	-10.1114
▁싸우는	-10.1114
▁제임스	-10.1114
▁희	-10.1117
▁뇌	-10.1119
▁특이	-10.1125
스의	-10.1125
정이	-10.1126
같은영화	-10.1135
했다면	-10.1144
버릴	-10.1144
▁본방사수	-10.1145
기로	-10.1147
▁재밋어요	-10.1151
▁하는게	-10.1152
▁말도안되는	-10.1158
▁있는지	-10.1163
▁푸	-10.1167
추억	-10.1173
포스터	-10.1175
▁미소	-10.1176
▁잇	-10.1176
▁실력	-10.1179
▁잼있어요	-10.118
먹는	-10.1182
콘	-10.1187
여주	-10.1191
딘	-10.1197
닷	-10.1197
▁디테일	-10.1197
▁여러가지	-10.1198
▁담배	-10.1203
여운이	-10.1204
아요	-10.1205
▁교훈을	-10.1205
▁성격	-10.1208
▁점이상	-10.1213
웃겨	-10.1214
▁아래	-10.1215
▁강렬한	-10.1216
▁듣고	-10.1218
수없는	-10.1222
하겠	-10.1225
▁제니퍼	-10.1226
▁가면	-10.1231
▁영화인지	-10.124
있습니다	-10.1241
이었던	-10.1244
▁떨어지고	-10.1246
▁안간다	-10.1249
▁붙	-10.125
▁소년	-10.1251
▁영화보면서	-10.1253
▁워	-10.1255
▁아냐	-10.1258
주기	-10.1259
▁대본	-10.1262
▁지겹	-10.1262
▁무섭지	-10.1263
▁유명한	-10.1264
▁선물	-10.1267
▁외국	-10.1274
점을	-10.1276
▁어쩌	-10.128
이었습니다	-10.1282
됬	-10.1286
▁필요없	-10.129
▁중반	-10.1294
콩	-10.1297
벗	-10.1297
폰	-10.1298
보내	-10.1299
어린	-10.13
▁지겹다	-10.1303
는것도	-10.1304
섭	-10.1311
가슴	-10.1313
하려는	-10.132
▁다양한	-10.1321
▁내생에	-10.1321
보고싶다	-10.1322
들고	-10.1322
▁순수함	-10.1323
▁숨겨진	-10.1323
▁명대사	-10.1325
▁억지스러운	-10.1328
▁진부	-10.1331
▁때문	-10.1331
▁보기에는	-10.1332
▁못보겠	-10.1335
님들	-10.1335
▁배역	-10.1339
상이	-10.1342
▁똑같	-10.1343
스키	-10.1343
아직도	-10.1344
▁줘야	-10.1344
▁ᅲᅲᅲᅲ	-10.1345
▁집에	-10.135
▁인해	-10.1356
▁동성애	-10.1359
▁장국영	-10.1361
모르	-10.1361
▁들고	-10.1363
▁흥	-10.1367
존나	-10.1371
▁믿을	-10.1372
▁짧은	-10.1374
어색	-10.1375
▁애들은	-10.1377
▁싸움	-10.1378
▁테러	-10.1396
▁사랑해	-10.1402
▁자리	-10.1403
▁어이	-10.1403
▁불쌍한	-10.1405
명이	-10.1406
▁수작이다	-10.141
▁정도면	-10.1411
▁멋지	-10.1417
▁화를	-10.142
▁막장드라마	-10.1423
웨이	-10.1423
▁엔	-10.1424
▁최근에	-10.1425
때부터	-10.1426
▁배우를	-10.1429
▁짜증남	-10.1429
비디오	-10.1429
학교	-10.1431
커플	-10.1432
겹	-10.1436
년이	-10.1437
▁자식	-10.1437
▁영화보는	-10.1441
▁마이	-10.1442
칭	-10.1446
▁박중훈	-10.1446
조금	-10.1446
▁연기자	-10.1446
▁어쩜	-10.145
▁거북	-10.1453
▁짜증이	-10.1453
▁이런영화는	-10.1456
▁환	-10.1458
이해	-10.1461
▁제목만	-10.1462
▁ᄉ	-10.1462
▁이따위	-10.1464
소설	-10.1464
멜로	-10.1465
소름돋	-10.1467
▁살아가는	-10.1467
▁생각난다	-10.1467
▁콩	-10.1468
놔	-10.1469
▁장면들	-10.1479
▁쿠	-10.149
▁사랑합니다	-10.1493
장이	-10.1495
▁반전을	-10.1499
▁안본다	-10.1499
▁주제가	-10.1501
인데도	-10.1503
▁승	-10.151
▁재난영화	-10.1515
타임	-10.1516
▁뭥미	-10.1518
▁내용전개	-10.1519
▁연인	-10.1522
▁감정이	-10.1531
▁알수	-10.1532
▁마리	-10.1539
▁작가님	-10.154
▁생각나서	-10.154
▁매력적	-10.1544
항	-10.1545
빡	-10.1552
벨	-10.1556
▁아련	-10.1556
▁샤	-10.1556
어떻게	-10.1557
세상	-10.1558
▁보았습니다	-10.1558
▁영환데	-10.1562
▁불편한	-10.1566
▁ᄏᄏᄏᄏᄏᄏᄏᄏ	-10.1567
▁영상과	-10.1567
▁몇번	-10.1567
렉	-10.1568
렷	-10.1568
▁블랙	-10.1571
▁러시아	-10.1572
▁유일하게	-10.1572
▁폭풍	-10.1574
▁웃으면서	-10.1575
오늘	-10.158
하군	-10.1582
▁감독을	-10.1583
▁이럴	-10.1586
▁아쉬움이	-10.1587
▁안봐도	-10.1587
▁배경음악	-10.1591
게하는	-10.1592
배우들의	-10.1598
▁뱀파이어	-10.1599
▁떨어지	-10.1603
▁땜에	-10.1606
둥	-10.1608
▁잤다	-10.1608
하실	-10.1609
영화인데	-10.1615
으로써	-10.162
▁개인	-10.1624
▁막판에	-10.1625
▁궁	-10.1627
▁봐야지	-10.163
▁놀랍	-10.1635
▁못보겠다	-10.1636
▁유치해	-10.164
적은	-10.1644
▁추리	-10.1644
▁남자주인공	-10.1645
▁좋을듯	-10.1647
▁다가	-10.1648
▁명작을	-10.1653
▁봤을때	-10.1653
▁이상해	-10.1656
▁했음	-10.1659
줬다	-10.166
당한	-10.1668
▁볼수있	-10.1669
▁나네요	-10.1672
▁봐야하는	-10.1676
다는게	-10.1678
영화라	-10.1683
▁오락영화	-10.1684
널	-10.1688
멋	-10.169
생활	-10.169
▁평점보고	-10.169
붕	-10.169
워서	-10.1691
▁개성	-10.1692
▁허무한	-10.1702
▁로버트	-10.1702
▁짧	-10.1704
▁없냐	-10.1706
▁케이블	-10.1707
었고	-10.1708
▁적당히	-10.171
▁ᄌ	-10.1712
▁포스터가	-10.1715
▁별로고	-10.172
▁재밌었던	-10.1724
▁원작에	-10.1724
하다가	-10.1724
▁생각으로	-10.1725
▁특	-10.1726
▁설득력	-10.1731
▁몽	-10.1733
▁레이	-10.1734
▁언니	-10.1735
사를	-10.1739
씬이	-10.1742
티비	-10.1743
▁민망	-10.1744
▁떨어짐	-10.1746
아빠	-10.1752
굳	-10.1758
도안	-10.1759
었어	-10.1764
두고	-10.177
▁그만큼	-10.1775
▁소설을	-10.1776
▁알겠다	-10.1778
▁아깝네	-10.1779
▁개연성도	-10.1779
▁내게	-10.178
▁되네요	-10.1782
▁존경	-10.1784
▁안에	-10.1785
있을	-10.1786
▁흐르는	-10.1788
▁러	-10.1789
▁심심	-10.1796
▁뭐니	-10.1797
▁어디에	-10.1801
▁치고	-10.1804
▁인생에	-10.1806
아가	-10.1812
▁마지막장면	-10.1815
맞는	-10.1818
굴	-10.1819
즐	-10.1821
헐	-10.1822
▁울컥	-10.1824
▁년작	-10.1825
쩜	-10.1826
▁인상적이	-10.1828
벼	-10.183
턴	-10.1835
▁빠지	-10.1838
▁본게	-10.1838
▁그야말로	-10.184
▁알겠는데	-10.184
할뿐	-10.1846
▁절정	-10.1854
▁최고로	-10.1859
▁어이없	-10.186
▁크리스	-10.1861
▁집중이	-10.1862
▁영화들	-10.1864
▁살면서	-10.1866
▁아우	-10.1866
▁알았네	-10.1872
▁생겼	-10.1875
거면	-10.1883
▁멋지고	-10.1886
랬	-10.1887
▁형제	-10.1888
영화에	-10.1891
▁귀여움	-10.1891
▁나랑	-10.1892
아까움	-10.1898
였나	-10.1903
▁우려먹	-10.191
▁폭발	-10.191
▁주인공은	-10.1915
있지	-10.1916
▁명장면	-10.1919
▁어른이	-10.192
▁난리	-10.1927
▁좋네	-10.1932
▁재밋음	-10.1932
▁많은데	-10.1933
▁머리가	-10.1935
▁빌	-10.1938
▁마음으로	-10.1939
▁앤	-10.1941
▁부모님	-10.1942
듯이	-10.1943
▁님	-10.1946
▁발상	-10.1951
닿	-10.1952
▁희망을	-10.1952
▁마지막이	-10.1955
혈	-10.1955
▁꼭보세요	-10.1957
불쌍	-10.1958
코믹	-10.1958
▁몇몇	-10.1964
있네요	-10.1966
▁은근히	-10.1966
▁언제봐도	-10.197
▁영화라니	-10.197
버렸	-10.1971
▁볼때	-10.1973
▁람	-10.1973
▁이야기는	-10.1978
▁황당한	-10.198
▁개노잼	-10.1981
▁울면서	-10.1981
▁최고봉	-10.1984
▁관점	-10.1988
▁불러	-10.1988
▁로코	-10.1992
▁살리	-10.1993
▁않아서	-10.1998
마음	-10.2
내고	-10.2011
감동적	-10.2012
▁다행이다	-10.2015
▁래	-10.2015
▁이해를	-10.2016
영화입니다	-10.2018
▁때려	-10.2019
없나	-10.2022
받은	-10.2024
▁생긴	-10.2029
▁이뻐서	-10.2033
오브	-10.2034
▁없게	-10.2038
▁영화라는	-10.204
▁검	-10.2047
었네	-10.2054
▁돈아까워	-10.2059
▁그건	-10.2063
▁이보다	-10.2078
나온다	-10.208
▁지루하기	-10.208
하는것	-10.2091
▁깜짝	-10.2091
분위기	-10.2093
▁본건데	-10.2094
▁착	-10.2095
긋	-10.2095
닉	-10.2095
욤	-10.2095
▁내생애	-10.2095
▁짜집기	-10.2095
▁거기에	-10.2095
▁희대의	-10.2095
엄청	-10.2096
▁허술한	-10.2097
▁옥	-10.2098
▁작품입니다	-10.21
남는	-10.2101
▁재미없을	-10.2104
갈수록	-10.2106
▁공감할	-10.2115
▁하아	-10.2117
만하다	-10.2119
▁인물들	-10.2121
▁문제가	-10.2124
▁애기	-10.2126
▁전개도	-10.213
▁말자	-10.2131
▁적당한	-10.2131
▁씹	-10.2134
▁호구	-10.2135
▁사운드	-10.2142
▁찾는	-10.2142
▁우뢰매	-10.215
▁보던	-10.2152
▁정도가	-10.2153
▁휘	-10.2153
▁그것도	-10.2154
과는	-10.2158
▁사상	-10.216
▁헛	-10.2166
▁열받	-10.2169
▁빛을	-10.2176
신이	-10.2177
▁폐	-10.218
재미도	-10.2184
연기는	-10.2186
▁다시보니	-10.2192
있으면	-10.2195
▁우연	-10.2197
▁데리고	-10.2197
▁바다	-10.2204
▁으리	-10.2204
어진	-10.2215
느껴	-10.2216
바라	-10.2219
▁받은	-10.2221
▁아이들과	-10.2223
이러	-10.2226
▁만들어라	-10.2227
▁아니라고	-10.2227
썼	-10.2228
랭	-10.223
▁아놀드	-10.223
콜	-10.2231
▁스포츠	-10.2231
쳤다	-10.2232
라지만	-10.2232
솔직히	-10.2233
▁대중	-10.2235
▁찍는	-10.2236
▁근래	-10.2236
▁판단	-10.2242
▁거품	-10.2242
▁소재도	-10.2243
▁만들었을까	-10.2245
▁센스	-10.2246
▁초딩때	-10.2246
▁거장	-10.2247
자를	-10.2247
▁말하고자	-10.2249
언제	-10.225
▁잔잔하게	-10.225
▁보려	-10.2253
미가	-10.2263
▁높아서	-10.2264
는거야	-10.2268
▁썼	-10.2274
▁이름이	-10.2276
▁매일	-10.2276
▁적어도	-10.2278
▁장난치	-10.2282
▁섬	-10.2284
▁잔인	-10.2286
▁유치해서	-10.2286
▁인형	-10.2289
▁첫사랑	-10.2292
되었	-10.2293
▁아름답	-10.2304
▁할아버지	-10.2305
▁시간에	-10.2306
▁욕심	-10.231
▁흘리	-10.231
▁이런류	-10.2316
▁영화예요	-10.2316
▁반대	-10.2318
당시	-10.2319
▁괜찮고	-10.232
▁주제를	-10.2325
▁즐기	-10.2327
▁영화인가	-10.2334
냐고	-10.2347
캐	-10.2349
▁매니아	-10.2355
조아	-10.2355
▁링	-10.2357
▁미쳤	-10.2357
▁잘만들었다	-10.2359
▁ᄒᄒᄒᄒ	-10.2363
택	-10.2366
주기도	-10.2367
뮤	-10.2367
▁깊게	-10.2367
덩어리	-10.2367
▁이소룡	-10.2367
▁역겨운	-10.2368
▁갖	-10.2368
▁케빈	-10.2369
으려	-10.2369
지요	-10.2372
춤	-10.2373
▁믿고보는	-10.2376
었네요	-10.2377
읽	-10.2377
▁동양	-10.2379
극장	-10.2379
▁대놓고	-10.2386
장르	-10.2392
제대로	-10.2393
긴다	-10.2395
▁빨갱이	-10.2396
▁재개봉	-10.2399
동생	-10.2399
▁년도에	-10.24
배우들이	-10.2401
려다가	-10.2401
▁축구	-10.2405
▁잘한다	-10.2405
▁기대이하	-10.241
▁결론은	-10.2418
▁늘어	-10.2418
▁유덕화	-10.2419
▁평균	-10.242
에대해	-10.2426
이유	-10.2427
▁영화화	-10.2433
표정	-10.2433
▁후에	-10.2434
차이	-10.2435
개그	-10.2442
▁응원	-10.2444
▁좋지	-10.2446
▁만들었나	-10.2453
높은	-10.2453
었을까	-10.2472
▁아무도	-10.2475
하니까	-10.2479
아무	-10.248
▁망쳐	-10.2483
▁잘하는	-10.2484
부터가	-10.2496
▁오랜만	-10.2496
했다고	-10.2497
▁기독교	-10.2502
▁삶이	-10.2504
▁벤	-10.2505
컬	-10.2506
빗	-10.2506
▁해리포터	-10.2507
▁여러번	-10.2509
▁말아야	-10.2509
지나	-10.251
▁남기	-10.2511
▁줍니다	-10.2513
▁설정이	-10.2513
맥	-10.2514
▁속았다	-10.2515
하던데	-10.2518
관객	-10.2519
극장에서	-10.2521
▁결과	-10.2524
▁세상이	-10.2525
어이없	-10.2526
▁치유	-10.2529
▁꽤나	-10.253
▁결말을	-10.2534
나오고	-10.2535
▁상처	-10.2536
▁괜찮네요	-10.254
▁여자주인공	-10.2542
▁마지막까지	-10.2542
같아	-10.2549
해야지	-10.2549
겼	-10.255
▁검색	-10.255
뻔한	-10.2553
▁없나요	-10.2555
또한	-10.256
▁잔잔하면서	-10.256
▁자체는	-10.2561
▁토리	-10.2566
능력	-10.2567
▁정신병자	-10.2568
▁한번더	-10.257
▁일이	-10.257
했을까	-10.2572
▁늦	-10.2572
▁갓	-10.2577
▁느껴	-10.2585
▁듣	-10.2591
었는지	-10.2591
▁재난	-10.2595
▁빼곤	-10.2595
▁편에	-10.2599
이예요	-10.26
지도않	-10.2602
스토리도	-10.2604
▁따름	-10.2606
▁들이	-10.261
▁재미있을	-10.2611
버스	-10.2621
▁아프다	-10.2624
▁해결	-10.2627
쾌	-10.263
▁짜증나고	-10.2636
▁톰	-10.2637
▁못보	-10.264
▁재미있는데	-10.2641
▁무너	-10.2644
▁신고	-10.2646
ᅩ	-10.2646
숭	-10.2647
팍	-10.2647
눌	-10.2647
▁화장실	-10.2647
▁플롯	-10.2647
▁이도저도	-10.2647
분이	-10.2648
▁현실적이	-10.2649
▁나레이션	-10.265
만큼이나	-10.2652
▁당연히	-10.2652
흑	-10.2655
▁괜찮았는데	-10.2658
▁부실	-10.2659
▁사라지	-10.2661
▁다시보고	-10.2661
캐스팅	-10.2661
▁재미있었음	-10.2662
웨	-10.2662
그럼	-10.2669
하기에	-10.2671
느끼	-10.2679
이래	-10.268
끼리	-10.2682
▁놓고	-10.2693
▁따뜻해	-10.2694
▁매력에	-10.2701
▁충	-10.2702
▁이상은	-10.2704
이후	-10.2708
▁곧	-10.2709
▁점주	-10.2714
뭐냐	-10.2715
▁프랑스영화	-10.2717
몰입	-10.2721
▁답답하다	-10.2729
기전에	-10.2735
▁부탁	-10.2737
뭔	-10.2739
▁포스터에	-10.274
▁이름을	-10.274
▁진한	-10.2743
▁싶었다	-10.2743
▁떼	-10.2745
▁액션과	-10.2745
안되는	-10.2745
▁슬픈영화	-10.2746
▁식상	-10.2747
톤	-10.2751
자신을	-10.2751
▁기적	-10.2761
▁가득한	-10.2764
▁예쁘	-10.2772
▁히어로	-10.2773
▁생각해보게	-10.2775
배우가	-10.2778
▁국가	-10.2778
ᅮᅲ	-10.2779
흘	-10.2779
▁갔다	-10.2784
ᄇ	-10.2789
룩	-10.279
▁걱정	-10.279
▁실험	-10.2791
▁쭉	-10.2799
평가	-10.28
▁등등	-10.28
그만	-10.28
▁배우도	-10.2801
▁짜리	-10.2802
▁왔	-10.2804
▁볼만합니다	-10.2807
▁아니었다	-10.2808
시나리오	-10.2808
▁끝에	-10.2808
꿈	-10.2809
털	-10.281
▁오브	-10.2812
▁오랫만에	-10.2812
▁케릭터	-10.2824
▁깔끔한	-10.2825
▁어설프다	-10.2825
재미있어요	-10.2828
▁터미네이터	-10.2828
▁감동적이네요	-10.2832
▁스릴도	-10.2839
되네요	-10.2839
애들이	-10.284
▁빛나는	-10.284
▁부작	-10.2844
▁괜찮게	-10.2846
▁나을듯	-10.2848
▁목적	-10.2852
임에도	-10.2857
▁내용과	-10.2857
▁돼지	-10.2862
▁돈내고	-10.2863
▁끔	-10.2864
▁절로	-10.2866
▁보시면	-10.2868
▁침	-10.287
▁밋밋	-10.2873
▁들었	-10.2873
▁장진	-10.2874
▁봤어	-10.2875
▁없으면	-10.2879
▁한국영화의	-10.2885
▁줬	-10.2885
▁내일	-10.2888
▁책을	-10.2889
트리	-10.2895
▁웃기는	-10.29
텔	-10.2901
▁보러	-10.2902
므	-10.2904
▁여자의	-10.2918
▁빅	-10.2919
▁다운받아	-10.2931
내용은	-10.2933
못하는	-10.2934
▁웰메이드	-10.2935
▁명불허전	-10.2935
▁하정우	-10.2935
▁심지어	-10.2936
▁닥치고	-10.2936
▁아무런	-10.2938
▁기다리	-10.2938
▁앞뒤	-10.2938
▁부부	-10.2941
였지	-10.2943
▁낫겠다	-10.2947
편은	-10.2947
▁과정	-10.2947
장면은	-10.2948
▁담은	-10.2949
▁생활	-10.2951
졸작	-10.2953
▁알았음	-10.2955
쏘	-10.2956
▁의지	-10.2957
롤	-10.2957
찡	-10.2957
앤	-10.2958
포인트	-10.296
▁연출은	-10.2961
▁하지원	-10.2966
▁나음	-10.2968
▁편을	-10.2969
▁녹	-10.2969
▁내용에	-10.2973
▁얼굴이	-10.2974
주면	-10.2974
▁어색하고	-10.2979
▁망할	-10.2981
▁점수는	-10.2981
▁인상적인	-10.2985
사건	-10.2993
기에는	-10.2994
▁만드	-10.2995
▁인생은	-10.2995
▁이해할수	-10.2999
험	-10.3005
보다도	-10.3006
▁다루	-10.3012
▁유발	-10.3014
▁잊을수	-10.3019
▁이것보다	-10.3021
▁대단하	-10.3023
▁안볼	-10.3024
스러웠	-10.3025
▁보는거	-10.3027
▁본듯	-10.3028
나가는	-10.3034
▁놈들	-10.3035
우는	-10.3035
어용	-10.3036
▁신선함	-10.3041
▁맞나	-10.3042
▁꿀	-10.3045
▁무섭고	-10.3048
▁김치	-10.3048
너무너무	-10.3049
댄	-10.3056
▁가족이	-10.3056
▁쓰고	-10.3058
▁아니잖아	-10.3063
들에	-10.3064
고싶어	-10.3066
녀석	-10.3067
▁울었	-10.3067
엇는데	-10.3071
▁아역	-10.3079
납	-10.308
▁배트맨	-10.3082
▁정신없	-10.3083
▁향연	-10.3084
할것	-10.3086
▁그림체	-10.3087
▁인도	-10.3087
▁예술영화	-10.3089
▁마시길	-10.3091
▁조낸	-10.3092
▁모욕	-10.3094
하지말고	-10.3094
▁족	-10.3094
▁널	-10.3094
▁소중함을	-10.31
▁묻어	-10.3104
육	-10.3105
▁무언가	-10.3106
▁여전	-10.3106
▁엉망이	-10.3107
▁가져	-10.3107
▁독일	-10.3107
탑	-10.3109
쩝	-10.3109
재미있다	-10.3112
▁서울	-10.3117
▁이상하고	-10.3117
▁베드신	-10.3117
거에요	-10.3118
▁생각했는데	-10.3118
▁누나	-10.312
▁대통령	-10.3121
▁브루스	-10.3121
나왔	-10.3122
▁봤다면	-10.3123
한편	-10.3129
▁어디가	-10.3132
▁쩌는	-10.3133
▁양아치	-10.3134
▁됩니다	-10.3135
▁사랑스럽다	-10.3136
이딴	-10.3138
머니	-10.3142
발연기	-10.3143
힘들	-10.3145
▁한개도	-10.3149
쳐서	-10.315
▁가족의	-10.3153
▁않은데	-10.3155
▁쩔어	-10.3156
싫어	-10.3158
것처럼	-10.3158
▁받고	-10.3161
▁결론	-10.3163
▁ᄒᄃᄃ	-10.3166
쓰고	-10.3166
▁완	-10.3182
▁생에	-10.3184
▁누군가	-10.3184
스크	-10.3184
▁가고	-10.3189
그렇	-10.3194
▁샘	-10.3196
▁뒤에	-10.3198
▁생각할	-10.32
▁확인	-10.3201
▁뛰	-10.3203
▁포인트	-10.3205
재밋다	-10.3207
▁말고는	-10.321
▁틀어	-10.3212
하고싶다	-10.3212
비가	-10.3214
메이	-10.322
▁네티즌	-10.3231
▁호기심	-10.3231
▁놀랐다	-10.3232
▁도무지	-10.3235
▁수록	-10.3235
▁안될	-10.3236
▁김정	-10.3237
▁일부러	-10.3239
▁재미있었습니다	-10.324
▁니다	-10.3241
도좋고	-10.3243
▁않았던	-10.3245
▁괜찮았음	-10.3245
▁이것보단	-10.3245
▁있었으면	-10.3246
는건가	-10.3247
▁미안하다	-10.3248
▁때리	-10.325
▁이토록	-10.3254
▁자아	-10.3254
▁매력적이	-10.3255
▁한다는	-10.3255
▁로망	-10.3256
▁보단	-10.3257
출연	-10.3261
▁장면도	-10.3265
▁순수하고	-10.3266
▁승리	-10.327
▁정작	-10.3274
▁안보는게	-10.3275
목소리	-10.3281
부러	-10.3283
야할	-10.3285
▁상관없	-10.3285
▁올려	-10.3287
에서의	-10.3289
▁태어나서	-10.3292
▁임창정	-10.3296
이더	-10.33
▁먹는	-10.3301
▁달려	-10.3302
어여	-10.3304
▁잤	-10.3305
▁상대	-10.3307
지네	-10.3309
지마세요	-10.3316
▁귀여웠	-10.3318
▁여자는	-10.3318
인들	-10.3318
▁웃었다	-10.3321
지루해	-10.3325
▁봤을	-10.3331
▁볼만하	-10.3339
▁믿기지	-10.334
▁가정	-10.3348
찾아	-10.3351
▁안나온다	-10.3352
해야할	-10.3354
▁생기	-10.336
아이들	-10.3361
▁실수	-10.3372
▁최소	-10.3372
도대체	-10.3373
그러나	-10.3374
긴하지만	-10.3374
낭	-10.3375
흡	-10.3376
▁사랑한다	-10.3376
▁최악의영화	-10.3378
▁느낌이다	-10.338
ᄎ	-10.3382
뚝	-10.3383
▁이병헌	-10.3383
▁비호감	-10.3383
겠어	-10.3383
뿐이다	-10.3384
▁민폐	-10.3386
▁만화책	-10.3388
▁무겁	-10.3388
▁전반적으로	-10.3388
▁느리	-10.3388
▁좋겠습니다	-10.3389
▁자신이	-10.3393
한다고	-10.3394
▁따위	-10.3395
▁충분하다	-10.3396
믿	-10.3396
▁억지감동	-10.3399
내내	-10.3399
하겠습니다	-10.3399
▁아프	-10.34
주연	-10.3404
▁보았는데	-10.3405
▁귀여워요	-10.3408
잖아요	-10.3409
▁짐	-10.3409
▁개도	-10.3411
▁사람도	-10.3412
▁박수	-10.3413
▁본지	-10.3413
둔	-10.3416
▁스토리전개	-10.3419
▁블	-10.3421
▁한국판	-10.3423
줄알았다	-10.3426
미국	-10.3426
없네요	-10.3427
▁살다살다	-10.3432
▁와닿	-10.3432
드립	-10.3434
행복	-10.3437
▁아깝네요	-10.344
▁사투리	-10.3445
▁전편보다	-10.3447
▁냉	-10.3452
였네요	-10.3453
▁여주인공이	-10.3453
▁땅	-10.3453
▁친구가	-10.3457
▁바뀌	-10.346
▁탓	-10.3462
▁약간의	-10.3464
▁겨울	-10.3466
수밖에	-10.3474
로드	-10.3476
스토	-10.3481
▁아무튼	-10.3483
물을	-10.3486
년대	-10.3487
▁가수	-10.3487
▁어디로	-10.3488
▁팀	-10.3488
▁뛰어나	-10.3488
▁갖다	-10.3489
겁	-10.3491
맘	-10.3494
▁어렵	-10.3506
최고다	-10.3507
▁예능	-10.351
▁비현실적	-10.351
▁점정도	-10.3513
▁밌	-10.3513
▁음식	-10.3516
틱	-10.3517
잖	-10.3517
▁오글오글	-10.3518
▁힘을	-10.352
나보다	-10.3527
나름	-10.3529
라곤	-10.3533
▁남성	-10.3536
ᄁ	-10.3537
▁스티븐	-10.3537
▁홍상수	-10.3537
▁좋았을텐데	-10.3539
▁절망	-10.3542
▁제작비가	-10.3542
든지	-10.3543
▁엄마가	-10.3544
▁포스터만	-10.3548
▁반전에	-10.355
우스	-10.3552
▁끝났	-10.3553
▁무엇인가	-10.3554
▁멋져요	-10.3554
▁한심하다	-10.3555
▁생명	-10.3556
▁만들어낸	-10.3557
▁드림	-10.3557
▁어거지	-10.3559
햇는데	-10.356
낫다	-10.3561
임을	-10.3563
ᄏᄏᄏᄏᄏᄏ	-10.3567
▁이만한	-10.3568
▁좋앗	-10.3571
보긴	-10.3571
못해	-10.3575
▁잠이	-10.3577
▁짐캐리	-10.3582
▁도데체	-10.3586
▁느껴졌다	-10.3587
초반	-10.359
함은	-10.3594
허무	-10.3595
▁이거보단	-10.3599
▁시나리오가	-10.3606
가며	-10.361
▁탈출	-10.3615
지루하다	-10.3621
이었어요	-10.3624
▁오빠	-10.3626
▁멋짐	-10.3629
아야	-10.3629
▁열라	-10.3629
▁무서움	-10.3634
게임	-10.364
▁간지	-10.3641
는줄	-10.3645
데이	-10.3648
▁슬프	-10.365
▁같았다	-10.3652
▁액션을	-10.3652
▁이거보다	-10.3653
▁에효	-10.3654
▁하다가	-10.3655
▁무엇	-10.3659
▁데이	-10.3664
▁살리지	-10.367
▁답답함	-10.367
▁곰	-10.3674
스를	-10.3678
르고	-10.3678
할수가	-10.3679
▁따라가	-10.368
▁실망이	-10.3681
▁파리	-10.3682
▁역사를	-10.3684
▁마지막엔	-10.3686
▁뭐하자는	-10.3691
이랄까	-10.3692
퀴	-10.3692
▁쏟아	-10.3693
▁가까운	-10.3693
▁드디어	-10.3693
▁리얼리티	-10.3693
드려요	-10.3693
아쉽	-10.3694
▁예측	-10.3694
▁보게된	-10.3698
▁말그대로	-10.3698
로만	-10.3698
▁여주가	-10.3699
▁천국	-10.3701
드러	-10.3701
▁굴	-10.3703
▁진지하게	-10.3705
▁개콘	-10.3707
▁불쌍해	-10.3707
것같네요	-10.3712
▁감안	-10.3714
▁풋풋한	-10.3715
란다	-10.3717
▁뭐임	-10.3719
랜드	-10.3719
▁가히	-10.3721
▁혹시나	-10.3722
▁감각	-10.3725
이었는데	-10.3725
▁늦게	-10.3726
▁교훈도	-10.3727
만듬	-10.3729
▁깎	-10.3729
▁표현할	-10.3729
후에	-10.3731
꺼야	-10.3739
▁버려	-10.3742
주제	-10.3743
▁거지같은	-10.3744
▁이해불가	-10.3745
▁않았	-10.3748
같아요	-10.3749
▁끝나서	-10.3751
▁느껴지	-10.3751
▁말밖에	-10.3752
▁러닝타임	-10.3757
▁맞춰	-10.3757
▁내돈	-10.376
▁여신	-10.3762
뻔했다	-10.3762
▁보겠다	-10.3763
▁벗어나	-10.3767
느냐	-10.3776
나도	-10.3776
▁상어	-10.3777
념	-10.3779
▁혹시	-10.3781
▁시간은	-10.3786
조연	-10.3786
▁잼있는	-10.3787
▁파괴	-10.3789
▁짜증나게	-10.379
▁책으로	-10.3792
▁소재와	-10.3803
보시	-10.3804
▁재미있었	-10.3805
지않았	-10.3805
려다	-10.3807
소녀	-10.3807
▁캐리	-10.3811
▁만화영화	-10.3815
▁시시	-10.3816
▁석	-10.3818
오래	-10.3819
무시	-10.3821
▁미스	-10.3825
리아	-10.3827
같고	-10.3828
▁읽고	-10.3833
엠	-10.3834
▁부끄럽	-10.3837
▁안나오는	-10.3839
드만	-10.3841
렵	-10.3843
▁챙겨	-10.3844
바로	-10.3844
못하고	-10.3845
▁것인가	-10.3845
▁의도가	-10.385
재미없어	-10.385
▁아무생각없이	-10.3852
됫	-10.3852
▁깡패	-10.3852
▁니콜	-10.3853
▁한방	-10.3854
▁기획	-10.3854
▁역량	-10.3855
▁감동적이에요	-10.3856
▁진짜로	-10.3859
인물	-10.386
▁은근	-10.3861
▁대신	-10.3861
▁공짜로	-10.3864
▁기대한	-10.3864
▁거리	-10.3864
▁실감	-10.3871
▁겪	-10.3872
▁참나	-10.3878
▁강추합니다	-10.3886
▁정신이	-10.3888
▁원조	-10.3894
는거지	-10.3895
▁모르겠네요	-10.3898
▁첨이다	-10.3898
▁망했	-10.3899
▁수많은	-10.3899
▁되야	-10.39
팀	-10.3902
떼	-10.3902
보구	-10.3903
▁알겠	-10.3903
뭘	-10.3904
▁왜곡	-10.3905
보시길	-10.3906
▁이쁨	-10.3908
▁방해	-10.3909
▁웃는	-10.3913
▁시대에	-10.3914
▁갠적으로	-10.3916
▁색감	-10.3917
▁부분도	-10.3923
▁무섭게	-10.3924
져요	-10.3928
놈이	-10.3931
것같은데	-10.3933
▁당신이	-10.3936
▁단점	-10.394
봣어요	-10.3942
▁빵빵	-10.3943
▁어이없다	-10.3945
이든	-10.3946
▁심한	-10.3948
▁사람들에게	-10.3949
엑	-10.3949
하는건지	-10.3951
아라	-10.3952
▁것들	-10.3952
▁찾아서	-10.3954
▁웃겼	-10.3956
알아	-10.3959
▁넘넘	-10.3959
ᄃᄃᄃ	-10.396
주지	-10.3968
▁충분한	-10.3968
▁알수있	-10.3969
리오	-10.397
지루하고	-10.3973
▁빠졌	-10.3975
소름	-10.3976
미친	-10.3979
보셈	-10.3993
▁나와야	-10.3995
▁여배우들	-10.4
▁멋져	-10.4004
▁슬퍼	-10.4005
▁것에	-10.4007
안나오	-10.401
닫	-10.4012
▁즐거움	-10.4013
밧	-10.4013
셧	-10.4013
▁그려낸	-10.4015
▁제목을	-10.4017
▁엄청나게	-10.4019
더군	-10.4019
▁같고	-10.4022
▁남는게	-10.4023
▁적절한	-10.4029
▁왔습니다	-10.403
▁담긴	-10.4031
▁잘못된	-10.4034
스러워	-10.4034
▁이딴영화	-10.4039
▁스포	-10.4041
▁단편	-10.4049
▁충격적인	-10.4051
▁쓸데없이	-10.4051
까봐	-10.4053
▁홀	-10.4054
▁돌리	-10.4058
좋네요	-10.4061
몇	-10.4063
▁별하나	-10.4066
지지	-10.4067
▁쉽지	-10.4069
학생	-10.4072
광고	-10.4074
▁학	-10.408
못한	-10.408
뭐야	-10.4082
▁땡	-10.4082
▁배우는	-10.4083
▁그리워	-10.4089
▁좋더라	-10.4092
▁다르게	-10.4096
▁힘들었	-10.4096
▁소장하고	-10.4098
이긴	-10.4099
▁끔찍	-10.41
비추	-10.4101
▁준비	-10.4104
▁그렇지만	-10.4107
볼수	-10.411
▁관련	-10.4111
▁전쟁의	-10.4112
▁멋있고	-10.4113
▁보지마셈	-10.4114
▁뻔하다	-10.4115
▁모든것이	-10.4115
▁가능한	-10.4118
▁짝이	-10.4125
있는영화	-10.4126
▁시대의	-10.4128
자들의	-10.4131
▁생각도	-10.4131
▁솔직	-10.4132
있냐	-10.4132
▁클	-10.4137
잡고	-10.4138
▁인생이	-10.4144
▁러브	-10.4146
▁피해	-10.4152
▁사고	-10.4157
▁볼것	-10.4162
제로	-10.4163
▁부족함	-10.4166
▁기대하지	-10.4169
▁장점	-10.4171
심이	-10.4176
핀	-10.4177
▁잊고	-10.4177
▁섬뜩	-10.4177
▁킬링	-10.4177
▁감명깊게	-10.4177
▁스타뎀	-10.4177
▁언젠가	-10.4177
▁괜찬	-10.4178
▁그지	-10.4179
▁조카	-10.4179
▁잠을	-10.4181
이영화	-10.4181
▁고뇌	-10.4183
▁화나	-10.4183
▁극복	-10.4183
▁태국	-10.4184
▁창피	-10.4185
아까운	-10.4188
을수	-10.4192
▁싶습니다	-10.4195
봐야지	-10.4196
당시엔	-10.4196
에비해	-10.4197
▁숙	-10.4198
까요	-10.4201
▁산만하고	-10.4202
▁만드네	-10.4208
▁앞에	-10.4208
▁타란티노	-10.4211
▁실망이다	-10.4213
드립니다	-10.4215
▁타고	-10.4218
인게	-10.4218
▁여인	-10.4218
였을	-10.4219
▁잘만들	-10.4221
들이나	-10.4234
몸	-10.4235
▁살렸다	-10.4237
빼곤	-10.4239
▁없는게	-10.4247
▁심하다	-10.4249
지말자	-10.425
▁분들이	-10.4251
있던	-10.4252
부분이	-10.4255
전혀	-10.426
▁아쉬워요	-10.4262
▁손가락	-10.4268
▁강력	-10.4269
▁슬	-10.4279
▁밤에	-10.428
▁잔혹	-10.4281
께요	-10.4282
▁별로였다	-10.4285
▁됬	-10.4286
▁안본	-10.4288
▁욕먹	-10.4289
▁신의	-10.429
▁전설이	-10.429
▁전투	-10.4295
쓰는	-10.4299
▁막판	-10.4301
▁만들다	-10.4305
▁영상미가	-10.4306
장에서	-10.4307
해주고	-10.4313
▁장난아니	-10.4316
▁들게	-10.4317
▁세번	-10.4322
다큐	-10.4327
빌	-10.4327
▁보기가	-10.4327
야겠다	-10.4328
닮	-10.4332
▁멋진영화	-10.4336
밋	-10.4338
▁건가	-10.4339
▁주지	-10.4339
멸	-10.4339
▁그것이	-10.434
쿵	-10.4341
였구나	-10.4342
▁점대가	-10.4342
렀	-10.4343
▁칭찬	-10.4344
▁ᄌᄂ	-10.4345
▁블랙코미디	-10.4345
▁싶다면	-10.4346
놀이	-10.4346
▁쩔	-10.4346
신고	-10.4347
립니다	-10.4349
지않아	-10.4351
▁울었어요	-10.4353
러운	-10.4353
▁불쌍하	-10.4359
합시다	-10.4361
▁벨	-10.4363
▁어느정도	-10.4367
▁찾기	-10.4369
▁보는것	-10.437
▁인공	-10.4371
▁묘한	-10.4373
▁말인가	-10.4377
▁할리우드	-10.4378
하하하하	-10.4379
그렇게	-10.438
▁모르겠네	-10.4382
▁찍고	-10.4382
▁현실감	-10.4385
▁최고네요	-10.4386
▁사실을	-10.4386
▁있었음	-10.4386
▁행복하게	-10.4389
▁자동차	-10.4393
놈들은	-10.4396
특	-10.4397
▁시청자	-10.4397
탁	-10.44
▁광구	-10.4402
씨는	-10.4405
▁환상적인	-10.4406
▁하하	-10.4409
▁있다고	-10.441
▁낚인	-10.441
▁뻔하	-10.4412
▁소화	-10.4415
▁보이지	-10.4416
병맛	-10.4419
제일	-10.4419
▁하기	-10.4419
▁낮네요	-10.4421
▁버린	-10.4424
▁느껴지지	-10.4425
▁폐지	-10.4428
▁ᅲᅮ	-10.443
▁박진감	-10.4437
▁역겹다	-10.4439
▁분만에	-10.4442
있지만	-10.4443
▁명작은	-10.4446
면에서	-10.4446
▁아들이	-10.4447
▁어이없음	-10.4447
이후로	-10.4452
▁사람이라면	-10.4453
▁형편없는	-10.4454
▁싸우	-10.4458
▁최대	-10.4459
▁당연	-10.4475
▁기대가	-10.4476
▁즐겨	-10.4476
구먼	-10.4477
▁쿨	-10.4483
▁한국의	-10.4483
▁스크린	-10.4491
▁보라고	-10.4492
어가는	-10.4494
▁될수	-10.4494
이니까	-10.4495
▁그것을	-10.4496
▁칠	-10.4504
▁만났	-10.4504
영화보다	-10.4504
터짐	-10.4505
▁스토리의	-10.4505
싫다	-10.4507
낀	-10.4508
뜸	-10.4513
혔	-10.4513
▁스타워즈	-10.4513
▁점수준것들	-10.4513
렛	-10.4513
▁정우성	-10.4513
▁미스캐스팅	-10.4513
옵니다	-10.4514
▁무거운	-10.4515
▁장난하냐	-10.4518
하고싶	-10.452
▁요새	-10.4524
▁정도는	-10.4525
▁하길래	-10.4525
▁명연기	-10.4527
라는게	-10.453
▁에라이	-10.4531
▁났	-10.4532
검	-10.4532
줘야지	-10.4532
▁모양	-10.4532
▁읽는	-10.454
▁심각	-10.4547
▁현실과	-10.4547
▁오래전에	-10.4547
답게	-10.4548
▁말투	-10.455
▁최고에요	-10.455
빠진	-10.4552
▁친구랑	-10.4556
▁필요한가	-10.4556
▁뭣	-10.4559
▁공간	-10.4563
▁깝	-10.4565
였다면	-10.4567
▁새끼	-10.457
▁어울리지	-10.457
ᄏᄏᄏᄏᄏᄏᄏ	-10.4574
흥	-10.4575
에게는	-10.4575
▁좋아하지만	-10.4577
하하	-10.4577
▁못하겠다	-10.4579
▁누군지	-10.4581
▁라이언	-10.4582
헌	-10.4583
할수있는	-10.4585
▁잠들	-10.4589
었구나	-10.4589
예술	-10.4592
짱짱	-10.4595
만은	-10.4595
▁선정	-10.4598
▁만점에	-10.4598
오랜만에	-10.4599
▁프	-10.4602
▁이드라마	-10.4602
▁좋다고	-10.4603
▁세월이	-10.4604
▁감동받	-10.4607
라스	-10.4607
▁죽고	-10.4618
렬	-10.4624
박한	-10.4628
▁미소가	-10.4631
▁년만에	-10.4631
멜	-10.4632
수는	-10.4639
영화도	-10.4645
여배우	-10.4645
▁드네요	-10.4651
▁잡아	-10.4654
▁범	-10.4654
아니면	-10.4656
▁날아	-10.4658
것보다	-10.4659
부분은	-10.4664
신분	-10.4666
▁주연배우	-10.4667
▁탐	-10.4668
▁감동입니다	-10.4669
러스	-10.4672
▁넘치	-10.4672
혹은	-10.4674
▁배경이	-10.4676
스토리가	-10.4676
▁않아요	-10.4677
▁액션신	-10.4681
하지마	-10.4682
찐	-10.4684
▁디카프리오	-10.4685
▁아마추어	-10.4685
▁명복을	-10.4685
▁혐오	-10.4686
사의	-10.4686
▁스파이	-10.4686
▁키스	-10.4686
밖엔	-10.4687
▁잃은	-10.4688
▁부활	-10.4688
▁동영상	-10.4691
▁후속편	-10.4692
▁과학	-10.4694
▁심장	-10.4695
▁마약	-10.4699
▁감독과	-10.47
자마자	-10.4701
▁아만다	-10.4702
▁첨부터	-10.4703
보소	-10.4704
▁개꿀잼	-10.4704
▁시키	-10.4704
▁살인마	-10.4705
올라	-10.4707
▁서양	-10.4709
▁이하도	-10.4712
▁탄탄하고	-10.4716
▁조잡한	-10.4717
을뿐	-10.4719
▁것만	-10.4721
▁충격적이	-10.4721
▁겁	-10.4722
▁사랑스럽고	-10.4726
▁놓치	-10.4728
▁명성에	-10.4729
▁궁금해서	-10.4729
▁강동원	-10.4732
▁보구	-10.4735
데요	-10.4736
▁봤는데도	-10.4736
▁니들	-10.4741
▁감동적이었다	-10.4742
▁어쩌면	-10.4748
입니까	-10.4749
▁도망	-10.4755
▁이야	-10.4758
였네	-10.4764
아까워	-10.4765
로맨스	-10.4767
유쾌하게	-10.4768
앞	-10.4771
성의	-10.4773
▁돌아보게	-10.4777
▁않았지만	-10.478
▁화려하	-10.4788
▁나이가	-10.4789
▁의상	-10.479
▁추천하고	-10.479
▁하다니	-10.4793
▁만들기	-10.4796
▁싫어하는	-10.4797
촌	-10.4797
함에	-10.4799
▁새벽	-10.4801
▁진지한	-10.4803
▁죽었	-10.4812
느낌이	-10.4813
더스	-10.4819
▁같지	-10.4823
그저	-10.4823
▁후하게	-10.4824
▁쏘	-10.4824
▁아까	-10.4826
▁등장인물	-10.4839
대단	-10.484
셔야	-10.4845
▁타임	-10.4847
귀신	-10.4849
▁만난	-10.4857
▁오락	-10.486
▁아파	-10.486
▁배꼽	-10.4861
▁알파치노	-10.4861
▁오프닝	-10.4861
듦	-10.4861
▁짬뽕	-10.4861
▁피아노	-10.4861
못함	-10.4862
▁흑백	-10.4862
▁흥미로웠	-10.4862
▁전성기	-10.4862
▁정점	-10.4862
▁극혐	-10.4862
▁뭐하는	-10.4865
▁자고	-10.4865
▁재앙	-10.4866
▁줄이야	-10.4866
▁목소리가	-10.4867
▁ᄏᄏᄏᄏᄏᄏᄏᄏᄏ	-10.4869
▁재밌지	-10.4871
▁평점점	-10.4873
▁싶었던	-10.4878
▁뒤죽박죽	-10.4883
없었	-10.4884
▁놀란	-10.4885
▁흔들	-10.4887
▁완벽하다	-10.4889
▁대박이다	-10.4891
▁기대된다	-10.4892
▁신선했	-10.4897
▁공포는	-10.4899
▁최소한	-10.4901
겠는데	-10.4902
▁즐길	-10.4905
▁찌질	-10.4905
안되고	-10.4906
▁못하네	-10.4909
▁일본은	-10.4909
▁잠시	-10.491
▁역작	-10.4912
영이	-10.4917
▁아까워서	-10.4919
▁드라마로	-10.4922
▁뭐라고	-10.4923
▁듣는	-10.4929
▁손발	-10.493
▁반영	-10.4933
재밌게봤	-10.4933
▁웃을	-10.4939
났음	-10.494
▁드라마중	-10.4941
처리	-10.4941
같아서	-10.4942
▁더러워	-10.4944
봣다	-10.4944
▁보게되	-10.4946
탓	-10.4947
안나	-10.4949
▁머야	-10.495
바람	-10.4954
▁천사	-10.4955
▁액션만	-10.4957
▁짱이다	-10.4959
문화	-10.4964
▁오글	-10.4964
▁지경	-10.4964
곳이	-10.4967
▁번은	-10.4967
쩐다	-10.4967
겨울	-10.4969
▁영화인줄	-10.4969
▁소름끼치는	-10.4982
▁번을	-10.4985
▁있냐	-10.4991
▁요소가	-10.4994
▁공감도	-10.4996
▁인생영화	-10.4998
▁바닥	-10.4999
▁ᄡ	-10.4999
▁신인	-10.5002
▁영환	-10.5005
▁삭제	-10.5009
시작해서	-10.5012
▁속이	-10.5013
하러	-10.5013
분은	-10.5015
▁영화네	-10.5017
서야	-10.5018
▁동심	-10.5019
버렸네	-10.5021
닐	-10.5021
▁것들이	-10.5021
하기엔	-10.5022
▁만들어서	-10.5025
돈주고	-10.5029
법한	-10.5032
▁똑같이	-10.5033
▁사실이	-10.5034
것같음	-10.5037
▁내시간	-10.5039
쿡	-10.5039
뚜	-10.5039
▁인터넷	-10.5039
▁엉망진창	-10.5039
▁여러모로	-10.5039
▁드니로	-10.504
▁둘째치고	-10.504
▁두고두고	-10.504
▁찬사를	-10.504
▁나오는데	-10.5043
▁로맨틱코미디	-10.5043
▁새삼	-10.5043
▁빠른	-10.5043
▁흥분	-10.5049
▁분동안	-10.5052
▁높지	-10.5054
할정도로	-10.5055
▁기억난다	-10.5057
▁로빈	-10.5057
자신	-10.5058
▁재밌었습니다	-10.5058
아오	-10.506
▁편까지	-10.5062
건만	-10.5062
▁모르지만	-10.5067
▁컴퓨터	-10.5067
▁먹어	-10.5068
▁재밋는	-10.5069
▁떡	-10.5071
빠져	-10.5076
▁신하균	-10.5077
▁아이들의	-10.5077
때문	-10.5078
▁안보면	-10.5081
▁멋지게	-10.5083
것만으로도	-10.5085
대를	-10.5087
▁비쥬얼	-10.5087
▁잼있네요	-10.5089
▁신선하	-10.509
▁가족들	-10.5092
▁수면제	-10.5093
랑은	-10.5096
생각을	-10.5096
왔는데	-10.5097
▁오그라들	-10.5101
봤어	-10.5104
▁낮은지	-10.5107
▁위트	-10.5109
▁신비	-10.5109
▁인류	-10.511
잔인	-10.5115
▁전율	-10.5121
자연스럽게	-10.5122
심을	-10.5122
수없다	-10.5123
그랬	-10.5124
▁인간은	-10.5126
뽕	-10.5129
▁내리	-10.5129
것인가	-10.5131
맹	-10.5131
기도하고	-10.5131
초딩	-10.5138
▁현실은	-10.5138
삼류	-10.5142
▁보고싶어	-10.5147
▁길이	-10.5153
영화였다	-10.5156
학년	-10.5156
▁코믹영화	-10.5158
▁역사상	-10.5159
혼자	-10.5164
▁하자	-10.5165
델	-10.5167
본사람	-10.5169
▁나머지는	-10.517
▁들지	-10.5171
타고	-10.5172
▁보고싶은데	-10.5175
▁아무나	-10.5181
▁나무	-10.5182
▁대결	-10.5183
사람들은	-10.5183
▁움	-10.5186
▁육	-10.5187
▁여자애	-10.5191
로우	-10.5192
거라고	-10.5193
안된다	-10.5197
긴했지만	-10.5199
▁드라마입니다	-10.5201
▁가족애	-10.5201
▁땐	-10.5207
중국	-10.5209
▁마시	-10.521
▁모습에	-10.5211
▁쩌	-10.5211
읍	-10.522
꼈	-10.5221
밍	-10.5221
▁껐다	-10.5221
▁왕조현	-10.5221
▁유치찬란	-10.5221
▁홧팅	-10.5221
ᄊ	-10.5221
▁마찬가지	-10.5221
원이	-10.5221
▁박보영	-10.5221
▁완죤	-10.5221
▁하이틴	-10.5222
▁신이	-10.5223
▁자극적인	-10.5224
▁바란다	-10.5225
▁커버	-10.5226
▁베이	-10.5226
로서는	-10.5227
▁개그맨	-10.5228
▁풀어낸	-10.5228
▁전체적인	-10.5229
뒤에	-10.523
해져	-10.523
▁시도는	-10.5233
▁류영화	-10.5236
▁괜찮았던	-10.5241
▁다운받아서	-10.5243
▁재능	-10.5244
▁미학	-10.5245
상영	-10.5246
▁파워	-10.5246
▁두시간	-10.5246
▁한번도	-10.5247
류의	-10.5251
▁지루함을	-10.5251
▁공유	-10.5253
▁사람에게	-10.5253
▁추가	-10.5258
▁배신	-10.5259
▁좋으나	-10.5261
ᄍ	-10.5267
▁조선	-10.5268
▁웃겨서	-10.5269
▁고등학교	-10.5276
되나	-10.5276
▁더빙이	-10.5279
▁뭐여	-10.5279
▁웃겼다	-10.5285
세여	-10.5287
▁녹아	-10.5288
▁다시금	-10.5289
제작	-10.5289
▁원숭이	-10.5291
빙	-10.5291
▁뜬금없는	-10.5294
래도	-10.5296
▁다운받	-10.5297
▁섬세한	-10.5297
▁신화	-10.5297
▁ᄆ	-10.5301
▁욕이	-10.5303
▁등장인물들	-10.5304
▁팬들	-10.5305
▁헉	-10.5306
▁떨어져	-10.5306
▁코드	-10.5308
▁동감	-10.5311
▁애니는	-10.5312
당신	-10.5315
믿고	-10.5317
물로	-10.5317
▁캐스팅이	-10.5317
▁뛰어넘는	-10.5318
성은	-10.5318
컷	-10.5319
멀	-10.532
칼	-10.5321
주네	-10.5322
▁본격	-10.5327
이어서	-10.5331
▁공룡	-10.5331
치고는	-10.5335
▁궁금해	-10.5336
왔어요	-10.5337
▁텐데	-10.5337
각본	-10.5339
▁성룡의	-10.534
▁대부	-10.534
▁재미없네요	-10.5348
최악의	-10.5351
▁살아있	-10.5352
봤네	-10.5354
▁끌고	-10.536
주고싶	-10.536
▁짱이	-10.536
▁프리	-10.5361
재밋음	-10.5365
▁과장	-10.537
▁듬	-10.5373
▁안나옴	-10.5375
▁웃음을	-10.5375
▁구분	-10.5375
동화	-10.5378
▁잼없다	-10.5379
▁당신의	-10.538
▁형편없	-10.5383
▁젖	-10.5388
인걸	-10.5391
▁군인	-10.5391
▁걸까	-10.5392
으로만	-10.5392
▁학생	-10.5394
▁이루어	-10.5397
▁졸잼	-10.5402
▁포스	-10.5403
시대에	-10.5404
▁됐다	-10.5406
▁완젼	-10.5407
▁컬트	-10.5407
▁오그라드는	-10.5407
하는듯	-10.5408
▁깜놀	-10.5408
▁밝혀	-10.5408
▁레옹	-10.5409
땜시	-10.5409
▁닮았	-10.5411
▁알려주는	-10.5413
드네요	-10.5416
▁킬러	-10.5417
▁재미없다고	-10.5417
▁보아	-10.5418
▁쏘우	-10.5418
▁감동이다	-10.5419
▁부정	-10.5419
▁느낌은	-10.5421
▁최후	-10.5421
▁전개는	-10.5423
▁흘러가는	-10.5423
년도	-10.5424
▁감명	-10.5425
기억이	-10.5426
▁기존	-10.5428
▁잊지못할	-10.5429
▁줘	-10.5433
▁비행기	-10.5437
▁채우	-10.5437
▁십점	-10.5438
▁미국식	-10.5439
▁말았다	-10.5439
▁보았던	-10.544
▁가짜	-10.5449
▁않습니다	-10.545
▁알리	-10.5453
자고	-10.5453
▁해야지	-10.5454
▁도시	-10.5457
▁기대없이	-10.546
▁약하다	-10.5462
모르겠	-10.5466
▁최고최고	-10.5476
▁빠지는	-10.5477
▁조금은	-10.5478
▁지키	-10.5479
▁필요하다	-10.5479
▁버리고	-10.548
▁몬	-10.5482
▁잔인함	-10.5483
▁유지	-10.5486
▁필요가	-10.5487
▁봤나	-10.5488
버린다	-10.5489
▁맡은	-10.5496
▁개념	-10.5497
물론	-10.5499
아버지	-10.55
▁영화인것	-10.5502
▁및	-10.5503
▁장면만	-10.5508
▁자랑	-10.5508
궁	-10.5509
칸	-10.5509
홀	-10.551
벽	-10.5513
섬	-10.5513
땡	-10.5514
싸움	-10.5516
암튼	-10.5516
무서워	-10.5517
▁원하는	-10.5517
▁나오네요	-10.552
선택	-10.552
결국	-10.5523
구리	-10.5525
▁불안	-10.5527
▁할말	-10.5528
관람	-10.5529
▁찰	-10.553
▁그이상	-10.5534
거같	-10.5535
▁광기	-10.5535
▁연기하는	-10.554
▁폼	-10.554
공부	-10.554
아나	-10.5542
▁일본인	-10.5547
▁이제는	-10.5548
▁옛날영화	-10.5551
▁오는	-10.5552
만점	-10.5554
▁조잡	-10.5556
줘요	-10.5556
없을	-10.5557
애들은	-10.5568
▁비슷하	-10.5568
버전	-10.5568
▁무대	-10.5569
▁중심	-10.5571
▁재밋엇	-10.5579
▁마지막회	-10.5581
▁미국의	-10.5581
▁축	-10.5581
▁연기만	-10.5585
짓을	-10.5586
▁의미도	-10.5587
▁걸리	-10.5591
▁소재의	-10.5592
▁가장한	-10.5593
▁늑대	-10.5595
랏	-10.5595
▁빕니다	-10.5595
줫	-10.5595
▁그냥저냥	-10.5595
▁어두운	-10.5595
▁혁명	-10.5595
▁데이빗	-10.5596
▁송강호	-10.5596
▁보여줄	-10.5597
▁슈퍼맨	-10.5598
점준것중	-10.5599
▁도둑	-10.5599
▁오지	-10.5599
실력	-10.5601
▁났다	-10.5601
아들	-10.5601
복수	-10.5601
▁남아있	-10.5602
▁미녀	-10.5604
는대	-10.5606
▁분량	-10.5608
고요	-10.5608
▁늙어	-10.561
▁절대로	-10.561
맘에	-10.5613
▁니가	-10.5613
▁순위	-10.5616
▁조차	-10.5618
▁연출력이	-10.562
▁깜	-10.5621
▁고독	-10.5621
▁애니매이션	-10.5624
▁끝남	-10.5625
나오네	-10.5627
▁얻어	-10.5627
▁주온	-10.5629
될듯	-10.5631
▁불쌍해서	-10.5633
역사	-10.5633
▁글고	-10.5636
▁기억나	-10.5639
▁별점이	-10.5641
프리	-10.5643
▁눈으로	-10.5644
▁주세요	-10.5646
는것을	-10.5648
▁언제까지	-10.5648
▁라마	-10.565
▁몰아	-10.5652
거니	-10.5652
▁또보고싶	-10.5653
다르	-10.5656
▁최고라고	-10.5659
갈때	-10.566
▁독특하고	-10.5662
▁굳굳	-10.5671
▁살아가	-10.5671
▁독특	-10.5672
▁맞추	-10.5674
보지마라	-10.5675
▁의사	-10.5675
제가	-10.5676
간만에	-10.5677
했을때	-10.5683
허술	-10.5684
▁마다	-10.5686
엇음	-10.5686
▁했나	-10.569
레스	-10.5698
스릴	-10.5698
휘	-10.5701
▁어색함	-10.5702
▁나오기	-10.5706
꽃	-10.5707
몬	-10.5708
눈물이	-10.5709
답다	-10.5709
시청률	-10.571
틈	-10.571
판타지	-10.5711
극히	-10.5714
들한테	-10.5715
미화	-10.5717
▁재밋어	-10.5719
못할	-10.572
뭐지	-10.572
재밋어요	-10.5727
▁편하게	-10.5729
▁옆에	-10.5732
▁환상적	-10.5732
▁쉽	-10.5734
하나요	-10.5737
▁남기는	-10.5741
말도	-10.5742
▁넘어가	-10.5745
여행	-10.5751
▁아니라면	-10.5753
▁삶은	-10.5758
▁털	-10.576
▁지는	-10.5761
▁헬	-10.5762
가장	-10.5765
속으로	-10.5769
▁스릴러물	-10.5771
▁무협영화	-10.5773
▁살아야	-10.5775
▁수고	-10.5775
▁그대	-10.5783
▁아까웠	-10.5786
앜	-10.5787
▁안타까움	-10.5787
▁한효주	-10.5787
▁기발한	-10.5788
▁흥미롭게	-10.5788
▁난해한	-10.5791
▁삐	-10.5792
▁조연들	-10.5792
▁직업	-10.5793
▁각색	-10.5793
▁재탕	-10.5794
▁처음에	-10.5794
▁모독	-10.5796
▁웃긴다	-10.5799
▁선동	-10.58
▁옳	-10.5801
▁지옥	-10.5804
▁했더니	-10.5806
▁아깝습니다	-10.5807
▁끝날	-10.5808
▁유행	-10.581
랫	-10.5811
▁영화라서	-10.5811
▁택시	-10.5812
▁더욱더	-10.5815
트로	-10.5815
▁강간	-10.5816
▁다시보기	-10.5817
▁당장	-10.5818
브라	-10.582
보여주	-10.582
특집	-10.582
역할	-10.5822
▁빠져들게	-10.5823
드가	-10.583
낮은	-10.5834
▁연상	-10.5836
▁한동안	-10.5837
▁한시간	-10.5838
▁나루토	-10.5839
▁조아	-10.5842
▁밋밋한	-10.5844
에다가	-10.5847
▁일주일	-10.585
▁구성도	-10.5854
성에	-10.5858
해줘서	-10.5858
식의	-10.586
▁주고싶다	-10.5861
▁장면을	-10.5863
으려고	-10.5863
닌	-10.5864
▁두명	-10.5865
▁했으나	-10.5867
▁또라이	-10.5872
▁아이유	-10.5879
▁없으니	-10.5881
▁보아도	-10.5882
신은	-10.5883
와의	-10.5888
▁논리	-10.5889
여운	-10.5893
▁즐거웠	-10.5894
▁무엇이	-10.5895
▁끝도	-10.5898
되게	-10.5899
▁않네	-10.5902
▁발음	-10.5904
낭비	-10.5906
핑	-10.5907
▁너무하네	-10.5909
▁완성	-10.591
돌이	-10.591
아름다운	-10.5911
잘봤습니다	-10.5917
▁깔	-10.5918
줄은	-10.5919
▁바라는	-10.5919
▁연기력에	-10.592
어지고	-10.5924
별루	-10.5925
재밌고	-10.5931
하자면	-10.5932
잇는	-10.5933
▁재밌게봤어요	-10.5935
해지고	-10.5935
▁빡	-10.5937
▁활	-10.5937
졌으면	-10.5939
반갑	-10.594
덕에	-10.594
▁최고인듯	-10.5941
▁아동	-10.5942
▁시점	-10.5947
▁만들어야	-10.5948
▁한개	-10.5955
▁만으로도	-10.5958
▁흡입력	-10.5963
▁하시	-10.5965
▁담고	-10.5965
▁들어간	-10.5967
▁비교해	-10.5969
평론가	-10.5969
▁몰라	-10.597
▁허허	-10.5971
는뎅	-10.5972
▁재밌다는	-10.5978
▁의도는	-10.5981
탱	-10.5982
ᄐ	-10.5983
룰	-10.5983
졋	-10.5983
▁아기자기	-10.5984
▁늙은	-10.5985
▁픽사	-10.5985
▁찬양	-10.5987
▁향수	-10.5989
▁꺼져	-10.599
▁영화같다	-10.599
▁시간아까워	-10.5991
참고	-10.5992
▁느낀다	-10.5993
▁분짜리	-10.5993
▁뉴	-10.5994
▁던져	-10.5995
▁말씀	-10.5996
별점	-10.5996
누구	-10.6002
돈이	-10.6005
▁미스터리	-10.6006
▁되는데	-10.6006
▁독특하	-10.6006
▁처음이네	-10.6008
▁끝을	-10.6008
▁재미있었는데	-10.6008
할줄	-10.6011
하나도	-10.6012
하였다	-10.6012
▁하하하	-10.6014
다시보고싶	-10.6014
▁있으나	-10.6018
▁오직	-10.6018
▁구경	-10.6018
▁케미	-10.6021
▁에로물	-10.6024
▁채워	-10.6026
▁힘내세요	-10.6026
▁잔잔함	-10.6027
▁질질끌	-10.6029
▁볼려고	-10.6029
▁공포가	-10.603
해놓고	-10.603
▁아이들에게	-10.6031
▁류승범	-10.6031
▁그들이	-10.6035
▁봐주	-10.6036
▁보고싶네요	-10.6037
▁조금만	-10.6045
▁싶어서	-10.6047
▁철학적	-10.6048
▁제대로된	-10.605
▁의미있는	-10.6051
▁그동안	-10.6056
▁눈물나	-10.6058
받아	-10.606
▁받았다	-10.6061
▁고문	-10.6061
▁우는	-10.6063
활	-10.6067
▁머냐	-10.6071
▁빠질	-10.6074
▁그런거	-10.6075
▁아기	-10.6076
강호	-10.6082
됩니다	-10.6084
▁진부하다	-10.6085
보지마세요	-10.6086
▁뭐고	-10.6087
▁느끼고	-10.6088
가면서	-10.6088
화가	-10.609
▁말이필요없다	-10.6093
보신분	-10.6093
▁중국영화	-10.6097
▁씁쓸	-10.6097
▁넘어서	-10.61
▁마니	-10.6101
하거나	-10.6104
▁아버지의	-10.6112
관리	-10.6113
▁해준다	-10.6113
될까	-10.6118
▁쌍	-10.6118
▁엔딩은	-10.6119
▁안봤	-10.6123
▁생각만	-10.6123
브리	-10.6125
거든	-10.6125
개인적으로	-10.6128
수작	-10.613
죽는	-10.6132
할수없는	-10.6136
▁캐스팅은	-10.6139
▁전문	-10.6141
년에	-10.6141
▁없던	-10.6142
▁킬링타임용으로도	-10.6144
▁막장이	-10.6145
▁사라	-10.6146
▁울어	-10.6151
보임	-10.6153
겠다는	-10.6159
ᅳᅮ	-10.616
▁실화를	-10.616
▁어쩌다	-10.6161
▁재밌게봤	-10.6163
▁장면들이	-10.6164
▁반개	-10.6165
▁염	-10.6166
분들은	-10.6166
▁일반	-10.6167
분들께	-10.6167
지않나	-10.6167
▁몇년	-10.6168
깐	-10.6168
▁예수	-10.617
슬프다	-10.6173
잼나	-10.6175
▁어째	-10.6176
화면	-10.6178
▁때가	-10.6178
▁연기잘하	-10.618
상태	-10.618
퓨	-10.6183
▁저급	-10.6183
덴	-10.6183
▁고맙습니다	-10.6183
▁군더더기	-10.6183
▁시종일관	-10.6183
▁컨셉	-10.6183
곱	-10.6183
▁클래식	-10.6183
▁멈추	-10.6183
▁스페인	-10.6183
솜	-10.6183
▁흑역사	-10.6184
▁가슴아프	-10.6184
습니당	-10.6184
▁왠만한	-10.6186
▁어우	-10.6187
▁했을까	-10.6187
▁시험	-10.619
▁낮추	-10.619
때까지	-10.619
▁중학생	-10.6191
▁상징	-10.6191
▁내취향	-10.6191
▁환경	-10.6191
▁반응	-10.6193
▁국산	-10.6195
▁웃다가	-10.6196
▁장난하나	-10.62
▁재미나게	-10.6201
▁명작임	-10.6203
▁결국은	-10.6205
▁느껴질	-10.6207
테니	-10.6209
▁재방	-10.6211
대체	-10.6215
▁부산	-10.6218
▁없애	-10.6219
▁모방	-10.622
▁다른영화	-10.6221
▁아름다웠다	-10.6221
충격	-10.6222
▁사람만	-10.6222
자식	-10.6225
▁넣어	-10.6232
▁나올까	-10.6233
▁높이	-10.6235
▁지우	-10.6236
▁감정이입	-10.6237
▁아련한	-10.6239
▁야하지도	-10.6241
▁표현이	-10.6243
새롭	-10.6247
줬으면	-10.6252
▁했어요	-10.6252
ᄒᄒᄒᄒ	-10.6256
년전	-10.6257
▁안가는	-10.6259
본영화중	-10.6261
데스	-10.6263
남아	-10.6265
▁난해하	-10.6267
▁잘하네요	-10.6267
▁알아야	-10.6268
▁ᄍ	-10.6271
▁장애인	-10.6271
▁안봐서	-10.6272
▁무리수	-10.6272
▁추천한다	-10.6273
▁전개에	-10.6278
▁마지막은	-10.6279
코드	-10.628
작이라	-10.6282
▁취향이	-10.6285
간지	-10.6286
▁볼만한데	-10.6286
▁애정	-10.6288
에만	-10.629
▁안남	-10.6291
▁만들었냐	-10.6291
▁뛰어넘	-10.6295
습니까	-10.6296
▁낚이	-10.6301
▁이상하다	-10.6304
▁킬	-10.6305
▁유럽	-10.6307
▁가야	-10.6307
여주인공	-10.6309
▁향기	-10.631
▁이뻐	-10.631
▁짤	-10.6311
▁사용	-10.6313
덤	-10.6313
셀	-10.6319
▁반감	-10.6319
▁마무리가	-10.6321
마무리	-10.6323
않음	-10.6324
▁웃기지	-10.6325
▁나올때	-10.6326
놈들이	-10.6327
지루한	-10.6328
이형	-10.6329
둥이	-10.6329
▁내용의	-10.6331
에휴	-10.6333
이군	-10.6335
▁죽는다	-10.6337
▁액션물	-10.6339
한마디로	-10.634
저리	-10.6345
없었다	-10.6345
▁봤는지	-10.6348
▁말아먹	-10.635
▁익숙	-10.6353
▁약한	-10.6355
▁마냥	-10.6358
▁최악임	-10.6358
지않는다	-10.6361
수준이	-10.6366
랴	-10.6368
편집	-10.637
삭	-10.6372
▁답답해	-10.6373
▁훈훈	-10.6374
▁천만	-10.6375
▁짱임	-10.6375
껀	-10.6377
▁보게되는	-10.6379
▁힘내	-10.6386
콤	-10.6386
흉	-10.6387
덩	-10.6387
▁송승헌	-10.6388
삘	-10.6388
▁스필버그	-10.6388
▁오랫동안	-10.6388
▁차태현	-10.6388
▁최민수	-10.6388
▁지겨워	-10.6388
▁떡밥	-10.6388
▁클라스	-10.6388
▁여배우가	-10.639
▁여자친구	-10.6391
▁모자라	-10.6393
▁거기	-10.6395
▁살아있는	-10.6397
▁공허	-10.6399
▁백배	-10.6401
되네	-10.6402
영화중에	-10.6403
▁시간도	-10.6409
▁괜찮아	-10.641
▁영원	-10.6412
▁소통	-10.6413
▁적당하다	-10.6414
▁기준	-10.6418
▁사랑하고	-10.6419
▁평화	-10.6419
▁필요없음	-10.642
▁영상은	-10.6423
▁이딴거	-10.6426
마저도	-10.6429
▁였다	-10.6429
▁무서웠	-10.6431
셔서	-10.6431
▁피식	-10.6435
▁프레	-10.6435
애가	-10.6436
▁맞다	-10.6436
감독은	-10.6439
▁배급사	-10.6442
므로	-10.6443
봤지	-10.6446
하죠	-10.6448
▁또봐도	-10.6448
드의	-10.6464
오르는	-10.6468
▁영화보다가	-10.6469
▁정상	-10.6469
▁냥	-10.6478
▁안감	-10.6481
▁진실을	-10.6483
감상	-10.6483
▁괜	-10.6485
▁영상도	-10.6487
깝	-10.6488
▁극장에	-10.65
▁꼭봐야	-10.6503
▁걸작이다	-10.6505
▁맛있	-10.6506
돌려	-10.6507
▁등록	-10.6507
▁루즈	-10.6509
하잖아	-10.651
▁힘들었다	-10.6513
▁불가	-10.6519
숨	-10.652
▁불가능	-10.6523
▁정말정말	-10.6527
▁부담	-10.6531
▁오글거리는	-10.6533
▁만날	-10.6533
쫌	-10.6535
졌음	-10.6535
덕분에	-10.6535
프로그램	-10.6535
얼마나	-10.6536
▁말은	-10.6537
▁쪼	-10.6539
▁말아	-10.654
츄	-10.6545
▁나왔음	-10.6547
같지	-10.6552
▁촌	-10.6554
▁동네	-10.6555
몰라	-10.6556
형제	-10.6559
▁만세	-10.6563
▁안봄	-10.6568
▁중요	-10.6573
▁멋있어	-10.6575
뷰	-10.6578
영화네요	-10.6579
결말이	-10.6579
▁이딴게	-10.6581
▁못해서	-10.6581
게만드는	-10.6583
▁느껴졌	-10.6584
▁미안해	-10.659
쟈	-10.6591
주고싶다	-10.6591
픽	-10.6592
균	-10.6593
냄	-10.6595
밨	-10.6596
▁팝콘	-10.6596
깃	-10.6596
렐	-10.6596
믄	-10.6596
▁김희선	-10.6596
▁어수선	-10.6596
▁원피스	-10.6596
▁농담	-10.6598
▁제시카	-10.6598
▁거기다	-10.6598
▁강아지	-10.6598
▁호흡	-10.6598
▁찢어	-10.6599
장애	-10.6599
연기를	-10.66
▁오로지	-10.66
▁철저	-10.6604
▁우울한	-10.6605
페이스	-10.6606
▁공포도	-10.6606
▁씨발	-10.6607
▁경악	-10.6607
달라	-10.6607
▁음향	-10.6607
▁러브스토리	-10.6609
▁혼란	-10.661
▁감동적입니다	-10.6611
▁싶음	-10.6612
▁감흥	-10.6614
▁기회	-10.6614
▁긴장감을	-10.6615
▁슬프네요	-10.6615
▁성형	-10.6618
떨어졌	-10.6619
▁개똥	-10.662
▁음악은	-10.6621
▁뜬금없	-10.6624
▁감동적임	-10.6627
▁공연	-10.6628
▁이은주	-10.6629
하시고	-10.6631
▁훈훈하	-10.6632
웃긴	-10.6633
자꾸	-10.6633
됬다	-10.6633
하나하나가	-10.6635
아냐	-10.6635
▁공주	-10.664
▁좋아하네요	-10.6641
▁ᄏᄏᄏᄏᄏᄏᄏᄏᄏᄏᄏ	-10.6644
▁람보	-10.6645
즐겁고	-10.6645
▁만들어주	-10.6648
▁갖게	-10.6652
▁존경합니다	-10.6653
본거	-10.6657
▁미스테리	-10.6658
▁차승원	-10.6658
▁웃었	-10.6661
▁매미	-10.6664
▁도움이	-10.6665
▁마법	-10.667
▁외면	-10.667
▁재미있네	-10.6671
▁강렬	-10.6672
▁영화라지만	-10.6672
▁두개	-10.6676
쁜	-10.6681
▁나올수	-10.6681
▁이별	-10.669
▁티비로	-10.6691
같은거	-10.6692
▁점이나	-10.6692
정도는	-10.6694
▁버렸다	-10.6694
▁매력적이다	-10.6694
▁년대에	-10.6695
▁안좋아	-10.67
▁높네	-10.6704
▁데뷔작	-10.6706
▁캐릭터들이	-10.6711
▁식상하다	-10.6715
▁끝난다	-10.6717
▁다음편	-10.6727
자들이	-10.6727
력을	-10.673
▁가볍	-10.6738
▁여친	-10.674
스레	-10.6744
▁존스	-10.6744
하구만	-10.6748
▁최고인	-10.6748
▁만드냐	-10.6749
▁학생들	-10.6749
겼다	-10.6751
엿다	-10.6751
▁명배우	-10.6752
귀여워	-10.6752
잭	-10.6753
그나마	-10.6754
수를	-10.6754
▁개봉했	-10.6755
좀비	-10.6755
우리나라	-10.6755
여기	-10.6755
나왓	-10.6755
▁나타나	-10.6757
▁선생	-10.6758
▁스토리로	-10.6764
늙	-10.6766
성룡	-10.6767
즐겁	-10.6768
▁이번에	-10.6771
▁효	-10.6772
애니메이션	-10.6774
▁정체	-10.6776
▁예고	-10.6777
안돼	-10.6778
▁흉내	-10.678
남기	-10.6782
힘든	-10.6783
▁하세요	-10.6784
▁안봐	-10.6784
▁되면	-10.6785
▁귀신이	-10.6787
▁노인	-10.6789
▁별로네요	-10.6797
▁받아야	-10.6798
▁허나	-10.6799
없구	-10.6799
▁정보	-10.68
▁실사	-10.68
▁했는지	-10.68
▁물어	-10.6803
롯	-10.6804
아쉬	-10.6806
혐	-10.6807
쎄	-10.6807
뱅	-10.6808
펜	-10.6808
▁듭니다	-10.6809
▁말았어야	-10.6809
▁영웅본색	-10.6809
윽	-10.6809
▁원주율	-10.6809
▁박평식	-10.6809
▁김수현	-10.6809
▁갖춘	-10.6809
▁좋겠	-10.6812
끝내	-10.6813
▁보낸다	-10.6813
▁기대됩니다	-10.6814
▁허탈	-10.6814
▁웃음만	-10.6815
제국	-10.6815
▁증명	-10.6815
▁힘들어	-10.6816
▁승부	-10.6819
▁이따구	-10.6819
저나	-10.682
이쁨	-10.6821
▁영광	-10.6821
사나	-10.6821
것같아	-10.6824
구석	-10.6825
▁첨엔	-10.6825
▁거기서	-10.6826
베리	-10.6827
▁마블	-10.6828
▁자세	-10.6829
▁동화같은	-10.683
▁한국에	-10.6831
약한	-10.6833
▁작품이라	-10.6834
▁흉내내	-10.6834
▁액션의	-10.6835
만든다	-10.6837
▁감독도	-10.684
▁초등학교	-10.6843
▁믿어	-10.6845
▁관객이	-10.6845
인것같다	-10.6851
국민	-10.6852
▁지났	-10.6854
▁덤	-10.6854
어디	-10.6855
▁만들었으면	-10.6856
▁여기에	-10.6859
는데도	-10.686
▁의문이	-10.6862
▁돌려줘	-10.6865
▁테이큰	-10.6866
▁적이	-10.6866
▁잼나요	-10.6867
▁면에서	-10.6875
슬프	-10.6876
▁했습니다	-10.6876
시킬	-10.6877
▁크다	-10.6879
▁기대했던	-10.6879
▁따뜻함	-10.6879
어른	-10.688
끝나고	-10.6881
같은데	-10.6882
경이	-10.6883
▁같네	-10.6885
이라는게	-10.6885
본적	-10.6887
▁제목에	-10.6888
▁개같은	-10.6888
▁전라도	-10.6889
▁삶과	-10.689
잘못	-10.6896
▁대사도	-10.6896
는사람	-10.6897
▁벽	-10.69
▁열자	-10.6902
▁상태	-10.691
▁아이고	-10.691
미안	-10.6912
▁세상에서	-10.6913
번째	-10.6914
아까운영화	-10.6922
알고	-10.6922
좋겠다	-10.6924
▁진정성	-10.6926
▁감이	-10.6927
▁아류	-10.6929
나올때	-10.6929
▁봤지	-10.6932
▁높은지	-10.6936
▁잔인하	-10.6937
▁망쳐놓	-10.6937
▁화질	-10.6938
▁하나님	-10.6941
▁하기엔	-10.6945
▁되나	-10.6946
▁결정	-10.6951
보려고	-10.6953
▁스릴감	-10.6955
성우	-10.6956
우드	-10.6957
▁할때	-10.6961
▁안되나	-10.6963
보러	-10.6965
▁이상함	-10.6968
▁찍지	-10.6971
되요	-10.6972
쥬	-10.6973
옷	-10.6974
▁뻔한스토리	-10.6977
▁터지	-10.6977
▁미치	-10.6981
▁락	-10.6982
평점은	-10.6983
▁잘생겼	-10.6986
던영화	-10.6994
▁농	-10.6995
장군	-10.6996
▁끝내주	-10.7003
먹은	-10.7003
그대로	-10.7007
시네요	-10.7007
▁향한	-10.7008
▁숨은	-10.7011
그자체	-10.7011
▁본것	-10.702
▁리즈	-10.7024
칙	-10.7025
▁잊혀	-10.7025
▁죄송	-10.7025
낄	-10.7026
▁새록새록	-10.7026
▁엔딩크레딧	-10.7026
▁인상깊게	-10.7026
늬	-10.7026
띠	-10.7026
빤	-10.7026
▁뒤늦게	-10.7026
▁소피마르소	-10.7026
▁한석규	-10.7026
덧	-10.7026
쩍	-10.7026
▁쓸데없는	-10.7026
▁엄정화	-10.7026
▁흘렀	-10.7026
▁감성팔이	-10.7026
▁고마운	-10.7026
▁아바타	-10.7026
▁왕가위	-10.7026
▁다세포소녀	-10.7026
▁러브라인	-10.7026
▁예쁨	-10.7027
▁베리	-10.7027
▁경의를	-10.7028
▁흘렸	-10.703
▁황금	-10.7031
▁응원합니다	-10.7032
이란게	-10.7033
▁억지스런	-10.7033
▁놀라울	-10.7033
▁인지	-10.7036
▁흥미롭지	-10.7037
▁늙었	-10.7039
준거	-10.7039
▁소품	-10.7039
▁예뻐서	-10.7039
쩔	-10.7042
▁재미없었음	-10.7043
▁처음본다	-10.7043
▁기다렸	-10.7045
좋아하	-10.7048
적이지	-10.7049
▁못따라	-10.7052
▁대실망	-10.7054
▁대학	-10.7055
터졌	-10.7056
▁있었습니다	-10.7056
▁정석	-10.7057
▁돋보인다	-10.7058
네ᄏᄏ	-10.7059
▁비교하면	-10.7059
거같아	-10.7062
질질	-10.7062
▁없을까	-10.7066
▁ᄏᄏᄏᄏᄏᄏᄏᄏᄏᄏ	-10.7067
▁벗어	-10.7071
▁요즘은	-10.7072
사실	-10.7072
▁거짓	-10.7074
▁나은듯	-10.7076
▁빠지게	-10.7077
▁범죄자	-10.7081
시키고	-10.7081
들보다	-10.7085
▁주인공들이	-10.7085
했었다	-10.7089
▁빠져서	-10.7089
▁실망스럽다	-10.7091
▁대사들	-10.7091
짱짱짱	-10.7092
이구만	-10.7093
▁만든건지	-10.7095
▁명의	-10.7097
▁훈훈하고	-10.7099
웠던	-10.71
▁캐릭	-10.7102
ᄏᄏᄏᄏᄏᄏᄏᄏᄏᄏᄏᄏᄏ	-10.7112
▁끝은	-10.7113
▁할말을	-10.7113
▁경우	-10.7115
▁담겨	-10.712
▁재밋고	-10.7123
▁영화야	-10.7124
다보니	-10.7124
▁저주	-10.7126
▁개소리	-10.7126
▁쓰레기네	-10.7127
▁찾아볼	-10.7128
▁빙	-10.713
▁없다고	-10.7131
▁진부함	-10.7132
▁낚	-10.7133
▁의도를	-10.7133
▁시리즈가	-10.7134
▁줘도	-10.7139
▁살아남	-10.7139
겐	-10.7142
▁지금이나	-10.7142
▁정리	-10.7142
▁록	-10.7144
겠군	-10.7147
▁들어서	-10.7151
▁저러	-10.7151
귀엽	-10.7151
지않게	-10.7156
▁별거	-10.7157
▁버전	-10.7157
▁낭만	-10.7158
▁결과는	-10.7159
▁사과	-10.7163
프라	-10.7164
나면	-10.7165
▁설정은	-10.7168
▁다시봤는데	-10.7169
좋아하는데	-10.7173
▁가족과	-10.718
▁슬펐	-10.7181
하는구나	-10.7182
▁잘봤	-10.7185
▁중년	-10.7196
부리	-10.7198
▁영화속	-10.72
▁집중도	-10.7201
폴	-10.7203
▁되서	-10.7203
옛날	-10.7203
ᄉᄇ	-10.7203
▁가치도	-10.7214
다시봐도	-10.7214
▁다보고	-10.7215
어떤	-10.7215
▁있긴	-10.7218
멋진	-10.7219
▁죽인	-10.7226
픔	-10.7228
줄알았는데	-10.723
▁재미만	-10.7232
▁아쉬워	-10.7233
▁제목은	-10.7235
▁못하겠	-10.7236
▁깨닫	-10.7236
아닌데	-10.7239
잡는	-10.7241
벅	-10.7241
신선	-10.7242
▁해주세요	-10.7243
▁기억남	-10.7244
랍	-10.7245
▁많네	-10.7246
▁난잡	-10.7248
▁박찬욱	-10.7248
▁어설퍼	-10.7248
▁흐지부지	-10.7248
썻	-10.7248
▁세련된	-10.7248
겄	-10.7248
팽	-10.7248
▁엑스맨	-10.7248
▁김혜수	-10.7248
▁외로움	-10.7248
▁멘탈	-10.7248
▁안들	-10.7248
▁전지현	-10.7249
▁총체적	-10.7249
▁남긴	-10.7249
▁무간도	-10.7249
▁분장	-10.7249
보고나서	-10.7249
▁보고나니	-10.7249
▁미친듯이	-10.7253
▁바랬	-10.7253
▁돈낭비	-10.7253
설명	-10.7255
▁쉬운	-10.7256
▁복수극	-10.7256
▁재방송	-10.7257
▁말라	-10.7257
티가	-10.7257
▁실패작	-10.7257
▁날라	-10.7258
ᄏᄏᄏᄏᄏᄏᄏᄏ	-10.7259
▁안타깝네요	-10.726
뎅	-10.7261
든가	-10.7264
▁공포를	-10.7265
▁보고싶어요	-10.727
▁알려준	-10.7271
라인	-10.7272
▁어설프게	-10.7273
▁나오다니	-10.7273
▁알바가	-10.7274
일세	-10.7275
▁차분	-10.7278
치면	-10.7278
자막	-10.7279
▁보소	-10.728
▁있겠지만	-10.7283
인영화	-10.7286
더라고요	-10.7286
▁보는동안	-10.7287
▁이런것도	-10.729
▁점만점에	-10.7291
▁편안	-10.7293
▁허구	-10.7295
볼수있	-10.7296
▁쓰러	-10.7297
▁남아있는	-10.7298
효과	-10.7298
▁왔다	-10.7303
▁슬펐다	-10.7303
어야지	-10.7303
▁점주고	-10.7304
맞고	-10.7308
▁어울리	-10.731
하더니	-10.7311
▁매주	-10.7312
▁나왔던	-10.7314
▁알게된	-10.7319
▁쏴	-10.7321
재밌는	-10.7321
▁면이	-10.7322
▁이쁘게	-10.7323
▁실패한	-10.7324
너무나	-10.7325
▁베일	-10.7325
▁이영화에	-10.7326
같네	-10.7329
▁기억될	-10.733
네용	-10.7333
완벽하게	-10.7334
▁책임	-10.7334
▁깍	-10.734
억	-10.734
직한	-10.7342
▁사라진	-10.7343
▁진부하	-10.7348
▁짱나	-10.735
▁통쾌한	-10.7352
▁이전	-10.7355
▁하지마라	-10.7355
히히	-10.7358
▁밑	-10.7361
라구	-10.7362
▁지루함의	-10.7362
▁아니네요	-10.7365
▁허접하다	-10.7367
▁재주	-10.7368
▁지루하기만	-10.7369
▁간직	-10.737
▁감성을	-10.7378
투성이	-10.738
▁행복해	-10.7383
▁깔끔	-10.7392
▁제작자	-10.7392
▁아닌것	-10.7399
따구	-10.7401
▁와닿지	-10.7405
살인	-10.7408
▁니네	-10.7408
▁재밌는영화	-10.7408
▁잔잔	-10.7411
▁안되네	-10.7415
달라고	-10.7418
떡	-10.7421
인을	-10.7423
▁대사와	-10.7423
▁가능성	-10.7425
▁이루	-10.7427
▁만듬	-10.743
ᅢ	-10.7431
뛰	-10.7431
튀	-10.7432
뉴	-10.7433
냄새	-10.7433
시죠	-10.7433
있었는데	-10.7435
▁날리	-10.7437
▁션	-10.7437
저런	-10.7445
하더라도	-10.7457
천재	-10.7459
▁이영화의	-10.7462
▁못했	-10.7463
▁잡는	-10.7463
▁있었고	-10.7464
▁무료	-10.7465
▁돈으로	-10.7465
선생님	-10.7466
▁네이버평점	-10.7469
▁일본의	-10.7472
재미있음	-10.7474
댓	-10.7474
풋	-10.7475
▁파워레인저	-10.7476
곽	-10.7476
긔	-10.7476
뎁	-10.7476
▁손예진	-10.7476
▁다이하드	-10.7476
▁윌리스	-10.7476
▁모자란	-10.7476
▁다니엘	-10.7476
▁첫번째	-10.7477
▁재발견	-10.7477
▁성찰	-10.7477
▁그럴싸	-10.7478
▁치밀하	-10.7478
▁안성기	-10.7479
▁역쉬	-10.7481
▁세월	-10.7483
▁열광	-10.7483
▁기도	-10.7484
▁마틴	-10.7485
▁음악을	-10.7492
▁지루했음	-10.7492
않다	-10.7494
▁백인	-10.7496
▁냉정	-10.7496
▁믿음	-10.7498
▁아름다워	-10.75
▁항	-10.7501
▁찾을	-10.7501
▁드물	-10.7503
▁권력	-10.7503
▁일찍	-10.7504
▁상식	-10.7506
▁구조	-10.7506
▁존내	-10.751
▁귀여워서	-10.7511
▁빈약한	-10.7512
모르겠다	-10.7512
▁화끈한	-10.7512
▁작화	-10.7514
▁안녕	-10.7515
▁좋아해요	-10.7516
▁곡	-10.7518
▁인생에서	-10.7519
▁얘	-10.7519
▁중병	-10.7519
▁여유	-10.7521
성과	-10.7526
▁달달	-10.7527
▁ᄃ	-10.7528
▁넘쳐	-10.7529
▁초딩이	-10.7532
방에서	-10.7532
▁대가	-10.7532
▁고증	-10.7533
▁시작부터	-10.7534
▁있어보이	-10.7534
▁앙	-10.7534
▁커서	-10.7535
사극	-10.7541
▁나면	-10.7542
▁될듯	-10.7543
재밌네요	-10.7546
▁올라가	-10.7546
앗다	-10.7548
보기엔	-10.755
▁같지만	-10.7556
타령	-10.756
▁살다	-10.756
▁욕만	-10.7564
▁봐줄만	-10.7565
▁재밋네요	-10.7568
▁영상미와	-10.757
괜찮은	-10.7571
▁별로인	-10.7575
▁상업	-10.7577
글자	-10.7581
▁컷	-10.7582
미스	-10.7588
겠는가	-10.759
싶을때	-10.7593
▁배경으로	-10.7594
▁나니	-10.7601
그때	-10.7601
▁나타	-10.7604
리스트	-10.7605
▁나한테	-10.7611
▁처음에는	-10.7612
▁꼽	-10.7622
▁영화감독	-10.7625
▁킬링타임용도	-10.7625
▁봐줄	-10.7626
▁분을	-10.7628
▁설명이	-10.7631
▁흑	-10.7632
▁아침	-10.7633
▁봣다	-10.7634
릴수	-10.7636
▁재수없	-10.7639
▁생생	-10.764
▁믿는	-10.7644
▁역겹	-10.7646
▁안나오고	-10.7648
놈은	-10.7649
▁웃기네	-10.7651
▁하이	-10.7652
▁말하려는	-10.7656
셨으면	-10.7657
질수	-10.7661
저도	-10.7664
▁전부다	-10.7664
하려면	-10.7665
▁길다	-10.7666
이런거	-10.7667
▁이해도	-10.767
뽀	-10.767
뭉	-10.767
▁훌륭하	-10.7672
▁심장이	-10.7672
▁봤었다	-10.7673
남주	-10.7673
졌던	-10.7673
경찰	-10.7674
던데요	-10.7675
슬퍼	-10.7678
이기에	-10.768
▁오랜	-10.7683
아까웠	-10.7695
재미가	-10.7695
ᄏᄏᄏᄏᄏᄏᄏᄏᄏ	-10.7697
▁멜로영화	-10.7697
▁알지	-10.7699
스는	-10.7699
중간에	-10.7699
▁떠오르는	-10.77
쇄	-10.7707
랙	-10.7708
넬	-10.7708
핫	-10.7708
쯔	-10.7708
▁맙시다	-10.7708
▁사무라이	-10.7708
▁어우러진	-10.7708
▁드래곤볼	-10.7708
▁조용히	-10.7708
▁나머진	-10.7708
▁손색이	-10.7708
▁니콜라스	-10.7709
▁보여줌	-10.771
▁묵직	-10.771
▁패션	-10.7711
▁상당한	-10.7713
▁ᄅᄋ	-10.7714
▁드러나	-10.7714
▁엉	-10.7719
▁많은것을	-10.7722
▁잔잔하지만	-10.7723
할려고	-10.7724
▁넓	-10.7725
▁볼만해요	-10.7726
▁남자배우	-10.7727
▁미술	-10.7728
▁역사에	-10.7729
보네	-10.7729
▁일부	-10.7733
▁건강	-10.7736
겨운	-10.7736
봤으면	-10.7738
번에	-10.7738
▁엉성하다	-10.7738
그림	-10.7739
▁재밌기만	-10.7742
없어요	-10.7745
소장	-10.7748
▁있기	-10.7749
▁레오	-10.7749
아닌가	-10.7749
없지	-10.7751
▁억지스럽고	-10.7752
▁있으	-10.7754
▁어디까지	-10.7756
▁많음	-10.7758
호러	-10.7761
▁위안	-10.7761
▁사라져	-10.7761
▁없구나	-10.7763
▁회상	-10.7763
▁믿을게	-10.7765
같네요	-10.7765
▁심히	-10.7767
▁낫지	-10.7773
▁도중에	-10.7777
않은	-10.7778
재미잇	-10.7783
▁지금보면	-10.7783
▁일반인	-10.7785
▁확실	-10.7786
스러웠다	-10.7789
▁시원한	-10.7789
▁노래는	-10.779
▁뺏	-10.7791
▁아니네	-10.7793
▁아까워요	-10.7793
▁변신	-10.7793
▁끄는	-10.7795
감동도	-10.7797
▁후회함	-10.7799
▁머리속	-10.78
▁뻥	-10.7804
▁명작이네요	-10.7809
시기	-10.7813
▁밀려	-10.7813
꺼면	-10.7817
물에	-10.7817
점대	-10.7818
몰입도	-10.7818
시장	-10.7819
▁믿지	-10.7819
넘치는	-10.7823
▁파이팅	-10.7824
▁몰입도도	-10.7824
▁민족	-10.7826
▁허접하고	-10.7835
▁결말까지	-10.7837
때가	-10.7837
나보네	-10.7841
▁안좋	-10.7842
시키지	-10.7842
▁못만들	-10.7844
▁지루하네	-10.7845
▁없는듯	-10.7845
▁만들기도	-10.7847
▁전율이	-10.7854
▁당황	-10.7856
▁아오이	-10.7856
여자가	-10.7865
▁배려	-10.7866
▁관심이	-10.7866
듣	-10.7868
▁형식	-10.7869
오르	-10.787
▁굿굿굿	-10.7874
▁댄스	-10.7876
왔던	-10.7879
레기	-10.7881
있을까	-10.7881
▁사람들을	-10.7883
아니고	-10.7885
▁주원	-10.7887
아까	-10.789
크리	-10.789
▁개잼	-10.7893
▁나와도	-10.7894
▁가족을	-10.7896
▁무게	-10.7896
한국영화	-10.7896
모를	-10.7903
깜	-10.791
최고의영화	-10.7913
▁다행이	-10.7913
싶은	-10.7914
▁될것	-10.7915
과정	-10.7915
그래픽	-10.7915
마음이	-10.7915
무서운	-10.7917
보길	-10.792
▁남자는	-10.7922
드리고	-10.7925
▁소리만	-10.7925
좋았어요	-10.7931
▁해피엔딩이	-10.7937
▁산다	-10.7939
▁고어	-10.7942
▁거냐	-10.7943
▁다리	-10.7944
▁애들도	-10.7945
뭇	-10.7946
▁곱씹	-10.7946
▁런닝타임	-10.7946
▁펭귄	-10.7946
▁김민종	-10.7946
▁키아누	-10.7946
▁소지섭	-10.7946
▁ᄇᄉ	-10.7947
▁심리묘사	-10.7947
▁색다르	-10.7948
▁김태희	-10.7948
▁창있네	-10.7948
▁대표작	-10.7949
▁재밌게봤는데	-10.795
▁방황	-10.795
▁몰락	-10.795
▁저평가	-10.7951
▁록키	-10.7953
▁되어야	-10.7954
▁치료	-10.7955
▁사이코	-10.7955
▁존잼	-10.7957
▁긴장감과	-10.7957
▁증말	-10.7958
▁지나친	-10.7959
▁심각하게	-10.7959
▁매번	-10.7961
▁볼만했음	-10.7962
는것이	-10.7963
씩이나	-10.7963
▁시골	-10.7963
▁모순	-10.7966
▁없었으면	-10.7967
▁첨이네	-10.7968
▁돈아깝다	-10.7968
▁감정선	-10.797
재미없는	-10.7971
▁인간적으로	-10.7976
역활	-10.7978
▁선사	-10.7978
약간	-10.7981
▁탁월한	-10.7983
▁적은	-10.7984
분들이	-10.7984
▁잼없음	-10.7984
▁시체	-10.7987
▁연기로	-10.7987
▁실망스럽	-10.7987
▁무색	-10.7988
▁이런식으로	-10.799
▁배우분들	-10.7991
하고싶은	-10.7993
▁듣기	-10.7993
▁우린	-10.7996
▁비해서	-10.7997
▁영향을	-10.7997
▁부럽다	-10.8002
▁쥬	-10.8005
것같습니다	-10.8011
▁세대	-10.8013
▁웃겨요	-10.8014
해줘	-10.8015
맞아	-10.8016
했냐	-10.8017
▁안좋은	-10.8017
뿐인	-10.8018
치기	-10.8018
▁나을	-10.802
▁정체성	-10.8021
모습이	-10.8023
▁소개	-10.8024
보네요	-10.8024
▁스파이더맨	-10.8024
▁무서울	-10.8024
감도	-10.8026
아쉽다	-10.8027
▁수준이하	-10.8028
▁무서웠다	-10.8028
▁있나요	-10.8031
▁르	-10.8032
▁반도	-10.8034
▁날려	-10.8035
▁니들이	-10.8036
▁부르는	-10.8037
▁잔인하고	-10.8037
▁재미있었던	-10.8038
▁밑도	-10.804
▁단역	-10.8045
▁계기	-10.8052
▁틈이	-10.8053
▁머가	-10.8054
일때	-10.8055
▁이어지	-10.8055
▁모아	-10.8056
어주는	-10.8057
유발	-10.8059
▁더럽다	-10.8062
ᄏᄏᄏᄏᄏᄏᄏᄏᄏᄏᄏᄏ	-10.8066
▁더럽	-10.8067
▁않았음	-10.8067
졌습니다	-10.8068
한건지	-10.807
▁낚였네	-10.8072
앞에	-10.8073
▁허무함	-10.8077
재미는	-10.808
나갈	-10.8085
▁틀리	-10.8085
범죄	-10.809
▁로마	-10.809
▁비극적	-10.8092
▁전화	-10.8096
▁다시보고싶은	-10.8096
▁강력추천	-10.8099
▁무난	-10.8105
▁아담	-10.8108
▁데려다	-10.8108
▁연습	-10.8109
▁감독에게	-10.811
▁편인데	-10.8111
▁잘해	-10.8114
▁못했던	-10.8114
▁조정	-10.8115
▁보셈	-10.8116
▁드라마다	-10.8116
가면	-10.8117
대한	-10.8117
▁와진짜	-10.8123
▁졸작이다	-10.8123
피곤	-10.8127
줄알았	-10.8128
▁천원	-10.8129
▁잘했다	-10.813
▁한대	-10.8134
판에	-10.8134
▁멋잇	-10.8139
검사	-10.8141
▁오해	-10.8142
▁한숨	-10.8146
조차도	-10.8146
가슴이	-10.8146
멍	-10.8151
뇌	-10.8151
▁봐야한다	-10.8152
▁짱구	-10.8152
자기	-10.8153
겟네	-10.8156
▁그립	-10.8157
▁되는거	-10.8162
▁와서	-10.8164
핵	-10.8165
짧	-10.8167
거같네요	-10.8168
▁만들어준	-10.8175
▁놓은	-10.8175
왜이래	-10.8175
▁존재하는	-10.8176
▁능력이	-10.8177
영웅	-10.8181
한테는	-10.8184
▁향	-10.8185
▁차별	-10.8187
첩	-10.8187
램	-10.8187
▁평점조절	-10.8187
퀄	-10.819
앨	-10.819
▁구혜선	-10.819
▁드림웍스	-10.819
쇠	-10.819
같았음	-10.819
꽁	-10.819
▁설경구	-10.819
▁팍팍	-10.819
▁장동건	-10.819
▁저절로	-10.819
▁바탕으로	-10.8191
▁심오한	-10.8191
▁그들만의	-10.8191
▁어려웠	-10.8191
▁여자들이	-10.8191
▁흥해라	-10.8193
▁죽기전에	-10.8194
아무리	-10.8194
▁볼거	-10.8194
▁색채	-10.8194
▁평을	-10.8196
아직	-10.8196
해낸	-10.8197
▁가라	-10.8199
있다면	-10.8199
죽이고	-10.82
써요	-10.8201
▁커피	-10.8201
▁노튼	-10.8202
▁유령	-10.8204
▁말해	-10.8204
▁울었습니다	-10.8206
▁작품중	-10.8209
▁우왕	-10.8209
스포	-10.821
▁이나영	-10.821
▁만약	-10.8212
▁원표	-10.8212
▁영화중에서	-10.8212
▁소중하	-10.8213
▁영화였는데	-10.8213
▁예산	-10.8214
그녀	-10.8215
▁남자라면	-10.8216
▁기대되는	-10.8217
▁시켜	-10.8217
▁메시지가	-10.8218
▁재현	-10.822
▁주목	-10.8221
▁최선	-10.8221
묘사	-10.8222
진행	-10.8224
▁만들었네	-10.8231
▁실소	-10.8231
공주	-10.8231
하하하	-10.8232
▁언어	-10.8232
을수가	-10.8233
▁하니	-10.8234
동이	-10.824
▁재밌당	-10.824
▁무서워서	-10.824
▁별로였음	-10.8241
▁미쳐	-10.8247
끌고	-10.8247
▁마크	-10.825
▁최고였습니다	-10.825
▁재미있어서	-10.8255
▁오글거림	-10.8256
▁멀리	-10.8258
▁아쉬웠지만	-10.8258
▁상영관	-10.8258
▁현실에	-10.8258
▁빛이	-10.8263
싫	-10.8263
▁들여	-10.827
점에서	-10.8272
▁시기	-10.8275
갔으면	-10.8275
▁공식	-10.8277
▁만원	-10.828
▁말이필요없는	-10.8281
▁끝났다	-10.8282
▁재밌게본	-10.8291
▁덕	-10.8292
달아	-10.8296
▁돋보이	-10.8296
아이가	-10.8296
▁어쨌든	-10.8298
▁앞에서	-10.8301
▁다크	-10.8301
것일까	-10.8301
대고	-10.8306
▁한숨만	-10.8308
▁거야	-10.831
▁첨으로	-10.8311
▁바라보는	-10.8313
볼때	-10.8314
▁눈치	-10.8316
▁다음으로	-10.8318
▁특이한	-10.8319
달까	-10.832
▁공포감	-10.8321
만든영화	-10.8321
▁풀어내	-10.8333
▁무기	-10.8335
▁감상하	-10.8337
▁흑흑	-10.8344
하는짓	-10.8345
▁성룡이	-10.8345
겠냐	-10.8348
꺼다	-10.8349
▁달리는	-10.835
저질	-10.8352
▁중독	-10.8356
▁되었습니다	-10.8358
누가	-10.8359
▁가자	-10.8361
후반	-10.8362
▁우리나라에서	-10.8363
뭔지	-10.8364
▁가져다	-10.8367
▁상업영화	-10.8371
▁감흥이	-10.8372
했어도	-10.8377
▁잼씀	-10.8377
▁안들어	-10.8378
회가	-10.8378
때메	-10.8379
▁스릴이	-10.838
▁하던데	-10.838
▁표현했다	-10.8381
▁빼놓	-10.8384
것들이	-10.8389
이젠	-10.839
▁똑같다	-10.8392
▁부럽	-10.8393
▁뻔뻔	-10.8394
▁분은	-10.8394
▁귀여	-10.8394
▁내놓	-10.8396
▁복잡	-10.8397
▁한다고	-10.84
▁레기	-10.8402
▁연주	-10.8402
▁하드	-10.8406
▁이끌어	-10.8407
▁심심한	-10.8408
으러	-10.8413
젼	-10.8413
▁라스트	-10.8415
액	-10.8419
ᅲᅲᅲᅲᅲᅲᅲᅲ	-10.8423
쭉	-10.8424
▁아니냐	-10.8424
▁셋	-10.8424
죽여	-10.8424
괜히	-10.8425
시간낭비	-10.8426
나오면	-10.8426
▁혜	-10.8429
했더니	-10.8434
▁드문	-10.8436
팠	-10.844
넼	-10.844
둬	-10.844
펴	-10.844
▁이탈리아	-10.844
닦	-10.844
▁권상우	-10.844
▁웬만하면	-10.844
▁지저분	-10.844
▁엽문	-10.844
▁오우삼	-10.8441
▁황홀	-10.8441
▁침묵	-10.8441
▁엉엉	-10.8441
▁슈렉	-10.8441
▁가슴아픈	-10.8442
▁뉴욕	-10.8442
▁간첩	-10.8442
▁보느니	-10.8442
▁뛰쳐	-10.8444
▁퇴보	-10.8444
반전이	-10.8444
▁방향	-10.8446
▁뿌리	-10.8447
▁생존	-10.8447
▁깨달음	-10.8449
좋았음	-10.845
▁절반	-10.8451
▁젊음	-10.8451
▁지루했어요	-10.8451
▁기분좋은	-10.8454
▁나열	-10.8454
▁실화라는	-10.8454
▁만들어주세요	-10.8454
▁소리가	-10.8456
▁질문	-10.8456
▁예고편이	-10.8456
▁않았을까	-10.8459
▁혹	-10.846
▁뭐랄까	-10.8461
▁카피	-10.8464
▁기록	-10.8468
▁영상미도	-10.8469
▁없군	-10.847
▁후반부에	-10.847
▁저리	-10.8473
▁어서	-10.8474
▁참여	-10.8474
아깝네	-10.8475
▁굉장한	-10.8476
알려주	-10.8478
양반	-10.8478
▁숲	-10.8479
▁초딩들	-10.8479
▁이따구로	-10.8479
▁좆	-10.848
해지네요	-10.8481
▁배울	-10.8482
▁개독	-10.8482
▁이것은	-10.8482
▁제목과	-10.8482
▁부끄러운	-10.8486
▁최고였어요	-10.8486
드림	-10.8488
▁슬프지만	-10.8491
▁조기종영	-10.8493
▁하고싶은	-10.8494
▁영화란	-10.8495
▁아이들은	-10.8497
▁유혹	-10.8501
▁아닌거	-10.8503
멋대로	-10.8504
갈수	-10.8508
▁좋았어	-10.851
▁봤고	-10.8511
없는데	-10.8513
▁그시절	-10.8513
▁산만	-10.8513
▁대표	-10.8513
▁개봉하는	-10.8516
돈으로	-10.8517
▁선동영화	-10.8518
▁매력은	-10.8518
▁의미없는	-10.8519
▁외국인	-10.852
▁역사적	-10.8521
모자	-10.8525
외엔	-10.8526
▁편부터	-10.8526
을까요	-10.8528
▁죽음을	-10.8532
▁있겠다	-10.8534
▁이따위로	-10.8534
감은	-10.8534
▁영화제목	-10.854
▁가치를	-10.8541
봣음	-10.8542
▁시대가	-10.8542
▁어이없고	-10.8543
▁들어도	-10.8546
▁한가지	-10.8546
▁충실	-10.8547
▁따분	-10.8553
▁이야기의	-10.8556
이해가	-10.8558
▁정부	-10.8558
▁싶으면	-10.8562
▁편에서	-10.8567
▁상상하	-10.8567
▁과정이	-10.8567
▁하긴	-10.857
아아아아	-10.8578
▁명작이라고	-10.8582
들이랑	-10.8583
왔습니다	-10.8586
학원	-10.8587
▁허접함	-10.859
▁진짜진짜	-10.859
▁관심을	-10.8591
▁기대에	-10.8591
▁쓰레기임	-10.8592
▁저기	-10.8592
▁신선하다	-10.8593
▁싹	-10.8594
▁시나리오도	-10.8594
▁본듯한	-10.8595
▁않았나	-10.8595
조각	-10.8597
수가없다	-10.8598
팬이	-10.8601
▁공포영화는	-10.8602
있었던	-10.8605
▁잇는	-10.8605
▁찍을	-10.8606
잤	-10.8607
▁이야기에	-10.8607
▁짱짱맨	-10.8607
곳에	-10.8611
시네	-10.8616
▁해보	-10.8622
빼고는	-10.8622
거랑	-10.8626
해본	-10.8626
척하는	-10.8628
▁봤다는	-10.863
올려	-10.8631
▁부인	-10.8637
▁봐야겠다	-10.864
보던	-10.8642
급영화	-10.8643
▁젊	-10.8649
▁독립	-10.8652
▁택	-10.8654
▁속은	-10.8656
▁감성이	-10.8656
▁낚이지	-10.8661
▁챙겨보	-10.8662
ᅲᅲᅲᅲᅲ	-10.8663
줍니다	-10.8663
▁보여줬	-10.8663
▁여주인공의	-10.8664
▁재미있다고	-10.8665
▁싫은	-10.8669
▁의한	-10.867
▁잘하네	-10.8677
받아서	-10.8679
농	-10.868
▁편과	-10.868
▁틈	-10.8684
▁조심	-10.8686
하구나	-10.8687
댓글	-10.8688
▁재미없었	-10.8688
▁좋아하시는	-10.8688
▁남의	-10.8689
방식	-10.8689
▁남고	-10.869
측	-10.869
▁스타일이	-10.869
싼	-10.8692
▁엽기	-10.8692
▁자극적	-10.8693
▁왓	-10.8693
예전	-10.8694
낌	-10.8694
들로	-10.8695
펑	-10.8696
깡	-10.8696
댐	-10.8696
▁내러티브	-10.8696
▁똑바로	-10.8696
▁섞어	-10.8696
▁신데렐라	-10.8696
▁양동근	-10.8696
▁크레딧	-10.8696
▁클리셰	-10.8696
▁팀버튼	-10.8696
푼	-10.8696
▁국어책	-10.8696
▁황정민	-10.8696
왈	-10.8696
▁어차피	-10.8696
▁정주행	-10.8696
갖	-10.8697
▁거슬리	-10.8697
▁사기꾼	-10.8698
▁담백하	-10.8699
▁눈요기	-10.8699
▁절제된	-10.87
▁표정이	-10.87
▁욕나온다	-10.87
▁문득	-10.8701
▁학살	-10.8701
었다고	-10.8703
그런데	-10.8703
▁여태까지	-10.8704
▁언제쯤	-10.8704
▁징	-10.8704
▁인권	-10.8705
게다가	-10.8705
▁빨간	-10.8706
▁캐릭터를	-10.8706
▁지브리	-10.8707
▁여튼	-10.8708
▁혈	-10.8709
▁제정신	-10.8709
노출	-10.8711
안하고	-10.8712
▁우습	-10.8712
▁예뻐요	-10.8714
▁웃겼음	-10.8715
▁돈벌	-10.8715
제작비	-10.8716
▁경계	-10.8718
▁단순히	-10.8719
▁작품에	-10.8721
▁주려	-10.8721
▁우승	-10.8721
▁제시	-10.8722
▁애국	-10.8722
넘어	-10.8723
▁평가를	-10.8723
▁제왕	-10.8724
▁슬퍼요	-10.8725
▁졸면서	-10.8727
▁입장에서	-10.8727
▁신나는	-10.8728
▁헛웃음만	-10.8728
▁않으면	-10.8729
▁사랑도	-10.8729
시티	-10.873
지경	-10.873
▁출신	-10.873
▁불편하다	-10.8732
▁결국엔	-10.8732
내리	-10.8732
▁연기력과	-10.8735
▁조악	-10.8736
▁폰	-10.8737
이쁘고	-10.8737
니아	-10.8738
▁뽀	-10.8738
▁달콤한	-10.874
안에서	-10.874
▁법정	-10.8743
▁아동용	-10.8744
▁이것저것	-10.8744
▁감동도없고	-10.8746
▁빠져들	-10.8748
봣던	-10.8749
▁후반에	-10.8749
웃겼	-10.875
▁쓰지	-10.875
▁잡고	-10.8751
▁씁쓸한	-10.8754
▁예술가	-10.8756
활동	-10.876
이쁘다	-10.8761
▁나고	-10.8761
▁돌아오	-10.8762
▁여운도	-10.8765
▁성유리	-10.8766
나쁜	-10.8769
▁일본판	-10.877
보셔	-10.8776
점점	-10.8776
▁끌려	-10.8776
▁당당	-10.8782
▁그지같은	-10.8784
작렬	-10.8785
센스	-10.8785
였다니	-10.8786
▁재밋는데	-10.8786
해줌	-10.8786
영화자체는	-10.8787
죽음	-10.8787
▁흥미진진한	-10.8791
▁반전의	-10.8791
▁잘함	-10.8792
작전	-10.8796
바보	-10.8798
르게	-10.8803
아아아	-10.8803
적임	-10.8804
▁강하게	-10.8808
▁먹먹한	-10.8811
장님	-10.8812
▁혼자서	-10.8813
▁기타	-10.8818
엿음	-10.8819
▁매력있는	-10.882
할정도	-10.8824
▁나참	-10.8824
▁옛다	-10.8825
기때문에	-10.8825
▁했을	-10.8826
꺼같	-10.8827
▁꿈과	-10.8827
▁극중	-10.8828
▁본능	-10.883
▁상상력이	-10.8837
에게도	-10.8839
로서의	-10.884
▁주고싶은	-10.8841
▁뭔가요	-10.8841
▁예고편만	-10.8842
▁다른사람	-10.8844
▁각자	-10.885
▁광팬	-10.885
▁남는건	-10.8853
▁새로	-10.8856
▁시간동안	-10.8857
▁상황이	-10.8857
키드	-10.8862
▁울게	-10.8863
재미없고	-10.8863
등급	-10.8864
▁싶었는데	-10.8866
▁좋아하게	-10.8868
▁덕에	-10.8871
작가님	-10.8871
사진	-10.8874
▁민망한	-10.888
▁가상	-10.8883
▁얘들	-10.8883
▁몰입하게	-10.8885
쉽	-10.8885
됬는데	-10.8886
▁이렇게까지	-10.8892
▁모냐	-10.8897
▁졸려	-10.8897
클라	-10.8898
앞으로	-10.8902
모습을	-10.8907
어진다	-10.8907
▁쓰레기를	-10.8908
▁와닿는	-10.8909
▁하는것	-10.8912
▁뽑아	-10.8915
본듯	-10.8916
▁일본영화는	-10.8916
싶은데	-10.8918
하느라	-10.892
▁그들을	-10.8922
인거같다	-10.8923
▁글자	-10.8923
야말로	-10.8925
▁감독님의	-10.8929
▁나온거	-10.893
▁어린이들	-10.893
▁안했는데	-10.8931
▁곤	-10.8932
만들엇	-10.8933
▁뭐든	-10.8933
▁이런드라마	-10.8934
▁혀	-10.8935
▁차이가	-10.8936
맞은	-10.8938
버그	-10.894
▁있는듯	-10.8942
ᄍᄍᄍ	-10.8942
즌	-10.8946
▁선수	-10.8946
내서	-10.895
▁웃어	-10.8951
▁사랑스럽	-10.8951
삐	-10.8954
▁튀	-10.8954
▁뗄	-10.8955
안타까	-10.8955
딜	-10.8955
▁보진	-10.8956
뢰	-10.8956
▁한줄	-10.8956
▁이어지는	-10.8957
들끼리	-10.8958
퉁	-10.8959
밉	-10.8959
멈	-10.896
훗	-10.896
넷	-10.896
엣	-10.896
▁고등학생	-10.896
▁다크나이트	-10.896
▁시끄럽	-10.896
ᅦ	-10.896
▁멘붕	-10.896
▁더더욱	-10.896
▁어딘가	-10.896
▁임청하	-10.896
▁아이러니	-10.896
▁비정상	-10.896
▁레이첼	-10.896
▁뮤직비디오	-10.896
▁리즈시절	-10.8961
▁잃어버린	-10.8961
▁일깨워주는	-10.8961
▁미치도록	-10.8961
▁가까이	-10.8962
▁배속으로	-10.8963
▁담담하	-10.8964
▁웃으며	-10.8964
▁빠져드는	-10.8965
▁보이고	-10.8966
▁자연스러운	-10.8967
▁머지	-10.8968
빼면	-10.8968
▁한장면	-10.8969
▁졸았다	-10.8969
폭력	-10.8969
존재	-10.8971
▁개인적인	-10.8971
따윈	-10.8971
▁웃게	-10.8973
▁총알	-10.8973
▁구라	-10.8973
▁아까웠던	-10.8974
날때	-10.898
▁복선	-10.898
▁아리	-10.898
▁종영	-10.8981
▁배우로	-10.8981
▁히어로물	-10.8982
딴	-10.8982
▁집어	-10.8984
▁실화라니	-10.899
▁겉멋만	-10.899
높아	-10.899
▁마초	-10.8991
▁못본	-10.8991
▁상실	-10.8991
▁훌륭함	-10.8993
▁뉴스	-10.8994
▁돋보	-10.8995
▁멋있어요	-10.8998
▁번역	-10.8999
▁서극	-10.8999
▁하나는	-10.9
하던지	-10.9
줘도	-10.9001
알바들	-10.9002
▁전락	-10.9004
▁따뜻	-10.9004
▁몰입되	-10.9004
르르	-10.9007
▁미이라	-10.9008
▁싸이코패스	-10.9008
집중	-10.9009
▁한거	-10.9011
듣고	-10.9011
불가	-10.9012
▁청년	-10.9013
앞에서	-10.9013
겁니까	-10.9014
▁의외의	-10.9014
▁오글거려	-10.9015
▁추구	-10.9016
▁그지같	-10.9016
▁튀어	-10.9016
▁빌리	-10.9018
▁생각해서	-10.9019
생겼	-10.9021
▁잊을수가	-10.9021
▁인간적인	-10.9022
▁어린이용	-10.9023
▁도통	-10.9024
▁아쉽네	-10.9029
으세요	-10.9031
▁스피드	-10.9031
▁말아먹은	-10.9031
▁없어도	-10.9033
매우	-10.9034
영환줄	-10.9035
영화관에서	-10.9041
▁소름끼치	-10.9045
▁그런영화	-10.9045
이리	-10.905
▁자위	-10.9053
▁장근석	-10.9053
▁핑	-10.9061
▁인가	-10.9061
돋는다	-10.9064
▁메리	-10.9065
▁헌	-10.9065
▁영구	-10.9067
걸작	-10.9068
내용을	-10.9068
점준다	-10.9069
▁최하	-10.907
▁난국	-10.9072
▁기회가	-10.9074
하곤	-10.9076
▁생각은	-10.9077
▁비하	-10.9077
▁주먹	-10.9077
죽어	-10.9077
▁증거	-10.9079
▁칸	-10.9081
만들어도	-10.9082
▁대역	-10.9082
▁원작과	-10.9084
▁어설프	-10.9084
▁코드가	-10.9087
쩔어	-10.9089
▁맺	-10.9091
찾기	-10.9093
하지마세요	-10.9095
점부터	-10.9095
▁예뻐	-10.9096
▁뜬금없이	-10.9099
말곤	-10.9103
▁있는것	-10.9106
▁명성	-10.9107
▁지나가	-10.9108
년들	-10.9109
인상	-10.9115
▁되어서	-10.9115
▁맘이	-10.912
▁엉성함	-10.912
▁소재에	-10.9122
▁밀라	-10.9124
감성	-10.9125
재밋게	-10.9125
▁꿈이	-10.9133
▁욕을	-10.9135
▁장난이	-10.9141
싶어서	-10.9145
렸음	-10.9146
▁불쾌한	-10.9147
▁큼	-10.9148
▁자체로	-10.9152
▁쯧쯧	-10.9152
▁하며	-10.9153
▁출연했	-10.9155
▁쓰레기는	-10.9164
하고픈	-10.9166
이쁘	-10.9169
▁한사람	-10.9171
▁약해	-10.9172
봣습니다	-10.9174
▁생각나게	-10.9177
▁시대적	-10.918
▁위에	-10.918
한건가	-10.9181
주는데	-10.9193
인척	-10.9194
▁호감	-10.9195
▁인도영화	-10.9197
하기가	-10.92
▁따라한	-10.9208
▁중학교	-10.9209
▁쩌네	-10.9209
▁섹시한	-10.9212
▁격투	-10.9215
▁조폭영화	-10.9216
▁등장하는	-10.9216
죽는줄	-10.9219
▁성적	-10.9219
▁첩보	-10.9221
▁한국어	-10.9222
▁무한	-10.9222
하겠지만	-10.9222
▁미치는	-10.9225
뻑	-10.9229
텅	-10.923
▁졸업작품	-10.923
룸	-10.923
잣	-10.923
▁끝판왕	-10.923
▁보냅니다	-10.923
팝	-10.923
펠	-10.923
▁불면증	-10.923
▁어떠한	-10.923
▁큐브	-10.923
▁타이틀	-10.923
▁가르쳐	-10.923
▁겨울왕국	-10.923
▁워낙	-10.923
▁돈만	-10.9231
▁에로틱	-10.9231
▁온몸	-10.9232
벤	-10.9232
▁꺼버렸다	-10.9233
뛰어	-10.9233
▁적나라하	-10.9233
▁묻어나는	-10.9233
▁오글거리	-10.9233
▁안타까웠	-10.9234
▁즐겁다	-10.9235
이기도	-10.9235
▁깨알	-10.9235
▁프레디	-10.9236
▁정이	-10.9236
등등	-10.9236
액션영화	-10.9237
지났지만	-10.9239
▁활용	-10.9239
▁장혁	-10.9239
▁못생겼	-10.924
▁성숙	-10.924
▁미안하지만	-10.9242
맞추	-10.9243
▁팬이라면	-10.9243
볼때마다	-10.9243
▁본질	-10.9243
▁아쉽긴	-10.9243
▁넘어선	-10.9244
▁시간아까움	-10.9245
▁내겐	-10.9246
▁오글거려서	-10.9247
▁지리	-10.925
▁남았다	-10.925
라기	-10.925
▁점도아깝다	-10.9251
▁더빙판	-10.9254
▁호불호가	-10.9254
거든요	-10.9254
▁슬퍼서	-10.9258
▁해외	-10.9258
평생	-10.9259
▁분의	-10.926
보느니	-10.9263
ᄉᄉ	-10.9264
모양	-10.9264
▁추억을	-10.9265
▁꺼내	-10.9267
별로다	-10.9267
▁소소하	-10.9267
헤헤	-10.9267
▁말해주는	-10.9267
▁지존	-10.9268
유머	-10.9268
▁타인	-10.9269
▁괜찮던데	-10.9272
말고는	-10.9274
▁뭉	-10.9274
▁잼있어	-10.9274
▁재밌게봤음	-10.9275
▁안든다	-10.9276
좋앗	-10.9278
▁쏙	-10.928
▁얘기를	-10.9281
▁전투씬	-10.9285
▁숨어	-10.9287
▁답답해서	-10.9288
▁도라에몽	-10.9288
▁전편의	-10.9289
▁노는	-10.9293
▁된다는	-10.9294
▁사나이	-10.9296
왓	-10.9297
▁아니라서	-10.9298
▁나왔는데	-10.93
▁우선	-10.93
▁점에서	-10.9302
▁좋구	-10.9306
▁예술이	-10.9306
무지	-10.9306
▁성룡영화	-10.9308
▁볼만하네요	-10.9308
▁본영화중	-10.9309
▁상처를	-10.931
▁장난감	-10.9311
하지않고	-10.9316
▁재미있었고	-10.932
▁졸음	-10.9321
▁들려	-10.9326
연기자	-10.9328
▁유치하기	-10.9328
▁다큐를	-10.933
▁안된	-10.9333
▁딸이	-10.9335
▁시간과	-10.9336
▁하던가	-10.9341
주의자	-10.9342
느님	-10.9349
▁한번쯤은	-10.9356
▁뚫	-10.9357
▁몸을	-10.9359
▁저게	-10.936
▁올드	-10.936
포스	-10.9361
흥미를	-10.9363
▁에러	-10.9364
▁안되서	-10.9364
▁연기한	-10.937
만족	-10.937
▁솔직한	-10.937
▁애니가	-10.9372
▁하지마	-10.9373
▁자체도	-10.9373
▁방법이	-10.938
기라도	-10.938
▁해요	-10.9381
▁때의	-10.9385
▁꿈꾸	-10.9385
인들의	-10.9386
▁알게되	-10.9388
스러울	-10.9389
재미있는	-10.9392
▁교회	-10.9393
▁건질	-10.9396
질러	-10.9397
같습니다	-10.9397
▁새끼들	-10.9398
▁교훈이	-10.9401
좋은데	-10.9402
▁싶지만	-10.9406
이건뭐	-10.9409
▁맞게	-10.941
▁있으니	-10.9416
▁대사는	-10.9417
▁느낌도	-10.9418
▁유리	-10.9423
보여주는	-10.9423
▁배우와	-10.9424
▁획	-10.9424
▁사람과	-10.943
▁더빙은	-10.9438
스코	-10.9442
▁배경도	-10.9443
▁놈이	-10.9444
▁티가	-10.9444
스럽지	-10.9444
▁대로	-10.9445
▁연출을	-10.9448
▁트랜스포머	-10.9449
본게	-10.9449
▁괜찮을	-10.9452
해야한다	-10.9453
꺼라	-10.9453
▁으아	-10.9453
▁좋아하지	-10.9456
기술	-10.9459
▁꼽을	-10.946
▁영화다운	-10.946
▁어정쩡	-10.9463
▁롤	-10.9465
중간	-10.9466
▁캐스팅도	-10.9467
▁살인자	-10.947
▁줬다	-10.9474
놀랐	-10.9474
▁최대의	-10.9476
▁머리를	-10.9476
▁ᄇ	-10.9477
▁지가	-10.9483
▁분도	-10.9485
빠짐	-10.9486
▁앉	-10.9489
선수	-10.949
▁본방	-10.949
▁일을	-10.9496
지난	-10.9497
굿굿	-10.9498
▁밀어	-10.95
▁외에는	-10.95
▁안타깝	-10.9501
▁쯤	-10.9502
▁소재만	-10.9503
▁보지도	-10.9507
뎀	-10.9507
률	-10.9507
쯧	-10.9507
쉴	-10.9507
▁비추천	-10.9507
볼만한	-10.9507
▁양조위	-10.9508
▁에드워드	-10.9508
▁찝찝한	-10.9508
▁후덜덜	-10.9508
▁엉터리	-10.9508
▁두려움	-10.9508
▁나쁘진	-10.9508
떄문에	-10.9508
▁기분좋게	-10.9508
▁인종차별	-10.9508
▁오페라	-10.9508
▁콤비	-10.9508
▁일베충	-10.9508
▁웅장	-10.9508
▁스킵	-10.9509
▁깨달았다	-10.9509
▁전도연	-10.9509
▁생략	-10.9509
▁크리스찬	-10.951
▁메세지도	-10.951
▁때우기	-10.9511
▁느껴짐	-10.9511
▁지루하지만	-10.9514
▁구역질	-10.9514
▁케이지	-10.9515
▁과장된	-10.9515
▁신세계	-10.9516
▁낚여서	-10.9517
랩	-10.9518
▁태양	-10.9518
나봐요	-10.9519
▁추잡	-10.9519
▁출발	-10.952
특유의	-10.952
▁대학생	-10.952
▁과감	-10.952
히어로	-10.9521
▁먼지	-10.9522
▁생각한	-10.9522
결혼	-10.9522
몇번	-10.9522
감사합니다	-10.9524
네이버	-10.9524
▁물씬	-10.9524
▁묻혀	-10.9526
▁후회하지	-10.9528
해준다	-10.9528
▁비록	-10.9528
▁않았으면	-10.9529
▁코미디는	-10.9529
▁한번씩	-10.953
▁남친	-10.953
▁깔끔하고	-10.9532
▁실망스러운	-10.9535
▁부분에서	-10.9537
느니	-10.9538
▁구역	-10.954
▁앞서	-10.9541
좋아서	-10.9543
▁뻔하지만	-10.9543
흐흐	-10.9543
만들지	-10.9547
보일	-10.955
▁포켓몬	-10.9551
음악도	-10.9558
▁장소	-10.9559
▁작품성이	-10.9559
▁오글거리고	-10.956
▁시절의	-10.956
▁조지	-10.9561
▁농구	-10.9562
▁예쁘게	-10.9566
▁홍금보	-10.9567
▁복잡한	-10.9571
▁멋있었다	-10.9573
▁망쳤다	-10.9574
나왔다	-10.9574
▁좋아했던	-10.9575
오오	-10.9575
설마	-10.9575
▁차마	-10.9579
▁잘봤다	-10.958
▁의해	-10.9582
보고있어요	-10.9582
▁지루함이	-10.9585
▁게임을	-10.9585
▁당연한	-10.9586
▁시선으로	-10.9588
▁만드는지	-10.9589
▁아이를	-10.9592
▁않아도	-10.9593
이란걸	-10.9595
▁땀	-10.9598
▁범인이	-10.9598
▁토니	-10.96
▁수준급	-10.96
▁셀	-10.9601
애기	-10.9605
▁기념	-10.9605
▁저희	-10.9605
잼잇	-10.9609
▁달달한	-10.9613
▁꼽는	-10.9615
▁턱	-10.9615
▁기대합니다	-10.9616
▁높은거	-10.962
▁짜증났	-10.9621
▁돈은	-10.9623
른다	-10.9626
여야	-10.9629
▁보는사람	-10.9632
▁작가의	-10.9633
해졌다	-10.9637
▁이영화보고	-10.9638
아내	-10.9639
▁님들	-10.9643
줄수	-10.9645
▁만드나	-10.9648
해줄	-10.9648
▁바라보	-10.9649
▁세상의	-10.9649
만들고	-10.9649
▁왔는데	-10.965
많고	-10.965
▁더럽고	-10.965
▁위험	-10.9653
셨어요	-10.9653
로선	-10.9655
▁부른	-10.9656
▁죽인다	-10.9656
시리즈중	-10.9657
▁만나는	-10.9659
키우	-10.9663
하기는	-10.9663
▁만화를	-10.9666
마라	-10.9666
달리	-10.9667
▁우리에게	-10.9668
▁제외	-10.9669
대전	-10.9671
인권	-10.9671
▁불편함	-10.9672
▁적어	-10.9674
영화에요	-10.9675
다들	-10.9677
▁고작	-10.9678
관에서	-10.968
▁장애	-10.968
▁걸로	-10.9682
볼려고	-10.9685
▁보이지만	-10.9685
▁이정도로	-10.9687
되길	-10.9692
▁비중	-10.9692
아리	-10.9696
졸라	-10.9699
▁재밌었고	-10.9702
▁것만으로도	-10.9703
만드네	-10.9706
▁뇌가	-10.9706
▁잔잔하	-10.9707
일단	-10.971
▁거다	-10.971
▁갱	-10.9711
▁글을	-10.9713
▁다른거	-10.9715
▁설정과	-10.9715
▁희망이	-10.9716
▁명작이라	-10.9716
▁참고로	-10.9719
찍는	-10.9722
▁최고라는	-10.9723
▁해야하나	-10.9724
▁고급	-10.9726
하는것도	-10.9728
▁먹칠	-10.9728
하시네요	-10.973
▁켄	-10.973
▁또보고	-10.9731
▁일본에서	-10.9732
▁윌	-10.9734
▁세상은	-10.9736
▁심각한	-10.9737
▁기사	-10.974
▁빠져들었	-10.974
▁화끈	-10.9754
▁잘보고	-10.9755
▁말만	-10.9755
▁시나리오에	-10.9758
▁것들을	-10.9759
▁회사	-10.976
▁냄새	-10.9762
자매	-10.9764
▁걸린	-10.9767
섯	-10.977
▁진행되	-10.977
▁수치	-10.9771
▁짜증나네	-10.9772
▁시간때우기	-10.9772
▁이후에	-10.9773
▁태어나	-10.9778
▁불과	-10.9785
전체	-10.9786
륜	-10.9789
라는거	-10.9789
전개가	-10.9789
▁자극하는	-10.9791
▁이런영화에	-10.9793
썰	-10.9793
쌀	-10.9793
웰	-10.9793
횽	-10.9793
▁미장센	-10.9793
▁스타일리쉬	-10.9793
▁엉덩이	-10.9793
▁용두사미	-10.9793
▁주상욱	-10.9793
▁여기저기	-10.9793
▁최민식	-10.9793
▁태어난	-10.9794
▁애초에	-10.9794
▁케이트	-10.9794
▁이순신	-10.9794
▁이범수	-10.9794
▁사로잡	-10.9794
▁위대함	-10.9794
▁이해안가	-10.9795
▁루이스	-10.9795
▁드러내	-10.9795
▁색깔	-10.9795
▁스티브	-10.9796
▁경쾌	-10.9796
▁유지태	-10.9797
▁외로운	-10.9798
▁넋	-10.9798
▁감옥	-10.9799
▁밑에분	-10.9799
▁이민기	-10.9799
높다	-10.9801
▁생각나네	-10.9801
윈	-10.9802
마니	-10.9802
만해도	-10.9803
▁출현	-10.9804
▁과잉	-10.9804
▁발연기에	-10.9804
▁몇번이나	-10.9805
▁중반부터	-10.9806
▁영화관에	-10.9806
▁애국심	-10.9809
탐	-10.9809
▁사랑으로	-10.9809
▁세계관	-10.9809
▁대표적인	-10.981
▁스토리라인	-10.981
완벽	-10.9811
앉	-10.9811
셋	-10.9812
깍	-10.9813
캬	-10.9814
톰	-10.9815
▁좋아한다면	-10.9817
필름	-10.9818
▁괜찮네	-10.9819
극장판	-10.9819
▁개나	-10.9819
볼까	-10.9821
이아니라	-10.9822
▁미국판	-10.9824
▁허무하다	-10.9824
▁파격적	-10.9825
▁걸어	-10.9825
버렸음	-10.9826
▁고인의	-10.9827
▁일베	-10.9827
▁내스타일	-10.9828
▁필수	-10.983
왜이리	-10.983
▁중독성	-10.9831
그게	-10.9833
런지	-10.9833
야되는데	-10.9835
▁개봉당시	-10.9835
▁영화라는게	-10.9836
▁즈	-10.9836
▁보러가	-10.9837
▁힘들게	-10.9839
엇어요	-10.984
엉성	-10.9841
▁외엔	-10.9841
▁가는줄	-10.9841
▁이라고	-10.9842
▁안타깝고	-10.9845
▁ᄏᄏᄏᄏᄏᄏᄏᄏᄏᄏᄏᄏ	-10.9846
님은	-10.9847
시원	-10.9848
▁만화가	-10.985
▁지막	-10.985
쓴다	-10.985
주인공이	-10.9851
▁배가	-10.9852
▁가볍지	-10.9853
▁하는건	-10.9855
▁화려	-10.9857
▁시간아깝	-10.9861
▁뻔해	-10.9863
▁개는	-10.9863
▁기영화	-10.9867
▁해피	-10.9868
▁지대로	-10.9869
릴때	-10.9871
넘게	-10.9871
▁보고있는	-10.9872
킬링타임용	-10.9874
▁걸렸	-10.9876
끼고	-10.9878
있을때	-10.9878
▁몫	-10.9879
▁숀	-10.9879
모델	-10.988
▁부디	-10.988
▁영화계의	-10.9881
▁죽이네	-10.9883
▁똥을	-10.9884
스톤	-10.9885
▁닌	-10.9886
준영	-10.9887
재밌는데	-10.9888
▁이건좀	-10.9888
하길래	-10.9891
그랬어	-10.9892
감동적인	-10.9892
▁나쁜놈	-10.9893
▁후회할	-10.9894
드문	-10.9894
▁극장판은	-10.9894
▁생각했던	-10.9894
▁그들은	-10.9896
▁다음에	-10.9897
전문	-10.9897
▁살때	-10.9897
▁계기가	-10.9898
▁못된다	-10.9898
▁달고	-10.9898
▁없는영화	-10.9899
돌리	-10.9902
▁있었다니	-10.9903
▁정치적	-10.9904
보기싫	-10.9905
▁현실적이고	-10.9907
▁물건	-10.9908
▁분위기에	-10.9909
▁분위기를	-10.9913
광수	-10.9917
망작	-10.9925
▁입장	-10.9925
▁먹었	-10.9927
▁던지는	-10.9927
하루	-10.9931
▁초기	-10.9933
궁금	-10.9936
▁그런건	-10.9937
▁과정을	-10.9939
▁허무하게	-10.9939
사라	-10.9944
▁섹	-10.9944
해줬으면	-10.9946
외에는	-10.9948
▁장르는	-10.9948
▁자본	-10.995
▁마누라	-10.9953
▁의식	-10.9955
▁뛰어나다	-10.9956
으셨	-10.9956
▁충격적	-10.9957
▁공감가는	-10.9958
▁성의	-10.9961
었을텐데	-10.9962
나무	-10.9966
▁러닝타임이	-10.9968
▁합쳐	-10.9971
웃기고	-10.9972
연히	-10.9972
▁기어	-10.9973
▁저거	-10.9976
▁낸	-10.9976
▁브레	-10.9979
▁봤었	-10.998
▁볼거리도	-10.998
네ᅳᅳ	-10.9983
많다	-10.9984
냐ᅳᅳ	-10.9987
▁남음	-10.9989
이영화는	-10.9991
무섭다	-10.9992
▁말이다	-10.9994
저는	-10.9995
▁세트	-10.9998
하우스	-11.0005
▁난감	-11.0005
▁보물	-11.0007
아프고	-11.0007
▁비교가	-11.0015
▁차원이	-11.0016
없엇	-11.0018
파트	-11.0022
▁나가는	-11.0025
▁선택한	-11.003
▁낼	-11.0031
보나	-11.0036
▁무어	-11.0038
최악의영화	-11.0042
자연	-11.0043
▁잃었	-11.0046
▁아아	-11.0048
렸던	-11.005
▁넘기	-11.0051
빼	-11.0051
▁처음임	-11.0054
략	-11.0054
▁하냐	-11.006
▁아쉬울	-11.0061
▁너무한다	-11.0065
젠	-11.0066
평점을	-11.0066
▁머리에	-11.0067
▁기분만	-11.0068
▁낚였	-11.0068
▁그래픽이	-11.0072
▁돈과	-11.0076
▁기법	-11.008
▁의미는	-11.0082
긍	-11.0087
쏠	-11.0088
▁고맙다	-11.0088
▁두근두근	-11.0088
▁로보캅	-11.0088
▁찝찝함	-11.0088
▁학창시절	-11.0088
▁허무맹랑	-11.0088
뒀	-11.0088
▁뚝뚝	-11.0088
▁썰렁	-11.0088
흰	-11.0088
▁아프리카	-11.0088
▁조승우	-11.0088
▁처절한	-11.0088
▁환타지	-11.0088
▁강지환	-11.0088
▁정신나간	-11.0088
▁함부로	-11.0088
▁한쿡영화	-11.0088
▁이연희	-11.0088
▁단체로	-11.0088
▁일어날	-11.0088
▁흥미롭고	-11.0089
▁점부터	-11.009
▁접근	-11.0093
▁초반부	-11.0093
▁나중엔	-11.0094
▁질리지않	-11.0094
▁아침드라마	-11.0094
▁몇번이고	-11.0095
▁휴먼	-11.0095
▁고찰	-11.0096
▁문학	-11.0096
▁추락	-11.0097
▁가해자	-11.0097
▁정도다	-11.0098
▁감동적이었습니다	-11.0098
▁극찬	-11.0099
▁없다는게	-11.0099
라이브	-11.01
졌어요	-11.01
▁괴작	-11.01
▁좋아할만한	-11.0101
▁불법	-11.0102
▁이기적인	-11.0103
뜨거운	-11.0104
▁성장영화	-11.0105
▁어리	-11.0106
▁싸울	-11.0107
▁캐릭터와	-11.0109
▁적극	-11.0109
나왔으면	-11.011
▁다세포	-11.0111
▁먹먹하다	-11.0112
낙	-11.0113
▁영화적	-11.0115
▁담아	-11.0115
▁주연이	-11.0115
▁미칠	-11.0115
깎	-11.0116
젖	-11.0116
할텐데	-11.0117
꽤	-11.0118
▁받아들이	-11.0118
꽝	-11.0118
훨씬	-11.0118
흥행	-11.0119
빅	-11.0119
세포	-11.0119
버젼	-11.0119
교육	-11.012
느와르	-11.012
매니아	-11.012
▁다시보게	-11.012
슬픈	-11.0122
유쾌	-11.0124
▁막장으로	-11.0126
당하는	-11.0131
차별	-11.0133
▁상상을	-11.0133
▁요약	-11.0133
▁화려함	-11.0135
▁평소	-11.0136
▁재미없습니다	-11.0137
▁순정	-11.0138
시킨다	-11.0138
▁발레	-11.0138
▁틀어주	-11.014
가아니라	-11.014
▁미쳤다	-11.014
▁어케	-11.0142
▁유치하지만	-11.0143
▁남발	-11.0145
쪽으로	-11.0145
▁향해	-11.0147
▁가슴으로	-11.0148
재밌었다	-11.0149
▁이야기들	-11.0151
▁낮음	-11.0157
▁운동	-11.0159
▁힘든데	-11.0159
하지않은	-11.016
잇고	-11.016
▁다가오는	-11.0162
▁우디	-11.0163
▁보실	-11.0164
따뜻하게	-11.0164
▁성우들	-11.0168
▁일생	-11.0169
지못한	-11.017
정보	-11.0172
▁대작이다	-11.0172
줄거리	-11.0173
▁구원	-11.0175
▁인디	-11.0176
▁냄새가	-11.0177
▁보나	-11.0179
▁먹먹해	-11.0181
▁좋아지는	-11.0182
▁ᄏᄏᄏᄏᄏᄏᄏᄏᄏᄏᄏᄏᄏ	-11.0182
변화	-11.0182
아아	-11.0185
▁미소를	-11.0189
▁본적이	-11.019
▁예술성	-11.0192
▁아버지가	-11.0193
▁속편이	-11.0194
▁있어도	-11.0194
하나로	-11.0198
▁죠	-11.0202
▁진화	-11.0207
기분이	-11.0208
▁교감	-11.0208
▁클로	-11.021
▁이연걸의	-11.0211
시켰다	-11.0213
▁검은	-11.0215
해가는	-11.0218
스테	-11.022
▁꿈꾸는	-11.0222
▁아니란	-11.0227
하지않는	-11.0228
▁닥	-11.0231
▁한수	-11.0234
▁연기까지	-11.0237
▁마르	-11.0238
▁신기한	-11.024
것다	-11.024
▁이게왜	-11.024
▁한글	-11.0251
▁파일	-11.0251
▁예술적	-11.0252
▁했어야	-11.0255
▁벌어	-11.0255
▁다름	-11.026
오글	-11.0264
하겠지	-11.0267
밖	-11.0272
▁이란	-11.0277
▁볼까	-11.0278
버려서	-11.0278
▁터져	-11.0282
▁공포영화가	-11.0283
▁성우가	-11.0284
▁싶네	-11.0284
▁사라졌	-11.0289
▁보고있는데	-11.029
▁코믹한	-11.0296
▁주인	-11.0298
▁나에게는	-11.0302
▁강시	-11.0305
▁코믹물	-11.0305
영환	-11.0308
▁복수를	-11.031
방울	-11.0311
▁모여	-11.0312
▁추천함	-11.0318
▁영상미는	-11.032
▁동정	-11.0322
▁밝	-11.0323
▁리고	-11.0328
지말라	-11.033
▁정신병	-11.0331
▁현실에서	-11.0335
▁보일	-11.0337
▁버릴	-11.0338
▁소름돋는	-11.0349
보고싶어요	-11.0354
스토리는	-11.0358
묻	-11.0359
기준	-11.0373
▁인식	-11.0373
대상	-11.0375
▁스토리나	-11.0375
▁이런것	-11.0376
▁려	-11.0379
▁요소들	-11.038
▁좋아한다	-11.0384
믹	-11.0386
▁반전영화	-11.0386
렴	-11.0389
▁아닌가요	-11.039
삽	-11.039
똘	-11.0391
릅	-11.0391
드래곤	-11.0391
캡	-11.0391
▁고스란히	-11.0391
▁나았을	-11.0391
▁낳은	-11.0391
▁아이언맨	-11.0391
▁아카데미	-11.0391
겸	-11.0391
댈	-11.0391
댕	-11.0391
됴	-11.0391
흙	-11.0391
▁송지효	-11.0391
듀	-11.0391
▁김명민	-11.0391
▁무슨내용인지	-11.0391
▁긴박감	-11.0391
▁못미치는	-11.0391
▁알맹이	-11.0391
▁즐거워	-11.0391
봅시다	-11.0391
▁플레이	-11.0391
▁불후의	-11.0391
▁어지간	-11.0391
▁이정재	-11.0391
▁훈남	-11.0391
▁괜춘	-11.0391
▁잘만들어진	-11.0391
▁다른건	-11.0391
▁온갖	-11.0392
▁새롭게	-11.0392
▁안타까워	-11.0392
▁스콧	-11.0393
▁별한개도	-11.0393
▁관람객	-11.0393
▁닥터	-11.0394
▁이준기	-11.0394
▁용가리	-11.0394
멸망	-11.0394
▁짐승	-11.0394
▁기쁨	-11.0394
▁하던	-11.0395
▁가끔씩	-11.0395
▁서부영화	-11.0395
▁환불	-11.0396
▁끝내준다	-11.0396
▁초능력	-11.0396
▁신파극	-11.0396
토록	-11.0397
▁친절	-11.0397
▁위하여	-11.0399
별한개	-11.04
▁지겨운	-11.0401
▁신나게	-11.0402
마른	-11.0402
▁들을	-11.0403
▁스릴있고	-11.0404
▁엮	-11.0404
▁꼭보시길	-11.0405
▁표본	-11.0406
▁행복을	-11.0407
갔는데	-11.0407
▁느낌이랄까	-11.0408
▁불행	-11.0409
▁이게뭐야	-11.041
찰	-11.041
소리가	-11.0411
▁슴가	-11.0412
▁볼만했는데	-11.0413
노동자	-11.0414
▁사랑스런	-11.0414
▁졸려서	-11.0415
▁유아인	-11.0415
▁웃길	-11.0416
▁보는듯한	-11.0417
▁싶게	-11.0417
쳐먹	-11.0418
▁화면이	-11.0419
▁허술하고	-11.0427
썩	-11.0427
옆	-11.0428
곰	-11.0428
▁어쩌라는	-11.0428
▁히트	-11.043
촬영	-11.0431
▁관객에게	-11.0432
▁옆	-11.0433
▁써야	-11.0433
▁남기고	-11.0436
▁주제도	-11.0441
▁스케일이	-11.0441
교훈	-11.0442
▁좋으	-11.0447
▁꼭봐라	-11.0448
▁말아라	-11.0448
▁없었는데	-11.0448
▁뒤집어	-11.045
▁치고는	-11.045
▁호러물	-11.0452
▁몸이	-11.0452
신다면	-11.0454
▁주체	-11.0454
▁억지스럽	-11.0455
기보단	-11.0462
자들은	-11.0463
▁우리나라에	-11.0465
▁력	-11.0465
부대	-11.0466
▁써도	-11.0467
ᄃᄃᄃᄃ	-11.0468
▁받아서	-11.047
고싶네요	-11.047
그치만	-11.0471
▁망상	-11.0472
▁잠든	-11.0475
▁좋아합니다	-11.0476
▁끝나면	-11.0477
보라	-11.0477
영상미	-11.0478
▁어쩌라고	-11.0479
▁할배	-11.048
▁리메이크작	-11.0481
▁죽을뻔	-11.0482
▁가식	-11.0483
▁만드네요	-11.0484
▁남지	-11.0485
▁현실성이	-11.0487
▁너무좋아	-11.0487
▁꾹	-11.0488
만함	-11.0489
▁데드	-11.049
▁감동감동	-11.0493
▁먹을	-11.0495
▁최고였음	-11.0497
▁막상	-11.0499
▁이해하지	-11.05
▁화려하고	-11.05
▁관람불가	-11.05
▁모르겟다	-11.0501
▁안나오나	-11.0502
져야	-11.0504
▁짝이없	-11.0506
아니야	-11.0508
▁재밌지도	-11.051
재미있어	-11.0512
▁실망했다	-11.0517
▁영상물	-11.0517
잔아	-11.0519
▁외치	-11.0521
▁어이없네	-11.0524
▁환자	-11.0524
구조	-11.0525
▁메인	-11.0527
▁느끼지	-11.0527
▁상영관이	-11.0529
▁함정	-11.053
앞으로도	-11.0532
▁학년	-11.0532
좋겟다	-11.0534
▁길고	-11.0539
▁안되네요	-11.0539
▁쓰렉	-11.054
바탕	-11.0541
가능한	-11.0542
부르	-11.0543
황당	-11.0544
보지말고	-11.0552
▁미리	-11.0553
▁많네요	-11.0554
모르고	-11.056
▁컴	-11.056
▁재미있던데	-11.0562
였군	-11.0564
▁다같이	-11.0565
빠지고	-11.0566
▁압도	-11.0568
▁보여줬다	-11.0568
망신	-11.0568
명성을	-11.057
줘라	-11.0576
▁이뻐요	-11.0579
▁탁	-11.058
▁구멍	-11.0582
굳굳	-11.0582
형사	-11.0584
▁하려는	-11.0586
▁섬세	-11.0587
▁재밌게봤다	-11.059
▁평점좀	-11.0591
▁고로	-11.0592
장면도	-11.0593
쳤던	-11.0593
▁노래를	-11.0594
러브	-11.0594
▁죽었다	-11.0595
밑에	-11.0596
▁볼만은	-11.0597
▁흐르	-11.0597
시스	-11.0598
▁찌질한	-11.0601
신듯	-11.0604
▁인데	-11.0604
ᄏᄏᄏᄏᄏᄏᄏᄏᄏᄏᄏ	-11.0604
왕국	-11.0606
보는중	-11.0606
들었다	-11.0606
▁보는줄	-11.0607
여름	-11.0607
▁잔잔하다	-11.0608
▁몽환적	-11.0611
상상	-11.0611
▁모야	-11.0611
▁들어오	-11.0614
▁스타일의	-11.0619
▁찡한	-11.0623
일수도	-11.0624
▁ᅵ	-11.0626
▁없잖아	-11.0627
돼지	-11.0627
▁분만	-11.0628
▁풋풋	-11.0632
▁둔	-11.0633
투자	-11.0634
▁마음속에	-11.0634
▁많지	-11.0637
파리	-11.0641
▁장르의	-11.065
▁표정연기	-11.0651
▁모르나	-11.0653
▁맛에	-11.0654
▁ᄏᄏᄏᄏᄏᄏᄏᄏᄏᄏᄏᄏᄏᄏ	-11.0655
▁중의	-11.0657
▁만들려	-11.0661
▁살아있다	-11.0662
▁주연의	-11.0664
▁있었나	-11.0673
떤	-11.0681
켓	-11.0681
▁김성	-11.0683
재미있고	-11.0685
▁지지	-11.0685
▁액션에	-11.0685
특별	-11.0687
둑	-11.0694
▁콜	-11.0694
낯	-11.0696
랍니다	-11.07
훌륭	-11.07
▁린	-11.07
실화라	-11.07
감명깊	-11.0701
헨	-11.0702
▁노력이	-11.0702
▁서프라이즈	-11.0703
▁송혜교	-11.0703
헝	-11.0703
▁매끄럽지	-11.0703
▁멤버	-11.0703
▁원맨쇼	-11.0703
▁인상깊은	-11.0703
▁잊어	-11.0703
▁채플린	-11.0703
딕	-11.0703
샷	-11.0703
얌	-11.0703
욜	-11.0703
욧	-11.0703
콕	-11.0703
펄	-11.0703
▁힙합	-11.0703
▁충무로	-11.0703
▁김강우	-11.0703
▁신세경	-11.0703
▁탕웨이	-11.0703
▁로렌스	-11.0703
▁오인혜	-11.0703
▁샤론스톤	-11.0703
▁잘생긴	-11.0703
▁임수정	-11.0703
▁솔까	-11.0703
▁왜이러지	-11.0703
▁엠마	-11.0703
▁유오성	-11.0703
▁감수성	-11.0704
▁일요일	-11.0704
▁붉은	-11.0704
▁계획	-11.0704
▁멀쩡	-11.0704
▁신민아	-11.0704
▁다운로드	-11.0704
▁한지민	-11.0704
▁욕할	-11.0705
▁체험	-11.0705
▁짧아서	-11.0705
▁렇게	-11.0705
▁악몽	-11.0707
▁덮	-11.0708
스턴	-11.0708
▁껏다	-11.0709
올린	-11.0714
▁넘겨	-11.0717
▁맞추기	-11.0719
▁무서웠음	-11.0721
▁잔인하기만	-11.0721
▁다니는	-11.0721
▁가려	-11.0722
▁유아용	-11.0723
▁장나라	-11.0724
▁배우만	-11.0725
▁않았는데	-11.0725
▁원빈	-11.0727
▁그리운	-11.073
▁이룬	-11.0732
▁제법	-11.0733
▁보고있어요	-11.0733
▁오랜만이다	-11.0733
▁몰랐는데	-11.0736
▁코미디로	-11.0737
▁울었음	-11.0741
밌	-11.0744
▁현실적으로	-11.0744
▁어둡고	-11.0744
▁아이와	-11.0745
싶음	-11.0745
▁경제	-11.0745
▁기발하	-11.0745
나봐	-11.0746
▁울었던	-11.0746
▁신기하다	-11.0747
▁검색해	-11.0748
▁터지는	-11.0748
쉐	-11.0748
▁멋있음	-11.0748
▁보는듯	-11.0749
▁드리	-11.0749
▁어색하다	-11.075
어울리	-11.0751
코메디	-11.0751
▁게스트	-11.0751
건아니	-11.0752
리즈	-11.0752
▁월드	-11.0753
▁어정쩡한	-11.0754
진정한	-11.0755
▁고향	-11.0755
따뜻한	-11.0756
▁놀이	-11.0757
▁울었네요	-11.0758
▁재미가없다	-11.0758
▁나간	-11.076
▁애매	-11.076
▁코스프레	-11.0761
▁그랬다	-11.0764
▁아니었음	-11.0764
집에서	-11.0765
친구들	-11.0765
▁없구만	-11.0766
영환데	-11.0767
햇음	-11.0767
섹스	-11.0767
개인적	-11.077
대단하다	-11.077
팬이라	-11.0771
▁아닌지	-11.0772
▁충실한	-11.0773
▁몇개	-11.0775
망한	-11.0776
▁포함	-11.0777
삭제	-11.078
▁나이에	-11.0783
폭탄	-11.0784
▁난무	-11.0784
▁우리들의	-11.0788
▁끓	-11.0788
▁생각나네요	-11.0789
▁저것도	-11.0792
▁망치는	-11.0792
▁아니죠	-11.0792
▁있었을까	-11.0793
볼수있는	-11.0794
▁웃기긴	-11.0794
적이지도	-11.0797
▁음모	-11.08
싶었다	-11.0805
닼	-11.0806
▁센	-11.0807
▁불만	-11.0809
▁상영시간	-11.081
▁강추입니다	-11.081
▁온다	-11.0812
▁미국에서	-11.0813
▁볼걸	-11.0815
▁이랬	-11.0815
▁봐야함	-11.0817
▁지배	-11.082
▁많지만	-11.082
▁보여줘	-11.0821
직원	-11.0822
▁것과	-11.0823
▁대여	-11.0826
않는다	-11.0826
났는데	-11.0829
▁두배우	-11.0832
지않다	-11.0832
▁신선했다	-11.0835
▁이건진짜	-11.0835
▁후반부로	-11.0835
▁산만한	-11.084
▁안되요	-11.084
싸우	-11.084
▁상관	-11.0841
▁절라	-11.0842
▁것인지	-11.0842
▁일본식	-11.0843
▁끝장	-11.0843
▁이쁘네	-11.0845
▁자제	-11.0847
▁움직이는	-11.085
보라고	-11.085
만세	-11.0852
▁형편없다	-11.0855
▁제목부터	-11.086
▁시작은	-11.0862
▁주면	-11.0862
▁뽕	-11.0863
▁ᅮᅲ	-11.0863
▁이해되	-11.0864
▁위험한	-11.0864
뻐	-11.0867
보는거	-11.0868
▁볼껄	-11.0871
눈물흘	-11.0874
▁빨아	-11.0876
▁부자	-11.0876
예상	-11.0881
웠음	-11.0887
▁시시한	-11.0889
▁공감가	-11.0891
▁그럴듯	-11.0891
▁음악영화	-11.0893
▁실망한	-11.0893
▁뱀	-11.0894
진실	-11.0896
▁써라	-11.0897
▁장인	-11.0898
▁보겠	-11.0899
기억에남는	-11.0901
▁수작임	-11.0901
▁찾아볼수	-11.0905
없게	-11.0907
선생	-11.091
▁너무재밌어요	-11.0914
▁납득	-11.0915
▁감동적으로	-11.0916
났어요	-11.0916
▁못하지만	-11.092
▁위기	-11.0921
남겨	-11.0922
▁서사	-11.0922
▁드라마였다	-11.0923
니당	-11.0928
▁되기	-11.0931
▁태도	-11.0932
▁점만점	-11.0934
▁ᄏᄏᄏᄏᄏᄏᄏᄏᄏᄏᄏᄏᄏᄏᄏ	-11.0939
▁지워	-11.0939
▁우려	-11.094
▁욕나오는	-11.0941
죽이기	-11.0942
▁이라는	-11.0945
죽이는	-11.0947
▁점줄	-11.0951
봤자	-11.0952
▁아름다웠	-11.0954
▁사랑이란	-11.0957
▁경기	-11.0957
▁막히	-11.0964
음악이	-11.0967
마리	-11.0968
영환지	-11.0976
▁나오길	-11.0978
지않음	-11.0982
▁드라마의	-11.0988
▁헛웃음	-11.0988
▁겉멋	-11.099
▁있다는게	-11.099
▁결론이	-11.0995
▁당하는	-11.1001
▁중에서도	-11.1003
▁펼쳐	-11.1004
보지마삼	-11.1004
▁공감대	-11.1007
으므로	-11.1008
▁있겠지	-11.1008
▁단편영화	-11.1009
▁안본사람	-11.1011
▁그녀가	-11.1016
▁흠잡을	-11.1017
▁복잡하	-11.1017
▁오래전	-11.1019
뜯	-11.1021
갠	-11.1023
▁되돌아	-11.1024
뜩	-11.1025
킥	-11.1025
썸	-11.1026
ᅭ	-11.1026
▁마케팅	-11.1026
▁스탤론	-11.1026
▁쌩뚱맞	-11.1026
▁어땠을까	-11.1026
▁웹툰	-11.1026
▁유치뽕짝	-11.1026
▁잘생기고	-11.1026
▁정신건강에	-11.1026
▁최곱니다	-11.1026
▁콘서트	-11.1026
▁파라노말	-11.1026
▁황비홍	-11.1026
궈	-11.1026
딧	-11.1026
묶	-11.1026
샌	-11.1026
셜	-11.1026
▁스포일러	-11.1026
▁쏠쏠	-11.1026
▁어울린다	-11.1026
▁오타쿠	-11.1026
▁한예슬	-11.1026
▁압박	-11.1026
▁오그라든다	-11.1026
▁빵터짐	-11.1027
치밀한	-11.1027
▁조용한	-11.1028
▁실컷	-11.1028
네요ᄒᄒ	-11.1029
지맙시다	-11.1029
▁가득찬	-11.1029
▁촌스러운	-11.103
남편	-11.103
▁발휘	-11.103
안쓰는데	-11.103
▁고질라	-11.1031
▁이름값	-11.1031
▁알았더니	-11.1031
▁얼른	-11.1031
▁맞춘	-11.1031
▁몇안되는	-11.1031
맞음	-11.1032
성공	-11.1032
▁선율	-11.1033
▁반성해라	-11.1033
▁잠자	-11.1034
▁출연료	-11.1035
▁묘미	-11.1038
▁정도껏	-11.1038
▁완소	-11.1039
▁속아서	-11.1039
▁행운	-11.1039
▁승화	-11.104
▁보네	-11.104
▁드라마임	-11.104
할게요	-11.104
▁낚임	-11.1041
▁에릭	-11.1042
▁꿈에	-11.1043
▁다를게	-11.1044
▁중간부터	-11.1044
▁무슨말이	-11.1045
▁흐름이	-11.1047
▁주위	-11.1047
되었던	-11.1048
▁초반엔	-11.1049
뒤로	-11.105
▁구리	-11.105
▁액	-11.1051
▁알수없는	-11.1051
▁일탈	-11.1051
▁조금씩	-11.1052
시원하게	-11.1052
▁금방	-11.1053
▁대단합니다	-11.1054
▁여태	-11.1054
마음에	-11.1059
▁너무좋다	-11.1059
▁초반부터	-11.1059
▁때문이다	-11.1061
배우들도	-11.1061
▁틀림없다	-11.1063
▁그런대로	-11.1064
▁슬프지	-11.1066
순수	-11.1066
▁잃어	-11.1067
▁예수님	-11.1067
했을텐데	-11.1068
▁ᄂ	-11.1068
▁나타내	-11.1068
▁점드립니다	-11.1069
▁마사	-11.1072
헌터	-11.1073
꼽	-11.1073
▁외화	-11.1077
▁믿을수	-11.1077
▁알겠지만	-11.1078
▁만들겠다	-11.1079
▁보네요	-11.108
▁참신하고	-11.108
▁조용하	-11.1081
▁뭐하냐	-11.1082
쿨	-11.1084
보았습니다	-11.1085
▁소름돋는다	-11.1085
펑펑	-11.1085
▁허술하다	-11.1086
잔잔한	-11.1086
기법	-11.1086
챙겨	-11.1087
갑자기	-11.1087
통쾌	-11.1087
▁뻔해서	-11.1087
▁ᅢ	-11.1089
꼭보세요	-11.1091
▁말이필요	-11.1091
▁재밌긴	-11.1091
무엇	-11.1092
봤더니	-11.1094
발견	-11.1097
▁달아	-11.1099
▁내눈	-11.11
▁무식한	-11.1102
▁구리다	-11.1102
▁짧게	-11.1103
하게되는	-11.1103
엉망	-11.1103
▁대사들이	-11.1104
▁만들려고	-11.1105
▁나았다	-11.1106
▁들은	-11.1106
대작	-11.1107
▁소유	-11.1107
심리	-11.1107
거여	-11.1107
먼저	-11.1107
방법	-11.1108
▁이름만	-11.1109
그닥	-11.1109
▁각성	-11.1109
▁하여	-11.1111
▁내용으로	-11.1111
▁자기가	-11.1111
햇던	-11.1116
마냥	-11.1116
▁처음이네요	-11.1119
기만하고	-11.1122
▁씁쓸하	-11.1123
▁잘생김	-11.1123
▁깨달	-11.1129
정권	-11.1129
▁된장	-11.1129
로봇	-11.1131
▁귀요미	-11.1132
▁해적	-11.1134
▁픽션	-11.1141
훌륭한	-11.1144
지르고	-11.1144
남매	-11.115
▁한표	-11.115
▁재밌게봄	-11.1151
▁잔혹한	-11.1151
▁년간	-11.1152
▁만큼은	-11.1152
▁않으	-11.1154
▁울음	-11.116
▁안봤다	-11.116
▁죽지	-11.116
▁사랑스러워	-11.1161
는것은	-11.1161
께서	-11.1162
▁알수있는	-11.1162
쓰레기다	-11.1163
것도아니고	-11.1165
▁심심할때	-11.1168
▁니들은	-11.1171
▁대단함	-11.1177
▁그놈	-11.118
▁먹먹함	-11.1184
▁여정	-11.1185
▁름	-11.1186
▁이혼	-11.1194
든데	-11.1194
▁애가	-11.1195
▁신기할	-11.1196
▁이걸보고	-11.1197
▁영상으로	-11.1199
▁깍아	-11.12
▁느려	-11.1206
아파	-11.1214
▁다섯	-11.1217
▁전작에	-11.1217
▁생각해요	-11.1222
▁몰입감이	-11.1225
▁울림	-11.1228
▁별점을	-11.123
▁안난다	-11.1233
▁제작한	-11.1233
▁외국영화	-11.1246
▁읽은	-11.125
▁기대감	-11.1251
▁된다고	-11.1253
▁눈빛이	-11.1253
너무좋아	-11.1254
▁인간들은	-11.1256
▁지들	-11.1257
▁슬픔이	-11.126
생각해	-11.1261
▁아쉽고	-11.1263
▁대단해	-11.1264
봤을까	-11.1265
해버린	-11.1266
사랑해	-11.1266
▁실망시키지	-11.1268
꿀	-11.127
▁돌아간	-11.1271
재밋게봣	-11.1272
낸다	-11.128
▁보장	-11.1282
▁목숨	-11.1288
찜찜	-11.1289
▁죽일	-11.1296
▁볼꺼	-11.1298
▁충격을	-11.1299
▁뻔함	-11.1301
해야하는	-11.1302
▁영향	-11.1304
유익	-11.1309
▁수애	-11.1309
ᄋᄋᄋ	-11.1312
▁도움	-11.1313
으리	-11.1322
▁영화내내	-11.1325
▁아니겠지	-11.1326
▁예술을	-11.1327
▁총을	-11.1335
할꺼	-11.1337
▁스톤	-11.1342
드릴	-11.1348
▁크고	-11.1351
▁묘	-11.1353
▁나오는거	-11.1356
점짜리	-11.1358
▁구려	-11.1358
ᄑ	-11.1359
▁멜깁슨	-11.1359
▁베트남	-11.1359
▁식스센스	-11.1359
▁어설픔	-11.1359
▁에일리언	-11.1359
▁임권택	-11.1359
뺀	-11.1359
쌈	-11.1359
핏	-11.1359
▁로버츠	-11.1359
▁에이리언	-11.1359
▁줄리엣	-11.1359
▁톰크루즈	-11.1359
썅	-11.1359
▁몸부림	-11.1359
▁뭔내용인지	-11.1359
▁홍진호	-11.1359
▁박신양	-11.1359
▁서부극	-11.1359
▁로드무비	-11.1359
▁싱겁	-11.1359
▁모성애	-11.1359
▁서세원	-11.1359
▁옹박	-11.1359
공효진	-11.1359
▁암걸리	-11.1359
▁납치	-11.1359
▁고현정	-11.1359
▁빅뱅	-11.136
▁성인이	-11.136
펙트	-11.136
▁누님	-11.136
바이러스	-11.136
▁최진실	-11.136
▁놀랬	-11.1361
▁특징	-11.1361
▁고수	-11.1361
동물	-11.1362
▁어둠	-11.1362
▁갖추	-11.1363
▁과도한	-11.1363
▁오싹	-11.1364
▁잭슨	-11.1364
▁활약	-11.1365
▁상쾌	-11.1365
▁신념	-11.1366
▁각각	-11.1366
▁끝날때	-11.1366
▁현빈	-11.1367
▁엔딩곡	-11.1367
▁부족해	-11.1368
▁성괴	-11.1368
▁그럼에도	-11.1369
뜬금	-11.1369
▁느린	-11.1371
▁은퇴	-11.1371
▁닮아	-11.1371
▁않았습니다	-11.1371
▁공존	-11.1372
▁질투	-11.1373
▁행복해지는	-11.1374
▁처참	-11.1374
▁무척이나	-11.1376
보게됨	-11.1376
▁떠올리게	-11.1377
▁주제에	-11.1377
▁알면서도	-11.1377
▁실종	-11.1378
▁만들어졌다	-11.1378
▁어울려	-11.1383
▁닌자	-11.1384
클럽	-11.1385
붕괴	-11.1385
▁별다른	-11.1385
▁어째서	-11.1386
▁파악	-11.1387
▁가관이	-11.1388
스틱	-11.1388
▁젊은이들	-11.1389
▁떠오르	-11.1391
▁안봤으면	-11.1392
▁고딩	-11.1394
▁잘하시	-11.1395
겠나	-11.1397
▁역할이	-11.1399
▁지금보니	-11.1401
봤었는데	-11.1402
▁거지같	-11.1402
▁생각했다	-11.1403
혀서	-11.1406
▁소문	-11.141
취향	-11.1411
합니까	-11.1411
▁분명하다	-11.1413
▁동호	-11.1417
올때	-11.1417
▁총질	-11.1418
▁서서	-11.1418
▁보석	-11.1418
▁욕하는	-11.142
▁런닝맨	-11.1421
하기까지	-11.1423
▁실상	-11.1424
▁잼났	-11.1425
▁엘리	-11.1426
걸까요	-11.1427
윌	-11.1428
끊	-11.1429
뽑	-11.143
▁애니를	-11.1435
매력있	-11.1439
▁엄마랑	-11.1439
결론	-11.1441
▁죽어서	-11.1443
장르를	-11.1444
▁연장	-11.1445
▁무식	-11.1445
▁땀을	-11.1446
▁이러니	-11.145
▁작위적이	-11.1451
넘들	-11.1452
▁이해못하	-11.1454
▁분정도	-11.1454
▁시바	-11.1456
▁없을듯	-11.1456
어디서	-11.1457
▁남긴다	-11.1458
▁드라마에요	-11.1458
▁이념	-11.1458
▁펑펑울	-11.1458
▁유작	-11.1458
▁티나	-11.1459
연기짱	-11.1461
하더군요	-11.1465
▁거울	-11.147
▁억지스럽다	-11.147
▁알아서	-11.1472
▁떠들	-11.1473
▁진주	-11.1476
▁존재한다	-11.1478
토리	-11.1478
▁오오	-11.148
끝에	-11.148
엇던	-11.1482
하시면	-11.1483
지않을	-11.1483
사랑해요	-11.1483
▁기억하는	-11.1484
▁없구	-11.1486
▁빡치	-11.149
▁현대인	-11.1493
팬이지만	-11.1498
박스	-11.1499
할수있다	-11.1499
▁나온건	-11.1504
▁퉤	-11.1505
▁진구	-11.1505
분명	-11.1506
▁한계가	-11.1506
▁남자를	-11.1506
슬프고	-11.1511
쩌네	-11.1512
▁별반개도	-11.1512
▁내인생최고의	-11.1524
▁갈아	-11.1527
▁날로	-11.1528
낮다	-11.1533
ᄏᄏᄏᄏᄏᄏᄏᄏᄏᄏ	-11.1534
▁흥행에	-11.1534
겨서	-11.1536
▁지루해요	-11.1536
▁노력한	-11.1537
하네여	-11.1537
▁누구도	-11.1542
▁살아나	-11.1546
▁점정도가	-11.1548
▁믿기	-11.1549
게끔	-11.1549
▁들어가는	-11.1549
▁고발	-11.1552
▁존재감	-11.1554
십니다	-11.1559
▁헬기	-11.1561
▁짱입니다	-11.1561
두번	-11.1563
멋졌	-11.1566
▁빠져들어	-11.1568
같지만	-11.1568
▁분위기와	-11.1571
인간들	-11.1571
아놔	-11.1572
주려고	-11.1574
집어	-11.1588
▁보였다	-11.1592
▁유우	-11.1595
▁편으로	-11.1597
봐야할	-11.1599
▁좋아함	-11.1599
바른	-11.1601
▁사회적	-11.1602
평점이낮	-11.1605
▁나빠	-11.1605
▁조조	-11.1608
▁부여	-11.1614
▁욕구	-11.1616
▁남는영화	-11.1617
로써는	-11.1617
▁감정이입이	-11.1617
▁너는	-11.1618
▁작품이라고	-11.162
▁보신	-11.162
▁짠한	-11.1621
▁지인	-11.1624
▁안보이	-11.1626
▁흘러가	-11.163
녀들	-11.163
▁정서에	-11.1634
인증	-11.1636
▁없더라	-11.1637
새키	-11.1649
보여준	-11.165
▁탁월	-11.1651
▁해줄	-11.1655
데다가	-11.1659
▁토끼	-11.166
괴물	-11.1661
▁눈만	-11.1661
▁재치있	-11.1665
▁낫네	-11.1666
킴	-11.1666
▁미국영화	-11.1666
민호	-11.1666
이유는	-11.167
▁전형	-11.1671
감사	-11.1677
▁고생한	-11.1678
▁개발	-11.1679
▁없어지	-11.1682
▁극단적	-11.1687
▁이작품	-11.1692
▁일상을	-11.1697
▁킬링타임도	-11.1697
죤	-11.1703
쨩	-11.1704
쪄	-11.1704
핸	-11.1704
▁미야자키	-11.1704
▁서스펜스	-11.1704
▁슬래셔	-11.1704
▁오리지널	-11.1704
▁웨슬리	-11.1704
▁인상깊다	-11.1704
▁크리스토퍼	-11.1704
▁히치콕	-11.1704
뇨	-11.1704
닳	-11.1704
돕	-11.1704
쑤	-11.1704
젓	-11.1704
젬	-11.1704
쫙	-11.1704
칫	-11.1704
퍽	-11.1704
▁이스트우드	-11.1704
▁정확히	-11.1704
엎	-11.1704
▁개인적으론	-11.1704
▁공중파	-11.1704
▁어려울	-11.1704
▁해리슨	-11.1704
▁장쯔이	-11.1704
▁하이킥	-11.1704
▁박해일	-11.1704
▁으리으리	-11.1704
▁전문성우	-11.1704
▁정재영	-11.1704
▁흡사	-11.1704
▁ᄆᄎ	-11.1704
▁능가	-11.1705
▁김수로	-11.1705
▁어려워	-11.1705
▁담아낸	-11.1705
▁몬스터	-11.1705
▁똥폼	-11.1705
▁퍼즐	-11.1705
이해안감	-11.1705
▁결합	-11.1707
▁육체	-11.1708
▁보여서	-11.1709
점준거중	-11.1709
비슷	-11.171
▁첨본다	-11.171
▁멋졌다	-11.171
▁깨알같은	-11.1711
▁억지설정	-11.1712
▁바꾼	-11.1712
▁실망스러웠	-11.1712
▁끼워	-11.1714
▁지들끼리	-11.1714
▁실화라서	-11.1715
▁아름다웠던	-11.1715
▁화가난다	-11.1715
▁미흡	-11.1715
▁나와라	-11.1716
▁고마워요	-11.1717
▁의견	-11.1717
▁생생하게	-11.1718
▁줄리아	-11.1718
▁바라며	-11.1719
▁괜찮았어요	-11.1719
▁인상적이었다	-11.172
했으니	-11.1721
▁중요하다	-11.1721
▁점대라니	-11.1722
▁어떨까	-11.1722
▁잼있었음	-11.1722
▁울나라	-11.1723
▁호강	-11.1724
▁어이없어서	-11.1724
▁이번엔	-11.1725
신기	-11.1726
▁심심해서	-11.1728
▁않는데	-11.1731
▁일품이	-11.1731
▁년동안	-11.1731
▁모르겠는데	-11.1732
▁작위적인	-11.1735
재미없네	-11.1735
▁말도안되	-11.1735
▁말이되	-11.1736
▁구할	-11.1736
▁넘친다	-11.1736
▁계시	-11.1739
▁신경쓰	-11.1739
비판	-11.1739
▁이러지	-11.1744
▁라인	-11.1744
▁재밌음ᄏᄏ	-11.1745
▁포스터는	-11.1745
하라고	-11.1745
스카	-11.1747
대충	-11.175
▁극본	-11.1752
▁정통	-11.1758
▁김태	-11.1759
▁되길	-11.1761
▁귀에	-11.1762
▁극적인	-11.1763
갖고	-11.1764
▁작정	-11.1767
▁추천해요	-11.1771
▁홀로	-11.1772
▁오락성	-11.1774
▁와닿는다	-11.1777
드레	-11.1778
거예요	-11.1778
영씨	-11.1779
▁글구	-11.178
▁확신	-11.178
켄	-11.1781
▁확실한	-11.1782
샘	-11.1784
첫	-11.1786
짠	-11.1786
▁좀비물	-11.1787
저예산	-11.1787
▁고백	-11.1787
▁영화자체가	-11.179
기위한	-11.1791
흐름	-11.1792
다녀	-11.1792
▁잼있었다	-11.1793
짜증난다	-11.1794
젠장	-11.1794
어버린	-11.1798
▁심하네	-11.18
무협	-11.1804
예능	-11.1806
▁그땐	-11.1807
장면에서	-11.181
▁서우	-11.181
주는게	-11.1812
▁성질	-11.1813
▁따듯하	-11.1816
▁기차	-11.1817
▁기독교인	-11.1818
▁마인드	-11.1819
아이돌	-11.1819
▁번이나	-11.1819
▁만나서	-11.182
▁뜬	-11.1823
▁알수가	-11.1824
▁할말없	-11.1827
▁신부	-11.1831
▁아쉽게	-11.1833
보고싶은영화	-11.1835
▁찾을수	-11.1836
했더라면	-11.1836
▁감당	-11.1838
▁심했다	-11.1838
씨와	-11.1838
▁보임	-11.1839
연출력	-11.184
홍보	-11.1841
▁훌륭하고	-11.1841
내시간	-11.1842
▁끝날때까지	-11.1848
▁동심을	-11.1849
▁통해서	-11.1849
일뿐이다	-11.1851
▁훌륭했	-11.1852
어스	-11.1853
▁부족하고	-11.1853
▁색감이	-11.1856
▁홈	-11.1858
그렇지	-11.1859
▁전국	-11.1859
▁어찌나	-11.1861
▁철학적인	-11.1869
▁알앗	-11.1872
되나요	-11.1872
▁넣은	-11.1877
준사람들	-11.188
잤다	-11.188
▁만든것	-11.1881
▁장르에	-11.1882
▁쟁	-11.1883
▁주었다	-11.1888
연애	-11.1891
▁보자고	-11.1892
▁거부감	-11.1893
싶어요	-11.1895
▁인상적이다	-11.1895
▁재미없는데	-11.1896
▁말길	-11.1898
▁나가고	-11.1898
▁볼수가	-11.1899
▁없었다면	-11.1902
▁영활	-11.1903
▁무언가가	-11.1904
▁힘드네	-11.1908
석이	-11.191
남녀	-11.1911
▁보시는	-11.1912
먹음	-11.1912
▁진리다	-11.1914
▁찾고	-11.1915
해놓은	-11.1916
할말	-11.1917
▁안되는데	-11.1917
▁당신을	-11.1918
▁암울	-11.192
거라곤	-11.1921
▁유쾌함	-11.1922
하지말자	-11.1922
▁작품인데	-11.1923
살려	-11.1926
▁한때	-11.1935
아닌듯	-11.1935
▁빠순이들	-11.1943
▁가위	-11.1945
▁닭	-11.1946
▁관객수	-11.1946
▁거리가	-11.1947
▁개미	-11.1952
시켰	-11.1952
▁모아놓	-11.1954
▁풀었	-11.1955
▁일이다	-11.1956
▁아쉬웠	-11.1957
▁괴물이	-11.1958
▁두분	-11.1959
이유가	-11.1959
어야할	-11.1959
▁몇년이	-11.196
▁달콤	-11.1962
▁무난한	-11.1966
다운받	-11.1966
▁구하기	-11.1971
▁드라마라고	-11.1976
잡아	-11.1977
▁맞고	-11.1985
▁귀가	-11.1987
▁기대보다	-11.199
이었어	-11.199
▁떨어진	-11.1991
▁그것은	-11.1992
지마시길	-11.1994
못한다	-11.1999
▁인물들의	-11.2004
▁굉장	-11.2005
▁돌아가고	-11.2008
주인공들	-11.2009
▁붙이	-11.201
▁생각하지	-11.2012
세상에	-11.2013
▁모습과	-11.2015
주길	-11.2016
그랫	-11.2017
▁이정도는	-11.202
▁안타까울	-11.2023
▁마주	-11.2027
▁끊어	-11.2032
▁적절	-11.2033
▁잼없어	-11.2034
▁윈	-11.2035
단체	-11.2041
▁나오게	-11.2042
▁작품성은	-11.2047
▁랩	-11.2048
걷	-11.205
춰	-11.2051
키스	-11.2056
우월	-11.2057
븐	-11.2057
겻	-11.206
▁저질영화	-11.206
쩡	-11.206
켈	-11.2061
툭	-11.2061
챔	-11.2061
▁됐는데	-11.2061
▁리암니슨	-11.2061
▁매트릭스	-11.2061
▁뭡니까	-11.2061
▁중구난방	-11.2061
▁징그럽	-11.2061
▁클린트	-11.2061
▁톰행크스	-11.2061
▁휴머니즘	-11.2061
릉	-11.2061
벙	-11.2061
▁까메오	-11.2061
▁어마어마	-11.2061
▁판타스틱	-11.2061
냅	-11.2061
▁강혜정	-11.2061
▁간간히	-11.2061
▁노무현	-11.2061
▁덴젤	-11.2061
▁못생긴	-11.2061
▁이동욱	-11.2061
▁균형	-11.2061
▁애절한	-11.2061
▁기괴한	-11.2061
▁당췌	-11.2061
▁무슨생각으로	-11.2061
▁맥라이언	-11.2061
▁옹호	-11.2061
▁앉아있	-11.2062
▁집어넣	-11.2062
씁니다	-11.2062
▁매미있네	-11.2062
ᅩᅩ	-11.2062
▁낮춰	-11.2062
▁쾌감	-11.2063
▁근육	-11.2063
▁피터팬	-11.2063
기대안했는데	-11.2063
▁혹평	-11.2063
▁다가온다	-11.2063
▁멋집니다	-11.2063
▁새롭고	-11.2063
▁역부족	-11.2065
▁호텔	-11.2065
▁콜린	-11.2065
▁적절히	-11.2066
으니깐	-11.2067
보고난후	-11.2068
▁저평가된	-11.2069
▁억지스러움	-11.2069
▁대략	-11.2069
▁거대한	-11.207
▁초등학교때	-11.207
▁필요할까	-11.207
▁똥칠	-11.2072
▁묘하게	-11.2072
떨어지는	-11.2073
▁돋보임	-11.2075
▁재료	-11.2076
▁나왔다는	-11.2079
▁만들었어	-11.2079
▁윌리엄스	-11.208
▁최종	-11.2081
▁해도해도	-11.2082
▁사람마다	-11.2083
▁어렸을적	-11.2083
▁버티	-11.2084
▁여왕	-11.2085
▁제외하고	-11.2086
▁이건머	-11.2087
▁능가하는	-11.2087
▁잊혀지지가	-11.2087
▁지금껏	-11.2088
▁영감	-11.2089
울리	-11.2092
▁심오하	-11.2092
하여튼	-11.2092
▁눈물난다	-11.2094
▁끝나지	-11.2096
▁평작	-11.2096
▁담아내	-11.2096
▁조잡하고	-11.2099
시킴	-11.21
사실적인	-11.2101
▁연민	-11.2103
▁산만함	-11.2103
▁건너	-11.2105
▁원망	-11.2108
▁못봐주겠다	-11.2108
▁철없는	-11.2108
▁들어왔	-11.2108
▁밋밋하고	-11.2111
부분도	-11.2113
▁싶은건지	-11.2113
▁도덕	-11.2113
▁인상깊었다	-11.2114
오바	-11.2115
뜨겁	-11.2116
마음을	-11.2117
못했다	-11.2118
▁나왔습니다	-11.2119
▁들었음	-11.212
▁잊혀지지않는	-11.2122
▁알게해준	-11.2122
▁익숙한	-11.2123
▁즉	-11.2128
▁후회한다	-11.2128
▁열정이	-11.213
▁주려고	-11.213
역으로	-11.213
▁우수	-11.2133
▁소피	-11.2133
행님	-11.2135
▁빛나	-11.2135
▁암울한	-11.2135
씬에서	-11.2136
흥미롭	-11.2137
▁용서가	-11.2137
▁쌩	-11.2138
▁전개되는	-11.2138
▁첨에	-11.2141
스텔	-11.2143
▁별볼일	-11.2144
▁써먹	-11.2145
▁안봤는데	-11.2145
햇지만	-11.2146
▁얻을	-11.2147
▁말하기	-11.215
▁인연	-11.215
▁먹칠을	-11.2152
했구나	-11.2152
▁안봤지만	-11.2154
웬	-11.2154
썬	-11.2155
개연성	-11.2155
보냐	-11.2155
쪼	-11.2156
▁생각밖에	-11.2156
▁어린애들	-11.2157
아줌마	-11.2157
넌	-11.2157
퀄리티	-11.2158
한마디	-11.2158
더럽게	-11.2158
짝퉁	-11.2159
▁선전	-11.216
불륜	-11.2161
여자들	-11.2163
▁안나와서	-11.2164
만들기	-11.2167
재밌었음	-11.2169
▁몽환적인	-11.2169
바닥	-11.2171
받는다	-11.2172
▁망함	-11.2173
▁성공한	-11.2174
▁가깝다	-11.2174
▁평점높	-11.2174
▁높네요	-11.2177
봤는지	-11.2177
멋잇	-11.2178
▁배웠	-11.2179
▁ᄀᄀ	-11.218
▁어렵고	-11.2181
▁납득이	-11.2185
▁수작입니다	-11.2185
닼ᄏᄏ	-11.2187
▁감독판	-11.2189
주는것도	-11.2189
▁기다리고	-11.2189
이럴	-11.219
▁꼬라지	-11.219
채널에서	-11.219
났던	-11.2193
▁좋아하고	-11.2194
세대	-11.2194
▁공감되는	-11.2194
랄라	-11.2197
▁나오냐	-11.2198
왠지	-11.2198
▁못했지만	-11.2201
왜케	-11.2202
▁나오던	-11.221
▁지구를	-11.2211
▁지성	-11.2213
볼수없	-11.2215
현재	-11.2219
밝히	-11.2224
등장	-11.2225
보세여	-11.2226
▁아웃	-11.2228
▁진하게	-11.2229
▁말이죠	-11.2231
▁밴드	-11.2232
▁오유	-11.2232
▁끔찍한	-11.2236
▁늘려	-11.2236
들어가	-11.224
누님	-11.2244
많아	-11.2246
▁블루	-11.2248
▁몰입을	-11.2249
▁미군	-11.225
잼씀	-11.225
▁기억속에	-11.225
어휴	-11.2252
줬음	-11.2255
▁썩은	-11.2257
▁대박입니다	-11.2264
유키	-11.2269
▁먹은	-11.2271
▁망가지	-11.2273
▁보니깐	-11.2276
▁보여주지	-11.2277
▁사서	-11.2278
위에서	-11.2278
▁제작진들	-11.228
▁웃어야	-11.2281
▁발견한	-11.2283
▁하나경	-11.2287
▁만나고	-11.2295
▁당신들	-11.2295
▁알바생	-11.2296
▁취급	-11.2297
안습	-11.2297
▁비현실적인	-11.2299
부작	-11.23
빠지는	-11.2302
▁슬프게	-11.2308
▁잘만든영화	-11.2308
▁깎아	-11.231
▁나온다는	-11.2311
▁이유로	-11.2317
▁타임용	-11.2318
▁안보는	-11.2323
▁퀸	-11.2325
▁어처구니가	-11.2326
▁지적	-11.2328
보며	-11.233
야하는데	-11.2331
이나마	-11.2334
▁찍었다	-11.2339
▁각인	-11.2339
보낸	-11.2341
▁안경	-11.2343
보다더	-11.2343
▁맞은	-11.2349
기대하고	-11.2352
할수밖에	-11.2353
▁한건지	-11.2359
▁인상깊었	-11.2363
▁못볼	-11.2365
써서	-11.2366
부부	-11.2367
으려나	-11.2368
▁부자연	-11.2369
▁다니	-11.2371
▁감동적이었	-11.2372
받아야	-11.2374
놈들아	-11.2377
주시길	-11.2378
▁쉐	-11.2378
▁된거	-11.2383
▁여자들은	-11.2387
▁곳에서	-11.2388
▁이해하고	-11.239
▁과한	-11.2391
▁멋있었	-11.2402
▁볼만하고	-11.2403
캠	-11.2404
▁살렸	-11.2408
▁오우	-11.2409
▁죽여버리고	-11.241
▁두근거	-11.2414
박사	-11.2417
▁끝으로	-11.242
▁생각해볼	-11.2421
▁바뀌는	-11.2423
찢	-11.2425
▁괴롭	-11.2428
▁갔는데	-11.2429
끗	-11.2431
훼	-11.2431
▁컨저링	-11.2431
▁프로젝트	-11.2431
륵	-11.2431
붐	-11.2431
탔	-11.2431
톡	-11.2431
▁거슬린다	-11.2431
▁오토바이	-11.2431
▁옴니버스	-11.2431
▁인터스텔라	-11.2431
▁카메론	-11.2431
▁카타르시스	-11.2431
갤	-11.2431
뉘	-11.2431
쌤	-11.2431
씽	-11.2431
짬	-11.2431
툰	-11.2431
▁어중간한	-11.2431
샹	-11.2431
▁조재현	-11.2431
▁김래원	-11.2431
▁문근영	-11.2431
▁지하철	-11.2431
▁섭외	-11.2431
▁아팠다	-11.2431
▁춤추는	-11.2432
▁이성재	-11.2432
▁러셀	-11.2432
▁끊임없	-11.2433
▁김선아	-11.2433
▁가만히	-11.2433
▁흠뻑	-11.2433
▁아시아	-11.2433
▁흥미롭다	-11.2433
▁감사드립니다	-11.2434
날림	-11.2434
▁완결	-11.2434
▁레이싱	-11.2434
▁꺼버림	-11.2434
▁내생의	-11.2434
▁둘째	-11.2434
▁빠져든다	-11.2434
▁잠들었	-11.2435
▁푸른	-11.2435
▁일어난	-11.2435
돌아가	-11.2435
▁종북	-11.2435
▁지루하지않고	-11.2435
▁파멸	-11.2436
▁도가니	-11.2436
▁덕후	-11.2436
거운	-11.2437
▁효민	-11.2437
▁놀라움	-11.2437
▁당최	-11.2437
▁습작	-11.2437
▁언론	-11.2438
▁미치겠다	-11.2439
▁있었을텐데	-11.2439
▁언급	-11.2442
▁뇌리에	-11.2442
▁팔아	-11.2442
▁놓친	-11.2442
버렷	-11.2443
▁이것만	-11.2445
발차기	-11.2446
▁깔끔하게	-11.2447
▁너희들	-11.2449
▁따듯한	-11.2449
▁팔아먹	-11.245
▁너희	-11.2451
▁마음속	-11.2452
▁느꼈습니다	-11.2453
▁동물들	-11.2453
▁빈약	-11.2454
▁집단	-11.2455
▁배우들연기	-11.2456
▁하기에는	-11.2457
▁봤었던	-11.2458
재미가없	-11.2459
▁예매	-11.2459
▁개졸작	-11.2459
▁지내	-11.2459
▁대비	-11.2461
▁뻔히	-11.2461
▁무얼	-11.2462
▁특수	-11.2463
▁누워	-11.2463
▁부각	-11.2463
였죠	-11.2463
▁점드림	-11.2464
봤을땐	-11.2465
▁들었습니다	-11.2465
▁아니었으면	-11.2465
▁환상의	-11.2466
▁사귀	-11.2466
▁재밌구만	-11.2467
많네	-11.2468
▁로그인하게	-11.2468
▁린치	-11.2468
▁즐기는	-11.2469
▁있었어요	-11.2473
허허허	-11.2473
이었고	-11.2473
▁멋지네요	-11.2474
▁무서운거	-11.2474
▁찾으	-11.2474
▁해학	-11.2476
▁중학교때	-11.2478
▁흔적이	-11.248
재밌는영화	-11.2484
▁지상	-11.2486
▁머릿속에	-11.2486
▁안가고	-11.2489
▁성경	-11.249
▁높냐	-11.2493
▁누구에게	-11.2495
▁무게감	-11.2497
▁바꿔라	-11.2501
▁최악이었다	-11.2502
▁만들었던	-11.2502
▁나이먹	-11.2505
▁않겠다	-11.2506
지금은	-11.2507
추천합니다	-11.2508
▁소리지르	-11.2508
▁나두	-11.2508
▁개념없	-11.2512
▁부재	-11.2512
▁봤다니	-11.2516
▁분노의	-11.2517
▁맞음	-11.2517
▁식상함	-11.2517
을위한	-11.2517
▁죽기	-11.2518
▁극장서	-11.2518
갔음	-11.252
▁꼬맹이	-11.2522
심리를	-11.2526
▁불편하고	-11.2527
▁만들었네요	-11.2527
울었다	-11.2528
▁수위	-11.253
▁아침에	-11.2532
획	-11.2532
▁그만좀	-11.2533
할때마다	-11.2533
채널	-11.2534
▁잼있었	-11.2535
▁개봉하지	-11.2536
▁찍어라	-11.2538
퀸	-11.2538
아름답	-11.2539
갱	-11.2539
폼	-11.254
쯧쯧	-11.254
잼있어요	-11.254
▁첫장면	-11.2541
연결	-11.2542
▁코믹연기	-11.2542
독립영화	-11.2543
▁기다리는	-11.2543
몸매	-11.2547
▁시간때우기용	-11.2549
▁전형적	-11.255
▁재미업	-11.2553
▁사이에서	-11.2555
▁나오면서	-11.2555
▁왜이럼	-11.2555
▁잠이나	-11.2556
닼ᄏᄏᄏ	-11.2557
▁비난	-11.2558
실패	-11.2558
▁시청자들	-11.2559
▁속상	-11.256
▁부끄럽다	-11.256
▁흥미진진하고	-11.2561
▁말할수	-11.2565
▁쉣	-11.2565
▁있을지	-11.2567
▁벗기	-11.2568
따위로	-11.2573
같았다	-11.2575
▁잼써	-11.258
▁올인	-11.258
▁비중이	-11.258
▁넣었	-11.2581
▁비급	-11.2581
▁즐거웠다	-11.2582
중독	-11.2583
하늘	-11.2583
▁못봤다	-11.2587
▁재밌냐	-11.2587
▁난해하다	-11.2589
▁잃지	-11.259
돈아까워	-11.26
지금까지	-11.2602
▁갑갑	-11.2608
데리고	-11.2613
▁보고싶지	-11.2619
▁있어야지	-11.2621
싶을정도	-11.2621
▁있을것	-11.2623
▁강렬하	-11.2623
않지만	-11.2624
그것도	-11.2625
▁넘치고	-11.2625
▁어색하지	-11.2628
▁행동이	-11.2628
▁장미	-11.263
▁가치있	-11.2632
▁최악입니다	-11.2637
년만에	-11.264
▁망하는	-11.264
원래	-11.264
▁오래남	-11.2641
▁봤으니	-11.2647
▁정화	-11.2648
▁사랑입니다	-11.2654
▁말리	-11.2673
▁강요	-11.268
▁매기	-11.2682
▁이완	-11.2685
▁상큼	-11.2686
보기에	-11.2687
▁과장되	-11.2688
점줌	-11.269
▁뭔데	-11.2694
▁마구	-11.2697
▁썼다	-11.2698
▁서기	-11.27
것같아서	-11.2702
▁못보고	-11.2707
▁없기	-11.2711
▁되냐	-11.2724
▁베리굿	-11.2726
이었다면	-11.2727
▁너무좋아요	-11.2729
▁재밌지만	-11.2735
▁천하	-11.2738
▁원작보다	-11.2738
▁골라	-11.2742
크크	-11.2743
▁일점도	-11.2744
▁왕자	-11.2747
르노	-11.2753
큼	-11.2755
▁오랫만	-11.2756
▁점주기도	-11.2759
릇	-11.2761
▁지원	-11.2765
▁어둡	-11.2767
잘어울려	-11.2769
▁출연하는	-11.2773
▁사랑하게	-11.2774
만들었다	-11.2779
▁세계를	-11.2787
▁감정들	-11.2787
익은	-11.279
▁점이면	-11.2793
부턴	-11.2794
▁죽어도	-11.2798
▁평가할	-11.2801
▁장난해	-11.2801
▁고려	-11.2806
을수도	-11.2807
▁연관	-11.2807
▁정성	-11.2807
▁돌아보	-11.2809
밴	-11.2809
모토	-11.281
렘	-11.2815
억울	-11.2815
팩	-11.2816
▁로멘틱	-11.2816
▁엑소시스트	-11.2816
▁여고괴담	-11.2816
▁토요명화	-11.2816
꽂	-11.2816
셰	-11.2816
쌔	-11.2816
짖	-11.2816
짚	-11.2816
▁박신혜	-11.2816
▁소름끼친다	-11.2816
▁아메리칸	-11.2816
▁왠만해선	-11.2816
뺐	-11.2816
솟	-11.2816
ᄋᄉᄋ	-11.2816
▁어이상실	-11.2816
괘	-11.2816
▁뚜렷	-11.2816
▁무책임	-11.2816
▁여실히	-11.2816
▁담백한	-11.2816
ᅣ	-11.2816
▁추악한	-11.2816
▁정당화	-11.2816
▁짜여진	-11.2816
▁울뻔	-11.2816
▁느꼇	-11.2816
▁패스	-11.2816
▁금요일	-11.2816
▁사다코	-11.2816
▁떠오른다	-11.2817
▁아키라	-11.2817
변호사	-11.2817
▁뒤로갈수록	-11.2818
▁손꼽	-11.2818
▁나눠	-11.2818
▁사랑과전쟁	-11.2818
▁국뽕	-11.2818
▁유치원생	-11.2818
▁ᄉᄀ	-11.2819
▁저녁	-11.2819
▁오래오래	-11.2819
▁닮은	-11.2819
▁이승기	-11.2819
ᄅᄅ	-11.282
▁새롭다	-11.282
▁처절하	-11.282
▁웬만한	-11.2821
▁잃고	-11.2821
▁일대기	-11.2821
▁놀랄	-11.2822
▁많았다	-11.2822
▁재평가	-11.2823
▁ᄂᄂ	-11.2823
지않았다	-11.2823
▁비롯	-11.2824
하는사람	-11.2825
▁힘듬	-11.2825
▁적응	-11.2826
▁테론	-11.2826
▁모를까	-11.2827
▁와이어	-11.2827
▁어느새	-11.2828
▁전편에	-11.2828
▁만들어내는	-11.2828
차가운	-11.2829
▁주관적	-11.283
▁반지의	-11.283
▁할말이없다	-11.2831
▁억지웃음	-11.2832
▁오유에서	-11.2833
▁악플	-11.2834
▁호평	-11.2834
▁우익	-11.2835
▁스탈	-11.2838
▁창작	-11.2839
▁개쩐다	-11.284
▁아쉽습니다	-11.2841
얘	-11.2843
▁몰려	-11.2845
▁많았던	-11.2846
쥐어짜	-11.2847
▁리플	-11.2847
햇어요	-11.2847
▁사실적으로	-11.285
▁안됩니다	-11.2852
▁절제	-11.2854
▁대변	-11.2856
▁건진	-11.2856
▁발악	-11.2858
인줄알았는데	-11.2861
▁없었습니다	-11.2863
▁구매	-11.2863
▁유쾌하다	-11.2865
▁숨막히는	-11.2867
▁지루합니다	-11.2868
▁거시기	-11.287
▁팬인데	-11.2874
▁끝나네	-11.2874
▁있죠	-11.2877
▁끝나기	-11.2878
▁전환	-11.2878
▁기대됨	-11.2878
▁되어버린	-11.2881
▁대가리	-11.2882
▁따분한	-11.2883
▁살자	-11.2883
▁같기도	-11.2884
뭐임	-11.2886
▁볼만하던데	-11.2887
▁시간가는	-11.289
▁내용도없고	-11.289
▁강조	-11.2891
▁그러고	-11.2894
했었던	-11.2897
▁모든것을	-11.2898
▁특별하	-11.2898
▁소수	-11.29
▁목숨을	-11.29
▁한국형	-11.2902
▁허무하고	-11.2903
▁어이없게	-11.2908
대단한	-11.2909
▁뼈	-11.291
▁백미	-11.2911
▁아버지와	-11.2911
▁시청자를	-11.2914
▁베니	-11.2915
▁모처럼	-11.2915
▁시간아까운	-11.2915
▁별반	-11.2916
보여서	-11.2917
▁표현하는	-11.292
▁식상하고	-11.292
ᅮᅳ	-11.292
▁휴지	-11.292
▁생생한	-11.292
▁샀	-11.2922
▁김남길	-11.2922
▁당한	-11.2922
▁장편	-11.293
▁욕하면서	-11.293
▁사실적이	-11.2932
▁볼거없	-11.2933
▁디자인	-11.2933
슬픔	-11.2934
▁봤어야	-11.2936
쌍	-11.2936
▁씨네	-11.2937
닭	-11.2939
시기를	-11.294
▁비디오용	-11.2941
늦	-11.2941
▁도박	-11.2942
예고편	-11.2943
아쉬움	-11.2945
유머와	-11.2945
재미있었어요	-11.2946
▁동급	-11.2947
무서웠	-11.2947
재밌었어요	-11.2949
▁조디	-11.295
▁여자배우	-11.295
흥미	-11.2953
▁수술	-11.2954
▁생각하는데	-11.2955
운동	-11.2956
▁좋았네요	-11.2956
잘봤어요	-11.2957
재미도없고	-11.2958
찍어	-11.2959
따름	-11.2961
▁충격적이다	-11.2962
항상	-11.2963
라는건지	-11.2965
▁꺄	-11.2966
▁끌지	-11.2967
▁정답	-11.2968
할수록	-11.2973
▁있기에	-11.2973
로인해	-11.2973
티비에서	-11.2979
확실하게	-11.2985
혹시	-11.2987
▁유아	-11.2988
하나하나	-11.2998
▁거부감이	-11.3
댄스	-11.3001
▁슬프기도	-11.3001
▁포스가	-11.3003
▁집중력	-11.3007
▁통한	-11.3007
▁실망감	-11.3009
▁울림이	-11.301
이상한	-11.301
▁안티	-11.3011
때문인지	-11.3012
▁리뷰를	-11.3015
아픈	-11.3015
▁자신감	-11.3019
▁노잼이다	-11.3022
일지도	-11.3027
거아닌가	-11.3028
▁애인	-11.303
해야만	-11.3033
▁졸린	-11.3034
▁돌리도	-11.3035
하더만	-11.3035
모르게	-11.3038
▁돌아와	-11.304
▁분보고	-11.3042
▁서로를	-11.3048
▁제작사	-11.305
▁진자	-11.3054
▁보러갔	-11.3057
에효	-11.306
▁나왔었	-11.3061
▁공리	-11.3062
상관	-11.3062
일까요	-11.3063
▁사형	-11.3064
▁기원	-11.3067
▁지르	-11.3068
▁빌려봤	-11.3073
좋았던	-11.3075
▁오그라	-11.3076
▁잘생겼다	-11.3077
해본다	-11.3078
▁어린아이	-11.3078
▁최고작	-11.308
ᅲᅲᅲᅲᅲᅲ	-11.3092
▁찌질이	-11.3098
바리	-11.3099
▁자질	-11.3104
그레	-11.3105
▁생각날	-11.3108
▁않았을	-11.3112
▁급하게	-11.3113
▁차원	-11.3113
줄알고	-11.312
으면서도	-11.3124
▁어느것	-11.3126
같으니	-11.3127
▁감각적	-11.315
▁지나서	-11.3151
▁평론	-11.3153
▁웃기기도	-11.3153
렸네	-11.3153
보았다	-11.3155
▁도망가	-11.3157
머릿속	-11.3157
▁감동이네요	-11.3158
▁악평	-11.3178
▁무의미	-11.3184
생각하게	-11.3189
대결	-11.3191
중요한건	-11.3193
▁찍으면	-11.3194
▁왜그러	-11.3197
▁미스터	-11.3199
수있을까	-11.3201
▁말이필요없	-11.3202
▁과대평가	-11.3211
맷	-11.3215
▁뮤직	-11.3216
텀	-11.3216
▁구로사와	-11.3216
▁버금가는	-11.3216
▁쒸레기	-11.3216
▁애틋한	-11.3216
▁폴워커	-11.3216
뺴	-11.3216
▁나홀로집에	-11.3216
▁안쓰럽	-11.3216
▁엉뚱한	-11.3216
▁크루즈	-11.3216
굵	-11.3216
덥	-11.3216
인피니트	-11.3216
햐	-11.3216
▁나비효과	-11.3216
▁뒷통수	-11.3216
▁어울릴	-11.3216
▁후유증	-11.3216
▁어려움	-11.3216
▁캐서린	-11.3216
▁뒤통수	-11.3216
▁꼽히는	-11.3216
▁사춘기	-11.3216
▁지못미	-11.3216
▁신들린	-11.3216
▁왜이러냐	-11.3216
▁지진희	-11.3216
▁역겨워	-11.3216
▁수고하셨습니다	-11.3216
패밀리	-11.3216
▁케이스	-11.3216
▁다케시	-11.3216
▁한순간도	-11.3216
클래스	-11.3217
▁잘나가다	-11.3217
▁가면갈수록	-11.3217
▁와이프	-11.3217
안남기는데	-11.3217
▁주제의식	-11.3217
▁씹노잼	-11.3218
▁이민정	-11.3218
▁패턴	-11.3218
▁쌍욕	-11.3219
▁토할뻔	-11.3219
▁굿바이	-11.3219
▁눈물샘	-11.3219
▁나도모르게	-11.3219
▁김하늘	-11.322
할뻔	-11.322
▁신뢰	-11.3221
▁외롭	-11.3222
▁한몫	-11.3222
▁비싼	-11.3223
▁가치관	-11.3226
▁두렵	-11.3226
▁짐작	-11.3226
였으나	-11.3226
▁여운이남는	-11.3227
핳	-11.3228
▁감동적이었어요	-11.3228
▁돈아까움	-11.3229
▁행복했습니다	-11.323
▁보여줬는데	-11.3231
▁나발이	-11.3231
▁그리움	-11.3232
▁친구들이랑	-11.3232
▁식상하	-11.3233
▁명곡	-11.3233
▁몰래	-11.3233
▁어려서	-11.3235
▁열번	-11.3236
▁어필	-11.3236
▁조잡하다	-11.3236
껀데	-11.3237
▁베끼	-11.3237
졸려	-11.3237
▁그러면	-11.3237
배우님	-11.3238
▁실체	-11.3238
▁전세계	-11.3239
▁솔직하게	-11.324
▁강추강추	-11.3241
였는지	-11.3242
▁안무섭다	-11.3243
▁어떨지	-11.3243
않아요	-11.3243
▁마술	-11.3243
▁영구와	-11.3244
▁알았습니다	-11.3245
▁창조	-11.3246
징그러	-11.3248
▁헐크	-11.325
▁나왔는지	-11.325
▁최저	-11.325
걸린	-11.3251
줄알앗	-11.3251
▁현실이다	-11.3253
▁야한장면	-11.3253
▁책임감	-11.3255
▁걸릴	-11.3256
▁이러냐	-11.3256
▁잼따	-11.3257
▁망한영화	-11.3259
▁조커	-11.3261
▁지루했던	-11.3262
보세	-11.3263
▁이건아니다	-11.3266
굿굿굿굿	-11.3267
을위해	-11.3268
▁허준	-11.3269
정돈	-11.3269
아깝지않	-11.3271
게아니라	-11.3271
편견을	-11.3271
▁그외	-11.3272
▁임신	-11.3272
▁미치게	-11.3273
▁까먹	-11.3275
▁보았지만	-11.3277
보게되는	-11.3279
▁터질	-11.328
약함	-11.3283
▁들었는데	-11.3283
▁구림	-11.3286
▁가족드라마	-11.3286
▁일깨워준	-11.3288
▁높음	-11.3292
▁아쉬웠다	-11.3292
▁부족했다	-11.3293
▁되다니	-11.3294
▁줄줄	-11.3295
▁어렵게	-11.3295
멋져	-11.3297
▁잔인하게	-11.33
되지않	-11.3301
했을듯	-11.3303
▁산만하다	-11.3305
▁재밌겠다	-11.3306
▁키워	-11.3307
▁근대	-11.3307
만든거	-11.3308
했는가	-11.3313
스러워서	-11.3314
▁저버리지	-11.3317
▁재미없는영화	-11.3318
시청	-11.3318
▁강제	-11.3319
해야할듯	-11.332
▁잼있는데	-11.3324
▁행복하다	-11.3329
▁중반까지	-11.3329
▁치중	-11.3329
▁무언가를	-11.333
▁잃었다	-11.3335
필드	-11.3342
▁촌스럽	-11.3342
▁들의	-11.3343
섹	-11.3344
▁분들에게	-11.3345
▁오류	-11.3348
중하나	-11.3348
▁지루하네요	-11.3348
▁설레는	-11.3352
생각보다	-11.3353
듣는	-11.3354
▁평정	-11.3355
훨	-11.3357
녹	-11.3358
청춘	-11.3359
▁사망	-11.3359
잼있다	-11.336
▁칼로	-11.336
홍콩	-11.336
▁애매한	-11.3361
▁잘봤음	-11.3362
보게된	-11.3364
떠나	-11.3366
▁멜로물	-11.3367
▁두사람	-11.3368
▁마녀	-11.337
재밌게봤어요	-11.337
부탁	-11.3371
▁착하	-11.3374
흑흑	-11.3375
▁대세	-11.3376
짜증남	-11.3377
드럽게	-11.3378
▁짧고	-11.338
제작진	-11.338
ᅲᅲᅲᅲᅲᅲᅲ	-11.3382
중요한	-11.3383
출연진	-11.3385
▁용기를	-11.3386
▁심장을	-11.3386
▁말한다	-11.3389
설레	-11.3392
버렸어	-11.3392
부담없이	-11.3394
안나온다	-11.3399
풍경	-11.34
처음부터	-11.34
▁따분하	-11.3406
기다리	-11.3411
▁좋은작품	-11.3412
▁당하고	-11.3414
▁모건	-11.3414
거리고	-11.3415
▁짓게	-11.3416
해주면	-11.3416
점만점	-11.3421
▁애쓴	-11.3422
▁진보	-11.3425
▁후회없	-11.3428
▁참신함	-11.3432
▁난무하는	-11.3433
전설	-11.3435
▁기대하게	-11.3438
▁지연	-11.3439
▁정상인	-11.3444
뭐하러	-11.3445
▁다음주	-11.3448
세끼	-11.3449
하군요	-11.3449
봐야겠다	-11.345
▁아까울정도	-11.3454
▁리얼한	-11.3454
겠더라	-11.3457
끝났으면	-11.3464
개판	-11.3465
이뻐	-11.3465
▁눈물나는	-11.347
▁소비	-11.347
▁되려	-11.3473
▁비교할	-11.3475
▁너네	-11.3476
미녀	-11.3476
나와라	-11.3478
▁내공	-11.3479
빠졌	-11.3483
없습니다	-11.3489
지말길	-11.3489
▁그리스	-11.349
조심	-11.3497
▁미치지	-11.3502
▁나오니	-11.3504
▁노래들	-11.3506
▁이러면	-11.3507
▁명배우들	-11.3516
마디	-11.3517
▁좋겟	-11.3517
로썬	-11.3524
▁집중하게	-11.3527
▁안쓰러	-11.3528
▁볼줄	-11.3528
편보단	-11.3534
있어야	-11.3537
▁망쳤	-11.3544
잼있게	-11.3546
▁끝내주는	-11.355
하게만드는	-11.3555
▁좋아하면	-11.3556
버리네	-11.3561
본다면	-11.3562
어느	-11.3563
▁보냐	-11.3568
사냥	-11.3582
▁천박	-11.3584
했기에	-11.359
해야겠다	-11.3593
▁빛났	-11.3599
▁아무래	-11.3604
▁일깨워	-11.3604
그려	-11.3606
▁상업적	-11.3606
▁지루할수	-11.3606
▁재능이	-11.3612
▁포기한	-11.3613
풀어	-11.3615
펀	-11.3616
▁공짜	-11.362
▁그곳	-11.3623
깁니다	-11.363
뻘	-11.3632
뜰	-11.3633
촉	-11.3633
톨	-11.3633
▁듣보잡	-11.3633
▁브래드피트	-11.3633
▁브루스윌리스	-11.3633
▁어쨋든	-11.3633
▁윌스미스	-11.3633
▁킹왕짱	-11.3633
깽	-11.3633
띵	-11.3633
빚	-11.3633
빽	-11.3633
섰	-11.3633
쑈	-11.3633
씌	-11.3633
엥	-11.3633
쵸	-11.3633
핡	-11.3633
▁니콜키드먼	-11.3633
▁방어율	-11.3633
▁힐러리	-11.3633
늠	-11.3633
▁유승준	-11.3633
▁주옥같은	-11.3633
팡	-11.3633
훅	-11.3633
▁일으키	-11.3633
▁단막극	-11.3633
▁믿겨지지	-11.3633
▁약빨고	-11.3633
▁모니터	-11.3633
▁버무려	-11.3633
▁눈높이	-11.3633
▁여진구	-11.3633
▁지독한	-11.3633
▁손꼽히는	-11.3633
▁웨스턴	-11.3633
▁좌파	-11.3633
코넬리	-11.3633
▁쪽바리	-11.3633
▁쓰나미	-11.3633
▁이정현	-11.3633
▁흐른다	-11.3634
▁푹빠져	-11.3634
▁어울렸	-11.3634
▁늑대인간	-11.3634
▁돋보였던	-11.3634
▁조인성	-11.3634
▁자본주의	-11.3635
▁올만에	-11.3635
▁앤딩	-11.3635
뿐더러	-11.3635
▁완존	-11.3635
▁모티브	-11.3636
▁필립	-11.3636
▁중후반	-11.3636
읍니다	-11.3636
▁주지훈	-11.3636
▁자연스럽고	-11.3636
▁빼앗	-11.3637
▁측면	-11.3637
▁무개념	-11.3638
테잎	-11.3639
▁기타노	-11.3639
연기너무잘	-11.3639
위주로	-11.3639
▁오로라	-11.3639
▁원작소설	-11.364
▁종결	-11.364
▁희극	-11.3641
▁무뇌	-11.3641
▁찍었을까	-11.3643
▁자세히	-11.3644
▁독백	-11.3644
▁지루했고	-11.3646
▁말이필요없음	-11.3647
▁화끈하게	-11.3647
▁폭파	-11.3647
▁훌륭합니다	-11.3647
▁말할것도	-11.3648
▁회복	-11.3649
▁지닌	-11.3649
▁짜증났음	-11.3653
▁못봐주겠	-11.3654
▁바람피	-11.3654
▁보석같은	-11.3655
먹는다	-11.3656
▁심은하	-11.3657
▁좋겠음	-11.3661
▁작살	-11.3661
연기자들	-11.3661
▁병원	-11.3661
▁아니에요	-11.3663
▁그래두	-11.3664
▁청춘들	-11.3665
테이프	-11.3666
▁재미없었던	-11.3666
▁추천해주고	-11.3668
▁아역배우	-11.3669
▁무의미한	-11.3669
만들면	-11.367
여성	-11.3675
▁떨어지지만	-11.3676
▁볼만했던	-11.3677
▁내놔	-11.3677
▁동참	-11.3678
▁기술력	-11.3678
▁포장한	-11.3678
▁볼땐	-11.368
▁남김	-11.3682
▁연관성	-11.3683
▁그립네요	-11.3683
▁싫음	-11.3685
▁촌스럽고	-11.3686
▁스크린으로	-11.3688
행동	-11.3688
갑시다	-11.369
▁이민호	-11.369
▁어지러	-11.369
▁보여주기	-11.3691
풋풋하고	-11.3691
릭스	-11.3691
▁이상형	-11.3693
▁피터	-11.3701
▁꽝이다	-11.3701
▁화난다	-11.3701
▁인내	-11.3702
싶으면	-11.3703
▁대단하네요	-11.3703
▁재미없던데	-11.3704
▁앞부분	-11.3706
짜릿	-11.3706
▁만들자	-11.3707
▁저급한	-11.3708
▁걸레	-11.3709
동아리	-11.371
▁밝은	-11.3712
▁억울하	-11.3713
▁끼어	-11.3714
▁또한번	-11.3714
스트라	-11.3714
빵빵터	-11.3718
미래를	-11.3719
▁이쁘네요	-11.3724
▁되겠다	-11.3724
▁처음봄	-11.3724
▁개실망	-11.3726
할래	-11.3729
▁구리고	-11.373
티브	-11.373
▁흥미진진하다	-11.3732
▁후후	-11.3732
▁훌륭했다	-11.3732
▁년생	-11.3734
▁글쎄요	-11.3735
부모	-11.3737
▁후반으로	-11.3742
▁그러니	-11.3742
▁놀래키	-11.3746
여친	-11.3748
볼가치	-11.3749
▁만들었다면	-11.3752
▁어색해	-11.3758
하구요	-11.3759
프트	-11.3765
▁애기들	-11.3765
▁무방	-11.3766
▁유치하긴	-11.3767
▁에바	-11.377
▁재밋던데	-11.3771
▁되돌아보게	-11.3772
무서움	-11.3774
▁쩔고	-11.3778
볼걸	-11.3779
라기보단	-11.378
▁조명	-11.3781
▁사연	-11.3782
▁토르	-11.3783
바뀌	-11.3785
▁한편으로	-11.3786
▁불어	-11.3787
▁생각남	-11.379
▁요소를	-11.3791
▁의리로	-11.3791
실화	-11.3792
짤	-11.3792
예뻐	-11.3793
예쁘고	-11.3793
아닐까	-11.3794
▁촌스럽지	-11.3795
핵노잼	-11.3795
아무튼	-11.3795
짱짱맨	-11.3796
느낀	-11.3796
씁쓸	-11.3797
▁매력적이고	-11.3797
▁호러영화	-11.3797
개뿔	-11.3798
최강	-11.38
개념	-11.38
졸잼	-11.3801
탄탄	-11.3804
보는것	-11.3805
▁생각되는	-11.3805
철학	-11.3806
▁좋던데	-11.3808
지금봐도	-11.3809
점준	-11.3809
왜이렇게	-11.381
살짝	-11.3811
▁안목	-11.3811
▁볼수있다	-11.3813
▁괜찮았고	-11.3813
표절	-11.3813
▁타잔	-11.3815
▁개봉작	-11.3815
▁강하다	-11.3817
반복	-11.3819
▁안나와	-11.382
▁해보고	-11.3821
연습	-11.3823
으라고	-11.3827
▁필요없고	-11.383
▁어이없어	-11.383
▁그녀를	-11.3833
▁보스	-11.3836
▁벗는	-11.3838
▁이루는	-11.3839
희망	-11.3843
영화중에서	-11.3843
▁될거	-11.3847
▁우들	-11.3848
▁황당함	-11.3851
천원	-11.3855
안나옴	-11.3857
▁맞지않는	-11.3863
하다못해	-11.3865
▁즐기기	-11.3866
▁좋으면	-11.3867
재미없어요	-11.387
▁상처받	-11.387
▁예술이다	-11.3871
▁뭐죠	-11.3872
재미있네요	-11.3879
▁시리즈물	-11.3885
▁재밌었어	-11.3893
리얼	-11.3897
▁성장기	-11.3899
귀엽다	-11.39
그만큼	-11.3905
▁못하나	-11.3905
못보겠	-11.3908
났습니다	-11.3915
▁예상가능	-11.392
돈아까	-11.392
아침	-11.3926
▁그림자	-11.3928
렸어요	-11.393
없지만	-11.393
▁모든것	-11.3933
▁전작들	-11.3941
▁다문화	-11.3952
호호	-11.3954
보고나면	-11.3956
쟁	-11.3958
▁있을듯	-11.3963
▁가졌	-11.3971
▁보여줘야	-11.3971
함께	-11.3974
▁줬어	-11.3979
되어야	-11.398
▁붙여	-11.3981
우울	-11.3981
▁보지않	-11.3988
해봅니다	-11.3992
볼것	-11.3993
▁높여	-11.4005
▁미화하는	-11.4011
▁보시기	-11.4015
줄께	-11.4016
거같아서	-11.4021
▁봐야될	-11.4027
▁년후	-11.4027
▁재치	-11.4032
곁	-11.4034
▁돋보인	-11.4035
▁좋겠네	-11.4045
평점점	-11.4047
▁비행	-11.4051
▁일드	-11.4052
뿔	-11.4052
없냐	-11.4058
▁무섭기	-11.4059
위원회	-11.4063
▁다있어	-11.4063
둠	-11.4063
▁허술하	-11.4064
옵	-11.4066
▁민망하	-11.4067
첼	-11.4067
▁어줍잖	-11.4067
▁인터뷰	-11.4067
▁천녀유혼	-11.4067
▁콜린퍼스	-11.4067
▁혹성탈출	-11.4067
갸	-11.4067
곸	-11.4067
꺅	-11.4067
껍	-11.4067
붓	-11.4067
썽	-11.4067
핍	-11.4067
▁엑스트라	-11.4067
빔	-11.4067
쉰	-11.4067
쿵푸팬더	-11.4067
▁낄낄	-11.4067
▁신현준	-11.4067
젝	-11.4067
▁어울림	-11.4067
▁채민서	-11.4067
▁초중반	-11.4067
▁김승우	-11.4067
▁벅차	-11.4068
▁위대하다	-11.4068
▁장선우	-11.4068
▁스크림	-11.4068
▁나뿐인가	-11.4068
▁고소영	-11.4068
▁여고생	-11.4068
▁훈련	-11.4068
▁깨끗하	-11.4068
▁배드신	-11.4068
▁예지원	-11.4068
▁케로로	-11.4068
▁나쁘다	-11.4068
▁잠수함	-11.4068
▁기가막히	-11.4068
▁따스한	-11.4068
▁빨리감기	-11.4068
▁최지우	-11.4068
칩니다	-11.4068
▁강원도	-11.4068
▁고릴라	-11.4068
▁퍼펙트	-11.4068
▁갱스터	-11.4068
처먹	-11.4068
▁매튜	-11.4068
▁씨리즈	-11.4069
▁깔깔	-11.4069
▁설렘	-11.4069
▁신은경	-11.4069
▁클라라	-11.4069
▁말도안돼	-11.407
▁광주	-11.407
▁베낀	-11.407
▁허술함	-11.407
▁축복	-11.407
▁일본애니	-11.407
레이션	-11.4071
▁슬플	-11.4072
▁하얀	-11.4072
▁헛소리	-11.4072
▁중딩때	-11.4072
▁속도감	-11.4072
▁보면볼수록	-11.4072
▁불꽃	-11.4072
▁바램	-11.4072
▁하여간	-11.4072
▁싶을정도로	-11.4073
▁가족끼리	-11.4073
▁한결같	-11.4073
▁정신세계	-11.4074
▁안가네	-11.4075
▁수준낮은	-11.4076
▁된장녀	-11.4076
▁세번째	-11.4076
▁애잔하	-11.4076
▁먹먹해지는	-11.4076
▁엽기적인	-11.4077
▁욕나옴	-11.4077
▁모든면에서	-11.4077
▁테스트	-11.4077
▁구석이	-11.4078
곳에서	-11.4078
▁관광	-11.4078
▁평점테러	-11.408
▁연령	-11.408
▁끌리는	-11.4082
▁딴짓	-11.4083
▁생겨	-11.4083
▁타짜	-11.4084
▁교차	-11.4084
▁개망작	-11.4084
거슬려	-11.4084
▁물결	-11.4084
▁동료	-11.4085
유치한	-11.4086
▁으악	-11.4086
▁웃기려고	-11.4086
▁명량	-11.4087
보게되	-11.4087
▁백번	-11.4087
▁모르겠어요	-11.4088
▁박힌	-11.4089
▁헌신	-11.4091
뻔함	-11.4093
▁궁금하네요	-11.4093
▁안어울리	-11.4093
▁진출	-11.4096
▁낚였어	-11.4097
▁싶어지는	-11.4097
▁되버린	-11.4097
▁하필	-11.4099
▁명작중의	-11.4099
보겠다	-11.4099
▁더럽게없다	-11.41
▁느낄수있는	-11.41
▁초등	-11.41
▁딱딱	-11.4101
▁제맛	-11.4102
마지막장면	-11.4102
▁아쉬울뿐	-11.4103
▁뛰어났	-11.4104
▁매년	-11.4105
▁키스신	-11.4106
▁변명	-11.4108
▁무튼	-11.4108
▁아이디	-11.4109
▁알고싶다	-11.411
ᄒᄒᄒᄒᄒᄒᄒᄒ	-11.411
▁아름답네요	-11.4113
▁짱이에요	-11.4114
▁미련	-11.4115
▁제작된	-11.4115
▁그려진	-11.4115
▁불쌍함	-11.4116
맞아서	-11.4117
▁나누	-11.4117
▁유치원	-11.4121
▁퀴어영화	-11.4122
▁심판	-11.4123
▁사막	-11.4124
▁저때	-11.4125
▁조아요	-11.4125
▁중반부	-11.4128
▁무료로	-11.4129
▁결과물	-11.413
▁무한한	-11.4131
▁궁금한	-11.4133
▁정글	-11.4134
▁않길	-11.4135
▁짠하다	-11.4135
▁아련하고	-11.4137
▁또다시	-11.4142
▁노리	-11.4143
▁좋아했는데	-11.4143
▁밝고	-11.4144
▁귀엽네요	-11.4147
겟음	-11.415
▁생각된다	-11.4152
▁감동이에요	-11.4153
보지마	-11.4157
▁촌스럽다	-11.4158
▁씁쓸하다	-11.4161
▁찰리	-11.4166
ᄒᄒᄒᄒᄒ	-11.4169
▁존중	-11.417
▁진정으로	-11.4174
▁허비	-11.4182
▁개명작	-11.4182
더구만	-11.4185
이런걸	-11.4191
왠	-11.4197
▁도와주	-11.4199
▁나타난	-11.4208
▁레드	-11.4215
▁안듬	-11.4217
▁투자자	-11.422
▁지역	-11.4221
▁교수	-11.4224
▁지식	-11.4228
▁연기들도	-11.4229
▁불가능한	-11.4229
▁않았고	-11.423
▁멋있게	-11.4231
▁치우	-11.4236
싹	-11.4239
보지마셈	-11.4241
▁그저그렇	-11.4243
됬으면	-11.4243
맡	-11.4245
쓰래기	-11.4247
뮤지컬	-11.4248
열심히	-11.4248
카메라	-11.4248
프랑스	-11.4249
뱀	-11.4249
▁작년	-11.425
밝	-11.4251
힐링	-11.4252
▁보이네요	-11.4252
슈퍼	-11.4252
쵝오	-11.4252
바랍니다	-11.4253
도저히	-11.4253
젊은	-11.4254
▁최악이네	-11.4259
▁모두에게	-11.4261
구멍	-11.4261
렸는데	-11.4265
취급	-11.4266
뻔한스토리	-11.4266
무엇보다	-11.4268
갈등	-11.4269
듣기싫	-11.4269
할수없다	-11.427
▁기계	-11.4273
종교	-11.4273
▁루즈하	-11.4274
감동적이고	-11.4278
조합	-11.428
▁안보는데	-11.4281
▁끝부분	-11.4288
명이서	-11.429
▁야하다	-11.4292
겠구나	-11.4294
본건데	-11.4296
얘긴	-11.43
레알	-11.4304
없을정도로	-11.4311
▁불쾌함	-11.4311
▁그딴	-11.4314
비슷한	-11.4322
▁진지함	-11.4331
쟁이들	-11.4336
▁쩔었	-11.4343
▁현장	-11.4344
평점알바	-11.4346
▁잔인하다	-11.4351
▁투자한	-11.4351
▁의미없	-11.4359
절대보지마	-11.4362
최악이다	-11.4365
버트	-11.4366
어지네요	-11.4368
▁되고싶	-11.4369
하니깐	-11.4369
웃음과	-11.4373
재밋엇	-11.4377
파티	-11.4386
볼래	-11.4387
하셔서	-11.4393
수있다는	-11.4394
기회를	-11.4397
▁알았어	-11.4405
▁돈아까운	-11.4409
보기싫어	-11.4417
없으면	-11.4418
ᄋᄋᄋᄋ	-11.4419
었으나	-11.4425
말대로	-11.4428
▁쓸쓸	-11.4431
같았는데	-11.4432
부분에서	-11.4434
파괴	-11.4455
밑	-11.4472
▁흔들리	-11.4474
해야하나	-11.4475
▁사랑이라는	-11.4475
▁끼치	-11.4478
▁저예산영화	-11.4479
뻔했네	-11.4491
▁긍정적	-11.4495
▁패기	-11.4499
▁주연배우들	-11.4501
▁고마워	-11.4505
▁미국인	-11.4507
템	-11.452
▁인연이	-11.4521
겜	-11.4522
▁기대했건만	-11.4522
▁롱테이크	-11.4522
▁봉태규	-11.4522
▁불우이웃	-11.4522
▁빈디젤	-11.4522
▁샌들러	-11.4522
▁스펙타클	-11.4522
▁아날로그	-11.4522
▁어벤져스	-11.4522
▁역사왜곡	-11.4522
▁인셉션	-11.4522
▁쥬라기공원	-11.4522
▁초콜릿	-11.4522
▁흔해빠진	-11.4522
돠	-11.4522
밭	-11.4522
뿅	-11.4522
쁠	-11.4522
윗	-11.4522
ᅧ	-11.4522
▁스티븐시걸	-11.4522
▁어쩐지	-11.4522
▁오다기리	-11.4522
▁절묘한	-11.4522
▁하루종일	-11.4522
뚤	-11.4522
반지의제왕	-11.4522
윙	-11.4522
▁장예모	-11.4522
▁민주화	-11.4522
▁유부녀	-11.4522
▁앵글	-11.4522
▁어우러져	-11.4522
▁멈출	-11.4522
▁벅찬	-11.4522
▁압축	-11.4522
▁뜬금포	-11.4522
▁제레미	-11.4522
▁눈뜨고	-11.4522
▁이종석	-11.4522
▁서인국	-11.4522
▁다섯손가락	-11.4522
▁뽀로로	-11.4522
▁토마스	-11.4522
▁애잔한	-11.4522
암걸릴	-11.4522
▁어디선가	-11.4522
▁안무섭고	-11.4522
▁인디아나	-11.4522
▁에너지	-11.4523
스캔들	-11.4523
▁토이스토리	-11.4523
▁김구라	-11.4523
▁신비로운	-11.4523
▁가난한	-11.4523
▁통찰	-11.4523
▁밀려오는	-11.4524
▁법칙	-11.4524
▁수식어	-11.4524
▁잉여	-11.4524
▁마디로	-11.4524
합니당	-11.4525
▁극장개봉	-11.4526
▁쇼킹	-11.4526
▁기분나쁜	-11.4527
▁가슴속에	-11.4527
▁영화관가서	-11.4527
▁여년전	-11.4528
십쇼	-11.4528
▁다섯개	-11.4529
▁은은한	-11.4529
▁고딩때	-11.4529
▁맘에든다	-11.4529
▁감동적이예요	-11.4529
▁두뇌	-11.453
▁맞먹는	-11.453
▁질질짜	-11.453
▁일어났	-11.453
▁봤더만	-11.453
▁결투	-11.4531
님께	-11.4532
▁초점을	-11.4532
▁녹아있는	-11.4533
▁드러난	-11.4533
▁실존	-11.4534
▁감싸	-11.4535
▁섬세하게	-11.4536
▁말해준다	-11.4536
▁망했는지	-11.4537
▁기다린	-11.4537
▁제미있	-11.4538
본것중	-11.4538
▁따뜻하다	-11.4539
▁생생하다	-11.4541
▁여자친구랑	-11.4541
▁사례	-11.4541
▁찾아가는	-11.4541
▁만들어놓고	-11.4548
▁생김	-11.4549
▁양산	-11.4549
▁기대되네요	-11.4551
▁쿠바	-11.4552
▁돌프	-11.4555
▁결혼식	-11.4557
▁말장난	-11.4557
▁산타	-11.4559
▁오줌	-11.4559
킬링타임으로도	-11.456
▁작작	-11.4561
▁점줍니다	-11.4562
▁보시라	-11.4562
▁느껴지네요	-11.4564
▁괜찮아요	-11.4565
ᄀᄀ	-11.4566
▁경쟁	-11.4567
▁섹시하다	-11.4568
▁매력있다	-11.4569
▁완벽했다	-11.4571
▁감성적인	-11.4574
▁떨어지네요	-11.4574
▁재즈	-11.4577
▁뿐이고	-11.4577
▁안보길	-11.4578
▁머피	-11.4579
▁후속	-11.4579
▁여전사	-11.458
▁기준으로	-11.4581
▁재회	-11.4582
▁늘리	-11.4583
▁학년때	-11.4585
▁망했다	-11.4586
▁죠스	-11.4587
▁곳곳에	-11.4587
▁별로였던	-11.4588
▁당할순	-11.459
▁제격	-11.4592
▁편안한	-11.4595
▁울린다	-11.4595
▁아껴	-11.4595
▁배운	-11.46
▁관계자	-11.4603
▁최신	-11.4603
▁서른	-11.4604
▁갑이다	-11.4604
▁갈릴	-11.4606
▁힘들듯	-11.4611
▁만들었음	-11.4611
▁어떻게든	-11.4612
▁한국영화중	-11.4614
▁만들었는데	-11.4615
▁신발	-11.462
▁빈약하	-11.4621
▁독특함	-11.4622
▁영화사에	-11.4622
ᄒᄃᄃ	-11.4624
▁애들용	-11.4624
▁덮어	-11.4626
▁안나왔으면	-11.4627
▁말기를	-11.4628
▁전통	-11.4633
것뿐	-11.4634
완벽히	-11.4636
▁선사하는	-11.4638
▁아휴	-11.4641
▁눈빛연기	-11.4642
▁비슷하게	-11.4644
▁있었네요	-11.4645
쓰냐	-11.4647
▁마니아	-11.4647
▁남아요	-11.4649
▁고집	-11.465
▁질주	-11.4651
▁암시	-11.4654
▁엔딩까지	-11.4656
환장하	-11.4658
▁시작했다	-11.4662
▁즐겨보	-11.4662
▁별로던데	-11.4664
▁제길	-11.4665
▁자다가	-11.4665
▁짱인듯	-11.4666
▁자식들	-11.4666
▁당할	-11.4666
▁그래요	-11.467
▁피트	-11.4672
▁서민	-11.4673
오른다	-11.4675
▁이때까지	-11.4685
▁똑같네	-11.4687
나오길래	-11.4691
▁딴거	-11.4694
영환가	-11.4695
▁집안	-11.4697
읽어	-11.4697
▁차리	-11.47
▁주다니	-11.4704
엑스	-11.4706
▁느껴져	-11.4715
▁올려주	-11.4715
▁중요성	-11.472
땀	-11.4722
해피엔딩	-11.4723
본방사수	-11.4724
푹	-11.4724
만드냐	-11.4725
▁오빠들	-11.4725
뭥미	-11.4726
검색	-11.4729
멋짐	-11.473
공룡	-11.4735
모험	-11.4736
폭발	-11.474
후반부	-11.474
▁그것뿐	-11.4749
▁해주네요	-11.475
것인지	-11.4751
어쩔	-11.4756
어릴때	-11.4756
▁알바생들	-11.4756
▁소원	-11.4758
관련	-11.476
당께	-11.4761
내인생	-11.4762
▁알아보	-11.4764
할것이다	-11.4767
▁표현력	-11.4767
찌질	-11.4774
▁감정연기	-11.4776
▁이용해	-11.4781
재밌습니다	-11.4787
▁한국인들	-11.4793
더이상	-11.4803
▁우리집	-11.4803
봤을때	-11.4806
중에선	-11.4807
미쳤	-11.481
▁출연작	-11.4812
▁계신	-11.4822
▁안나올	-11.4829
▁지도	-11.483
하시네	-11.4833
▁보아야	-11.4834
▁처음보는	-11.4835
▁잼있네	-11.4838
하시는분들	-11.4843
▁밀리	-11.4847
▁봐야되	-11.485
겁나	-11.486
나오더라	-11.4865
안됌	-11.4868
에로영화	-11.487
▁웃기면서	-11.4878
삼아	-11.4888
▁설치	-11.4899
막장드라마	-11.4905
잼있음	-11.4911
▁영점	-11.4913
▁별반개	-11.4916
▁보냈	-11.4924
▁다가오	-11.4924
시키려	-11.4924
▁아니였다	-11.4934
▁틀림없	-11.4944
흘리	-11.4954
▁개쩔	-11.4958
올릴	-11.4963
▁파격	-11.4982
욬	-11.499
꿔	-11.4992
콧	-11.4994
웩	-11.4995
꿨	-11.4995
찜	-11.4998
나왓으면	-11.4998
힛	-11.4998
▁페이크다큐	-11.4998
긴급조치	-11.4998
쳇	-11.4998
▁무미건조	-11.4998
▁시끄러워	-11.4998
▁쌍팔년도	-11.4998
▁아담샌들러	-11.4998
▁에니메이션	-11.4998
▁이스라엘	-11.4998
▁핸드폰	-11.4998
꾀	-11.4998
꿉	-11.4998
뵈	-11.4998
짭	-11.4998
힝	-11.4998
▁드릅게	-11.4998
▁시스템	-11.4998
▁추격전	-11.4998
댜	-11.4998
▁마동석	-11.4998
▁맥어보이	-11.4998
▁문채원	-11.4998
▁가르침	-11.4998
▁아일랜드	-11.4998
▁자존심	-11.4998
▁훼손	-11.4998
▁가슴찡한	-11.4998
▁간신히	-11.4998
▁다녀온	-11.4998
▁불필요한	-11.4998
▁유승호	-11.4998
▁그이하도	-11.4998
▁전달하고자	-11.4998
▁평점조작	-11.4998
▁송중기	-11.4998
▁정유미	-11.4998
▁좌절	-11.4998
윤시윤	-11.4998
▁숀펜	-11.4999
▁하루하루	-11.4999
▁흔치	-11.4999
▁썩어	-11.4999
▁서태지	-11.4999
▁안소니	-11.4999
▁도입부	-11.4999
▁이문식	-11.4999
▁짜릿함	-11.5
▁잘어울리는	-11.5
▁어두워	-11.5
▁침몰	-11.5001
▁이렇지	-11.5001
▁대책없	-11.5001
▁골때리는	-11.5001
▁흘릴	-11.5001
▁음모론	-11.5001
▁스탠	-11.5001
▁펼치	-11.5001
오오오오	-11.5001
무작정	-11.5002
▁탐욕	-11.5002
▁구지성	-11.5003
▁이럴수가	-11.5003
▁절실히	-11.5003
▁모르겠으나	-11.5003
▁놓칠	-11.5004
▁매혹	-11.5004
▁뜯어	-11.5005
▁주제곡	-11.5005
▁꺼버린	-11.5005
▁엉망인	-11.5006
▁이렇다	-11.5006
▁찾았다	-11.5007
▁슬펐어요	-11.5008
▁걷는	-11.5008
▁이제그만	-11.5011
▁현대판	-11.5011
▁없으며	-11.5012
▁오랜만이네	-11.5012
▁치킨	-11.5012
▁만점짜리	-11.5012
▁답이없다	-11.5013
▁올리버	-11.5013
▁애절하	-11.5013
▁기대안하고봤는데	-11.5014
▁녹화	-11.5014
▁슬펐던	-11.5015
▁질질끄는	-11.5017
▁비교된다	-11.5018
▁생겨서	-11.5018
▁몰입하면서	-11.5018
▁안무서움	-11.5019
되었습니다	-11.5019
과함께	-11.502
부탁드립니다	-11.5021
▁사랑스러움	-11.5022
▁좋았을걸	-11.5023
▁축하	-11.5023
▁괜찮을듯	-11.5024
▁루크	-11.5025
▁양키	-11.5026
▁반가웠	-11.5026
▁암살	-11.5027
▁환영	-11.5027
▁모르겠습니다	-11.5028
▁시시하다	-11.5028
▁못알아	-11.5028
▁이유없이	-11.5029
▁놀래	-11.5029
▁맞추자	-11.5031
▁원주고	-11.5031
▁불교	-11.5031
▁봤던건데	-11.5032
▁안주는데	-11.5032
▁만들어버린	-11.5032
▁후회된다	-11.5033
▁자랑스럽다	-11.5034
▁충동	-11.5034
▁바치는	-11.5034
▁급전개	-11.5035
▁교훈적인	-11.5036
▁앞서간	-11.5036
▁부실한	-11.5036
▁고아라	-11.5038
▁괴상	-11.5039
▁마련	-11.5039
▁늘어지는	-11.5039
▁시작된다	-11.504
▁대하여	-11.504
▁다좋은데	-11.5041
▁되었으면	-11.5041
▁개허접	-11.5042
누리	-11.5042
조금이라도	-11.5043
▁되었어요	-11.5043
▁감동이었습니다	-11.5044
▁한쪽	-11.5044
낮아서	-11.5045
▁선배	-11.5046
▁덤으로	-11.505
▁재미없으면	-11.5052
▁르네	-11.5053
▁지루하진	-11.5054
▁다시보고싶다	-11.5055
▁핵심	-11.5055
▁안믿	-11.5057
▁하나만으로도	-11.5058
▁시시하고	-11.506
▁만행	-11.5062
보고또봐도	-11.5062
▁취미	-11.5065
내돈	-11.5066
▁받으	-11.5071
▁왜캐	-11.5076
▁할말없다	-11.5077
▁먹먹하고	-11.5082
▁누구냐	-11.5084
▁잡히	-11.5084
▁어색해서	-11.5086
▁지능	-11.5092
▁돌아온	-11.5094
▁생각하며	-11.5095
▁조카들	-11.5099
였을까	-11.51
▁나른	-11.51
▁훈훈함	-11.5102
▁월일	-11.5109
▁설레임	-11.5114
▁재밌더라	-11.5116
▁전작보다	-11.5121
▁행동들	-11.5122
거린다	-11.5124
▁붙잡	-11.5125
▁난잡한	-11.5128
▁좋은영화입니다	-11.513
▁똑같아	-11.5131
▁동원	-11.5132
▁뻔뻔한	-11.5133
▁뒷부분	-11.5137
▁하차	-11.5139
개연성없는	-11.5139
것두	-11.5151
▁만족스럽	-11.5151
▁궁금함	-11.5153
▁토미	-11.5153
▁씁쓸함	-11.5157
▁통일	-11.516
▁지친	-11.5171
▁고어물	-11.5182
세력	-11.5183
쉽게	-11.5189
▁비명	-11.5194
편안하게	-11.5197
떨어진다	-11.5201
장면에선	-11.5214
▁유럽영화	-11.5219
손가락	-11.5221
되었음	-11.5221
컴	-11.5221
마누라	-11.5222
냉	-11.5222
거늘	-11.5224
헛	-11.5224
저렇게	-11.5224
스케일	-11.5225
쓰리	-11.5228
거같네	-11.5228
스트레스	-11.5228
예쁜	-11.5229
이정도면	-11.5231
영활	-11.5232
받았다	-11.5233
등록	-11.5235
▁행복했다	-11.5239
재밌었는데	-11.5243
▁뗄수	-11.5244
▁떠난	-11.525
외국	-11.525
나머지	-11.5252
할머니	-11.5254
팔린	-11.5254
재미있었다	-11.5255
안타깝네	-11.5256
▁낮은듯	-11.5257
테러	-11.5258
응원	-11.5259
▁비약	-11.5259
나왔음	-11.5263
아쉽지만	-11.5265
지마시고	-11.5274
보시면	-11.5274
을수있	-11.5276
쁨	-11.5284
▁허망	-11.5308
▁좋아하던	-11.531
보고싶은데	-11.5316
▁울엇	-11.5316
짜증나서	-11.5317
꼬마	-11.5322
중엔	-11.5326
▁볼만하네	-11.533
▁생각하니	-11.5331
특선	-11.5334
▁왜만들었	-11.5335
딴걸	-11.5335
생각해보면	-11.5357
넘넘	-11.5365
아픔을	-11.5372
▁의외	-11.5397
순수한	-11.54
▁자극적이지	-11.54
▁눈물나게	-11.5403
▁과제	-11.5405
수잇는	-11.5411
줄아나	-11.5417
▁기대되	-11.5417
▁뒤집	-11.5421
▁싫었	-11.5423
▁추적	-11.5423
▁성의없	-11.5426
룬	-11.5428
▁시망	-11.5433
엌	-11.5434
▁봤었지	-11.5451
했었지	-11.5457
▁욕나오	-11.5465
▁미친놈	-11.5468
쿄	-11.5491
뷔	-11.5496
ᄂᄂ	-11.5497
걱	-11.5498
륭	-11.5498
얔	-11.5498
▁훌쩍	-11.5498
쉘	-11.5498
해피앤딩	-11.5498
▁기승전결	-11.5498
▁러브레터	-11.5498
▁선입견	-11.5498
▁성지순례	-11.5498
▁스칼렛	-11.5498
▁타이타닉	-11.5498
떳	-11.5498
웁	-11.5498
쪙	-11.5498
▁브래드	-11.5498
▁샤말란	-11.5498
▁오마쥬	-11.5498
잘어울림	-11.5498
▁개나소나	-11.5498
▁밍밍	-11.5498
▁박유천	-11.5498
▁블레이드	-11.5498
▁케서방	-11.5498
▁재해석	-11.5498
▁리차드	-11.5498
▁파치노	-11.5498
▁잊혀지질	-11.5498
▁키드먼	-11.5498
▁합리화	-11.5498
▁보너스	-11.5498
▁로멘스	-11.5498
▁민주주의	-11.5498
▁파트너	-11.5498
▁맛깔나	-11.5498
▁소름돋았다	-11.5498
▁낯선	-11.5498
▁정확한	-11.5498
▁초월한	-11.5498
▁길들여	-11.5498
▁박한별	-11.5498
꾸준히	-11.5498
▁풍부한	-11.5498
▁삼국지	-11.5498
▁가운데	-11.5498
▁일관성	-11.5498
▁견뎌	-11.5498
▁역겨웠	-11.5498
▁장백지	-11.5499
▁하야오	-11.5499
▁엑소	-11.5499
▁배두나	-11.5499
▁한니발	-11.5499
▁두려워	-11.5499
▁치닫는	-11.5499
▁시간가는줄모르고	-11.5499
▁테러리스트	-11.5499
▁제시카알바	-11.5499
▁충족	-11.55
▁거침없	-11.55
▁빠르게	-11.55
▁또하나의	-11.5501
▁촌스러움	-11.5501
▁훈훈해지는	-11.5501
▁빡침	-11.5501
▁농락	-11.5501
▁웃음코드	-11.5501
▁유익한	-11.5502
▁빠르고	-11.5502
▁알겠으나	-11.5502
▁찐한	-11.5502
▁이경영	-11.5502
대박나세요	-11.5503
떨어트	-11.5503
▁세븐	-11.5503
▁볼까말까	-11.5503
▁산뜻	-11.5504
▁이겨내	-11.5504
▁새로울	-11.5505
▁의심스럽다	-11.5505
▁제외하면	-11.5505
▁집합	-11.5505
▁감안해도	-11.5506
▁이질감	-11.5506
▁봐야겠어요	-11.5507
욬ᄏᄏᄏ	-11.5507
▁산드라	-11.5507
▁곤란	-11.5509
▁버튼	-11.551
▁범작	-11.551
▁보셨으면	-11.551
▁청순	-11.551
▁울린	-11.5511
▁몸짓	-11.5511
▁살아간다	-11.5512
▁주셔서	-11.5512
▁건축	-11.5513
▁소유진	-11.5513
▁공포스릴러	-11.5514
▁애쓰는	-11.5516
▁패배	-11.5517
순없지	-11.5518
▁전설적인	-11.552
▁아니자나	-11.5522
줄알았음	-11.5522
▁안타깝지만	-11.5522
▁벌어지는	-11.5524
▁연락	-11.5524
▁잃게	-11.5525
▁사랑얘기	-11.5525
▁여잔	-11.5525
▁한마리	-11.5525
▁답없다	-11.5526
▁계단	-11.5527
▁표한다	-11.5528
▁감격	-11.553
▁풀어가는	-11.5531
▁왕따	-11.5531
▁펼쳐지	-11.5532
고싶었던	-11.5533
▁복제	-11.5534
▁중딩	-11.5535
▁헷갈리	-11.5535
밖으로	-11.5536
사람으로써	-11.5536
▁들었어요	-11.5537
▁쓸쓸한	-11.5537
아닌가요	-11.5538
▁그러니까	-11.5538
▁안가네요	-11.5541
▁말하려고	-11.5541
▁금발	-11.5543
▁예상되는	-11.5544
▁중국판	-11.5544
▁상큼한	-11.5545
▁잠재	-11.5546
하랴	-11.5546
▁몰랐던	-11.5547
▁숨겨	-11.5548
▁예쁘네요	-11.5549
▁넣어서	-11.5549
▁자료	-11.555
▁건질게	-11.5554
▁번이상	-11.5555
▁보삼	-11.5556
▁알려지지	-11.5556
졸리	-11.5561
▁바보같은	-11.5563
▁인종	-11.5567
▁잼남	-11.5567
▁만들었니	-11.5569
▁최고예요	-11.557
▁초딩용	-11.5573
독창적	-11.5575
▁없군요	-11.5575
▁쩔어요	-11.5575
▁발생	-11.5575
▁애들한테	-11.5576
▁강요하는	-11.5576
▁알았지만	-11.558
▁보았네요	-11.5581
▁허영	-11.5582
▁우롱하는	-11.5583
▁재연	-11.5583
놔서	-11.5583
▁시계	-11.5591
▁포스터보고	-11.5592
▁되었는데	-11.5595
▁광해	-11.5596
되어있는	-11.5598
▁주연들	-11.5598
사이트	-11.56
▁보신분들	-11.5601
▁분석	-11.5603
▁풋풋함	-11.5604
▁호모	-11.5607
▁섹시함	-11.561
질질끄	-11.5611
▁없었지만	-11.5614
▁공원	-11.5615
▁않더라	-11.5624
▁따라하기	-11.5627
거아님	-11.5633
줄려고	-11.5637
영화제에서	-11.5642
▁따른	-11.5646
▁유치하지	-11.565
를위해	-11.5651
▁졸렸	-11.5651
▁어디갔	-11.5659
객관적으로	-11.5662
▁오버연기	-11.5668
합격	-11.5668
▁나오겠지	-11.5678
지마셈	-11.5698
▁압도적	-11.57
▁누르	-11.57
▁당황스럽	-11.5701
열받아서	-11.5702
▁낭만적이	-11.5712
▁여명	-11.5715
▁만들까	-11.5715
▁우울할때	-11.5718
지않아서	-11.5723
▁엔딩장면	-11.5727
▁웃긴데	-11.5728
▁똥망	-11.5731
▁개떡	-11.5732
먹으면서	-11.5738
얻	-11.5745
괜	-11.5749
및	-11.5749
바꿔	-11.5751
무조건	-11.5751
어설픈	-11.5751
▁흔하	-11.5755
눈빛	-11.5755
잔잔하	-11.5756
카페	-11.5757
▁형성	-11.5757
새로운	-11.5758
실제로	-11.5759
벌써	-11.5759
겠습니까	-11.5759
했어야	-11.576
▁액션마저	-11.5763
▁지루하긴	-11.5765
바꾸	-11.5765
역사상	-11.5767
변태	-11.577
이뻐요	-11.5771
었더라면	-11.5771
조폭	-11.5774
할아버지	-11.5775
생각나서	-11.5776
많아서	-11.5777
세월	-11.5781
▁마지막부분	-11.5782
탄생	-11.5783
개막장	-11.5783
버리고싶	-11.5784
▁유명배우	-11.5788
리뷰	-11.5789
▁따르	-11.579
어이없음	-11.5805
볼만함	-11.5808
맨날	-11.581
감동적이다	-11.5815
▁않았어	-11.5816
막히	-11.5819
▁만드셨	-11.5826
▁작위적	-11.5833
뜨린	-11.5836
라이트	-11.5842
때문인가	-11.5876
▁소름돋네	-11.5881
바르	-11.5884
와함께	-11.5886
보지말	-11.5888
▁악당들	-11.5892
영화중하나	-11.5901
키키	-11.5905
놓았다	-11.5907
▁즐길수	-11.5909
▁돌아왔	-11.5912
따뜻해지고	-11.5912
▁욕나오네	-11.5912
보다보면	-11.5918
본사람들은	-11.5923
▁대표적	-11.5923
끝난	-11.5925
▁어의없	-11.5933
사촌	-11.5936
싶었는데	-11.5943
▁그럴듯한	-11.5952
▁있더라	-11.5959
▁내마음	-11.5985
▁어떨	-11.5988
▁속시원	-11.6
잘만든	-11.6004
▁어딜	-11.6004
보니깐	-11.601
▁있을뿐	-11.6014
▁출연진들	-11.6016
▁감점	-11.602
훔	-11.6021
맑	-11.6022
럿	-11.6022
옮	-11.6023
딴건	-11.6024
헷	-11.6024
▁게리올드만	-11.6024
▁곽지민	-11.6024
▁맙소사	-11.6024
▁시퀀스	-11.6024
▁쓰잘데기	-11.6024
▁아름다울	-11.6024
▁안젤리나	-11.6024
▁어메이징	-11.6024
▁엄태웅	-11.6024
▁재기발랄	-11.6024
▁존트라볼타	-11.6024
▁짜맞춘	-11.6024
▁쿠엔틴	-11.6024
▁클라이막스	-11.6024
걔	-11.6024
떴	-11.6024
뤽	-11.6024
뷁	-11.6024
읎	-11.6024
쫑	-11.6024
쳣	-11.6024
텨	-11.6024
▁그로테스크	-11.6024
▁대리만족	-11.6024
▁못만드나	-11.6024
▁쌍벽을	-11.6024
▁일으킨	-11.6024
낱	-11.6024
▁베드씬	-11.6024
▁비틀즈	-11.6024
겔	-11.6024
뱃	-11.6024
▁손오공	-11.6024
▁초월하는	-11.6024
▁수십번	-11.6024
▁허니잼	-11.6024
▁차인표	-11.6024
▁불멸의	-11.6024
▁타이밍	-11.6024
▁낯설	-11.6024
▁미묘한	-11.6024
▁월드컵	-11.6024
케스팅	-11.6024
▁기묘한	-11.6025
▁모니카	-11.6025
▁박용우	-11.6025
▁김규리	-11.6025
▁마피아	-11.6025
▁리부트	-11.6025
▁비둘기	-11.6025
▁부성애	-11.6025
▁정신차리	-11.6025
▁핫세	-11.6025
▁심금을	-11.6025
▁호프만	-11.6025
▁페이크	-11.6025
▁쥬라기	-11.6025
칙칙	-11.6025
▁조으다	-11.6025
▁롯데	-11.6025
▁통틀어	-11.6025
▁좌좀	-11.6025
▁밀려온다	-11.6026
▁올라갈때	-11.6026
▁안볼란다	-11.6026
▁아낌없	-11.6026
▁못생겨	-11.6026
▁콩콩	-11.6026
▁바람둥이	-11.6027
▁시청율	-11.6027
▁교도소	-11.6027
▁이리저리	-11.6028
▁우웩	-11.6028
▁크로우	-11.6028
▁탱고	-11.6028
▁사소한	-11.6028
▁봤건만	-11.6029
▁닭살	-11.6029
▁자유로운	-11.6029
▁피어스	-11.603
▁처음부터끝까지	-11.6031
▁과대평가된	-11.6031
▁특색	-11.6032
▁정확하	-11.6032
▁디젤	-11.6032
▁다르겠지만	-11.6032
▁이모양이	-11.6033
▁변함없	-11.6034
▁취권	-11.6035
▁개쩌는	-11.6035
하든가	-11.6036
▁아쉬웠던	-11.6036
▁아이리스	-11.6036
▁파고드	-11.6037
▁담겨있는	-11.6037
▁대만족	-11.6037
▁입가에	-11.6037
▁잔잔히	-11.6037
▁잼있었어요	-11.6038
▁잡탕	-11.6038
▁이것밖에	-11.6038
▁몇번을봐도	-11.6039
▁보고싶어지는	-11.6039
▁차갑	-11.6039
▁가필드	-11.6039
▁이해안됨	-11.6039
▁스카이	-11.604
▁오래도록	-11.6041
단계	-11.6041
입니당	-11.6041
▁망침	-11.6041
▁절실	-11.6042
▁원작만화	-11.6043
▁첩보물	-11.6043
▁잼께	-11.6043
▁재미없었어요	-11.6043
▁종종	-11.6044
▁원한다면	-11.6044
▁느껴져서	-11.6045
▁메릴	-11.6046
탐험	-11.6046
▁사람으로서	-11.6046
▁한국애니	-11.6046
▁리암	-11.6047
▁한두번	-11.6047
▁존예	-11.6048
▁낚일	-11.6048
▁재미잇어요	-11.6049
▁물론이고	-11.6052
▁알고보니	-11.6052
인줄알고	-11.6053
▁올레	-11.6053
▁감사해요	-11.6054
▁팬티	-11.6054
▁보낼	-11.6054
▁그녀에게	-11.6055
▁나혼자	-11.6055
▁간절	-11.6055
▁잼슴	-11.6056
▁어깨	-11.6056
▁묻히	-11.6057
▁즐거웠던	-11.6057
따지면	-11.606
▁생각났다	-11.6061
▁포스트	-11.6062
▁타입	-11.6062
캠프	-11.6064
▁황제	-11.6064
▁부족했던	-11.6065
▁잤음	-11.6065
▁월화	-11.6067
▁웨스	-11.6068
▁참신하다	-11.6068
▁미숙	-11.6068
▁조쉬	-11.6069
▁친구한테	-11.6069
▁어렵지만	-11.6071
▁매력적임	-11.6072
▁명절	-11.6072
▁명예	-11.6073
▁에혀	-11.6075
▁몰라요	-11.6075
▁존잘	-11.608
▁몰라서	-11.608
▁좋구요	-11.6081
▁누군가에게	-11.6083
▁천재적인	-11.6084
▁문명	-11.6086
▁행복합니다	-11.6088
▁어느하나	-11.609
▁구입	-11.6091
▁두번이나	-11.6094
▁건담	-11.6095
▁전해지는	-11.6096
하신분들	-11.61
▁오늘날	-11.6101
▁재밌을듯	-11.6111
▁달달하고	-11.6111
왔으면	-11.6111
▁바뀌었	-11.6115
▁라스트씬	-11.6115
▁그랬음	-11.6117
▁않기	-11.6133
▁있다는걸	-11.6137
회장	-11.6139
꺼에요	-11.6139
▁없으면서	-11.6141
일텐데	-11.6151
▁벗어난	-11.6152
최고최고최고	-11.6155
▁댓글알바	-11.6159
▁충격받	-11.6167
▁살고있	-11.6168
▁슬프면서	-11.6176
▁공감하기	-11.6179
▁생각해본다	-11.6184
넘침	-11.6195
웃었네	-11.6201
▁빠순이	-11.6202
▁믿으	-11.6204
됬음	-11.6205
▁분류	-11.6207
▁따라올	-11.6212
▁같던데	-11.6215
▁구할수	-11.6226
▁청소년들	-11.6241
갈기	-11.6247
있는척	-11.6253
고양이	-11.6256
시켜주는	-11.626
리얼하게	-11.6262
하십니다	-11.6268
▁우울하	-11.6283
토크	-11.6285
▁빠지면	-11.6301
맺	-11.6304
흥미진진	-11.6304
파이팅	-11.6304
▁노예	-11.6307
이제서야	-11.6309
이연걸	-11.6311
최근	-11.6315
아쉬운	-11.6315
탈출	-11.6317
민족	-11.6323
중간중간	-11.6323
시간아깝다	-11.6327
▁바꿀	-11.6334
▁긴장되	-11.6335
▁늘어놓	-11.6335
모르겠음	-11.6342
보고있는데	-11.6343
블루	-11.6344
무술	-11.6347
▁말아먹었	-11.6359
모여서	-11.637
▁느껴야	-11.6375
▁관심없	-11.6382
▁안되겠	-11.6388
낚시	-11.6391
▁객관적	-11.6401
맞추기	-11.6402
보는눈	-11.6406
라는것을	-11.641
팬들	-11.6412
좋겠어요	-11.6418
▁문화적	-11.6418
좋았는데	-11.6419
▁총맞	-11.6422
시간동안	-11.643
폐인	-11.6431
▁가깝	-11.6435
▁막막	-11.6453
안되게	-11.6458
▁쉽지않	-11.647
▁재미없더라	-11.6473
▁공감되	-11.6488
범죄자	-11.6488
▁만드시	-11.649
시청자	-11.6496
하긴하지만	-11.6502
▁우롱	-11.651
▁소중함	-11.6511
▁죽을때	-11.6514
▁연결되	-11.6515
경험	-11.6518
▁세련되	-11.6518
▁문제점	-11.6528
드럽다	-11.6541
▁전문가들	-11.6548
▁떠올리	-11.6555
▁그녀들	-11.6561
현실성	-11.6561
▁표절작	-11.6563
어쩔수없	-11.6565
펼	-11.6576
▁답습	-11.6576
탠	-11.6576
▁으으	-11.6579
▁트와일라잇	-11.658
▁ᄆᄌᄒ	-11.658
▁공각기동대	-11.658
▁단조로운	-11.658
▁모자이크	-11.658
▁샤를리즈	-11.658
▁스나입스	-11.658
▁스토리텔링	-11.658
▁심사위원	-11.658
▁아니올시다	-11.658
▁에반게리온	-11.658
▁엑스파일	-11.658
▁역겨움	-11.658
▁왤캐	-11.658
▁유튜브	-11.658
▁재활용	-11.658
▁존쿠삭	-11.658
▁판빙빙	-11.658
꺾	-11.658
박스오피스	-11.658
샴	-11.658
슥	-11.658
앳	-11.658
욘	-11.658
웡	-11.658
쟤	-11.658
쾅	-11.658
킁	-11.658
퉷	-11.658
풉	-11.658
▁기막힌	-11.658
▁깜짝깜짝	-11.658
▁열린결말	-11.658
▁죄책감	-11.658
▁타임머신	-11.658
쟝	-11.658
▁송윤아	-11.658
▁총격전	-11.658
▁싱거운	-11.658
▁카메오	-11.658
▁쿵푸	-11.658
▁폰부스	-11.658
▁디아즈	-11.658
▁이선균	-11.658
▁땡칠이	-11.658
▁에밀리	-11.658
▁장만옥	-11.658
▁극대화	-11.658
▁티라노	-11.658
▁박진희	-11.658
▁서커스	-11.658
▁돈아깝고	-11.658
▁오묘한	-11.658
▁서정적인	-11.658
▁치밀어	-11.658
▁목사님	-11.658
▁밥먹	-11.658
▁옮겨	-11.658
▁배슬기	-11.658
▁주진모	-11.658
▁에리카	-11.658
▁바이블	-11.658
▁태어났	-11.658
▁짝사랑	-11.658
▁밉상	-11.6581
▁피라냐	-11.6581
▁하모니	-11.6581
▁해운대	-11.6581
▁정사씬	-11.6581
▁미개한	-11.6581
▁저지른	-11.6581
▁거슬렸	-11.6581
▁빡쳐서	-11.6581
▁기다림	-11.6581
▁슬로우	-11.6581
▁여태껏	-11.6581
어지럽	-11.6581
▁촬영기법	-11.6582
▁블루레이	-11.6582
▁연결고리	-11.6582
▁비운의	-11.6582
▁전하고자	-11.6582
연쇄살인	-11.6582
▁별점테러	-11.6582
▁크리스틴	-11.6582
잠시나마	-11.6582
언젠간	-11.6583
▁ᄌᄅ	-11.6583
▁가문의	-11.6583
보는편인데	-11.6584
▁어렸을땐	-11.6584
▁이정진	-11.6584
▁부러워	-11.6584
▁호랑이	-11.6584
라기보다는	-11.6585
▁워킹	-11.6585
▁돋보였다	-11.6585
▁봤는대	-11.6585
▁솔로	-11.6585
▁베껴	-11.6585
▁폐지해라	-11.6586
▁흘러간다	-11.6586
▁공포스럽지	-11.6586
▁흑형	-11.6586
의극치	-11.6586
▁웃지요	-11.6586
나한텐	-11.6586
▁원초적	-11.6587
▁두마리	-11.6588
▁낚여	-11.6588
▁괴롭히	-11.6588
▁으휴	-11.6589
▁배낀	-11.6589
▁백프로	-11.6589
▁표출	-11.6589
돈내고	-11.659
▁친근	-11.659
▁올레티비	-11.659
▁죄송합니다	-11.6591
이건아니잖아	-11.6591
▁배워야	-11.6592
▁이용한	-11.6593
▁풍기는	-11.6594
▁궁금증	-11.6595
▁쓰레기통에	-11.6595
▁전반부	-11.6596
▁빌린	-11.6596
▁흠잡을데	-11.6596
하리라	-11.6596
▁귀여우	-11.6597
▁어쩔수없이	-11.6597
범벅	-11.6598
▁최강희	-11.6598
▁개성있는	-11.6599
▁불과하다	-11.6599
눈감고	-11.66
▁돈들여	-11.66
▁지독하	-11.6602
▁드류	-11.6603
▁않으며	-11.6604
▁기대했었는데	-11.6604
▁만들지마라	-11.6604
지않을까	-11.6605
▁남았던	-11.6605
▁초등학생때	-11.6605
▁예외	-11.6605
▁재밌겠	-11.6606
▁어찌보면	-11.6606
▁좋겠는데	-11.6607
▁갈망	-11.6608
좋아하는사람	-11.6608
▁작업	-11.6608
▁징징대	-11.6609
▁있도록	-11.6609
하셨습니다	-11.661
▁벌레	-11.6611
▁극단적인	-11.6612
▁기대되요	-11.6613
▁필모	-11.6613
▁근본	-11.6615
▁독재	-11.6616
해주셔서	-11.6616
▁압도적인	-11.6619
▁격투씬	-11.6621
영애씨	-11.6621
▁어쩌구	-11.6621
▁심심하다	-11.6622
▁아련하다	-11.6623
▁무슨죄	-11.6624
▁아름다워요	-11.6625
▁엄마한테	-11.6625
▁웃었음	-11.6626
▁엮어	-11.6627
▁상승	-11.6627
▁않았어요	-11.6627
▁답답했다	-11.6631
▁후련	-11.6631
▁아프네요	-11.6633
▁포드	-11.6633
▁힘들었음	-11.6634
▁보기전에	-11.664
라이프	-11.664
▁별로였어요	-11.6643
▁인간극장	-11.6644
▁짜장면	-11.6651
엌ᄏᄏ	-11.6652
▁전투신	-11.6655
▁종말	-11.6656
▁알았어요	-11.6656
줘야함	-11.6659
▁들었던	-11.6663
▁전달하려	-11.6663
▁배끼	-11.6663
▁나왔어요	-11.6664
사람이라면	-11.6669
▁추모	-11.6671
향수를	-11.6672
▁웃을수	-11.6688
▁어린애	-11.6693
▁동경	-11.6698
했겠지	-11.67
▁저딴	-11.6702
▁느껴보	-11.6717
▁맥주	-11.6729
빵터지	-11.673
▁줄려다	-11.6734
됌	-11.6735
받을만한	-11.6737
기대할께	-11.6751
햇으면	-11.6758
▁비평	-11.6761
▁갑작스	-11.6761
▁들으면	-11.6768
▁특성	-11.6769
▁종류	-11.6772
영혼을	-11.6777
▁바보들	-11.6779
▁바라본	-11.6784
문화를	-11.6785
전개방식	-11.6791
▁충실하	-11.6799
지모르겠네	-11.6799
보게되네요	-11.6804
어어어	-11.6818
생기면	-11.6822
▁않으면서	-11.6836
▁아줌마들	-11.6841
▁경이로	-11.6842
▁대중성	-11.6855
▁데뷔	-11.6861
▁알게되었	-11.6863
으리라	-11.6868
잇어서	-11.6869
않았지만	-11.687
▁푸하하하	-11.6871
뚫	-11.6892
헬	-11.6893
헉	-11.6893
귀여움	-11.6894
대한민국	-11.6894
떨어져	-11.6894
더러워	-11.6894
로맨틱	-11.6895
충분히	-11.6895
포르노	-11.6897
▁중요하지	-11.6898
귀여운	-11.6898
쓰렉	-11.6899
밴드	-11.6901
이뻐서	-11.6918
릴려고	-11.6919
진부한	-11.6934
마지막회	-11.6936
재밌게봤는데	-11.6946
교회	-11.695
만들었는지	-11.6957
않았다	-11.6973
것보단	-11.6983
▁촌스러	-11.6983
▁이루어진	-11.6997
쇼크	-11.7006
▁모른	-11.7017
많았으면	-11.7023
겠구만	-11.7029
ᄍᄍᄍᄍ	-11.7029
공포물	-11.7036
착하고	-11.7057
▁몰입하기	-11.7065
이미지	-11.7068
싶지않다	-11.7069
▁느낀점	-11.707
▁참을수	-11.7083
▁당할수	-11.7085
▁따져	-11.7094
켰	-11.7097
셨나요	-11.71
주시면	-11.7114
▁매력적이었	-11.7119
답이없	-11.7131
올까	-11.7139
않은데	-11.7151
▁연예인들	-11.7155
륙	-11.7162
얀	-11.7162
▁설득	-11.7164
캔	-11.7167
췄	-11.7168
앵	-11.7168
▁불러일으	-11.7168
▁베토벤	-11.7168
괸	-11.7168
멧	-11.7168
▁고군분투	-11.7168
▁고리타분	-11.7168
▁떨어뜨린다	-11.7168
▁러셀크로우	-11.7168
▁류덕환	-11.7168
▁류승완	-11.7168
▁막무가내	-11.7168
▁사이코패스	-11.7168
▁스펙터클	-11.7168
▁시덥잖은	-11.7168
▁쌈마이	-11.7168
▁울부짖	-11.7168
▁인디아나존스	-11.7168
▁코엔형제	-11.7168
겅	-11.7168
끄러움	-11.7168
넴	-11.7168
떨어뜨리	-11.7168
숴	-11.7168
잌	-11.7168
줄리아로버츠	-11.7168
찼	-11.7168
핥	-11.7168
햄	-11.7168
횡	-11.7168
훤	-11.7168
▁끝냈어야	-11.7168
▁러블리	-11.7168
▁봉준호	-11.7168
▁사이프리드	-11.7168
▁아름다우	-11.7168
▁오리지날	-11.7168
▁코스트너	-11.7168
▁히틀러	-11.7168
뇬	-11.7168
얍	-11.7168
▁매염방	-11.7168
▁숭고한	-11.7168
▁아오이유우	-11.7168
▁앤드류	-11.7168
▁우베볼	-11.7168
▁의학드라마	-11.7168
엠비씨	-11.7168
캅	-11.7168
▁소오름	-11.7168
▁오컬트	-11.7168
▁친일파	-11.7168
▁캡틴	-11.7168
▁김민희	-11.7168
▁앨리스	-11.7168
▁재조명	-11.7168
▁최수종	-11.7168
▁강예원	-11.7168
▁정경호	-11.7168
▁정준호	-11.7168
아닙니까	-11.7168
▁올리비아	-11.7168
▁챙피	-11.7168
▁저렴한	-11.7168
▁박시후	-11.7168
▁불끄고	-11.7168
▁박하선	-11.7168
▁별두개	-11.7168
▁유준상	-11.7168
▁삼박자	-11.7168
▁무한도전	-11.7168
▁바래요	-11.7168
▁안중근	-11.7168
▁윤진서	-11.7168
▁울트라	-11.7168
시크릿	-11.7168
질않나	-11.7169
▁귓가에	-11.7169
▁김수미	-11.7169
▁브라질	-11.7169
▁배워라	-11.7169
▁만들어주셔서	-11.7169
▁기다릴	-11.7169
ᅲᅲᅲᅲᅲᅲᅲᅲᅲᅲᅲᅲᅲᅲᅲᅲ	-11.7169
상투적인	-11.7169
▁가시질	-11.7169
▁좁은	-11.7169
▁시네마	-11.7169
▁뮤비	-11.717
못생김	-11.717
▁제라드	-11.717
기억상실	-11.717
▁챙기	-11.717
▁맑은	-11.717
예상외로	-11.717
▁우아한	-11.717
▁클릭	-11.717
▁자연스럽지	-11.717
▁영원하라	-11.7171
▁몇년전에	-11.7171
▁안겨준	-11.7171
길이남을	-11.7171
유재석	-11.7171
▁여럿	-11.7171
▁모르겟네	-11.7171
▁핵꿀잼	-11.7171
▁제주도	-11.7171
▁잘표현한	-11.7171
▁떡칠	-11.7171
▁그려냈다	-11.7171
▁괴로웠	-11.7172
▁두말할	-11.7172
▁새로움	-11.7172
▁바꿨	-11.7172
▁이요원	-11.7172
▁좋았을것을	-11.7173
▁몸개그	-11.7173
▁핑계	-11.7173
그렇다쳐도	-11.7173
만들다니	-11.7173
▁흔하디	-11.7173
▁쪼금	-11.7174
▁자유롭	-11.7174
▁제이미	-11.7174
▁엄청나다	-11.7175
▁손잡고	-11.7175
▁미화시킨	-11.7175
▁안겨주	-11.7175
▁비춰	-11.7175
▁출품	-11.7176
▁돋았다	-11.7176
▁탈락	-11.7177
▁동화책	-11.7177
머싯	-11.7177
▁운운하	-11.7177
▁이미숙	-11.7178
▁어쩌자는	-11.7178
▁워스트	-11.7178
▁처벌	-11.7178
▁끝가지	-11.7179
▁올랐	-11.7181
▁브금	-11.7181
▁감동받았다	-11.7182
볼수록	-11.7182
▁똥꼬	-11.7182
▁생생히	-11.7183
▁뻔하디	-11.7184
▁샤크	-11.7184
▁생각됩니다	-11.7184
▁생각이든다	-11.7184
▁들어갔	-11.7184
▁재밌긴한데	-11.7185
▁기괴하	-11.7185
▁감상평	-11.7185
▁볼수있어서	-11.7185
▁스폰	-11.7185
▁인내력	-11.7185
▁거창하	-11.7186
▁봤으나	-11.7186
▁보기싫다	-11.7186
한순간에	-11.7186
▁문소리	-11.7186
▁닿지	-11.7187
▁매력있음	-11.7189
▁꾸며	-11.7189
▁보셔야	-11.719
▁인상깊었던	-11.719
▁시간여행	-11.7191
▁무서웠던	-11.7191
▁확실하다	-11.7193
같으면	-11.7193
▁올려야	-11.7193
▁무서웠는데	-11.7194
▁만드신	-11.7194
▁재미있게봤어요	-11.7195
▁인위적	-11.7195
▁성향	-11.7196
▁알았으면	-11.7196
▁울컥했다	-11.7197
▁표합니다	-11.7197
▁오래간만	-11.7199
▁다음작품	-11.7199
▁욕설	-11.72
ᄇᄇ	-11.7201
으으으	-11.7204
▁무엇일까	-11.7205
▁토토	-11.7205
▁매력있고	-11.7206
생각해보니	-11.7207
티켓	-11.721
▁끝난후	-11.7212
메이드	-11.7213
▁자신에게	-11.7214
도그렇고	-11.7216
▁삶이란	-11.7217
할거면	-11.7221
▁마이크	-11.7225
게이트	-11.7228
▁오락물	-11.7228
▁보았어요	-11.7231
▁갈리는	-11.7234
▁쓸쓸함	-11.7245
▁이끌어내	-11.7248
빠돌이	-11.7251
▁남주인공	-11.7257
▁꼬집	-11.7258
▁지켜보	-11.726
▁아깝군	-11.7282
▁전문가평점	-11.7284
일줄은	-11.7297
▁이용하	-11.7302
▁글쓰	-11.7314
강츄	-11.7315
사랑하고싶	-11.7328
봐왔	-11.7333
평론가들	-11.7333
을라나	-11.7348
못본게	-11.7365
▁창의적	-11.7367
▁감안하면	-11.7379
배워	-11.7389
지말아라	-11.7396
▁놀랐네	-11.7418
▁들어갈	-11.7433
암것도	-11.7435
결정적으로	-11.744
봣으면	-11.7456
적이면서도	-11.7467
보여줘서	-11.7476
▁잊지못	-11.7478
▁돌아갈	-11.7484
환희	-11.7485
깊이있는	-11.7498
해달라	-11.7505
홈	-11.7516
어쨌든	-11.7517
아쉬워요	-11.7518
곧	-11.7519
임창정	-11.7519
싸이코	-11.752
리메이크	-11.752
굉장히	-11.752
멋지다	-11.7521
여러분	-11.7525
▁엔딩씬	-11.7527
몇년	-11.7529
▁첨보네	-11.753
볼껄	-11.7532
정서에	-11.7532
▁애매하	-11.7534
다시한번	-11.7538
같지않은	-11.7541
거기다	-11.7545
하지못한	-11.7552
할수있을까	-11.7552
약하지만	-11.7555
느껴지는	-11.7563
▁잡아먹	-11.758
해주었다	-11.7597
▁안들었	-11.7628
▁움직이	-11.7634
▁평범하지	-11.7642
▁지워지지	-11.7645
듯한느낌	-11.7646
싫은데	-11.7649
쩐	-11.7684
땜	-11.7694
▁숨막히	-11.771
▁나쁘지않	-11.7719
메이션	-11.7734
▁헷갈	-11.7747
▁맞지않	-11.7758
▁윌리엄	-11.7759
▁잇엇	-11.7763
않았음	-11.777
하나도안	-11.7777
열받	-11.7779
▁권총	-11.7783
줍	-11.7791
늑	-11.7792
뎌	-11.7793
멕	-11.7793
힙	-11.7793
▁ᄊᄅᄀ	-11.7793
▁곽부성	-11.7793
▁꾸역꾸역	-11.7793
▁대서사시	-11.7793
▁드라큐라	-11.7793
▁마스터피스	-11.7793
▁말코비치	-11.7793
▁맴돈다	-11.7793
▁미션임파서블	-11.7793
▁브랜든	-11.7793
▁사운드트랙	-11.7793
▁솔찍히	-11.7793
▁스페셜	-11.7793
▁시궁창	-11.7793
▁액티비티	-11.7793
▁얄팍한	-11.7793
▁어렷을때	-11.7793
▁워싱턴	-11.7793
▁잘짜여진	-11.7793
▁전무후무	-11.7793
▁졸았음	-11.7793
▁쫄깃	-11.7793
▁투모로우	-11.7793
▁퍼센트	-11.7793
▁페미니즘	-11.7793
▁해품달	-11.7793
깼	-11.7793
뀔	-11.7793
댔	-11.7793
땟	-11.7793
뻗	-11.7793
쒯	-11.7793
퀘	-11.7793
텍	-11.7793
필모그래피	-11.7793
▁공영방송	-11.7793
▁애슐리	-11.7793
▁짜깁기	-11.7793
▁맥그리거	-11.7793
▁클루니	-11.7793
첸	-11.7793
▁갇힌	-11.7793
▁맴도는	-11.7793
▁아청법	-11.7793
▁김민준	-11.7793
홍석천	-11.7793
▁강우석	-11.7793
▁진솔한	-11.7793
▁마모루	-11.7793
▁초호화	-11.7793
▁금성무	-11.7793
▁알렉스	-11.7793
▁천정명	-11.7793
▁박정희	-11.7793
▁퇴폐	-11.7793
▁손색없는	-11.7793
▁리처드	-11.7793
▁유역비	-11.7793
▁강수연	-11.7793
▁브로디	-11.7793
▁액숀	-11.7793
▁킹콩	-11.7793
▁핀처	-11.7793
▁한채영	-11.7793
▁차기작	-11.7793
▁콩가루	-11.7793
크린쿼터	-11.7793
▁힛걸	-11.7793
▁생동감	-11.7793
▁사토시	-11.7793
▁베를린	-11.7793
잘생겻	-11.7793
잘생겨서	-11.7794
신비롭고	-11.7794
▁하이라이트	-11.7794
▁이자벨	-11.7794
▁과언이	-11.7794
▁이명박	-11.7794
▁저리가라	-11.7794
▁브라이언	-11.7794
▁저능아	-11.7794
▁프리퀄	-11.7794
▁침략	-11.7794
▁강소라	-11.7794
▁끼워넣	-11.7794
다닐때	-11.7794
▁숫자	-11.7794
▁모자르	-11.7794
▁김보성	-11.7794
지망생	-11.7794
▁며칠	-11.7794
▁조여정	-11.7795
▁어지럽고	-11.7795
▁맑고	-11.7795
▁패륜	-11.7795
▁헨리	-11.7795
▁적극추천	-11.7795
▁이럴거면	-11.7795
랍시고	-11.7795
▁흥겹	-11.7795
▁안보신분들	-11.7795
▁아이템	-11.7795
▁빈틈	-11.7796
▁느슨하	-11.7796
▁직쏘	-11.7796
▁인디언	-11.7797
▁짜릿한	-11.7797
▁화이트	-11.7797
눈부신	-11.7797
▁러닝	-11.7797
▁계몽	-11.7797
▁다를바	-11.7797
▁클레이	-11.7797
▁남깁니다	-11.7798
▁총싸움	-11.7798
▁슬슬	-11.7799
▁존경스럽다	-11.7799
▁시민들	-11.78
▁눈물흘리	-11.78
▁매혹적인	-11.78
▁대륙	-11.78
▁억압	-11.7801
▁맞춤	-11.7801
▁아쉬웠어요	-11.7801
▁정신병원	-11.7802
▁흘러나오는	-11.7802
골때리	-11.7802
같으니라고	-11.7803
▁샤론	-11.7803
▁기대할게요	-11.7803
▁맘대로	-11.7803
거같애	-11.7803
▁늘어진다	-11.7804
▁투박하	-11.7804
▁여친이랑	-11.7805
▁맥락	-11.7805
▁전반적	-11.7805
▁끊기는	-11.7805
▁아침부터	-11.7806
▁멋있었어요	-11.7807
▁허영심	-11.7808
▁이빠이	-11.7808
▁그립습니다	-11.7809
▁무덤	-11.7809
▁사기극	-11.781
▁안보는걸	-11.781
▁적절하게	-11.781
▁목표	-11.781
▁졸귀	-11.7811
▁팬이라서	-11.7811
▁잘만들겠다	-11.7811
▁올드보이	-11.7812
▁반항	-11.7812
▁보여줬던	-11.7812
▁추석	-11.7813
▁아쉬웠음	-11.7814
▁싫어진다	-11.7816
▁나이들어	-11.7817
▁망각	-11.7818
▁질린다	-11.7818
▁만들던가	-11.7818
드리겠습니다	-11.7819
펀치	-11.7819
▁신앙	-11.7819
▁울버린	-11.7822
어딜봐서	-11.7827
될만한	-11.7832
▁기다려지는	-11.7833
▁일방적	-11.7837
고싶냐	-11.7839
빌려	-11.7841
▁곁에	-11.7843
훈훈해	-11.7851
▁처음보네	-11.7859
비우고	-11.7862
▁못주나	-11.7864
엠씨	-11.7865
▁숙제	-11.7879
해내지	-11.7881
노릇	-11.7882
▁전투장면	-11.7894
▁싸가지	-11.7896
▁교훈적이	-11.7907
스릴있	-11.7911
▁단연최고	-11.7916
▁종합	-11.7917
▁잡혀	-11.7917
시는분들	-11.7919
▁감흥없	-11.7919
▁중국인들	-11.7923
▁찜찜하	-11.7929
▁해결되	-11.7942
▁섬세함	-11.7956
써본다	-11.7964
▁이국적	-11.7995
▁자체만으로	-11.8007
ᄀᄀᄀ	-11.8009
멍미	-11.8033
팬이에요	-11.8035
▁전달되	-11.8044
▁담으려	-11.8045
주기도아깝다	-11.8051
보는재미	-11.8053
유발하는	-11.8061
해야할까	-11.8061
셨다면	-11.8068
살아서	-11.8076
▁죽겠네	-11.8079
재미있지도	-11.8079
▁플라	-11.809
먹으려	-11.8091
▁이어져	-11.8111
▁어린아이들	-11.8111
줄아는	-11.8121
▁올려놓	-11.8148
연기잘하고	-11.8167
뜬	-11.8181
뻥	-11.8184
말이필요없다	-11.8185
우뢰매	-11.8185
왠만하면	-11.8186
영원히	-11.8186
사투리	-11.8186
이해안되는	-11.8187
맞춰	-11.8187
상당히	-11.8187
라이언	-11.8188
첫사랑	-11.8189
기대안하고	-11.819
갠적으로	-11.8191
▁빠져있	-11.8196
죽을뻔	-11.8205
재밋엇어요	-11.822
▁자신들	-11.8226
기다려	-11.8226
남자주인공	-11.8235
성애자	-11.8252
상영관	-11.8278
▁소녀들	-11.828
베이비	-11.8316
▁늙지	-11.8318
▁터무니	-11.8354
점도아까움	-11.8357
봇	-11.8362
▁끝나버리	-11.8367
찾다가	-11.8373
잘만들었	-11.8375
▁퀴어	-11.8379
맘에들어	-11.8382
▁지나쳐	-11.8389
▁산만하	-11.8391
▁징징	-11.8427
챙	-11.8455
됀	-11.8458
숫	-11.8459
▁삽입	-11.8459
귓	-11.8459
▁갈팡질팡	-11.846
▁기립박수	-11.846
▁단언컨데	-11.846
▁무삭제판	-11.846
▁불친절한	-11.846
▁브로스넌	-11.846
▁빚어낸	-11.846
▁산드라블록	-11.846
▁스콜세지	-11.846
▁싱크로율	-11.846
▁알모도바르	-11.846
▁애쉬튼	-11.846
▁우마서먼	-11.846
▁워쇼스키	-11.846
▁짝짝짝	-11.846
▁트라우마	-11.846
▁파란만장	-11.846
뜻깊은	-11.846
룻	-11.846
뿡	-11.846
큭	-11.846
툴	-11.846
퐁	-11.846
▁김윤석	-11.846
▁꾸밈없	-11.846
▁동방불패	-11.846
▁리얼리즘	-11.846
▁부끄러워	-11.846
▁우디앨런	-11.846
▁쬐끔	-11.846
▁천천히	-11.846
▁키아누리브스	-11.846
▁학예회	-11.846
나래이션	-11.846
넥	-11.846
녀삼총사	-11.846
땔	-11.846
잰	-11.846
좃	-11.846
▁글로리아	-11.846
▁남녀노소	-11.846
▁노골적인	-11.846
▁비노쉬	-11.846
▁쯔쯔	-11.846
▁같잖은	-11.846
▁어린나이에	-11.846
▁쭈욱	-11.846
▁시어머니	-11.846
▁옜날	-11.846
▁전설의고향	-11.846
▁테일러	-11.846
▁이슬람	-11.846
▁지겨움	-11.846
▁장동민	-11.846
▁똘끼	-11.846
▁무심코	-11.846
▁리브스	-11.846
▁김소연	-11.846
▁마이클베이	-11.846
▁앵간	-11.846
▁파이널	-11.846
드릴게요	-11.846
▁별론데	-11.846
▁어떡해	-11.846
▁추격자	-11.846
▁오씨엔	-11.846
▁치열한	-11.846
▁팬심으로	-11.846
▁스토커	-11.846
▁이뭐병	-11.846
▁성동일	-11.846
▁마녀사냥	-11.846
▁무관심	-11.846
▁요한슨	-11.846
특공대	-11.846
▁대명사	-11.846
▁오정세	-11.846
▁남상미	-11.846
▁나탈리	-11.846
▁삽질	-11.846
▁오글거린다	-11.846
▁무진장	-11.846
▁괴리감	-11.846
사무엘	-11.846
▁스트립	-11.846
▁능청	-11.846
▁미소짓게	-11.846
유동근	-11.846
▁김아중	-11.8461
▁조한선	-11.8461
▁쉴드	-11.8461
▁꼽으라	-11.8461
▁흔히	-11.8461
▁킬빌	-11.8461
▁혁신	-11.8461
▁잔인하지도	-11.8461
목숨걸고	-11.8461
▁미스터빈	-11.8462
▁왔다갔다	-11.8462
▁어지럽다	-11.8462
▁로맨틱코메디	-11.8462
▁임펙트	-11.8462
▁흥행실패	-11.8462
▁누굴	-11.8462
▁흥미있	-11.8463
내스탈	-11.8463
▁우주전쟁	-11.8463
▁훔치	-11.8463
▁유머코드	-11.8463
허우적	-11.8464
▁식겁	-11.8464
▁무성영화	-11.8464
▁삼촌	-11.8464
▁교묘	-11.8464
▁지상파	-11.8465
▁닥쳐	-11.8465
▁없어져야	-11.8465
▁멍하니	-11.8465
▁젊은시절	-11.8466
▁명확하	-11.8466
왜저래	-11.8467
▁간절히	-11.8467
▁레벨	-11.8467
눈물날뻔	-11.8467
▁충만한	-11.8468
▁코끼리	-11.8468
▁토나온다	-11.8468
▁중간쯤	-11.8468
▁함축	-11.8468
▁결정판	-11.8469
▁뒷맛	-11.8469
▁도쿄	-11.8469
▁순간순간	-11.8469
▁복싱	-11.8469
드려야	-11.847
▁심쿵	-11.847
▁해주길래	-11.847
▁슈퍼액션	-11.8471
▁뭐하자는건지	-11.8471
▁몇번봐도	-11.8471
특별히	-11.8472
▁오버액션	-11.8474
▁안타깝습니다	-11.8474
▁보지마시길	-11.8475
▁추상적	-11.8477
▁부드럽	-11.8479
궁금하	-11.8479
▁감동먹었	-11.8479
▁옆집	-11.8479
▁위엄	-11.848
▁유사라	-11.848
▁좋을텐데	-11.848
모르겟음	-11.8481
볼줄모르	-11.8482
▁대다수	-11.8483
▁안질리	-11.8485
▁웃었어요	-11.8485
한구석이	-11.849
속터져	-11.8493
▁간단하	-11.8493
아니어도	-11.8495
▁중반이후	-11.8497
▁소박하	-11.8499
아프다	-11.8507
▁비참하	-11.8507
처음이자	-11.8512
▁활력	-11.8513
▁있으니까	-11.8519
믿어지지	-11.852
▁배신감	-11.8534
▁달콤하	-11.8538
부모님	-11.855
▁늘었	-11.855
▁쳐다보	-11.8559
보러갔다가	-11.8585
▁영화볼줄	-11.8586
어이가없어서	-11.8586
▁느끼게해준	-11.8595
짜내는	-11.8627
▁풀어나가	-11.8645
▁달달하	-11.868
폭행	-11.869
▁이기적이	-11.869
▁생뚱맞	-11.8696
좋아하시면	-11.8709
잃지않	-11.875
킬링타임	-11.876
보고나니	-11.8766
▁주고싶지	-11.8766
만화같은	-11.8784
▁대사하나하나	-11.8802
나올때마다	-11.8814
▁찾아보게	-11.8823
▁ᄡ같	-11.8824
퉤	-11.8857
▁개떡같	-11.888
죽을때까지	-11.8887
봤던기억이	-11.8888
꺄	-11.8896
끝날때까지	-11.8897
턱	-11.8898
원숭이	-11.8899
유덕화	-11.89
패러디	-11.89
김기덕	-11.89
좋겟네요	-11.8902
평균	-11.8905
분만에	-11.8911
굿굿굿	-11.8918
차원에서	-11.8918
일어나	-11.8943
어이가없	-11.8961
누군지	-11.8969
쩔었음	-11.9039
▁추천하고싶	-11.9057
이었군	-11.909
▁싼티	-11.9112
지몰라도	-11.9133
스러우	-11.9156
쵝	-11.9167
펙	-11.9169
씁	-11.9172
까말까	-11.9173
훌	-11.9174
끽	-11.9174
ᄈ	-11.9174
▁스웨덴	-11.9174
▁어드벤쳐	-11.9174
▁조지클루니	-11.9174
▁카펜터	-11.9174
▁페넬로페	-11.9174
▁프랭크	-11.9174
꼐	-11.9174
쒸	-11.9174
킷	-11.9174
헿	-11.9174
▁고정관념	-11.9174
▁과대포장	-11.9174
▁끝맺음	-11.9174
▁레즈비언	-11.9174
▁로드리게즈	-11.9174
▁맷데이먼	-11.9174
▁발킬머	-11.9174
▁배틀로얄	-11.9174
▁백설공주	-11.9174
▁분신사바	-11.9174
▁세련됐	-11.9174
▁수고하셨어요	-11.9174
▁순식간에	-11.9174
▁스텝들	-11.9174
▁신소율	-11.9174
▁앙상블	-11.9174
▁어드벤처	-11.9174
▁업그레이드	-11.9174
▁잠안올때	-11.9174
▁클로즈업	-11.9174
▁트라볼타	-11.9174
▁폴리스스토리	-11.9174
넨	-11.9174
됏	-11.9174
뤠	-11.9174
쏜	-11.9174
욥	-11.9174
융	-11.9174
잴	-11.9174
조쉬하트넷	-11.9174
퀼	-11.9174
▁껍데기	-11.9174
▁노골적으로	-11.9174
▁단조롭	-11.9174
▁되새겨	-11.9174
▁베테랑	-11.9174
▁부드러운	-11.9174
▁울궈먹	-11.9174
▁움직임	-11.9174
▁유년시절	-11.9174
▁전파낭비	-11.9174
▁주걸륜	-11.9174
▁휴대폰	-11.9174
▁덩달아	-11.9174
▁스머프	-11.9174
▁정신차려	-11.9174
▁콩진호	-11.9174
▁톰하디	-11.9174
▁여균동	-11.9174
▁요근래	-11.9174
▁자빠졌네	-11.9174
하비에르	-11.9174
▁김우빈	-11.9174
▁난생처음	-11.9174
▁벨루치	-11.9174
▁염정아	-11.9174
▁오디션	-11.9174
▁탁재훈	-11.9174
▁흐믓	-11.9174
▁어린신부	-11.9174
▁바이올린	-11.9174
▁박상민	-11.9174
▁스무살	-11.9174
▁아시는분	-11.9174
쭈쭈	-11.9174
▁모자람	-11.9174
▁별생각없이	-11.9174
▁경각심	-11.9174
▁성시경	-11.9174
▁아티스트	-11.9174
▁낭패	-11.9174
▁여지껏	-11.9174
▁케이온	-11.9174
▁브리짓	-11.9174
코멘트	-11.9174
▁경이롭	-11.9174
▁정준하	-11.9174
▁소중히	-11.9174
▁끼워맞추기	-11.9174
▁몹시	-11.9174
▁야쿠자	-11.9174
▁지현우	-11.9174
▁빠짐없이	-11.9174
게해준영화	-11.9174
▁민간인	-11.9174
▁모조리	-11.9174
쨔응	-11.9174
▁현란한	-11.9174
▁일일드라마	-11.9174
▁탱크	-11.9174
▁콧물	-11.9174
▁서동요	-11.9175
▁무한반복	-11.9175
▁박진영	-11.9175
▁김병만	-11.9175
▁김청기	-11.9175
▁개똥철학	-11.9175
▁발가락	-11.9175
▁밑바닥	-11.9175
▁마돈나	-11.9175
▁토요일	-11.9175
▁감우성	-11.9175
▁릭터	-11.9175
▁모호한	-11.9175
▁뽀뽀	-11.9175
▁갖춰	-11.9175
▁한정된	-11.9175
▁김지운	-11.9175
▁이수근	-11.9175
▁능욕	-11.9175
▁경상도	-11.9175
▁거창한	-11.9175
▁그와중에	-11.9175
▁깬다	-11.9175
▁얕은	-11.9175
▁이현우	-11.9175
▁아랫분	-11.9176
▁기네스	-11.9176
▁다운받았는데	-11.9176
▁훔쳐	-11.9176
▁둔갑	-11.9176
▁포맷	-11.9176
▁망설이	-11.9176
▁웃겻	-11.9176
▁느껴집니다	-11.9177
▁성폭행	-11.9177
▁관찰	-11.9177
퉤퉤	-11.9177
▁멋졌음	-11.9177
▁지껄이	-11.9177
▁헬렌	-11.9177
▁아끼는	-11.9177
▁보기싫은	-11.9178
▁히트맨	-11.9178
봐서그런가	-11.9178
줄알았더니	-11.9178
▁측은	-11.9178
▁날렸네	-11.9179
▁깨어나	-11.9179
▁긴박한	-11.9179
▁찌르는	-11.918
▁망가진	-11.918
▁와닿았다	-11.918
▁결정체	-11.9181
▁바둑	-11.9181
다닌다	-11.9181
▁굴욕	-11.9181
▁정화되는	-11.9181
▁애니스톤	-11.9181
▁패닝	-11.9181
춘향	-11.9181
▁난해함	-11.9182
월요일	-11.9182
▁끝내줌	-11.9182
▁보러갈	-11.9183
▁소녀시대	-11.9183
파이퍼	-11.9183
언젠	-11.9184
▁서정적이	-11.9185
▁아른거	-11.9189
시작할때	-11.9195
▁재미있겠	-11.9199
깜짝놀랐	-11.9201
▁사만다	-11.9203
▁호소하	-11.9205
▁멍청이들	-11.921
주신분들	-11.9217
이쁜데	-11.9222
쉣	-11.9666
옛	-11.9666
뺏	-11.9668
녁	-11.9937
튜	-11.9941
붉	-11.9942
쿼	-11.9943
쭈	-11.9943
앰	-11.9943
ᆪ	-11.9943
꿰	-11.9943
냔	-11.9943
넉	-11.9943
맬	-11.9943
죵	-11.9943
콱	-11.9943
팜	-11.9943
눅	-11.9943
돔	-11.9943
샵	-11.9943
홉	-11.9943
욯	-12.047
쏴	-12.0501
꾹	-12.0506
잎	-12.0764
깁	-12.0775
얕	-12.0775
깬	-12.0775
맴	-12.0775
꼇	-12.0776
캄	-12.0777
갚	-12.0777
꽈	-12.0777
꿍	-12.0777
촤	-12.0777
꺠	-12.0777
딥	-12.0777
쎈	-12.0777
굽	-12.0777
놉	-12.0777
밸	-12.0777
벳	-12.0777
왁	-12.0777
핰	-12.0777
흣	-12.0777
컹	-12.0777
섀	-12.0777
몫	-12.1395
숀	-12.1408
뗄	-12.141
씹	-12.1411
ᄡ	-12.1411
볍	-12.1675
슷	-12.1676
둡	-12.1682
컥	-12.1684
몹	-12.1686
댁	-12.1686
뽐	-12.1686
괄	-12.1686
넛	-12.1686
륨	-12.1686
빰	-12.1686
줏	-12.1686
팟	-12.1686
갯	-12.1686
냠	-12.1686
뒈	-12.1686
뒹	-12.1686
렜	-12.1686
롹	-12.1686
뮈	-12.1686
벡	-12.1686
썹	-12.1686
옌	-12.1686
웽	-12.1686
윅	-12.1686
촐	-12.1686
캣	-12.1686
뀨	-12.1686
닛	-12.1686
먀	-12.1686
뭣	-12.2406
샀	-12.2408
끓	-12.2409
겉	-12.241
뒷	-12.2411
칩	-12.2684
좁	-12.2684
굼	-12.2685
갇	-12.2686
컵	-12.2686
밓	-12.2686
뭄	-12.2686
쥴	-12.2686
짘	-12.2686
퀀	-12.2686
펭	-12.2686
혓	-12.2686
떵	-12.2686
멱	-12.2686
쨰	-12.2686
쿤	-12.2686
휙	-12.2686
롸	-12.2686
웹	-12.2686
콰	-12.2686
뼈	-12.3519
덮	-12.352
뀌	-12.3791
킵	-12.3793
롬	-12.3797
옄	-12.3797
놧	-12.3797
뤼	-12.3797
볶	-12.3797
읭	-12.3797
졉	-12.3797
쥰	-12.3797
캉	-12.3797
ᄄ	-12.3797
궤	-12.3797
깅	-12.3797
깸	-12.3797
끙	-12.3797
넝	-12.3797
뎃	-12.3797
떙	-12.3797
샛	-12.3797
숏	-12.3797
짰	-12.3797
찹	-12.3797
챈	-12.3797
챦	-12.3797
갘	-12.3797
뎈	-12.4288
쌩	-12.4769
봅	-12.5045
슐	-12.5047
칵	-12.5047
휼	-12.5047
깟	-12.5047
갉	-12.5047
즉	-12.6198
쏙	-12.6199
촬	-12.647
땠	-12.6475
좆	-12.7862
숲	-12.7866
눠	-12.8132
뛴	-12.8139
쨔	-12.8141
닙	-12.8142
밈	-12.8142
팰	-12.8142
엮	-12.9865
겪	-12.9868
싯	-13.0109
뭥	-13.0134
폄	-13.0142
옜	-13.0142
쬐	-13.0142
췌	-13.2641
햅	-13.2642
젊	-13.5646
넓	-13.5701
옳	-13.5702
뿍	-13.5975
굉	-13.5975
꿋	-13.5975
곀	-14.0962
넋	-15.072
덟	-15.0853
괭	-15.0854
흩	-15.0855
촛	-15.0856
챘	-15.0857
엾	-15.0858
랗	-15.0859
꿇	-15.086
굶	-15.0861
짴	-15.0862
읊	-15.0863
쑥	-15.0864
썪	-15.0865
쌉	-15.0866
덱	-15.0867
껌	-15.0868
햌	-15.0869
텼	-15.087
쉼	-15.0871
훑	-15.0872
쮸	-15.0873
빴	-15.0874
닠	-15.0875
휠	-15.0876
츤	-15.0877
앍	-15.0878
샐	-15.0879
냨	-15.088
횟	-15.0881
홥	-15.0882
헠	-15.0883
춥	-15.0884
딪	-15.0885
촘	-15.0886
뀜	-15.0887
휩	-15.0888
헴	-15.0889
큘	-15.089
졷	-15.0891
뭍	-15.0892
콥	-15.0893
낰	-15.0894
껑	-15.0895
괞	-15.0896
큽	-15.0897
쁩	-15.0898
뵙	-15.0899
긁	-15.09
좔	-15.0901
뮬	-15.0902
꺽	-15.0903
쥑	-15.0904
멎	-15.0905
셸	-15.0906
릎	-15.0907
낡	-15.0908
쥔	-15.0909
씻	-15.091
슌	-15.0911
얹	-15.0912
펏	-15.0913
녔	-15.0914
켠	-15.0915
왼	-15.0916
뤘	-15.0917
룹	-15.0918
픕	-15.0919
꼼	-15.092
얽	-15.0921
뺨	-15.0922
딨	-15.0923
꽥	-15.0924
탭	-15.0925
뀐	-15.0926
탤	-15.0927
뱉	-15.0928
쫒	-15.0929
뭡	-15.093
샬	-15.0931
앓	-15.0932
쨋	-15.0933
밟	-15.0934
웍	-15.0935
쌓	-15.0936
멤	-15.0937
뤄	-15.0938
귄	-15.0939
짙	-15.094
뻣	-15.0941
빕	-15.0942
꽉	-15.0943
쫓	-15.0944
뿜	-15.0945
틋	-15.0946
홧	-15.0947
웟	-15.0948
컸	-15.0949
쫄	-15.095
쨌	-15.0951
얄	-15.0952
띄	-15.0953
틸	-15.0954
텝	-15.0955
셉	-15.0956
쏟	-15.0957
껐	-15.0958
왤	-15.0959
섞	-15.096
뻤	-15.0961
톱	-15.0962
듭	-15.0963
낳	-15.0964
펐	-15.0965
놨	-15.0966
맙	-15.0967
됩	-15.0968
찝	-15.0969
똑	-15.097
됐	-15.0971
잊	-15.0972
떻	-15.0973
깊	-15.0974
찮	-15.0975
믓	-15.0975
랖	-15.0975
낍	-15.0975
았	-15.0976
