<pad>	0
<s>	0
</s>	0
<unk>	0
▁.	-3.2206
을	-3.60663
는	-3.73792
의	-3.77464
▁	-3.99287
은	-3.9994
를	-4.08706
가	-4.35689
에	-4.41965
▁,	-4.43244
이	-4.47143
고	-4.73335
에서	-5.15559
한	-5.16793
로	-5.20751
▁이	-5.26569
▁일	-5.28162
인	-5.31222
▁그	-5.36327
으로	-5.45801
▁있다	-5.46783
과	-5.5037
▁고	-5.57747
와	-5.58357
도	-5.64708
▁수	-5.66565
▁밝혔다	-5.71951
▁말했다	-5.74267
할	-5.81338
▁년	-5.89865
▁있는	-5.92193
하고	-5.9821
지	-6.03822
다	-6.11373
▁전	-6.19341
▁대한	-6.22394
했다	-6.23805
▁위해	-6.24132
하는	-6.24935
▁이번	-6.2968
▁미국	-6.30969
▁한	-6.31528
▁전했다	-6.32038
▁월	-6.3288
▁지난	-6.39568
▁현지시간	-6.42455
▁정부	-6.43462
며	-6.44304
▁대해	-6.49766
던	-6.53533
▁며	-6.53548
▁미	-6.53777
된	-6.54762
▁중	-6.55605
해	-6.5634
▁것으로	-6.57735
▁명	-6.58631
기	-6.58824
나	-6.59487
▁것	-6.5967
▁명이	-6.61371
에게	-6.61608
▁것이라고	-6.62742
▁있다고	-6.69689
으며	-6.69789
▁그러나	-6.71553
▁것을	-6.72288
▁더	-6.76639
히	-6.7688
s	-6.78116
▁이라크	-6.78363
스	-6.82428
▁다른	-6.85112
게	-6.88222
▁명의	-6.88675
자	-6.88976
▁대통령	-6.91168
하게	-6.92858
▁중국	-6.9297
운	-6.9462
▁한편	-6.96654
이다	-6.96802
▁북한	-6.9888
▁이라고	-6.99815
▁또	-6.9987
▁약	-7.00333
▁오바마	-7.0062
▁만	-7.0085
지만	-7.01394
▁주	-7.02041
▁경찰	-7.04383
▁등	-7.04988
▁에	-7.05562
들이	-7.07519
▁대변인	-7.07791
▁후	-7.08024
▁총리	-7.08241
하기	-7.11117
▁많은	-7.11859
▁위한	-7.12055
▁우리	-7.12932
▁부시	-7.13078
▁통해	-7.13248
▁이후	-7.13907
하지	-7.14743
리	-7.16451
▁대통령은	-7.16832
▁내	-7.17299
적인	-7.17693
▁세	-7.17777
▁영국	-7.18393
만	-7.18841
▁가장	-7.18976
하며	-7.19234
▁두	-7.20792
▁동안	-7.21073
했으며	-7.21398
들	-7.21467
▁같은	-7.21515
까지	-7.2273
▁것이다	-7.23112
▁않았다	-7.25225
▁한국	-7.25374
될	-7.26414
▁말	-7.31109
시	-7.33124
▁가	-7.33316
▁개	-7.33762
▁세계	-7.34004
▁주장했다	-7.3409
▁할	-7.34191
라	-7.34927
▁한다	-7.3574
▁될	-7.36011
트	-7.36042
▁이들	-7.36817
▁현재	-7.37012
▁달러	-7.37108
드	-7.37481
▁있	-7.37623
▁문제	-7.37799
▁것은	-7.38398
▁바	-7.38585
▁관련	-7.38689
▁또한	-7.38839
▁때	-7.4124
상	-7.43568
▁대	-7.43579
▁일부	-7.43651
▁이상	-7.43821
으나	-7.43975
▁알	-7.44123
▁보도했다	-7.44297
▁시	-7.4462
▁했다	-7.45036
서	-7.45203
▁덧붙였다	-7.45246
어	-7.45272
▁최근	-7.45425
및	-7.455
면	-7.4568
▁지역	-7.46663
▁경우	-7.47027
▁있었다	-7.47257
▁영화	-7.49592
사	-7.50298
했다고	-7.50376
▁자신의	-7.50658
▁모든	-7.51162
▁것이	-7.52353
▁후보	-7.52809
했던	-7.53618
▁새로	-7.54011
▁함께	-7.55336
▁당시	-7.55835
수	-7.5592
▁라고	-7.56259
일	-7.57781
▁시간	-7.57836
▁미군	-7.58412
▁일본	-7.59323
▁그리고	-7.6018
거	-7.60239
주	-7.60469
▁조사	-7.61092
에따르면	-7.61641
됐다	-7.61677
▁로	-7.61934
▁계획	-7.62266
▁뒤	-7.6244
▁경제	-7.63488
야	-7.64066
▁예정이다	-7.66109
▁수도	-7.6663
▁모두	-7.67231
▁결과	-7.67254
▁설명했다	-7.67345
▁있습니다	-7.68212
▁에서	-7.68233
▁있으며	-7.68924
▁러시아	-7.70149
▁몇	-7.70562
▁처음	-7.70912
▁프랑스	-7.71115
▁의	-7.71534
라고	-7.71569
성	-7.71686
▁아직	-7.72591
도록	-7.72606
▁유엔	-7.73259
▁당국	-7.73427
▁공격	-7.74589
보다	-7.7462
▁큰	-7.74886
▁하는	-7.74952
▁없다	-7.74965
▁사실	-7.75811
▁이란	-7.76076
▁파키스탄	-7.76157
▁the	-7.76349
▁위	-7.76363
간	-7.76376
▁이스라엘	-7.76964
▁계속	-7.77448
▁나	-7.78039
▁경기	-7.78236
▁사고	-7.79527
▁CNN	-7.79698
▁분	-7.7974
해야	-7.79843
니	-7.80112
▁회담	-7.80487
진	-7.80626
▁그녀	-7.8069
▁지난해	-7.81005
▁국가	-7.8117
▁올해	-7.81462
▁제	-7.81539
▁대통령이	-7.82044
▁지	-7.82364
비	-7.82832
르	-7.83196
들을	-7.83271
▁라	-7.83378
▁민주당	-7.835
▁사람들	-7.83875
▁사건	-7.8389
▁않을	-7.84357
▁클린턴	-7.85086
이라고	-7.85138
▁열린	-7.85295
▁차	-7.85401
▁억	-7.85585
▁이날	-7.86391
하다	-7.86461
▁성명	-7.8721
▁비	-7.88193
아	-7.88261
한다	-7.88875
했	-7.89305
했습니다	-7.89792
▁번째	-7.90041
▁to	-7.90322
▁발표했다	-7.90646
▁발생한	-7.91346
▁하고	-7.91451
▁받고	-7.92178
▁받았다	-7.92406
▁테러	-7.92613
면서	-7.92792
적	-7.93328
▁존	-7.93429
부	-7.93878
때문에	-7.93922
선	-7.9393
▁미국의	-7.944
▁달	-7.94474
크	-7.94487
▁다시	-7.94617
▁지원	-7.95049
하	-7.95717
▁그들	-7.96059
▁사	-7.9615
▁된다	-7.96159
▁여성	-7.96228
▁이라	-7.96508
▁관계자	-7.96879
장	-7.97033
치	-7.97257
▁가운데	-7.97677
▁of	-7.97705
▁핵	-7.98117
▁발표	-7.98262
하여	-7.99235
▁반	-7.99245
e	-7.99353
▁사람들이	-7.99359
즈	-7.99372
▁있을	-7.9948
▁사망했다	-7.99534
입니다	-7.99593
대	-7.99932
당	-8.00203
▁주요	-8.00657
화	-8.00944
▁이에	-8.01066
▁오	-8.01257
▁의해	-8.01378
었다	-8.01476
▁됐다	-8.02115
▁해	-8.02128
부터	-8.02673
▁조	-8.03107
소	-8.03792
▁사람	-8.04021
▁국제	-8.0438
▁초	-8.04434
▁장관	-8.04529
▁데	-8.04711
▁아	-8.04718
적으로	-8.04743
▁인해	-8.04871
에따라	-8.05275
에도	-8.05699
▁대부분	-8.06018
▁자	-8.0627
이나	-8.06274
습니다	-8.07063
▁첫	-8.07231
▁사망	-8.07355
▁s	-8.07481
▁선거	-8.07711
▁않은	-8.07755
▁채	-8.07817
▁관계	-8.08238
▁조치	-8.08277
하지만	-8.08367
▁보고	-8.0883
▁시위	-8.09002
처럼	-8.09502
▁결정	-8.10401
▁혐의로	-8.10696
▁아프간	-8.10761
▁거	-8.10925
▁TV	-8.11096
▁지금	-8.11325
▁이미	-8.1144
전	-8.11607
▁때문	-8.11811
용	-8.1201
▁기록	-8.12377
▁안	-8.12648
이며	-8.12959
▁번	-8.13075
세	-8.13078
▁승리	-8.13244
▁군	-8.13631
길	-8.13803
하면서	-8.14154
▁마	-8.14219
▁S	-8.14291
▁연구	-8.1492
▁위치한	-8.15521
▁매우	-8.15738
le	-8.15792
▁있었	-8.16251
▁원	-8.16565
원	-8.16955
▁이슬람	-8.17365
였	-8.17677
보	-8.17985
타	-8.18088
에서는	-8.18423
레	-8.1873
▁W	-8.18954
▁총	-8.19022
로부터	-8.19127
▁없는	-8.19164
▁?	-8.19431
▁기자	-8.19579
▁정보	-8.19751
y	-8.19852
▁방문	-8.19901
▁피해	-8.19917
▁줄	-8.20009
▁비난	-8.20019
▁A	-8.20029
▁팔레스타인	-8.20326
▁노	-8.20482
프	-8.20615
됐	-8.21033
▁추가	-8.21127
▁살	-8.21174
되어	-8.21198
마	-8.21259
▁뉴욕	-8.21285
▁회사	-8.21456
▁오늘	-8.21786
▁km	-8.22034
▁않고	-8.22071
▁의원	-8.22292
▁한다고	-8.22534
▁강	-8.22696
▁부	-8.23059
▁조지	-8.23352
▁탈레반	-8.23432
▁대선	-8.23576
▁있다는	-8.23718
▁아이	-8.23934
▁지지	-8.24087
▁기	-8.24176
우	-8.24212
▁호주	-8.24534
식	-8.24558
▁인도	-8.24685
▁점	-8.25069
▁유럽	-8.25201
▁년간	-8.25261
▁어떤	-8.25365
▁정도	-8.25425
▁잘	-8.2554
▁다	-8.25578
▁지적했다	-8.2598
질	-8.26123
▁활동	-8.26242
▁독일	-8.26678
돼	-8.26857
▁in	-8.26942
▁간	-8.27059
였다	-8.2722
▁혐의	-8.27426
명	-8.27429
▁소속	-8.27744
▁인터넷	-8.27765
▁원문기사보기	-8.28076
▁포함	-8.28233
▁시장	-8.28282
▁하지	-8.28433
▁새	-8.28617
디	-8.28817
▁개의	-8.2899
했지만	-8.29082
▁감독	-8.29096
▁대표	-8.29109
▁내용	-8.29262
티	-8.29348
파	-8.29477
▁협상	-8.29494
라는	-8.29504
▁우려	-8.29832
▁프로그램	-8.30023
▁구	-8.30126
ing	-8.30127
▁최고	-8.3013
▁대학	-8.30586
▁예정	-8.3062
미	-8.3163
▁a	-8.31645
▁부상	-8.31728
▁없다고	-8.32228
▁여러	-8.32661
안	-8.32753
▁않는다	-8.3301
함	-8.33238
▁받은	-8.3341
▁성	-8.33455
바	-8.33511
▁보고서	-8.33643
려	-8.33835
▁못했다	-8.33941
▁발생했다	-8.34014
제	-8.34102
▁상	-8.34261
▁상원의원	-8.34665
▁입장	-8.3468
되었다	-8.34723
▁하	-8.34912
▁주장	-8.35163
▁매케인	-8.35289
ed	-8.35565
▁요구	-8.35661
▁사용	-8.357
린	-8.35759
코	-8.35796
▁카	-8.36111
▁관리	-8.36329
합니다	-8.36425
▁폭탄	-8.36455
▁의회	-8.3655
되는	-8.37195
▁박사	-8.3746
▁개월	-8.3747
▁올림픽	-8.37502
▁많	-8.37723
▁오후	-8.37769
▁도	-8.38038
▁시작	-8.38231
구	-8.38871
▁판매	-8.3892
▁북한이	-8.39758
d	-8.39949
▁전쟁	-8.39981
▁모습	-8.40001
▁발생	-8.4057
▁보도	-8.4069
▁보	-8.4078
권	-8.40789
▁된	-8.40982
러	-8.41027
토	-8.41068
▁언론	-8.41278
▁차량	-8.41567
▁생각	-8.41804
▁단체	-8.41946
▁인터뷰에서	-8.41955
▁남자	-8.42077
산	-8.42105
▁자동차	-8.42352
▁준비	-8.42837
▁컴퓨터	-8.43539
관	-8.43587
되지	-8.43733
오	-8.43847
▁앞으로	-8.43854
▁이러	-8.43862
▁있어	-8.43913
▁배	-8.44145
▁기술	-8.44323
▁곳	-8.44379
▁나는	-8.44436
▁것에	-8.44602
▁터키	-8.44833
▁갖고	-8.45007
카	-8.4506
▁현지	-8.45299
되고	-8.45333
▁공화당	-8.45527
▁B	-8.45541
▁마지막	-8.45623
▁미얀마	-8.45837
▁강조했다	-8.45917
▁병원	-8.46327
내	-8.46345
▁변화	-8.46538
▁경찰이	-8.46596
▁무	-8.46832
▁합의	-8.47048
▁개발	-8.4707
▁인쇄	-8.47274
▁떨어진	-8.47382
▁물	-8.47477
차	-8.4748
▁가진	-8.47546
▁앞서	-8.4815
▁교수	-8.4816
▁석방	-8.4824
▁반대	-8.48248
국	-8.48253
▁우주	-8.48383
▁않았	-8.48601
▁피	-8.48837
▁방송	-8.4885
▁오전	-8.49017
▁힐러리	-8.49181
▁남부	-8.49248
▁폭발	-8.49267
▁사이	-8.4932
▁비난했다	-8.49529
▁주지사	-8.49628
▁여	-8.49631
하는데	-8.49684
▁지도자	-8.49771
▁오는	-8.49824
▁정책	-8.49849
이었다	-8.49927
▁미국과	-8.50006
▁독해	-8.50196
▁차례	-8.50305
▁평화	-8.50322
물	-8.50826
▁규모	-8.5085
▁자신이	-8.50887
▁버락	-8.50909
▁m	-8.50943
설명	-8.51073
었던	-8.51138
▁검찰	-8.51194
모	-8.51257
▁정	-8.51457
▁백악관	-8.51713
▁상태	-8.52023
▁상황	-8.52337
▁증가	-8.5239
▁아시아	-8.5242
▁다음	-8.52748
▁이어	-8.52937
는데	-8.5295
▁미국이	-8.531
▁노력	-8.53266
▁AP	-8.53403
들에게	-8.536
노	-8.53626
▁해결	-8.53633
▁원문	-8.53675
▁지난달	-8.53701
▁의사	-8.53826
릴	-8.54104
▁없었다	-8.5419
▁투표	-8.54259
▁도시	-8.54523
▁스페인	-8.54653
▁않	-8.54751
▁좋은	-8.55447
법	-8.55625
▁무샤라프	-8.55705
▁인근	-8.55885
▁지역에서	-8.55902
▁C	-8.56319
▁관한	-8.56392
▁볼	-8.56435
▁이를	-8.56494
▁있지만	-8.56556
▁연방	-8.56616
▁집	-8.5666
▁이용	-8.56907
▁와	-8.57033
브	-8.5705
▁타	-8.57082
▁안전	-8.57089
▁N	-8.57265
▁파	-8.57339
▁날	-8.57501
▁아무	-8.57551
▁마리	-8.57592
▁없이	-8.57859
▁매	-8.57888
▁전문가들	-8.57897
▁가지	-8.58057
정	-8.58102
▁보인다	-8.58263
▁이런	-8.5847
▁영향	-8.58504
▁저	-8.58657
▁리	-8.58678
▁치료	-8.58732
단	-8.58854
▁까지	-8.59055
들의	-8.59116
▁야당	-8.59301
▁여행	-8.59304
a	-8.59457
으로부터	-8.59492
▁재	-8.59512
▁이름	-8.59556
▁이탈리아	-8.59624
▁김	-8.6011
직	-8.60145
▁장	-8.6018
▁최소	-8.60416
▁보다	-8.60437
▁불	-8.60602
▁않다	-8.60861
▁생산	-8.60933
▁모	-8.61127
하기로	-8.61149
▁금융	-8.61341
조	-8.61369
▁양	-8.61488
▁사망자	-8.6152
호	-8.61538
▁가족	-8.61539
▁불법	-8.61548
▁미국은	-8.61559
▁가능성	-8.61644
난	-8.62012
▁미사일	-8.62184
▁산	-8.62498
▁이전	-8.62605
▁행사	-8.62812
▁연기	-8.62983
▁밤	-8.63035
▁중요한	-8.63063
▁위협	-8.63139
▁하나	-8.6317
▁상승	-8.63226
온	-8.63233
▁년에	-8.634
▁공식	-8.63497
▁역사	-8.63687
▁artic	-8.64066
▁검사	-8.64144
▁최초	-8.64158
▁당	-8.64178
▁만에	-8.64271
▁신	-8.64288
씨	-8.64492
▁논의	-8.64578
▁주둔	-8.64892
▁없	-8.65171
▁JOINS	-8.65197
중	-8.65288
▁알카에다	-8.65388
▁유	-8.6549
▁외	-8.65541
▁알려졌다	-8.65784
al	-8.65949
▁사태	-8.66033
데	-8.66313
박	-8.66372
▁포인트	-8.66409
▁비행기	-8.66536
▁P	-8.66724
했었다	-8.66837
▁발언	-8.67029
▁인	-8.67345
▁대통령과	-8.67548
하도록	-8.67678
▁정치적	-8.67819
▁돈	-8.67862
▁팀	-8.68052
▁가격	-8.68179
▁씨	-8.68217
터	-8.68427
▁The	-8.68501
▁말했습니다	-8.68528
▁용의자	-8.68622
▁법원	-8.68623
▁이야기	-8.68674
▁필요	-8.68788
▁은행	-8.68889
▁방법	-8.69036
▁관심	-8.69037
▁반면	-8.69083
루	-8.69118
▁주민들	-8.69143
▁정치	-8.69433
피	-8.69509
▁것입니다	-8.69537
and	-8.69725
▁부토	-8.69892
▁사망한	-8.69899
점	-8.7029
신	-8.70557
▁코리아	-8.7076
▁T	-8.70766
▁공	-8.70854
▁무기	-8.70856
포	-8.71026
▁열	-8.71049
▁자신들	-8.71069
▁대해서	-8.71138
▁런던	-8.71276
▁자금	-8.71277
▁지구	-8.71298
▁불구하	-8.713
▁전에	-8.71435
▁조직	-8.7154
▁서비스	-8.71552
▁일간	-8.71559
▁위험	-8.7159
▁회장	-8.71714
들과	-8.71825
▁살해	-8.71844
력	-8.71974
▁학교	-8.7221
▁반군	-8.72346
▁자신	-8.72397
▁최대	-8.72437
체	-8.72669
측	-8.72844
▁골	-8.72878
i	-8.73042
▁인질	-8.7309
▁뉴스	-8.73228
▁발	-8.73252
계	-8.73314
방	-8.73351
▁관계자들	-8.73678
▁소	-8.737
더	-8.73735
발	-8.73743
▁한나라당	-8.73808
▁것이라는	-8.73915
▁선	-8.74001
▁for	-8.74011
▁D	-8.74043
▁출신	-8.74077
▁높은	-8.74119
▁중단	-8.7414
▁인용	-8.74281
▁벌이	-8.74613
▁지난주	-8.74653
▁북부	-8.74787
▁K	-8.74851
▁언급	-8.74937
▁바그다드	-8.75045
▁의하면	-8.75135
▁올	-8.75165
▁군사	-8.75304
▁호	-8.75356
▁공급	-8.75424
▁역할	-8.75513
▁가능성이	-8.75628
▁강력	-8.75714
해서	-8.75896
사전	-8.75966
▁자살	-8.76013
▁천	-8.76049
▁수사	-8.76175
▁게임	-8.76235
▁코	-8.7638
▁소식	-8.76541
▁만명	-8.76584
▁더욱	-8.76642
▁뜻	-8.76653
임	-8.76663
▁건물	-8.76778
▁심	-8.76779
됐다고	-8.76916
츠	-8.77018
▁못	-8.77087
▁시위대	-8.77112
▁으로	-8.77178
▁왔다	-8.77179
▁지역에	-8.77375
▁알고	-8.77423
위	-8.77539
▁특	-8.77679
군	-8.778
▁선수	-8.77833
▁공동	-8.77921
▁것이며	-8.78114
▁국경	-8.78231
▁우승	-8.78545
▁아버지	-8.78583
▁서울	-8.78891
시킬	-8.78943
요	-8.79196
▁고위	-8.7925
▁법	-8.79443
▁기업	-8.79837
▁거래	-8.79917
▁운동	-8.79986
▁적	-8.80014
▁아니다	-8.80087
▁필요한	-8.80188
▁com	-8.80228
▁어제	-8.80246
여	-8.80428
▁핵무기	-8.80541
▁이와	-8.80587
▁앞	-8.80758
▁나라	-8.80891
▁되는	-8.80906
▁병력	-8.8094
▁법안	-8.81489
이자	-8.81606
▁하루	-8.81623
▁부족	-8.81658
동	-8.81761
▁Korea	-8.81766
형	-8.81791
▁확인	-8.81867
▁시작했다	-8.81873
▁사르코지	-8.81877
▁감소	-8.81907
▁금지	-8.81917
▁아이들	-8.81961
▁서	-8.81984
▁포	-8.82214
키	-8.82333
▁위기	-8.82474
▁하마스	-8.82507
▁티베트	-8.82551
▁않는	-8.82575
▁라이스	-8.82585
▁어	-8.82628
▁행위	-8.82637
▁결국	-8.829
▁요청	-8.82981
▁충돌	-8.83019
▁투자	-8.8309
▁독립	-8.83222
▁만달러	-8.83244
▁아들	-8.83289
▁폭탄테러	-8.83293
▁발견	-8.8353
▁스	-8.83567
▁보호	-8.83572
▁아침	-8.83578
▁전화	-8.83583
▁이제	-8.83697
▁관련된	-8.83842
▁각	-8.83905
▁그것	-8.84103
▁기자회견에서	-8.84156
하겠다고	-8.84167
회	-8.84209
든	-8.84251
▁콜롬비아	-8.84258
자들	-8.84396
▁동영상	-8.84476
▁F	-8.84544
▁국방부	-8.84688
▁공항	-8.84739
▁행동	-8.84759
▁아니라	-8.84813
▁직접	-8.8487
▁건강	-8.8498
▁보였다	-8.85114
된다	-8.85249
▁표	-8.85333
이라는	-8.85436
문	-8.85448
하면	-8.85492
▁이같	-8.85538
▁브라운	-8.85654
▁남성	-8.85843
▁노무현	-8.85994
▁캘리포니아	-8.86028
런	-8.86045
▁워싱턴	-8.86133
▁여부	-8.86172
▁사람이	-8.86221
▁위해서	-8.86342
위원회	-8.86376
▁부인	-8.86378
시켰다	-8.86402
▁억원	-8.8679
▁타고	-8.86864
▁받을	-8.87327
▁레	-8.87365
▁있고	-8.87466
실	-8.87493
▁비행	-8.8768
날	-8.88108
▁자유	-8.88587
▁주택	-8.88667
▁건설	-8.88808
▁보안	-8.88993
유	-8.89054
▁역시	-8.89223
친	-8.89261
▁대화	-8.89341
▁EU	-8.89562
감	-8.89593
er	-8.89668
란	-8.89745
종	-8.89771
▁특별	-8.89792
▁어떻게	-8.89923
▁회의	-8.90524
▁이유	-8.90596
▁년까지	-8.90659
▁드	-8.90731
ar	-8.90736
▁열리는	-8.90748
▁음악	-8.90788
▁시신	-8.90845
▁받았	-8.91006
▁기간	-8.91195
▁이유로	-8.91208
▁빌	-8.91372
▁베이징	-8.91422
한다고	-8.91515
▁협력	-8.91551
▁곧	-8.91813
▁폴	-8.91857
▁호텔	-8.91859
▁연설	-8.91902
▁문제에	-8.91943
▁판결	-8.92088
▁폐쇄	-8.92166
▁철수	-8.92192
▁년대	-8.9233
▁문	-8.92408
▁사건에	-8.92416
▁국무부	-8.92511
▁손	-8.92533
하자	-8.92567
▁숨졌다	-8.93113
다고	-8.93248
▁신문	-8.93249
▁에너지	-8.93331
▁위원회	-8.93452
▁석유	-8.93576
▁데이비드	-8.93634
하려	-8.93637
급	-8.93669
▁한국인	-8.9376
공	-8.9382
울	-8.93832
▁발사	-8.93945
n	-8.93953
t	-8.93959
긴	-8.94056
▁박	-8.9408
▁H	-8.94093
▁아프가니스탄	-8.94115
▁월에	-8.94429
p	-8.94479
▁실	-8.94548
▁종	-8.94608
네	-8.94871
▁기회	-8.95201
▁체포	-8.95257
▁있게	-8.95376
하던	-8.95384
▁진행	-8.95493
▁대선후보	-8.95546
경	-8.9569
그	-8.95701
▁말하는	-8.95768
▁대사	-8.95871
▁변호사	-8.95892
▁과학자들	-8.96052
▁공개	-8.96236
혀	-8.96291
▁같다	-8.96388
▁도로	-8.96485
▁증거	-8.96505
▁범죄	-8.96596
▁현	-8.96628
설	-8.96636
져	-8.96714
▁남	-8.96729
▁수술	-8.9675
▁승인	-8.96776
▁있기	-8.9681
▁내년	-8.9689
▁생활	-8.96891
버	-8.97056
▁우	-8.97058
▁양국	-8.97124
▁구조	-8.97132
▁애	-8.97249
▁상원	-8.9729
▁전망	-8.97321
속	-8.97447
▁전세계	-8.97484
▁사회	-8.97515
심	-8.97606
▁발견했다	-8.97686
▁주변	-8.97701
스트	-8.97736
▁너무	-8.97744
▁교육	-8.9775
▁납치	-8.97862
▁눈	-8.97887
▁대규모	-8.97892
▁통신	-8.97931
▁요구했다	-8.97985
▁입	-8.98058
▁아니	-8.98112
▁수준	-8.98238
▁생각한다	-8.98426
재	-8.98523
▁길	-8.98528
▁훈련	-8.98593
하려는	-8.98787
병	-8.98916
▁사업	-8.98926
민	-8.99226
▁타임즈	-8.99492
▁인구	-8.99605
▁온	-8.99649
▁비디오	-8.99878
▁어린이	-8.99887
▁개인	-8.9994
▁동물	-9.00007
▁의견	-9.00043
▁저장	-9.00054
반	-9.00063
▁만원	-9.0009
▁재개	-9.00212
▁성공	-9.00356
▁재판	-9.00448
량	-9.00599
▁화재	-9.00632
▁경고	-9.00696
▁통	-9.007
▁나타났다	-9.00728
▁결혼	-9.00742
▁정상	-9.0081
▁이동	-9.00835
▁했다고	-9.00892
▁전투	-9.00986
▁목표	-9.01055
▁힘	-9.01078
▁약어표	-9.01089
▁앞두고	-9.0109
▁대사관	-9.01302
▁포함한	-9.01334
▁예정이라	-9.01435
▁비롯	-9.015
▁G	-9.0154
▁하락	-9.01666
▁심각한	-9.02118
▁성장	-9.0212
▁레바논	-9.0228
▁로버트	-9.02327
▁딸	-9.02394
▁관할	-9.02458
▁민간인	-9.02498
▁전체	-9.02596
▁사진	-9.02611
o	-9.02686
▁억달러	-9.02738
▁인간	-9.02837
▁난	-9.02907
▁해외	-9.02954
로서	-9.02971
▁방	-9.03035
▁아닌	-9.03152
▁것이라	-9.03267
▁태국	-9.03376
▁안에	-9.03449
▁판사	-9.03555
▁스타	-9.03562
▁여전	-9.03615
영	-9.03681
지는	-9.03817
청	-9.03818
학	-9.03911
으로써	-9.03995
▁출전	-9.04089
▁경선	-9.04124
▁방안	-9.04234
되었	-9.04748
▁못하	-9.04789
▁멕시코	-9.04899
▁여객기	-9.04901
▁경기에서	-9.05006
▁LA	-9.05366
슨	-9.05389
▁제안	-9.05756
▁임무	-9.05819
▁예	-9.0595
▁국민	-9.06017
▁인도네시아	-9.06053
▁대신	-9.06078
▁수치	-9.06175
▁명과	-9.06243
▁작전	-9.06319
▁친	-9.06339
▁촉구했다	-9.06346
▁수입	-9.0637
▁들	-9.06411
▁작은	-9.06653
▁건	-9.06687
▁네	-9.06899
▁퍼센트	-9.0696
▁밝혀졌다	-9.06986
▁가지고	-9.07127
▁시도	-9.07245
▁항	-9.07257
판	-9.07335
하라	-9.07377
▁그들의	-9.07406
▁산업	-9.07412
▁입은	-9.07681
▁인정	-9.07682
▁친구	-9.07766
▁마이클	-9.07829
▁이상이	-9.07832
▁헬기	-9.07876
▁푸틴	-9.08266
▁최종	-9.08272
연	-9.08324
▁규정	-9.08345
▁지도자들	-9.08349
▁열차	-9.08405
▁알리	-9.08467
▁대회	-9.08468
▁마을	-9.085
▁국민들	-9.08587
▁온라인	-9.08602
▁제재	-9.08744
▁안보	-9.08933
▁경쟁	-9.0894
▁선택	-9.08947
역	-9.08962
▁입었다	-9.09166
▁아기	-9.0923
▁예상	-9.09345
▁바로	-9.09406
▁폭력	-9.09586
▁시설	-9.09709
▁막	-9.09938
▁이라크에서	-9.10052
▁당신	-9.10052
▁받아	-9.1013
▁개선	-9.10279
강	-9.10389
▁증시	-9.10495
▁환경	-9.10909
▁낮	-9.11139
▁행정부	-9.11165
론	-9.11203
▁말한다	-9.11274
▁얼마	-9.11322
▁인권	-9.11343
▁메시지	-9.11392
▁부대	-9.11393
행	-9.11468
▁라디오	-9.11475
▁연합	-9.11518
▁본	-9.11643
▁살고	-9.11651
▁그들이	-9.11721
▁무장	-9.11888
▁배우	-9.11997
▁밝힌	-9.12283
▁이것	-9.12394
▁대의원	-9.12421
▁측	-9.12491
▁여자	-9.12498
▁베	-9.12525
▁아프리카	-9.12531
▁중인	-9.12629
▁경고했다	-9.12681
▁돌	-9.12686
▁대만	-9.12712
▁필요하다	-9.12805
▁만약	-9.12817
▁관리들	-9.1285
▁그런	-9.13019
▁보내	-9.13083
교	-9.13178
▁팔	-9.13207
▁속	-9.13229
▁도움	-9.13369
▁치	-9.13502
▁힐	-9.13505
▁외국	-9.13633
▁미국인	-9.13645
▁서로	-9.13648
▁운영	-9.13807
▁출연	-9.13971
▁남편	-9.13979
▁즉	-9.14023
▁화요일	-9.1425
▁반응	-9.1426
▁책임	-9.14285
▁발표한	-9.14354
▁경	-9.14368
▁비해	-9.14589
후	-9.14596
▁계약	-9.14637
▁확보	-9.14645
▁항공	-9.14675
▁시스템	-9.14812
▁의장	-9.14813
너	-9.15019
▁외국인	-9.15037
▁지수	-9.15042
▁벌였다	-9.15251
▁밝혔	-9.15259
▁주식	-9.15321
▁담	-9.1546
▁관계자가	-9.15521
▁세금	-9.156
복	-9.15604
▁홍콩	-9.15641
▁M	-9.16168
▁원인	-9.16172
▁가치	-9.16235
▁광고	-9.16338
▁지방	-9.16416
▁없을	-9.16423
▁스미스	-9.1647
▁소송	-9.16586
▁시즌	-9.16742
▁약속	-9.16757
u	-9.16886
▁여명	-9.16921
▁짐바브웨	-9.16946
졌다	-9.16984
▁과거	-9.17013
있는	-9.17145
▁미국에서	-9.17232
금	-9.17257
▁부부	-9.17308
건	-9.17358
▁같이	-9.174
▁얻	-9.17403
▁기록했다	-9.17488
▁중동	-9.17542
▁공연	-9.17589
▁상당	-9.17871
▁사무총장	-9.17905
워	-9.17947
무	-9.17982
▁내렸다	-9.18094
▁브라질	-9.18103
▁시아파	-9.18388
▁연료	-9.1844
▁걸	-9.1851
▁거리	-9.18574
▁빈	-9.18632
▁밖에	-9.18809
었다고	-9.1888
▁만나	-9.1907
▁L	-9.19107
▁사임	-9.19438
▁일본의	-9.19515
▁유지	-9.19609
▁on	-9.19657
▁총선	-9.19701
en	-9.19706
▁일정	-9.19791
▁각각	-9.19862
▁권리	-9.19907
▁평균	-9.19967
엔	-9.19973
b	-9.20058
▁앤	-9.2011
▁년부터	-9.20249
▁부통령	-9.20309
▁제작	-9.20327
▁정권	-9.20401
음	-9.20533
▁해군	-9.20549
▁작품	-9.20577
▁감시	-9.20583
출	-9.20601
▁웹사이트	-9.20629
▁비용	-9.20695
▁기대	-9.2082
l	-9.20833
▁파업	-9.20878
▁통과	-9.20988
▁US	-9.21115
▁수단	-9.21119
▁합의했다	-9.21287
▁않아	-9.21329
▁이수지	-9.21343
▁시험	-9.21344
▁가스	-9.21361
▁나오	-9.21378
▁국내	-9.21591
h	-9.21614
▁다양	-9.21682
▁개최	-9.21887
통	-9.22032
▁텍사스	-9.22093
▁처리	-9.22094
▁사이에	-9.22156
▁환자	-9.22184
▁구성	-9.22416
▁소식통	-9.2245
▁사건이	-9.22587
▁위원장	-9.22657
▁주말	-9.22785
▁하기	-9.22817
팀	-9.22903
▁케냐	-9.22904
▁암	-9.2292
▁과정에서	-9.2293
▁국영	-9.22937
▁대가	-9.22942
▁R	-9.23152
래	-9.23189
▁회	-9.23235
▁놓	-9.23279
▁내무부	-9.23352
▁여름	-9.23362
▁걸쳐	-9.23367
▁학생	-9.23373
증	-9.23405
▁발견됐다	-9.23429
▁인상	-9.23561
했을	-9.23611
▁담당	-9.23642
▁키	-9.23806
▁메	-9.24082
▁상황이	-9.24273
▁완전	-9.24323
▁지명	-9.24477
▁것과	-9.24483
작	-9.24484
▁항공사	-9.24578
시켜	-9.24755
▁결정했다	-9.2478
석	-9.24883
▁강제	-9.25107
▁선고	-9.25296
▁동부	-9.25321
▁몸	-9.25371
▁갈	-9.25413
▁그룹	-9.25425
▁유일	-9.25503
▁주민	-9.25575
▁이곳	-9.25591
앞서	-9.25673
▁동	-9.25682
▁부상했다	-9.25687
▁벌	-9.25696
품	-9.25933
st	-9.26016
▁대상으로	-9.26136
de	-9.26164
▁E	-9.26186
▁단	-9.26338
▁온몸	-9.26453
▁후세인	-9.26454
▁주재	-9.26483
▁되었다	-9.26634
▁캐나다	-9.26768
▁디	-9.268
▁무장세력	-9.26913
▁페	-9.27154
▁촬영	-9.27262
▁직원	-9.27352
분	-9.27357
an	-9.27493
▁바이러스	-9.2751
▁바란다	-9.27516
▁어머니	-9.2766
▁베네수엘라	-9.2804
▁익명	-9.28041
▁야후	-9.2805
▁알려진	-9.28058
▁U	-9.28249
▁백	-9.28277
▁서부	-9.28515
▁해안	-9.28541
▁곳에서	-9.2856
es	-9.28606
▁맞	-9.28657
▁발견된	-9.28667
▁제공	-9.28678
었습니다	-9.28692
▁상대로	-9.2903
▁기상캐스터	-9.29113
▁루	-9.29115
해왔다	-9.29202
r	-9.29278
▁누	-9.29354
줄	-9.29368
▁마치	-9.29644
▁파병	-9.29651
▁차베스	-9.29661
▁로마	-9.29744
▁통제	-9.29773
▁다리	-9.29834
▁집단	-9.29878
▁일까지	-9.29902
▁남한	-9.29912
두	-9.29913
▁인기	-9.30024
색	-9.30031
▁여론	-9.30053
약	-9.30087
▁여론조사	-9.30148
▁북핵	-9.30184
▁이래	-9.30229
▁희망	-9.30253
▁민주주의	-9.30268
▁경찰에	-9.30312
기도	-9.30319
▁대변인이	-9.30337
▁플로리다	-9.304
▁왕자	-9.3049
▁요청했다	-9.30561
▁패	-9.30748
▁회복	-9.30834
▁추	-9.30852
▁받는	-9.31029
기구	-9.31076
▁책	-9.31247
▁논쟁	-9.31285
▁진압	-9.3129
▁join	-9.31293
▁유권자들	-9.31299
▁크게	-9.31379
▁소녀	-9.31438
▁자료	-9.31444
하였다	-9.31683
▁받지	-9.31694
힌	-9.31845
▁밝혔습니다	-9.31882
▁되고	-9.31899
▁예상된다	-9.31914
▁제품	-9.31982
▁하원	-9.32006
▁총격	-9.32043
▁사과	-9.32071
▁때까지	-9.32148
▁위성	-9.32268
▁접근	-9.32323
▁버스	-9.32408
▁사는	-9.32411
▁사망하	-9.3246
▁변호사는	-9.32506
▁e	-9.32566
▁편	-9.32671
류	-9.32793
▁To	-9.32831
▁연	-9.33009
▁별	-9.33046
▁수출	-9.33176
▁있지	-9.33282
저	-9.33344
케	-9.33387
한다는	-9.33443
▁발전	-9.33485
▁인터뷰	-9.33504
▁탑승	-9.33519
▁쿠바	-9.33559
중인	-9.33566
▁강한	-9.33573
▁사퇴	-9.33768
▁밝히	-9.33904
▁거대	-9.33952
많은	-9.3396
▁적이	-9.33996
록	-9.34039
▁최악	-9.34087
▁무장단체	-9.34104
▁나온	-9.34151
되기	-9.34206
▁수상	-9.34208
▁마크	-9.34399
▁전국	-9.34437
▁암살	-9.34509
▁따른	-9.3466
▁의료	-9.347
▁토	-9.34727
▁실험	-9.34757
▁국회	-9.34814
갈	-9.34926
▁제한	-9.34959
▁일부터	-9.34972
▁머리	-9.34975
▁아니라고	-9.35054
▁도움이	-9.35057
▁음식	-9.35112
▁평가	-9.35161
▁세력	-9.3518
▁되어	-9.35252
▁사실이	-9.35297
▁죽음	-9.35367
하겠다	-9.35369
▁수색	-9.35559
료	-9.3574
▁성폭행	-9.35794
▁받게	-9.35892
▁임기	-9.35948
▁강화	-9.35958
▁커	-9.35965
▁의미	-9.36098
▁한다는	-9.36112
▁주간	-9.36177
▁상원의원이	-9.36328
▁필리핀	-9.36379
in	-9.36432
처	-9.36481
▁차이	-9.36568
▁질문	-9.36605
▁적어	-9.36678
▁명령	-9.36737
▁NASA	-9.3696
▁매년	-9.36974
▁거부	-9.36979
테	-9.36998
기로	-9.37057
었	-9.37069
▁파리	-9.37307
▁월요일	-9.37327
▁동료	-9.37347
층	-9.37416
▁시간이	-9.37476
c	-9.37483
▁중국은	-9.37551
▁파견	-9.37566
▁압력	-9.37618
▁있음	-9.37619
▁정부와	-9.37641
▁달리	-9.3767
▁주도	-9.37716
▁확인했다	-9.37744
▁기사	-9.37772
▁북한에	-9.37793
▁이집트	-9.37922
▁선수들	-9.37928
▁못한	-9.37948
▁가능한	-9.37982
▁가자지구	-9.38037
▁학생들	-9.38044
▁co	-9.3806
▁비밀	-9.38069
▁사우디	-9.38136
등	-9.38185
▁들어	-9.38188
대로	-9.38202
▁무역	-9.38256
▁시리아	-9.38387
▁가졌다	-9.3844
▁불만	-9.38533
▁과	-9.38533
▁감염	-9.38561
▁칸	-9.3859
▁파괴	-9.38591
▁두고	-9.38599
▁항공기	-9.38615
▁어느	-9.38728
▁고통	-9.38754
▁언급했다	-9.38805
▁자세	-9.38842
▁나왔다	-9.38903
▁인수	-9.38927
▁맥	-9.3894
▁인질들	-9.38991
본	-9.38998
▁공격으로	-9.39135
▁기소	-9.39197
▁중에	-9.39271
▁뇌	-9.39357
▁복귀	-9.39443
▁개혁	-9.39526
▁고용	-9.3954
▁밝히지	-9.39591
지역	-9.39658
▁찾아	-9.39798
탄	-9.39815
▁후에	-9.39985
▁외교	-9.40111
▁보냈다	-9.4012
▁국가들	-9.40176
업체	-9.40216
▁명으로	-9.40364
▁사람들을	-9.40388
근	-9.40406
동안	-9.40462
▁나머지	-9.40521
▁이끄는	-9.40523
인한	-9.40542
다면	-9.40548
▁영어	-9.4062
생	-9.40738
▁사랑	-9.40795
▁I	-9.40948
▁인물	-9.41067
▁구체적	-9.41133
▁권력	-9.41152
▁사형	-9.41189
▁향해	-9.41226
▁긴장	-9.41256
▁부상자	-9.41333
▁사람들에게	-9.41354
았다	-9.4137
▁개국	-9.41391
▁병	-9.41447
▁살인	-9.41473
른	-9.41659
▁지진	-9.41676
▁신고	-9.41676
▁관해	-9.41688
▁식량	-9.4173
▁병사	-9.41748
▁전시	-9.41864
▁올랐다	-9.41948
E	-9.41962
▁아내	-9.42053
▁안정	-9.42182
▁군대	-9.42197
튼	-9.42304
▁희생자	-9.42312
▁제임스	-9.42348
or	-9.4235
▁공습	-9.42365
▁장면	-9.42376
▁지나	-9.42386
▁일자리	-9.42484
개	-9.42617
▁국무장관	-9.42623
쳐	-9.42658
▁업체	-9.42751
▁붕괴	-9.42859
베	-9.42931
▁싶다	-9.42968
▁잘못	-9.42969
▁소재	-9.42994
시키는	-9.43032
▁허가	-9.43249
▁의원들	-9.43366
▁다음달	-9.43602
▁참석	-9.43607
▁흑인	-9.43618
▁센터	-9.43618
▁미군이	-9.43678
▁막기	-9.43773
▁J	-9.43817
▁위반	-9.43873
▁되지	-9.43892
▁만큼	-9.4395
▁사령관	-9.43989
▁전기	-9.44121
업	-9.44183
▁목숨	-9.44214
▁질	-9.44257
▁자회담	-9.4426
커	-9.4427
양	-9.44595
▁기관	-9.44608
▁해야	-9.44771
쉬	-9.44789
▁예측	-9.44805
▁헌법	-9.44813
▁오른	-9.4486
▁팬들	-9.44888
▁숨지고	-9.44963
▁주장하고	-9.44966
센터	-9.45005
▁설치	-9.45042
▁부모	-9.45171
▁UN	-9.4528
▁허리케인	-9.45476
으로서	-9.45478
▁국방장관	-9.45478
▁자체	-9.45512
▁수천명	-9.45517
▁구매	-9.45524
▁질문에	-9.45632
▁나이	-9.45658
▁만들어	-9.4569
장을	-9.45849
▁위로	-9.45937
▁제기	-9.4597
▁북	-9.46066
▁소말리아	-9.46113
▁어떠한	-9.46113
▁소리	-9.46166
▁임시	-9.46187
▁비판	-9.46305
▁O	-9.46509
▁쇼	-9.46563
▁잡	-9.46601
▁달러에	-9.46747
▁왜	-9.46782
▁마음	-9.46792
▁일반	-9.46881
▁기지	-9.47003
sp	-9.47016
▁게	-9.47019
▁마련	-9.47036
▁끝에	-9.47273
▁시기	-9.47311
▁삶	-9.47399
▁확대	-9.47399
C	-9.47413
▁마약	-9.47427
▁물론	-9.47429
▁야	-9.47535
하기도	-9.47594
▁진	-9.47609
▁계획이	-9.47619
▁자리	-9.47636
▁받	-9.47659
▁곳에	-9.47709
망	-9.47811
▁당선인	-9.47846
▁따라	-9.47939
▁유로	-9.47974
▁시카고	-9.47995
▁선출	-9.48032
▁외무부	-9.48074
▁사장	-9.48118
▁중앙	-9.48127
▁작업을	-9.48155
▁수요일	-9.48167
▁문화	-9.4818
▁사원	-9.48206
▁여성이	-9.48242
▁석	-9.48248
▁갖	-9.4828
▁정부에	-9.4828
f	-9.48336
▁넘는	-9.4839
▁섬	-9.48431
▁실시	-9.48462
▁되	-9.48511
▁설명	-9.48532
락	-9.48721
▁칼	-9.48724
▁시민	-9.48738
▁직원들	-9.4888
▁뿐	-9.48886
들에	-9.48971
▁움직임	-9.49172
인들	-9.49228
▁감	-9.49302
O	-9.49326
거리	-9.49392
▁접촉	-9.4944
▁입고	-9.49526
되	-9.49706
▁샤	-9.49719
▁이라크에	-9.49814
▁해리	-9.49837
▁유명한	-9.49897
▁이란이	-9.4998
▁경제적	-9.49998
▁베컴	-9.50024
▁로켓	-9.50033
▁찰스	-9.50039
▁시행	-9.50044
▁양측	-9.50156
▁금	-9.50167
▁참가	-9.50255
▁추진	-9.50364
▁이달	-9.50402
▁도착	-9.50407
▁목적	-9.50411
▁선언	-9.50415
회사	-9.50512
▁종교	-9.50573
▁배치	-9.50599
▁영	-9.50655
▁FBI	-9.50688
▁혼란	-9.5076
▁내려	-9.50789
▁교전	-9.50862
▁제조	-9.50885
▁심장	-9.50894
▁존스	-9.50955
▁발생해	-9.50991
리자	-9.51283
▁어려움	-9.51362
▁출마	-9.51379
▁추락	-9.51419
▁아베	-9.5144
▁전력	-9.51494
▁대중	-9.5165
▁수익	-9.51668
▁사상	-9.51681
▁사진을	-9.51771
▁아주	-9.5182
▁교통	-9.51908
▁전문가	-9.51919
N	-9.51979
메	-9.51984
▁관련해	-9.52003
▁좀	-9.52035
▁긴급	-9.52038
▁넘	-9.52058
▁미래	-9.52064
▁일요일	-9.52194
▁자녀	-9.52194
on	-9.52201
▁나가	-9.52249
단체	-9.52437
at	-9.52452
▁사항	-9.52472
▁상대	-9.52519
▁귀	-9.52607
▁피해자	-9.52643
▁지도자인	-9.52742
마다	-9.52751
퍼	-9.52829
림	-9.52835
▁병원에	-9.52867
▁진출	-9.52869
▁Korean	-9.52941
▁부분	-9.52964
▁잠	-9.53108
▁자국	-9.53112
▁비슷	-9.53193
▁최고의	-9.53244
▁신원	-9.53309
▁시상식	-9.53401
▁국제사회	-9.53412
▁경험	-9.53571
tal	-9.53581
▁결의안	-9.53735
▁누구	-9.5379
▁검토	-9.53876
▁고문	-9.54007
▁착륙	-9.54062
▁유권자	-9.54074
▁선두	-9.54108
▁총재	-9.54139
▁주가	-9.5414
주의	-9.54182
▁여명이	-9.54203
▁전달	-9.54207
▁충격	-9.5422
▁주민들이	-9.54223
▁집중	-9.54324
만이	-9.54464
▁거주하	-9.54525
▁교회	-9.5459
▁일이	-9.54591
▁대법원	-9.54623
▁cnn	-9.54785
▁게이츠	-9.54788
▁절차	-9.54797
ion	-9.54801
▁현장	-9.54808
▁작년	-9.54818
▁정당	-9.54885
it	-9.5489
▁공군	-9.5492
▁것인지	-9.5494
▁be	-9.55037
▁승객	-9.55081
▁분쟁	-9.55102
▁가질	-9.55108
▁젊은	-9.55453
시키고	-9.55473
▁그리스	-9.55474
▁선거에서	-9.55516
▁체포됐다	-9.55554
▁카운티	-9.55573
▁끝	-9.55636
▁유명	-9.55761
▁엘	-9.55795
▁폭력사태	-9.55801
▁순간	-9.55901
▁항의	-9.55955
▁인사	-9.55971
▁이전에	-9.56074
각	-9.56114
▁목표로	-9.56146
▁빨	-9.56255
▁월부터	-9.56313
▁목요일	-9.56389
▁정상회담	-9.56391
▁위치	-9.56419
▁쿠	-9.56443
▁해제	-9.56443
▁여사	-9.5652
▁변	-9.5658
▁구속	-9.56621
▁위에	-9.56622
▁노조	-9.56679
▁관광	-9.56706
▁보기	-9.56726
▁반대하는	-9.56756
▁선정	-9.56887
▁숨진	-9.5693
이었	-9.57024
▁방문한	-9.57063
▁정말	-9.57066
▁수석	-9.57376
▁군인	-9.57602
▁연속	-9.57628
re	-9.57647
▁표현	-9.57674
▁대응	-9.57787
▁판	-9.57942
▁모델	-9.58095
▁단지	-9.58225
▁퍼	-9.58307
▁코소보	-9.58331
▁국립	-9.58334
▁동결	-9.5834
▁총기	-9.58353
▁남북	-9.58377
▁이라크전	-9.58395
▁크	-9.58436
▁가까	-9.58555
▁보여주	-9.58556
▁전략	-9.58567
▁연장	-9.58698
▁임명	-9.58714
▁추정	-9.58749
▁실패	-9.58822
ch	-9.5893
있다	-9.58991
▁나타나	-9.59056
▁스위스	-9.59085
협회	-9.59278
▁여성들	-9.59374
▁패배	-9.59412
▁올라	-9.59427
투	-9.59439
▁가량	-9.59588
▁약간	-9.59625
렸다	-9.59721
▁잉글랜드	-9.59786
▁몇몇	-9.59786
▁신화통신	-9.59787
▁유세	-9.59834
▁있는지	-9.59918
▁매일	-9.59928
▁지지자들	-9.59937
▁제거	-9.59969
S	-9.60018
▁들고	-9.60027
정부	-9.60155
아니라	-9.60166
▁보이는	-9.60293
▁불리	-9.60328
▁당했다	-9.60431
렌	-9.60474
▁사이트	-9.60511
▁판단	-9.60544
▁차기	-9.60586
▁도중	-9.60642
▁피트	-9.60718
▁마일	-9.60759
▁회담에서	-9.6076
▁도전	-9.60774
액	-9.60853
▁윌리엄	-9.61114
턴	-9.61129
▁버지니아	-9.61153
▁걱정	-9.61169
▁조건	-9.61175
▁작업	-9.61182
▁BBC	-9.61267
▁고양이	-9.6127
▁밝혀지지	-9.61302
▁유죄	-9.61303
▁감사	-9.61311
▁카메라	-9.61346
되었습니다	-9.61375
▁대형	-9.61394
▁연합군	-9.61439
▁압박	-9.6155
장관	-9.61572
센	-9.61644
▁약물	-9.61683
▁작성	-9.61736
남	-9.61752
했는데	-9.61778
▁결	-9.61816
배	-9.6189
▁다이애나	-9.61968
▁블레어	-9.62008
▁도쿄	-9.6201
▁소비자	-9.62032
▁스포츠	-9.62085
▁나토	-9.62101
▁주의	-9.62102
▁연구소	-9.62121
▁급	-9.62164
▁자주	-9.6226
▁휴대폰	-9.62318
▁p	-9.62328
▁체포했다	-9.62332
쿠	-9.6242
▁여당	-9.62442
▁세기	-9.62488
표	-9.62516
▁허용	-9.62572
지도	-9.62663
T	-9.62676
▁효과	-9.62736
▁올메르트	-9.6276
▁스스로	-9.62761
▁전까지	-9.62763
▁노래	-9.62801
로써	-9.6289
▁군부	-9.62973
▁탄	-9.62998
▁관광객	-9.63072
▁됐	-9.63127
▁연설에서	-9.63365
▁오래	-9.63377
시키기	-9.63493
▁오랫동안	-9.63517
▁분기	-9.63517
▁탁신	-9.63517
▁할리우드	-9.63517
▁핵심	-9.63583
▁영국의	-9.63602
▁노동	-9.63606
자인	-9.63625
▁만든	-9.63647
▁실수	-9.63662
집	-9.63775
▁취소	-9.63878
▁한반도	-9.63908
초	-9.63924
▁병원에서	-9.6402
▁아마	-9.64159
▁가능	-9.64172
▁빠른	-9.64282
▁비상사태	-9.64283
▁대비	-9.64288
▁확실히	-9.64345
▁옷	-9.64417
자들이	-9.64417
▁공장	-9.6442
▁분석	-9.64432
▁장기	-9.64444
리아	-9.64498
회의	-9.6452
▁주에서	-9.64602
▁외무장관	-9.64642
▁이와같	-9.64705
▁참여	-9.64725
▁내부	-9.64845
태	-9.64939
▁전통	-9.65018
▁집회	-9.65048
▁겪고	-9.6505
▁그렇게	-9.6505
▁직후	-9.65059
▁높이	-9.65258
▁성적	-9.65315
▁극	-9.65319
하다고	-9.65331
▁뉴	-9.6544
▁굴	-9.65447
▁문서	-9.65547
▁운행	-9.65587
▁보건	-9.65731
▁사기	-9.65741
▁홍보	-9.65811
▁담배	-9.65836
▁마무리	-9.65861
▁개봉	-9.65869
▁수백명	-9.6588
▁구호	-9.65881
▁테	-9.65901
▁동시	-9.65926
ri	-9.65944
▁ID	-9.66097
▁실제	-9.66105
▁떠나	-9.66221
▁프로젝트	-9.66229
스러운	-9.6628
▁글	-9.66463
▁없어	-9.66572
▁기억	-9.66572
▁크리스토퍼	-9.66607
▁감축	-9.66612
▁산불	-9.6662
▁오랜	-9.66625
▁하며	-9.66654
▁조작	-9.66657
▁맞아	-9.66799
▁투입	-9.66802
링	-9.67035
▁집행	-9.67036
▁이밖에	-9.67394
▁처벌	-9.67396
▁샤리프	-9.67398
▁원자로	-9.67416
▁조금	-9.67448
절	-9.67456
▁단계	-9.67474
▁제출	-9.67484
▁re	-9.67526
▁의심	-9.67548
름	-9.67565
▁알게	-9.67566
▁능력	-9.67646
▁북한과	-9.67856
▁사무실	-9.67884
▁차지했다	-9.67885
▁완화	-9.6789
▁버	-9.67974
▁생	-9.67978
▁넣	-9.6799
▁애플	-9.68002
▁여왕	-9.68007
▁실시된	-9.68026
▁일에	-9.68081
▁중심	-9.68109
▁크리스마스	-9.68184
▁민병대	-9.68187
▁우크라이나	-9.68187
▁스피어스	-9.68216
▁알려지	-9.68257
▁내각	-9.68275
▁빠르	-9.68301
▁수천	-9.68306
▁증가했다	-9.68329
▁윌리엄스	-9.68346
ic	-9.68414
ment	-9.68421
▁수행	-9.68477
▁집에서	-9.68502
▁가족들	-9.68562
▁망명	-9.68627
▁둔	-9.68663
년	-9.68738
매	-9.68798
▁고래	-9.68809
▁만명이	-9.6881
준	-9.68836
자가	-9.68843
▁청와대	-9.68903
▁지배	-9.68911
▁폭풍	-9.68963
▁난민	-9.6897
▁IAEA	-9.68987
니다	-9.68993
▁보이고	-9.68994
▁대책	-9.69033
▁나타냈다	-9.6905
▁주년	-9.69078
▁한국은	-9.69109
▁그러	-9.69143
▁수정	-9.69157
▁목사	-9.69192
▁후보에	-9.69203
▁위기에	-9.69209
▁소장	-9.6928
ht	-9.69305
▁보좌관	-9.69359
왔다	-9.69446
▁의원이	-9.69476
▁조정	-9.69504
목	-9.69521
페	-9.69558
인지	-9.69601
▁넘어	-9.69623
▁부인했다	-9.69638
냐	-9.69653
▁속에	-9.69686
▁따	-9.69721
▁말레이시아	-9.69776
▁높다	-9.69794
▁무가베	-9.69794
▁일어난	-9.69795
▁CIA	-9.69797
▁배럴	-9.698
▁수백	-9.69803
▁날씨	-9.69849
▁영상	-9.69871
▁받기	-9.6992
▁시작된	-9.69955
하길	-9.6996
담	-9.7004
▁발생할	-9.70074
▁보안관	-9.70097
▁보장	-9.70109
▁블로그에	-9.70141
▁상황에서	-9.70167
승	-9.70268
▁그중	-9.70323
▁가수	-9.70368
▁현대	-9.70379
▁법률	-9.70467
▁이미지	-9.70493
▁네덜란드	-9.70607
▁찾기	-9.70607
▁MS	-9.70619
▁법적	-9.70655
▁치안	-9.70674
▁고려	-9.70705
▁말하고	-9.70759
▁근무	-9.70857
▁없었	-9.7088
▁중이다	-9.7092
입	-9.71078
▁그에게	-9.71087
족	-9.71109
▁월까지	-9.71111
싼	-9.71204
랑	-9.71275
번	-9.71343
▁부정	-9.7139
▁세르비아	-9.7141
▁먼저	-9.71431
▁스티브	-9.71432
D	-9.71433
▁약속했다	-9.71439
▁찬성	-9.71459
▁밀	-9.71592
tp	-9.71637
▁중국이	-9.71662
▁않겠다	-9.71678
▁목소리	-9.71696
ly	-9.71739
하였	-9.71754
▁확산	-9.71879
▁마감	-9.7188
▁구성된	-9.71897
▁보낸	-9.71991
▁장소	-9.72008
▁경찰과	-9.72021
▁어려	-9.7203
▁듯	-9.72046
▁위험한	-9.72157
▁등록	-9.72197
▁작가	-9.72258
▁하워드	-9.7226
▁cat	-9.7226
▁엄마	-9.7226
▁기후	-9.72304
만한	-9.72317
▁고든	-9.72375
▁나무	-9.7238
다른	-9.72389
▁프라이머리	-9.72455
▁허	-9.7248
▁의혹	-9.72496
▁기자회견	-9.72507
▁최신	-9.7254
▁방해	-9.72544
▁술	-9.72573
▁이용해	-9.72574
▁비상	-9.72628
▁수가	-9.72636
▁보이지	-9.72657
▁과학	-9.72768
겠다	-9.72892
▁협의	-9.72992
▁나섰다	-9.73086
▁규제	-9.73088
▁네팔	-9.73091
▁사례	-9.73108
▁대표팀	-9.73145
▁지급	-9.73185
▁시민들	-9.73205
▁마드리드	-9.73221
편	-9.73236
▁사용하는	-9.73254
▁폐	-9.73283
▁남성이	-9.73382
▁전자	-9.73512
▁수니파	-9.73539
▁긴	-9.73549
▁사상자	-9.73653
이지만	-9.73656
씩	-9.73731
▁머물	-9.7392
▁찾는	-9.73927
▁노대통령	-9.73932
▁후보로	-9.73993
▁미국인들	-9.74025
기간	-9.74048
▁떨어져	-9.74101
▁대단	-9.74115
▁대표단	-9.74117
▁다쳤다	-9.74176
▁않기	-9.74193
▁크기	-9.74276
▁권	-9.74364
빌	-9.74531
▁현장에	-9.74598
▁실시한	-9.74621
▁못할	-9.747
▁한미	-9.74721
▁쿠르드	-9.74768
▁North	-9.74774
▁캠프	-9.74774
▁침체	-9.74778
▁알려져	-9.74778
▁진입	-9.74783
▁교체	-9.74787
▁최소한	-9.74866
시킨	-9.74941
▁영향력	-9.74947
▁연구진	-9.74977
ation	-9.75081
▁홍수	-9.75236
▁대통령에게	-9.75335
▁증언	-9.75433
▁소지	-9.75503
볼	-9.75511
▁집계	-9.75538
▁시작됐다	-9.75563
▁축구	-9.75583
▁모하메드	-9.7563
시간	-9.75649
▁과정	-9.75653
▁아바스	-9.75663
▁분노	-9.75723
▁있는데	-9.75791
▁is	-9.75826
▁만들	-9.75875
▁태도	-9.75966
되면서	-9.76
▁촉구	-9.76108
us	-9.76115
m	-9.76127
▁명에	-9.76147
샤	-9.76297
▁테러로	-9.76347
▁출발	-9.76404
▁프리	-9.76479
▁웹사이트에	-9.76491
▁장난감	-9.76494
▁분위기	-9.765
▁구글	-9.76505
▁원조	-9.76572
▁인정했다	-9.76624
▁비자	-9.76629
▁만드는	-9.76716
k	-9.76774
▁시리즈	-9.76774
▁집권	-9.76814
광	-9.76849
▁향	-9.76918
▁니콜라	-9.76931
▁취임	-9.76954
▁나와	-9.76989
▁얼굴	-9.77015
▁하락했다	-9.77029
책	-9.7706
▁해당	-9.77166
▁주로	-9.77256
방송	-9.77263
▁경계	-9.77329
▁정확한	-9.77361
▁태풍	-9.77364
▁체	-9.77372
▁의한	-9.77377
▁없습니다	-9.77457
▁하다	-9.77512
▁경찰관	-9.77548
I	-9.77574
▁이끌	-9.77578
으면	-9.77595
▁추정되	-9.77704
▁말한	-9.77718
▁슈	-9.7772
천	-9.77731
▁당선자	-9.7776
▁얻었다	-9.77775
▁역사적	-9.77794
▁실제로	-9.77981
▁들었다	-9.78049
▁임	-9.7808
ra	-9.781
▁특사	-9.781
▁확신	-9.782
은행	-9.78219
▁저녁	-9.78238
▁FARC	-9.78238
▁피터	-9.78238
▁박물관	-9.78297
▁성인	-9.78357
▁당한	-9.7839
▁쉽게	-9.7844
▁민간	-9.78462
하려고	-9.7851
▁전문	-9.7854
열	-9.78714
▁투	-9.78933
▁남북한	-9.79018
▁부동산	-9.79024
▁축하	-9.79045
▁김정일	-9.79123
▁아르헨티나	-9.79123
▁테이프	-9.79123
▁소년	-9.79154
▁돼	-9.79186
▁도착했다	-9.79187
▁자신들이	-9.79196
▁등이	-9.79274
▁놀라	-9.79283
▁대체	-9.79296
▁아부	-9.79331
겠다고	-9.7936
▁송	-9.79367
▁캐	-9.79447
▁가격이	-9.79461
ational	-9.79607
▁세대	-9.79682
당국	-9.79774
▁소비	-9.79829
▁유사	-9.7988
▁지불	-9.79919
▁강도	-9.79944
▁토요일	-9.80015
▁말리키	-9.80016
▁콘돌	-9.80018
것	-9.80064
▁진행되	-9.80082
▁시대	-9.80145
▁중요하다	-9.80177
▁문제로	-9.80186
▁왕	-9.80195
▁후반	-9.802
▁떨어졌다	-9.80293
언	-9.80297
▁헤	-9.80331
▁사용할	-9.80387
▁상황에	-9.80431
예	-9.80576
th	-9.80634
플	-9.80645
▁살해한	-9.80665
까	-9.80691
▁보여	-9.80693
▁한국과	-9.80752
▁운전	-9.80784
▁연루	-9.80795
추	-9.80827
▁화성	-9.80836
해졌다	-9.80856
▁개입	-9.80907
씬	-9.80916
▁활용	-9.80923
▁타격	-9.80936
범	-9.80938
▁침해	-9.80948
▁형	-9.80957
▁신속	-9.80958
▁휴가	-9.8097
▁입국	-9.80995
▁총장	-9.81016
▁반발	-9.81016
▁백만	-9.81033
▁무사	-9.8114
▁만들었다	-9.81251
▁장치	-9.81269
▁영국에서	-9.81388
외	-9.81388
이라	-9.8148
▁미국에	-9.81509
▁제시	-9.81575
▁깊	-9.81661
▁오하이오	-9.817
▁징역	-9.81811
▁연락	-9.81838
국가	-9.81904
▁지출	-9.81908
▁웹	-9.81951
▁요	-9.8196
▁기타	-9.81971
▁시위자들	-9.82002
술	-9.82004
▁우주선	-9.82014
▁b	-9.82104
▁힐튼	-9.82111
▁숨	-9.82199
▁기구	-9.82245
▁연결	-9.82267
▁이곳에서	-9.82277
▁초기	-9.82318
말	-9.82364
▁창	-9.8244
▁경기에	-9.8249
리스	-9.825
▁맺	-9.82627
▁적용	-9.82653
▁지적	-9.82691
▁South	-9.82743
▁엘리자베스	-9.82743
▁드라마	-9.82744
▁검색어	-9.82789
결	-9.82804
▁참석한	-9.82808
▁않으면	-9.82822
▁물질	-9.82839
▁결혼식	-9.82841
현	-9.82952
▁영국군	-9.82968
▁평	-9.83007
▁태	-9.83024
▁c	-9.83074
▁아파트	-9.83086
▁복제	-9.83138
격	-9.83191
먼	-9.83202
▁어린	-9.83268
▁쉬	-9.83273
▁월드컵	-9.83306
▁당선	-9.83502
▁승무원	-9.83519
▁요구한	-9.83528
▁대처	-9.83558
▁토론	-9.8364
▁외교부	-9.83642
활동	-9.83649
▁국장	-9.83662
▁긍정적	-9.83669
▁페일린	-9.83669
▁협조	-9.83669
▁FTA	-9.83671
▁페르베	-9.8368
▁유럽연합	-9.8369
▁들어가	-9.83696
▁모른다	-9.83704
▁형성	-9.83726
▁환영	-9.83809
g	-9.83838
한다면	-9.83859
ur	-9.83902
▁해고	-9.83996
▁예방	-9.84006
▁보이	-9.84069
▁속에서	-9.84075
▁민	-9.84077
수가	-9.8408
▁자산	-9.84104
▁제외	-9.84226
▁인식	-9.8426
▁수용	-9.84316
▁없다는	-9.84325
블	-9.84337
했는지	-9.84354
▁요구하는	-9.84367
▁재정	-9.84418
살	-9.84431
▁방식	-9.84568
▁소프트웨어	-9.84603
▁열린우리당	-9.84603
▁결론	-9.84617
▁끝난	-9.84628
▁협정	-9.84668
▁원유	-9.84677
▁통화	-9.84682
▁대출	-9.84717
시설	-9.84797
▁클럽	-9.84956
▁일환	-9.84959
▁수반	-9.84999
렸	-9.85037
▁동맹	-9.85056
달	-9.85235
졌	-9.85235
▁국	-9.85238
▁일반적	-9.85279
▁오픈	-9.85399
▁공화당의	-9.85417
빈	-9.85499
▁현장에서	-9.8553
▁언제	-9.85539
▁싱가포르	-9.85547
▁잭슨	-9.85547
▁Iraq	-9.85547
▁매들린	-9.85547
▁리버풀	-9.85547
▁벌금	-9.85551
▁개정	-9.8556
▁토니	-9.85565
▁신용	-9.85581
▁갖추	-9.85584
▁귀국	-9.85592
▁저지	-9.85605
▁절반	-9.85626
▁조종사	-9.85677
▁방어	-9.85692
▁승	-9.85697
스타	-9.8572
▁체포된	-9.85904
▁임신	-9.85937
령	-9.85994
▁삼	-9.86057
▁소유	-9.86065
▁관	-9.861
▁울	-9.86233
레이	-9.86249
▁포함되어	-9.86343
▁범인	-9.86478
▁핵실험	-9.86502
▁사이클론	-9.86504
▁변경	-9.86517
▁신경	-9.86544
▁걸어	-9.86602
▁수감	-9.86643
▁선포	-9.86771
▁자격	-9.86771
▁총선에서	-9.86776
▁신뢰	-9.86783
▁이틀	-9.86834
▁고속도로	-9.86876
▁역	-9.86933
▁심리	-9.87039
▁되면	-9.87041
▁엔	-9.87098
▁조사하고	-9.87221
규	-9.87363
▁자살폭탄테러	-9.87457
▁뉴질랜드	-9.87461
▁CBS	-9.87461
▁CEO	-9.87464
▁론스타	-9.87464
▁케네디	-9.87465
▁축제	-9.87488
▁루이스	-9.87494
▁자연	-9.87494
▁나달	-9.87506
맨	-9.87527
▁이것이	-9.87566
▁공식적으로	-9.87572
▁금리	-9.87584
▁트럭	-9.87594
▁성화	-9.87622
▁충분	-9.87666
▁이들이	-9.87751
사건	-9.87899
▁속도	-9.8791
▁동의	-9.87926
▁부패	-9.87963
M	-9.87965
▁왔	-9.88064
▁한번	-9.8815
▁투자자들	-9.88381
▁빠져	-9.88432
▁캠페인	-9.88432
▁면	-9.88432
▁에이즈	-9.88449
▁지지하는	-9.88457
▁실행	-9.8846
▁헤럴드	-9.88496
▁압둘라	-9.88499
▁했	-9.88504
▁이해	-9.88516
▁예산	-9.88608
▁회사들	-9.88685
▁길이	-9.88691
▁세트	-9.88743
▁터키군	-9.88829
▁용의자들	-9.88849
▁재산	-9.88885
▁이르는	-9.88898
▁일어나	-9.88919
▁이혼	-9.88998
▁진정	-9.89037
▁지지율	-9.89084
▁대피	-9.89178
▁동원	-9.89214
ce	-9.89231
▁기자들	-9.89342
춘	-9.89366
▁with	-9.89412
▁우라늄	-9.89412
▁포르투갈	-9.89412
▁힘든	-9.89447
채	-9.89479
▁풀	-9.89522
▁층	-9.8953
▁중이라고	-9.89555
▁통합	-9.89557
▁포드	-9.89646
▁안보리	-9.89702
▁행진	-9.89719
▁곳으로	-9.8978
▁성공했다	-9.89813
▁지지자	-9.90003
합	-9.90018
율	-9.90058
▁지진으로	-9.90062
▁일본은	-9.90079
▁수십	-9.9019
ers	-9.90226
▁펜실베이니아	-9.90297
▁쥐	-9.90326
▁주고	-9.90359
▁휘발유	-9.90402
▁반기문	-9.90404
▁민주화	-9.90425
▁육군	-9.90427
▁드러났다	-9.9043
▁중국과	-9.90452
▁오르	-9.90513
▁올렸다	-9.90522
대한	-9.9069
▁진술	-9.90721
▁테러가	-9.90764
▁총리와	-9.9078
▁점령	-9.90839
▁직	-9.9101
▁중국에서	-9.91049
▁평화적	-9.91061
▁그린	-9.91093
▁철회	-9.91104
▁조사에서	-9.91105
▁회담에	-9.91206
변	-9.91223
▁당선인은	-9.91245
▁목	-9.9125
▁워싱턴에서	-9.91322
스터	-9.91368
▁근	-9.91397
▁PPP	-9.91402
▁kg	-9.91402
▁믿고	-9.91402
▁좋지	-9.91402
▁첼시	-9.91404
▁학살	-9.91405
▁로봇	-9.91409
▁폭행	-9.91413
▁나쁜	-9.91413
▁한국군	-9.91413
▁향후	-9.91414
▁소개	-9.91429
▁리비아	-9.91432
▁시드	-9.91435
▁학대	-9.91506
▁설립	-9.91511
▁가입	-9.91512
▁벨	-9.91531
▁본부	-9.91672
▁차관보	-9.91717
▁경선에서	-9.91893
▁행	-9.92028
▁아랍	-9.92154
▁집에	-9.92236
▁주일	-9.92297
▁휴전	-9.92411
▁얘기	-9.92412
▁답변	-9.92416
▁교황	-9.92427
▁입양	-9.92433
시장	-9.92439
▁센트	-9.9244
▁내린	-9.92443
골	-9.92468
▁해결하기	-9.92538
▁통치	-9.92564
▁개월간	-9.92624
▁목격자들	-9.92673
▁상품	-9.92698
R	-9.92709
▁학생들이	-9.92714
▁전면	-9.92812
▁외부	-9.92872
▁참	-9.92878
▁협회	-9.92933
습	-9.92967
▁포함해	-9.93056
▁지도부	-9.93125
▁필	-9.93159
▁밝혀	-9.93168
▁생명	-9.93227
머	-9.93286
▁중에는	-9.93288
▁해리포터	-9.93433
훨	-9.93433
▁국제유가	-9.93434
▁벌어진	-9.93436
▁불참	-9.93443
▁음모	-9.93446
▁선거운동	-9.93455
▁아카데미	-9.93459
▁반정부	-9.9348
랜드	-9.93537
▁잔해	-9.93549
▁편지	-9.93702
▁유리	-9.93884
▁가정	-9.93899
▁공개했다	-9.93916
B	-9.9398
▁차지	-9.93983
▁대의	-9.93986
한영	-9.9407
시키	-9.9415
항	-9.94208
통신	-9.94211
▁격	-9.94236
▁잡지	-9.94246
▁장비	-9.94258
창	-9.94461
▁콘서트	-9.94464
▁앨범	-9.94467
▁DNA	-9.94468
▁질환	-9.9447
▁방침	-9.94471
▁장식	-9.94477
▁가득	-9.94488
▁체니	-9.9453
▁신청	-9.94534
둔	-9.94553
▁선물	-9.94557
만에	-9.94668
▁손실	-9.94671
▁회담이	-9.94688
▁폐지	-9.94772
▁랭킹	-9.94783
톤	-9.94855
ol	-9.94864
▁응	-9.94864
클	-9.94871
▁향하	-9.95004
▁충분한	-9.95078
▁정부군	-9.95217
▁벌인	-9.95356
▁바다	-9.95376
▁예정이	-9.95381
▁맨체스터	-9.95504
▁화산	-9.95515
▁내에	-9.95538
▁영토	-9.9554
▁준	-9.95548
▁여기	-9.95553
▁기념	-9.95562
▁진행된	-9.95574
▁며칠	-9.9559
▁레이스	-9.9568
흐	-9.95702
▁요구하고	-9.95703
▁성향	-9.95746
▁의료진	-9.95786
▁의도	-9.95789
▁방법으로	-9.95979
▁수집	-9.95985
▁정신	-9.96008
▁바람	-9.96117
었고	-9.96148
▁킹	-9.96199
▁주장하는	-9.96316
▁접	-9.96336
▁짐	-9.96349
▁언급하지	-9.96378
▁매장	-9.96416
▁관광객들	-9.96475
앙	-9.96483
▁부활	-9.96555
▁무릎	-9.96558
▁페더러	-9.96558
▁맨유	-9.96566
▁기능	-9.96574
▁머	-9.96577
▁기업들	-9.96577
▁웨스트	-9.9659
▁특정	-9.9662
불	-9.96622
▁폭	-9.96637
▁못했	-9.96665
▁대북	-9.96687
▁콜	-9.96699
▁바그다드에서	-9.96723
▁것보다	-9.96764
▁계획에	-9.96775
▁밀란	-9.96783
H	-9.96828
쇼	-9.96849
▁이익	-9.96955
▁시절	-9.96963
▁보상	-9.96981
서는	-9.97207
필드	-9.97216
▁방지	-9.97218
▁터	-9.9722
▁방문할	-9.97257
▁레이	-9.97416
▁지도	-9.97495
▁대통령에	-9.97552
▁이메일	-9.97622
▁다르푸르	-9.97622
▁대다수	-9.97625
▁다니	-9.97633
▁접속	-9.97635
▁강경	-9.97691
▁회원국	-9.97695
▁자기	-9.97797
▁니	-9.97891
▁죽	-9.97891
▁평양	-9.97891
▁합	-9.97907
▁혹	-9.9791
정책	-9.97951
▁대결	-9.9796
▁기도	-9.98052
탈	-9.9811
▁이스라엘과	-9.98132
▁성과	-9.98149
▁파타	-9.98154
▁유가	-9.9822
▁노동자	-9.98223
독	-9.9825
▁고객	-9.98294
▁척	-9.98322
▁장군	-9.98327
▁소니	-9.98375
▁존재	-9.9845
때	-9.98604
▁이웃	-9.98632
▁사드르	-9.98695
▁밖으로	-9.98697
▁헤즈볼라	-9.98697
▁세계대전	-9.98697
▁영변	-9.98705
▁리콜	-9.98706
▁야생	-9.98711
▁폭우	-9.98724
달하는	-9.98746
▁방문했다	-9.98754
▁생각하고	-9.98822
▁다이아몬드	-9.98828
▁원하는	-9.98832
▁협상이	-9.98861
▁크리스	-9.98875
장에서	-9.98893
레스	-9.989
▁잃었다	-9.99004
▁서명	-9.99008
▁주는	-9.99019
조치	-9.99027
힐	-9.99039
▁적절한	-9.99043
▁존슨	-9.99049
▁생존	-9.99065
▁지하	-9.99111
지에	-9.99206
▁t	-9.99234
▁마이크	-9.99243
▁f	-9.99339
▁w	-9.99397
▁뛰어	-9.99481
▁모습이	-9.99499
▁스티븐	-9.9953
립	-9.99602
▁장관이	-9.99615
▁지키	-9.9974
▁이번주	-9.99742
▁아이들이	-9.99743
▁멸종	-9.99783
▁온난화	-9.99784
므로	-9.99795
▁마틴	-9.99806
▁진실	-9.9981
▁출시	-9.99815
▁잠시	-9.99889
▁밖에서	-9.9993
▁아일랜드	-9.99958
▁취할	-10.0001
▁빅	-10.0002
낼	-10.0004
▁생존자	-10.0008
▁발표된	-10.0009
▁상어	-10.0013
et	-10.0016
▁모양	-10.0024
▁분야	-10.0024
▁힘들	-10.0024
쯤	-10.0035
▁강조	-10.004
해지	-10.0046
▁나서	-10.0054
▁이스라엘군	-10.0066
▁질병	-10.0078
▁태평양	-10.0088
▁현지시각	-10.0088
▁NBC	-10.0089
▁내전	-10.009
▁포기	-10.0091
▁버마	-10.0092
▁심문	-10.0093
지르	-10.0095
▁내용이	-10.0097
▁경찰서장	-10.0098
▁목격자	-10.0101
▁의무	-10.011
▁바라고	-10.0111
찬	-10.0112
▁심각	-10.0113
▁말합니다	-10.0123
원들	-10.0138
▁말라	-10.0141
im	-10.0143
el	-10.0157
▁논란	-10.0157
▁올랐	-10.0161
▁차드	-10.0166
▁예상했다	-10.0167
▁억류	-10.0178
▁제도	-10.0189
▁보면	-10.0192
▁기준	-10.0195
웰	-10.0198
▁쿠데타	-10.0199
▁갑자	-10.02
▁체결	-10.0201
▁우선	-10.0203
▁보였	-10.0203
▁h	-10.0204
▁서방	-10.0205
▁공중	-10.0206
▁밑	-10.0209
▁경보	-10.0214
▁가자	-10.0216
▁전망이	-10.0226
▁사건과	-10.0227
축	-10.0261
▁음반	-10.0282
킬	-10.0286
ies	-10.0288
▁스테	-10.0289
▁둘	-10.0296
으	-10.0302
▁찾고	-10.0312
▁일주일	-10.0313
▁공공	-10.0315
▁핵시설	-10.0316
▁수백만	-10.0316
▁보통	-10.0317
▁사건으로	-10.0319
▁구제	-10.0324
▁담당자	-10.0334
놓고	-10.0342
▁아래	-10.0346
il	-10.0352
겐	-10.0353
▁입원	-10.0355
▁인하	-10.0365
▁선박	-10.0371
▁사실상	-10.0378
▁가까이	-10.0378
▁공격이	-10.0383
▁보고했다	-10.0391
▁대부분이	-10.0398
자로	-10.0403
▁묻	-10.0412
▁현재까지	-10.0417
관리	-10.0423
죠	-10.0425
▁달라이라마	-10.0425
▁이렇게	-10.0425
▁훌륭	-10.0425
▁파운드	-10.0425
▁복구	-10.0427
▁의식	-10.0427
▁격차	-10.0428
▁수요	-10.0428
▁일리노이주	-10.0432
▁베트남	-10.0436
▁원제	-10.0441
▁달성	-10.0448
▁돌아가	-10.0454
▁브	-10.0454
▁만날	-10.0455
취	-10.046
▁부문	-10.0465
▁일본에서	-10.0468
섬	-10.0471
▁화	-10.0472
v	-10.0477
▁원한다	-10.048
▁교	-10.0482
F	-10.0484
▁케	-10.0487
▁처	-10.0505
▁되기	-10.0509
▁외교적	-10.051
▁톤	-10.0513
들어	-10.0515
리는	-10.0516
▁줄어들	-10.0517
슈	-10.0517
L	-10.0519
▁업계	-10.0523
▁조사에	-10.0526
▁전반	-10.0534
ro	-10.0537
킨	-10.0539
▁흡연	-10.054
▁나이지리아	-10.054
▁카르자이	-10.054
▁교환	-10.0541
▁최선	-10.0543
▁동반	-10.0543
▁걸릴	-10.0545
▁신임	-10.0547
▁치러진	-10.0548
▁심슨	-10.0558
▁사용되	-10.0559
▁요원	-10.056
▁노출	-10.0564
▁수감자	-10.0566
연합	-10.0571
▁신호	-10.0576
▁벤	-10.0578
성이	-10.0579
▁환자들	-10.0584
만큼	-10.0586
▁빛	-10.0586
손	-10.0586
▁된다고	-10.0592
▁가구	-10.0592
▁제안했다	-10.0597
▁대상	-10.0605
▁남아	-10.0609
▁교도소	-10.0609
▁투어	-10.0614
장이	-10.0618
사를	-10.0621
▁일본이	-10.0627
▁실시되	-10.0632
▁차전	-10.0642
▁광산	-10.0645
겠	-10.0646
▁입었	-10.0648
▁다우존스	-10.0657
▁에드워즈	-10.0657
▁라운드	-10.0657
▁설득	-10.0657
▁재무장관	-10.0657
▁폭동	-10.0658
사는	-10.0661
▁시작한	-10.0663
▁느끼	-10.0667
▁검색	-10.0676
▁각국	-10.0678
봉	-10.0697
▁있어서	-10.0704
불어	-10.0714
▁본사	-10.0716
▁다우	-10.0721
▁사인	-10.0727
▁국제적	-10.0735
▁절	-10.0739
▁근거	-10.0742
▁동물원	-10.0744
▁소환	-10.0749
▁AC	-10.0764
▁시장에서	-10.0773
▁노력하고	-10.0774
▁오스트리아	-10.0774
▁덴마크	-10.0774
▁복잡	-10.0774
▁단순	-10.0775
▁국왕	-10.0777
▁시위에	-10.0778
▁폐기	-10.0793
▁소수	-10.0797
▁프로	-10.0803
되면	-10.0807
쳤다	-10.0815
돌	-10.0822
▁이하	-10.0834
▁철도	-10.0838
▁그와	-10.0839
▁감정	-10.0841
▁목적으로	-10.0855
▁지진이	-10.087
▁모인	-10.0875
▁하게	-10.0875
A	-10.0879
▁증명	-10.088
▁지휘	-10.0885
▁영화제	-10.0885
했음	-10.0888
▁그것이	-10.0889
▁맞서	-10.0892
▁누군가	-10.0893
▁cm	-10.0894
▁봄	-10.0895
▁기존	-10.0895
▁성관계	-10.0896
▁매각	-10.0897
▁책임자	-10.0897
▁부담	-10.0897
▁소설	-10.0898
▁카드	-10.0902
▁삼성	-10.0903
▁북측	-10.0904
▁팬	-10.0909
▁차관	-10.0911
▁전투기	-10.0912
▁군인들	-10.0913
▁복용	-10.0915
▁주인공	-10.0919
▁웃	-10.0921
라도	-10.093
▁지연	-10.094
엘	-10.0944
▁합동	-10.0951
▁대기	-10.0955
▁사전	-10.0966
▁상점	-10.0973
▁깨	-10.0984
있	-10.0984
▁주기	-10.0991
▁계속되고	-10.0994
관계	-10.1001
▁서울에서	-10.1004
▁당신이	-10.1008
스키	-10.1009
후드	-10.1009
셔	-10.101
▁광	-10.1011
▁티	-10.1011
빠진	-10.1013
▁Japan	-10.1014
▁방글라데시	-10.1014
▁주한미군	-10.1014
▁고등학교	-10.1014
▁농축	-10.1014
▁마카오	-10.1014
▁칠레	-10.1015
▁새끼	-10.1015
▁커피	-10.1017
▁도입	-10.1018
▁식	-10.1019
▁상승했다	-10.1021
▁공산당	-10.1022
려고	-10.1024
칠	-10.1038
자와	-10.1043
ate	-10.1045
▁내릴	-10.1051
▁대답	-10.1056
▁부근에서	-10.1061
▁휴	-10.1061
들도	-10.1063
▁늘	-10.1064
▁청소년	-10.1067
이어	-10.1072
▁부르	-10.1074
▁마르	-10.1084
▁수용소	-10.1091
▁그림	-10.1098
▁거절	-10.1098
려는	-10.1104
▁즉각적	-10.1105
▁기본	-10.1105
▁어린이들	-10.1112
▁지시	-10.1114
▁됩니다	-10.1122
랄	-10.1129
기관	-10.1133
▁경기장	-10.1134
▁스웨덴	-10.1136
▁네트워크	-10.1136
▁will	-10.1136
▁순방	-10.1137
▁남아공	-10.1137
▁검거	-10.1137
▁해병대	-10.1141
▁발병	-10.1141
▁상처	-10.1141
▁사담	-10.1141
▁불안	-10.1141
▁부여	-10.1146
▁예비	-10.1147
▁따라서	-10.1148
▁점차	-10.1149
▁보수	-10.1151
▁달라	-10.1158
▁조성	-10.1175
▁국회의원	-10.1178
순	-10.1179
▁건의	-10.1185
▁세우	-10.1186
▁회원	-10.1196
대에	-10.1206
▁전날	-10.1207
▁체제	-10.1215
▁악화	-10.1217
▁표시	-10.122
▁벌였	-10.122
▁기반	-10.1224
▁장애	-10.1227
▁추적	-10.1233
▁구입	-10.1237
▁둘러	-10.1245
▁승리했다	-10.1246
▁내놓	-10.1247
▁공항에서	-10.1249
▁자리에서	-10.1253
▁왕세자	-10.1255
▁혜택	-10.1259
▁습격	-10.1259
▁카스트로	-10.1259
▁다니엘	-10.126
▁증가하고	-10.126
▁덮	-10.126
▁극복	-10.1261
▁탐사	-10.1263
▁테러리스트	-10.1263
▁그래서	-10.1263
▁보관	-10.1265
▁유감	-10.1265
▁의지	-10.1266
▁무력	-10.1268
▁분명히	-10.127
았	-10.1271
▁이뤄지	-10.1273
▁행성	-10.1274
▁말까지	-10.1277
▁공격에	-10.1283
▁개방	-10.1286
▁사살	-10.1287
▁시내	-10.1291
▁많다	-10.1301
계획	-10.1324
ia	-10.1325
▁기다리고	-10.1326
왔	-10.1326
▁오브	-10.1327
▁의회에	-10.1333
▁반군이	-10.1339
▁나갈	-10.1343
▁주석	-10.1354
▁저항	-10.1357
▁무대	-10.1359
듯	-10.136
▁손상	-10.1361
▁실종	-10.1362
ver	-10.1367
문제	-10.1379
▁바이	-10.1382
북	-10.1383
▁희생자들	-10.1384
▁IOC	-10.1384
▁UEFA	-10.1384
▁챔피언스리그	-10.1384
▁겨울	-10.1385
로운	-10.1386
▁이중	-10.1388
▁페루	-10.1388
▁가옥	-10.1389
▁무료	-10.1389
▁구출	-10.1391
▁파산	-10.1395
웠다	-10.1397
영한	-10.1405
▁올린	-10.1409
▁색	-10.1409
▁명단	-10.1412
▁수감자들	-10.1416
▁잇	-10.1416
▁고발	-10.1419
했기	-10.1435
렛	-10.1439
드시	-10.1442
▁펜	-10.1447
▁공원	-10.145
▁허락	-10.1456
시켰	-10.1462
영화	-10.1467
▁유치	-10.1479
▁수상자	-10.1482
▁그동안	-10.1483
▁잔	-10.1491
▁의회에서	-10.1508
시아	-10.1508
▁붉은	-10.151
▁원문기사	-10.1511
▁정확히	-10.1511
▁파예드	-10.1511
▁완벽	-10.1511
▁운송	-10.1511
▁북동부	-10.1512
▁알래스카	-10.1512
▁노예	-10.1515
▁소식이	-10.1515
▁운영하	-10.1523
▁초점	-10.1525
▁열대	-10.1525
▁권한	-10.153
선수	-10.1535
▁조원	-10.154
▁가졌	-10.1541
▁찬	-10.1544
▁주지	-10.1545
▁지켜	-10.1548
▁사라	-10.1552
▁고대	-10.1555
▁못하는	-10.1564
▁하면	-10.1569
사가	-10.157
▁모여	-10.1571
▁기독교	-10.1579
▁경매	-10.1589
▁베이징에서	-10.159
▁연구원	-10.1599
드는	-10.1599
▁선언했다	-10.1602
▁낸	-10.1609
ac	-10.1617
▁만일	-10.1632
▁있다면	-10.1636
▁블랙	-10.1639
▁활주로	-10.1639
▁숫자	-10.1639
▁심지어	-10.1639
▁철저	-10.164
▁크루즈	-10.164
▁민감	-10.1641
▁자극	-10.1642
▁거뒀다	-10.1647
인들이	-10.1653
ot	-10.1654
▁이사	-10.1656
▁진화	-10.1658
▁의사들	-10.1669
▁고향	-10.1671
▁유전자	-10.1671
▁식품	-10.1672
▁형태	-10.1674
▁Ro	-10.1675
▁공화국	-10.1676
▁제공하는	-10.168
▁운항	-10.1681
▁샌프란시스코	-10.1687
▁거부했다	-10.1688
▁체계	-10.1691
▁의회의	-10.1693
▁얻기	-10.1695
▁결정에	-10.17
숙	-10.1714
▁분명	-10.1717
항공	-10.1737
운동	-10.1748
▁곳이	-10.175
▁중지	-10.1752
▁스리랑카	-10.1762
▁중부	-10.1769
▁FRB	-10.1769
▁NATO	-10.1769
▁마찬가지	-10.1769
▁폴란드	-10.1769
▁레알	-10.177
▁커플	-10.177
▁철군	-10.1772
▁입증	-10.1772
▁분열	-10.1775
▁현금	-10.1777
▁보고서에서	-10.1782
▁실패했다	-10.1789
들로	-10.1794
행위	-10.1797
▁탈출	-10.1803
▁군정	-10.1809
자는	-10.1816
▁타이	-10.1816
▁대선에서	-10.1822
▁빙하	-10.1832
▁수영	-10.1832
악	-10.1839
애	-10.184
▁경영	-10.1841
ity	-10.1842
▁PC	-10.1842
▁부정적	-10.1843
▁한국에서	-10.1844
W	-10.185
▁곡	-10.1862
▁생각하는	-10.1864
▁이양	-10.1882
▁야기	-10.1884
▁방향	-10.1885
▁중독	-10.1898
▁파악	-10.1898
▁사망했	-10.19
▁사우디아라비아	-10.19
▁에어버스	-10.1901
▁절대	-10.1903
▁보여줬다	-10.1904
▁현상	-10.1906
▁소요	-10.1907
▁서신	-10.1907
▁공포	-10.1908
▁안에서	-10.191
▁견해	-10.191
▁호세	-10.1913
해줄	-10.1917
▁뼈	-10.1919
▁이주	-10.1923
▁늘어	-10.1929
▁싸움	-10.1929
▁독	-10.1932
▁이곳에	-10.1934
▁폭탄이	-10.194
▁답	-10.1941
▁만난	-10.1945
▁보인다고	-10.1949
▁공유	-10.195
▁보안군	-10.1952
▁혁명	-10.1954
▁신체	-10.1963
▁선거에	-10.1965
▁전개	-10.1969
▁납치된	-10.1972
▁뉴욕에서	-10.1974
ry	-10.1977
공격	-10.1983
▁강요	-10.1987
ter	-10.1991
▁유나이티드	-10.1995
▁외교관	-10.1996
▁폭격	-10.2014
▁챔피언	-10.202
▁노벨	-10.2028
▁태양	-10.2033
▁잃은	-10.2034
▁크라이슬러	-10.2034
▁토마스	-10.2034
▁관찰	-10.2034
▁아이디어	-10.2035
당한	-10.2039
틀	-10.2041
▁신발	-10.2042
▁실종된	-10.2049
▁살아	-10.2054
▁발간	-10.2054
▁캘리포니아주	-10.2057
ir	-10.2068
환	-10.207
▁런던에서	-10.2071
▁달간	-10.2075
▁린	-10.2078
▁고립	-10.2083
시키려	-10.2088
▁증권	-10.2091
▁좋아	-10.2095
▁대회에서	-10.2097
▁라이트	-10.21
▁베이	-10.21
▁기대하고	-10.2102
cle	-10.2102
▁수업	-10.2109
올	-10.2114
벌	-10.2117
딘	-10.212
▁시장에	-10.2129
▁여자친구	-10.213
▁법정	-10.2131
▁방송국	-10.2134
▁값	-10.2141
률	-10.2146
▁계속되	-10.2154
▁라스베이거스	-10.2169
▁맞춰	-10.2169
▁동티모르	-10.2169
▁쓰나미	-10.2169
▁리조트	-10.2169
▁타이틀	-10.2169
션	-10.2169
▁생긴	-10.2171
▁형제	-10.2174
▁인생	-10.2175
▁발생하지	-10.2178
▁세계은행	-10.2179
▁중순	-10.2185
▁피해가	-10.2187
▁대량	-10.2189
겨	-10.2189
▁무선	-10.219
▁안전한	-10.2195
▁경제에	-10.2195
상태	-10.2196
▁받아야	-10.2199
▁콩고	-10.2204
누	-10.2207
▁이사회	-10.2213
▁분간	-10.2221
▁근처	-10.2221
도시	-10.2222
▁하던	-10.2226
▁수상했다	-10.2235
해주	-10.2241
▁재단	-10.2242
수록	-10.2245
▁데이	-10.2247
뿐	-10.2249
▁년이	-10.2252
례	-10.2252
▁만화	-10.2253
▁오염	-10.2256
▁해변	-10.2261
▁중요	-10.2262
▁사회적	-10.2285
▁이송	-10.2285
▁감독이	-10.2287
▁거두	-10.2295
▁GM	-10.2295
▁성화봉송	-10.2296
▁일리노이	-10.2298
더라	-10.2302
▁불러	-10.2306
▁김대중	-10.2306
▁엄격	-10.2306
▁논평	-10.2306
▁첫번째	-10.2306
▁앞에	-10.2308
▁은퇴	-10.2308
▁하원의원	-10.2308
▁성공적	-10.231
▁회동	-10.231
▁돌아오	-10.2311
▁두바이	-10.2311
▁모기지	-10.2312
▁바르셀로나	-10.2312
▁구금	-10.2313
▁예전	-10.2316
▁높아지	-10.2318
▁교사	-10.2319
▁기계	-10.2319
▁금요일	-10.2321
▁총격전	-10.2322
▁케리	-10.2325
▁갖게	-10.2328
▁난사	-10.2329
▁한때	-10.2331
▁누리	-10.2334
▁보낼	-10.2341
▁신부	-10.2346
▁표했다	-10.2354
▁클린턴이	-10.2357
낸	-10.2361
▁시청	-10.2365
▁지시했다	-10.2368
▁명에게	-10.2378
▁측근	-10.2388
▁이스라엘이	-10.2389
▁봤다	-10.2391
▁승리한	-10.2392
컵	-10.2397
▁출석	-10.2399
▁세상	-10.24
▁진전	-10.2401
▁끌어	-10.2407
▁과학자	-10.2412
▁주제	-10.2413
un	-10.2418
▁an	-10.2421
▁리그	-10.2422
지수	-10.2429
▁나누	-10.2434
▁넓	-10.2435
▁것이고	-10.2442
▁중대	-10.2444
▁WHO	-10.2445
▁태어난	-10.2445
▁외환은행	-10.2445
▁책임이	-10.2445
▁데이터	-10.2447
▁디자인	-10.2447
▁채택	-10.2447
▁확실	-10.2448
▁불편	-10.2448
▁헨리	-10.2448
▁단속	-10.2448
▁우리나라	-10.2449
▁유력	-10.2453
▁지역으로	-10.2453
▁항소	-10.2454
▁전역	-10.2456
▁케이블	-10.2457
▁본선	-10.2457
▁중국에	-10.2466
▁기상	-10.2466
▁사용한	-10.2466
▁위조	-10.2467
▁만들어진	-10.2467
개발	-10.2467
▁보유하고	-10.247
▁불길	-10.2472
▁보유	-10.2478
▁하와이	-10.248
▁회의에서	-10.2484
▁보트	-10.2486
▁대학교	-10.2489
▁얻어	-10.249
▁주한	-10.2495
▁니콜	-10.2503
▁뿐만	-10.2506
▁가는	-10.251
▁바라	-10.2516
▁빚	-10.2527
▁회견	-10.2529
▁이라크와	-10.253
우스	-10.2531
▁도시에서	-10.2538
▁의미한다	-10.254
▁호텔에서	-10.2545
▁지속	-10.2548
▁인류	-10.255
▁훼손	-10.2553
송	-10.2556
▁추방	-10.2567
▁아이오와	-10.2578
▁떠	-10.258
▁강타	-10.2581
▁프로그램에	-10.2581
▁달러로	-10.2583
▁거쳐	-10.2583
▁다수	-10.2584
▁요르단	-10.2584
▁외교통상부	-10.2585
▁앓고	-10.2586
▁휴대전화	-10.2586
▁섹스	-10.2586
▁면담	-10.2587
▁ABC	-10.2587
▁해결책	-10.2589
▁신중	-10.2595
▁방화	-10.2596
▁마쳤다	-10.2596
▁오늘날	-10.2596
▁개표	-10.2598
▁여권	-10.2599
▁간단	-10.26
▁아메리칸	-10.26
▁가했다	-10.2601
▁상태에	-10.2602
▁의석	-10.261
▁주장에	-10.2613
▁여성의	-10.2616
▁예수	-10.2619
▁몰	-10.262
조차	-10.2621
▁에도	-10.2621
▁천만	-10.2623
um	-10.2626
▁응답자	-10.2644
▁전쟁에	-10.2645
▁명예	-10.2646
슬	-10.265
▁공간	-10.2651
▁악	-10.2654
랜	-10.2661
▁이끌어	-10.2663
▁물건	-10.2668
▁민주	-10.2668
드라	-10.267
자들에게	-10.2671
▁분리	-10.2671
▁경쟁자	-10.2673
폭	-10.2673
하고자	-10.2674
안에	-10.2674
▁고어	-10.2675
ist	-10.2677
쳤	-10.2678
▁죽은	-10.2683
젠	-10.2686
▁비교	-10.2692
▁발생하는	-10.2693
기가	-10.2694
뿐만	-10.27
전에	-10.2712
▁주목	-10.2714
켓	-10.2719
혜	-10.2722
▁플레이	-10.2723
j	-10.2726
▁협박	-10.2728
▁가슴	-10.2728
▁불능화	-10.2728
▁찾을	-10.2728
▁격렬	-10.2729
▁급등	-10.273
▁홀	-10.2731
▁종류	-10.2732
▁무죄	-10.2733
▁참석했다	-10.2735
▁발전소	-10.2744
▁획득	-10.2745
▁크리스티	-10.2747
▁추정된다	-10.2751
익	-10.276
▁시에	-10.2762
▁것이었다	-10.2765
극	-10.2771
▁at	-10.2776
▁제대	-10.2776
▁부과	-10.2779
▁국민들에게	-10.278
▁아동	-10.278
▁논란이	-10.2784
▁한국에	-10.2785
▁당수	-10.2787
스톤	-10.2796
▁백인	-10.2802
▁지속적	-10.2806
▁혐의에	-10.2806
▁우리당	-10.2807
▁비용이	-10.2813
▁못한다	-10.2826
▁동성애자	-10.2829
희	-10.283
완	-10.283
la	-10.2834
▁취	-10.2834
▁표명	-10.2835
▁미국측	-10.2842
▁이후로	-10.2845
▁끼	-10.2845
▁이행	-10.285
▁중재	-10.2852
스와	-10.2854
▁벗어나	-10.2863
닝	-10.2869
▁코미디	-10.2873
짝	-10.2873
▁스코틀랜드	-10.2873
▁일으킨	-10.2873
▁와인하우스	-10.2874
▁President	-10.2874
▁plan	-10.2874
▁송환	-10.2874
▁저지른	-10.2875
▁나올	-10.2878
▁낸시	-10.2881
▁법원에	-10.2884
▁요소	-10.2884
릭	-10.2885
▁펼쳤다	-10.2886
백	-10.2888
세력	-10.289
▁폭스	-10.2891
▁순위	-10.2895
▁업무	-10.2902
▁자원	-10.2909
견	-10.2911
▁계	-10.2912
▁이내	-10.2916
▁nu	-10.2918
어야	-10.292
▁방영	-10.2921
이기	-10.2931
▁순찰	-10.2933
ial	-10.2937
▁물가	-10.2942
▁돌아	-10.2946
▁보지	-10.2946
▁얼음	-10.2953
▁식당	-10.2961
▁행복	-10.2962
▁단체들	-10.2966
▁폭발물	-10.2967
▁기금	-10.2973
▁국방	-10.2978
▁만개	-10.2978
▁불가능	-10.2986
산업	-10.2986
▁지목	-10.2989
상황	-10.2989
▁사망자수	-10.2995
거래	-10.2995
자금	-10.2998
▁주인	-10.3001
▁사용자	-10.3007
▁엄청	-10.3007
▁제기했다	-10.3009
▁리처드	-10.3016
틴	-10.3016
▁못해	-10.3017
is	-10.3018
▁곤잘레스	-10.302
▁블라고예비치	-10.302
▁블라디미	-10.302
▁오사마빈라덴	-10.302
▁합병	-10.3021
▁임금	-10.3022
▁고위관리	-10.3022
▁테스트	-10.3023
▁시기에	-10.3029
▁이루어졌다	-10.303
▁쓴	-10.3033
주의자	-10.3035
▁메일	-10.3036
▁홈	-10.3037
▁방법이	-10.3043
▁적극적	-10.3045
▁죄	-10.3049
▁답했다	-10.3052
▁델	-10.3054
▁코트	-10.3063
▁세포	-10.3065
▁황	-10.3071
▁의문	-10.3072
▁봉쇄	-10.3078
▁주문	-10.3083
▁후보들	-10.3091
▁전해	-10.3096
대학	-10.3096
▁수퍼	-10.3097
▁마감했다	-10.31
총	-10.3103
▁경찰서	-10.3123
▁초대	-10.3125
덴	-10.3129
▁나타내	-10.3133
▁이라크군	-10.3139
▁몰아	-10.314
est	-10.3144
트리	-10.3147
U	-10.315
경제	-10.3157
없이	-10.3157
▁푸	-10.3161
▁시점	-10.3165
▁취재	-10.3167
▁작동	-10.3168
▁개장	-10.3168
▁선거캠프	-10.317
▁북서부	-10.317
▁분석가	-10.317
▁화장실	-10.3171
▁숀	-10.3171
▁부총리	-10.3172
▁사막	-10.3173
▁노동당	-10.3176
▁상공	-10.318
▁해양	-10.318
▁그리	-10.319
▁화해	-10.3191
▁전환	-10.3193
밀	-10.3194
▁병사들	-10.32
▁만났다	-10.3205
▁독도	-10.3211
▁작	-10.3212
▁재건	-10.322
▁전원	-10.3232
달라고	-10.3233
▁스키	-10.3241
▁하늘	-10.3249
▁비판했다	-10.3254
▁아프가니스탄에서	-10.3259
▁발언에	-10.3266
월	-10.3267
막	-10.3277
람	-10.3281
▁워	-10.3284
▁짓	-10.3284
▁인종	-10.3285
암	-10.329
▁자사	-10.3295
▁우주비행사	-10.3296
▁백악관에서	-10.3301
▁문제들	-10.3305
▁목격	-10.331
▁압둘	-10.3311
펠	-10.3312
▁조기	-10.3312
▁시티	-10.3315
age	-10.3316
▁건축	-10.3318
▁나스닥	-10.3321
▁샤라포바	-10.3321
▁리히터	-10.3321
▁리차드	-10.3321
▁복무	-10.3321
▁패트릭	-10.3322
글	-10.3322
▁핵프로그램	-10.3322
▁직업	-10.3323
▁다윈	-10.3323
▁왕실	-10.3324
▁강풍	-10.3324
▁진영	-10.3324
▁언어	-10.3328
▁배경	-10.333
▁전세계적으로	-10.3334
▁생각했다	-10.3336
▁직전	-10.3336
▁스타일	-10.334
▁들어갔다	-10.3341
▁해임	-10.3344
▁차단	-10.3344
▁아니었다	-10.3348
▁자유롭	-10.3348
▁단어	-10.3352
▁정신적	-10.3353
움	-10.3357
▁록	-10.3358
▁시민들이	-10.3361
▁중간	-10.3374
▁자제	-10.3378
▁비치	-10.3379
▁이르	-10.3379
히려	-10.3383
▁대상이	-10.339
▁합류	-10.3399
P	-10.3412
se	-10.3414
▁윌	-10.3415
▁세인	-10.3419
▁리드	-10.3421
▁환	-10.3428
▁라이	-10.3434
▁트리	-10.3445
▁공개된	-10.3448
▁맡은	-10.3449
▁골프	-10.3453
▁전역에	-10.3454
▁열어	-10.346
▁붙	-10.3461
▁이루	-10.3464
▁그렇지	-10.3467
에만	-10.3474
▁디즈니	-10.3475
▁캄보디아	-10.3475
▁받아들일	-10.3475
▁남서부	-10.3475
▁둘러싸	-10.3475
▁영웅	-10.3476
▁케빈	-10.3476
▁원칙	-10.3476
▁불과	-10.3478
▁축소	-10.3478
▁뒤에	-10.3482
▁보복	-10.3482
▁법무부	-10.3483
▁공모	-10.3486
▁공개적으로	-10.3488
▁수십명	-10.3489
▁완전한	-10.3493
▁천명	-10.3494
▁유럽의	-10.3494
▁논의하기	-10.3508
▁탈	-10.351
▁보호하기	-10.3511
▁법안이	-10.3513
▁즉각	-10.3517
▁불구	-10.3518
▁탐	-10.3524
▁가능하다	-10.3528
적이	-10.3528
▁장례식	-10.3536
▁측정	-10.3538
▁폭락	-10.3539
▁삭제	-10.3545
▁공항에	-10.3545
▁자신에게	-10.355
w	-10.3552
▁거리에	-10.3553
▁대치	-10.3561
▁시드니	-10.3561
▁청	-10.3563
▁무엇	-10.3569
▁인근에	-10.3571
▁진술했다	-10.3573
▁숨졌	-10.358
▁농	-10.3589
ive	-10.3592
▁시장이	-10.3593
▁해적	-10.3593
▁의학	-10.3596
풍	-10.3597
▁출동	-10.3598
▁오바마와	-10.3615
▁말해	-10.3616
▁패션	-10.363
▁마이애미	-10.3631
▁비타민	-10.3631
▁알코올	-10.3631
▁중앙일보	-10.3631
됨	-10.3631
한글뉴스	-10.3631
▁디지털	-10.3631
▁가택연금	-10.3631
▁호랑이	-10.3631
▁거듭	-10.3632
▁활약	-10.3632
텔	-10.3632
▁자치정부	-10.3632
▁라이벌	-10.3632
▁다우지수	-10.3632
▁보는	-10.3632
▁산사태	-10.3633
▁새벽	-10.3633
▁들여	-10.3638
▁계획은	-10.3638
▁천재	-10.3638
▁취임식	-10.3638
▁만들고	-10.3639
▁조류	-10.3641
▁회사가	-10.3643
▁한국이	-10.3645
▁쌀	-10.3648
▁맥주	-10.3649
드리	-10.365
▁떠났다	-10.3651
▁해산	-10.3651
▁타임스	-10.3652
▁채널	-10.3652
▁유대인	-10.3654
▁달려	-10.3658
▁감염된	-10.3659
▁우리에게	-10.3663
▁이론	-10.3663
짜리	-10.3668
▁소문	-10.367
제를	-10.3675
▁주위	-10.3676
▁영장	-10.368
▁직장	-10.3681
▁지내	-10.3686
▁전부터	-10.3689
▁de	-10.3691
▁잡고	-10.3692
다시	-10.3699
염	-10.3701
▁증가한	-10.3708
▁평가했다	-10.3709
▁동쪽	-10.3711
아야	-10.3713
▁모스크바	-10.3724
철	-10.3725
▁as	-10.3729
녀	-10.3731
▁싶어	-10.3734
▁했었다	-10.3734
▁주었다	-10.3736
기에	-10.3747
패	-10.3753
▁근로자	-10.3767
▁세계적	-10.3768
냈다	-10.3774
됐었다	-10.3776
조사	-10.3777
▁한국인들	-10.378
▁발굴	-10.3785
▁토네이도	-10.379
▁쌍둥이	-10.379
▁천연가스	-10.379
▁겨냥	-10.379
▁법무장관	-10.379
▁근육	-10.379
▁수석대표	-10.3791
▁로이터	-10.3791
▁사생활	-10.3792
▁마무	-10.3792
▁위안부	-10.3793
▁산림	-10.3794
▁폭파	-10.3794
▁벨기에	-10.3794
▁무엇보다	-10.3795
▁데에	-10.3795
▁눈에	-10.3797
▁선발	-10.3801
▁초반	-10.3803
▁북쪽	-10.3808
▁치열한	-10.3809
▁형사	-10.3811
▁선전	-10.3811
▁것인가	-10.3818
▁에드	-10.3819
▁예상되	-10.3822
▁연구팀	-10.3823
▁나에게	-10.3824
▁상태로	-10.3825
▁조합	-10.3826
▁연금	-10.383
▁돼지	-10.3843
▁영국인	-10.3845
▁부서	-10.3845
▁페이지	-10.3846
▁호수	-10.3848
▁걸린	-10.3852
▁올리	-10.3852
▁딕	-10.3852
▁키스	-10.3864
▁로비	-10.3866
▁추산	-10.3866
▁블	-10.3867
▁가족과	-10.387
▁노인	-10.3871
젤	-10.3872
▁움직이	-10.3873
▁예루살렘	-10.3879
부대	-10.3879
▁국민들이	-10.3882
▁투표에서	-10.3882
▁배가	-10.3888
▁감행	-10.389
▁분석가들	-10.3898
▁얻을	-10.3905
▁연관	-10.3908
향	-10.3911
▁조약	-10.3913
▁망	-10.3913
▁철	-10.3914
▁나왔	-10.3917
왕	-10.3923
▁연주	-10.3924
▁인디애나	-10.3929
카운티	-10.3931
조직	-10.3935
경찰	-10.3937
▁부근	-10.3938
욕	-10.3947
▁쇼핑	-10.3948
멸	-10.395
▁뿌리	-10.3951
▁쓰촨성	-10.3951
▁아메리카	-10.3951
▁결선투표	-10.3951
▁침몰	-10.3951
▁보스턴	-10.3952
▁파트너	-10.3952
▁다섯	-10.3952
▁은신처	-10.3952
▁황금	-10.3953
▁사찰단	-10.3953
▁부채	-10.3956
▁엔진	-10.3959
▁악어	-10.396
▁차량에	-10.396
▁재난	-10.3962
▁생일	-10.3962
▁하락세	-10.3963
▁카터	-10.3965
▁수위	-10.3965
▁들어오	-10.3968
▁상승세	-10.3969
▁보험	-10.3969
▁경력	-10.3969
▁미칠	-10.3971
스가	-10.3978
같은	-10.3981
▁보내는	-10.3984
▁재무부	-10.3987
▁구조대	-10.3988
▁조명	-10.3988
▁아프간에서	-10.3989
째	-10.4004
▁알카에다와	-10.4005
▁연구에	-10.4012
▁노스캐롤라이나	-10.4013
마자	-10.4018
경기	-10.4021
▁정지	-10.4023
▁밴드	-10.4025
▁쓰	-10.4026
웨이	-10.4027
ut	-10.403
▁파티	-10.4032
▁사람에게	-10.4034
▁이재민	-10.4038
▁프레스	-10.4041
치를	-10.4042
▁피해자들	-10.4052
▁현실	-10.4062
▁수리	-10.4065
ant	-10.4067
▁경험이	-10.4075
존	-10.4077
▁지점	-10.4077
▁상징	-10.4085
▁시한	-10.409
해질	-10.4095
베이	-10.4096
걸	-10.4097
되며	-10.41
▁든	-10.41
▁최저	-10.4104
갑	-10.4105
슨은	-10.4108
▁PKK	-10.4115
▁늦게	-10.4115
▁득점	-10.4115
▁마이크로소프트	-10.4115
▁비핵화	-10.4115
▁알렉산더	-10.4115
▁왼쪽	-10.4115
▁이산화탄소	-10.4115
▁좋다	-10.4115
▁키바키	-10.4115
▁오딩가	-10.4115
▁from	-10.4115
닷컴	-10.4115
▁거짓말	-10.4116
▁참여한	-10.4116
▁급격	-10.4117
▁포경	-10.4117
▁아이폰	-10.4117
▁영업	-10.4117
▁할머니	-10.4118
니아	-10.4118
▁체중	-10.4119
▁체코	-10.412
▁내리	-10.4124
▁대립	-10.4124
▁킬로미터	-10.4126
▁분류	-10.4128
▁초청	-10.4128
▁날짜	-10.4136
▁근로자들	-10.414
▁밥	-10.4142
되어야	-10.4142
받	-10.4145
▁원화	-10.4148
▁경영진	-10.4152
▁노선	-10.4156
▁흔들	-10.4157
▁가동	-10.416
돼야	-10.416
▁숙	-10.4162
▁공사	-10.4164
▁자본	-10.4169
▁앨	-10.417
▁물이	-10.4173
▁장면이	-10.4177
▁총상	-10.4179
▁제조업체	-10.4183
▁급속	-10.4189
▁로한	-10.4191
▁기다리	-10.4193
▁일제	-10.4193
▁정의	-10.4194
▁이란과	-10.4203
▁보고서에	-10.4204
▁언론에	-10.4205
▁떨어지	-10.4206
▁차량이	-10.4206
주는	-10.4208
▁인사들	-10.4212
▁미국인들이	-10.4214
▁치러	-10.4215
▁동기	-10.4216
잔	-10.423
▁테러와	-10.424
▁보석	-10.4244
▁그대로	-10.4251
▁이식	-10.4258
▁북미	-10.4266
▁화학	-10.4269
딩	-10.428
▁옮겨	-10.428
▁천주교	-10.428
▁필라델피아	-10.4282
▁인플레이션	-10.4282
▁택시	-10.4282
▁탄압	-10.4283
▁최	-10.4283
▁사냥	-10.4284
▁소집	-10.4286
▁성격	-10.4286
▁소위	-10.4291
▁호소	-10.4291
▁다음날	-10.4291
▁이뤄졌다	-10.4301
▁만남	-10.4303
▁화재로	-10.4305
▁양국간	-10.431
스타인	-10.4311
한번	-10.4312
op	-10.4315
▁구조대원들	-10.4318
▁공기	-10.4323
▁통일부	-10.4323
▁V	-10.4326
련	-10.4327
▁음	-10.4329
▁리치	-10.433
▁순	-10.4337
▁살이	-10.4343
▁월요일에	-10.4345
▁나오지	-10.4345
▁투쟁	-10.4347
▁만들기	-10.4347
▁기록한	-10.4353
▁정치인	-10.4354
▁군사적	-10.4355
▁분만	-10.4356
▁발생했	-10.4357
▁여론조사에서	-10.4359
▁방식으로	-10.436
▁것임	-10.4363
▁홍수로	-10.437
▁했습니다	-10.4386
▁남동부	-10.4392
된다고	-10.4396
▁극장	-10.4397
om	-10.4399
▁수상한	-10.4402
▁학	-10.4403
▁카페	-10.4406
델	-10.4414
▁시각	-10.4414
▁가족들이	-10.4415
착	-10.4421
▁출판	-10.4422
베나	-10.4425
▁관계에	-10.4429
새	-10.4437
▁존중	-10.4439
G	-10.444
▁이루어지	-10.4447
▁기대한다	-10.4447
▁탄핵	-10.445
▁일간지	-10.4451
▁골키퍼	-10.4451
▁남자친구	-10.4451
▁구멍	-10.4452
▁포럼	-10.4452
▁China	-10.4452
▁진행자	-10.4453
▁l	-10.4453
▁St	-10.4453
▁폭설	-10.4454
▁주최측	-10.4455
▁단어장	-10.4455
▁브랜드	-10.4455
▁진단	-10.4457
▁음주	-10.4458
▁날개	-10.4458
받았다	-10.446
작전	-10.446
▁특수	-10.4479
▁일본과	-10.448
▁구간	-10.4489
▁미군과	-10.4492
▁수사관들	-10.4494
▁공대	-10.4494
▁예술	-10.4495
▁사법	-10.4496
▁예를들	-10.4498
▁표명했다	-10.4509
▁세워	-10.451
▁마비	-10.451
▁사람들과	-10.4512
▁가상	-10.4527
▁실망	-10.4528
▁사태에	-10.4529
▁신사	-10.453
▁희생	-10.4542
▁주장한	-10.4548
▁바꾸	-10.4548
▁봉사	-10.4552
▁세력이	-10.456
▁친구들	-10.456
학교	-10.4563
▁기소됐다	-10.4574
▁토지	-10.4574
▁다이	-10.4577
놓	-10.4584
▁모르	-10.4589
▁내일	-10.4589
몬	-10.459
▁먼	-10.4593
te	-10.4603
▁제작한	-10.4604
▁비율	-10.4604
참	-10.4607
연맹	-10.4608
▁부상으로	-10.4614
▁제공할	-10.4616
넬	-10.462
▁대륙	-10.462
사항	-10.4622
▁사우스캐롤라이나	-10.4624
▁코끼리	-10.4624
▁후진타오	-10.4624
▁his	-10.4624
▁균형	-10.4625
립니다	-10.4625
▁최근에	-10.4626
▁종결	-10.4626
▁징역형	-10.4627
▁라덴	-10.4629
▁배후	-10.4632
▁기온	-10.4642
▁정식	-10.4643
▁비교적	-10.4643
▁용기	-10.4644
지역에서	-10.4644
▁아난	-10.4645
▁성장률	-10.4646
▁보여준다	-10.4646
▁갔다	-10.465
▁벽	-10.4654
▁마리아	-10.4656
▁당국자	-10.4657
허	-10.4658
▁시체	-10.4658
▁확인됐다	-10.4661
▁전통적	-10.4665
▁스톤	-10.4673
▁자신과	-10.4684
▁여행객	-10.4686
▁위협이	-10.469
▁출연한	-10.4692
▁맡고	-10.4694
택	-10.4704
▁조각	-10.4704
적이고	-10.4705
▁생기	-10.4705
▁이에따라	-10.4707
▁고객들	-10.4711
▁하나로	-10.4717
▁초안	-10.4718
▁플라	-10.4724
▁받는다	-10.4735
▁청문회	-10.474
▁낼	-10.4742
▁폭발이	-10.4753
▁올라가	-10.4759
▁결과에	-10.4762
▁중이었다	-10.4767
▁치르	-10.4769
력이	-10.4771
▁마시	-10.4771
찰	-10.4772
▁가게	-10.4774
▁보잉	-10.4779
▁방송사	-10.4781
탕	-10.4787
▁토론회	-10.4788
싱	-10.4792
얼	-10.4792
▁여학생	-10.4792
▁거주	-10.4799
▁시작했	-10.4799
▁HIV	-10.4799
▁뭄바이	-10.4799
▁선관위	-10.4799
▁쿠웨이트	-10.4799
▁테일러	-10.4799
▁스트레스	-10.4799
▁계좌	-10.48
▁남극	-10.4801
장치	-10.4802
▁줄리아니	-10.4802
▁케이트	-10.4802
▁스턴	-10.4803
▁이란에	-10.4804
▁미디어	-10.4806
▁제목	-10.4808
▁실적	-10.4811
all	-10.4812
▁화상	-10.4819
▁문제의	-10.482
▁일으켰다	-10.4828
▁많아	-10.483
▁정상들	-10.4831
▁정전	-10.4832
▁피부	-10.4837
▁보일	-10.4841
▁일어났다	-10.4851
ese	-10.486
x	-10.4862
비치	-10.4863
▁필요성	-10.4865
▁파도	-10.4867
▁날아	-10.4878
▁근처에서	-10.4882
해야만	-10.4882
버그	-10.4884
▁도착한	-10.4885
▁군은	-10.4889
▁올려	-10.4901
치는	-10.4913
삼	-10.4922
▁헌	-10.4922
▁자택	-10.4923
▁적절	-10.4924
그룹	-10.4928
▁콘	-10.493
스코	-10.493
▁끝나	-10.4935
▁다가	-10.4937
▁대피했다	-10.4938
니스	-10.4943
▁남부에서	-10.4944
▁가족이	-10.4944
▁사용해	-10.4949
▁특파원	-10.4951
침	-10.4956
압	-10.4959
▁승려들	-10.4961
▁애도	-10.4961
▁선포했다	-10.4963
▁입을	-10.4964
몰	-10.4964
▁하나인	-10.4965
▁유출	-10.4969
사인	-10.497
알	-10.4971
▁파손	-10.4974
▁비난하는	-10.4976
연구소	-10.4977
▁NBA	-10.4978
▁광범위	-10.4978
▁다큐멘터리	-10.4978
▁식료품	-10.4978
▁에콰도르	-10.4978
▁재검토	-10.4978
▁탱크	-10.4978
▁펠로시	-10.4978
▁마라톤	-10.4978
▁돌고래	-10.4978
▁전당대회	-10.4978
▁가벼	-10.4978
▁예멘	-10.4978
▁교통사고	-10.4978
▁슈퍼	-10.4979
▁지붕	-10.4979
▁소규모	-10.4979
▁구축	-10.4979
▁관영	-10.498
▁보존	-10.498
▁동생	-10.4981
▁화려	-10.4982
사태	-10.4984
▁관계당국	-10.4984
▁기쁘다	-10.4985
▁감바리	-10.4985
로스	-10.4985
▁범행	-10.4986
▁묘사	-10.4987
▁회원국들	-10.4994
▁치명적인	-10.4996
▁기차	-10.4999
▁부산	-10.5
▁발생하고	-10.5002
▁재판관	-10.5003
▁과도	-10.5005
▁손에	-10.5012
▁조용	-10.5014
▁국적	-10.5017
▁북쪽으로	-10.5027
▁서장	-10.503
▁사용했다	-10.5031
▁물에	-10.5032
▁수립	-10.5036
▁Le	-10.5037
▁분에	-10.5045
해진	-10.5047
위원장	-10.5054
▁인원	-10.5057
▁진행되는	-10.5057
▁무게	-10.5058
업자	-10.506
▁참석할	-10.5065
▁중단했다	-10.5067
▁쓰고	-10.5078
▁위인	-10.5078
▁New	-10.5087
▁총회	-10.509
▁이용하는	-10.5093
▁대로	-10.5096
▁세계적으로	-10.5103
라스	-10.5104
▁팀이	-10.5106
▁g	-10.5106
▁노동자들	-10.5108
국인	-10.5111
원이	-10.5116
▁내렸	-10.5122
▁침입	-10.5123
▁제출했다	-10.513
▁그래	-10.5136
▁경호원	-10.5136
▁착수	-10.5141
▁유럽에서	-10.5145
▁북극	-10.5146
▁무슬림	-10.5146
▁정책에	-10.515
▁배출	-10.515
켈	-10.5159
햄	-10.5159
▁DVD	-10.516
▁과반수	-10.516
▁국제원자력기구	-10.516
▁돕기	-10.516
▁듣고	-10.516
▁샌디에이고	-10.516
▁캐릭터	-10.516
▁협약	-10.516
▁화이트	-10.516
▁횡령	-10.516
▁펀드	-10.516
▁롬니	-10.516
▁감금	-10.516
▁일어날	-10.516
▁봉송	-10.516
IC	-10.516
▁침공	-10.516
▁소련	-10.5161
▁일치	-10.5162
▁레이건	-10.5162
▁운명	-10.5162
▁기밀	-10.5163
▁신규	-10.5163
▁판정	-10.5165
정보	-10.5166
▁거부권	-10.5167
▁뇌물	-10.5167
▁지상	-10.5168
▁경관	-10.5168
▁자문	-10.517
▁이륙	-10.517
▁론	-10.517
▁숲	-10.5172
▁개정안	-10.5173
▁마친	-10.5175
▁월드	-10.5176
▁녹	-10.5178
▁늘어나	-10.5179
▁반박	-10.5182
제도	-10.5183
드로	-10.5183
▁여성들이	-10.5184
▁충돌이	-10.5186
▁보여주고	-10.5203
▁차지하고	-10.5206
▁해안에서	-10.5208
▁기부	-10.5211
▁일련	-10.5216
▁지정	-10.5216
▁요리	-10.5222
▁하이	-10.5224
▁부모들	-10.5227
▁지점에서	-10.5235
량이	-10.5242
man	-10.5244
▁실시할	-10.5245
▁수배	-10.5246
▁근거로	-10.5246
▁이름이	-10.5247
▁품	-10.5247
▁통신이	-10.5253
벨	-10.5254
▁연구원들	-10.5263
▁주장한다	-10.5266
▁신조	-10.5269
▁not	-10.5273
▁예정인	-10.5276
▁보냈	-10.5287
▁고소	-10.529
▁미스	-10.5303
▁공약	-10.5307
▁개시	-10.5307
z	-10.5313
법원	-10.5315
검	-10.5318
am	-10.5326
▁적십자	-10.5329
▁성직자	-10.5333
▁생물	-10.5336
▁얼	-10.5339
갔다	-10.5342
▁안전보장이사회	-10.5345
▁연쇄	-10.5345
▁확장	-10.5345
▁over	-10.5345
▁new	-10.5345
▁메르켈	-10.5345
▁지하철	-10.5345
▁발휘	-10.5345
▁녹음	-10.5346
▁특징	-10.5346
▁브리	-10.5347
▁영화배우	-10.5347
▁저희	-10.5347
▁당초	-10.5349
▁행사에	-10.5352
▁래리	-10.5353
▁조지아주	-10.5353
▁항구	-10.5354
▁붙잡	-10.5357
비아	-10.5359
▁지분	-10.5361
▁진보	-10.5361
▁처해	-10.5362
▁모임	-10.5363
▁맞추	-10.5366
▁서울시	-10.5367
▁하미	-10.5367
▁여지	-10.5369
▁지원할	-10.537
▁오하이오주	-10.5371
▁승무원들	-10.5375
▁MD	-10.5378
들로부터	-10.5381
▁운전사	-10.5383
▁생산량	-10.5383
▁냈다	-10.5388
▁운영하고	-10.5393
간에	-10.5393
▁선원	-10.5394
해왔	-10.5398
▁원숭이	-10.5404
▁나이트	-10.5405
▁흥분	-10.541
▁실종자	-10.541
▁누르	-10.5417
▁요금	-10.5419
▁달린	-10.5422
▁확정	-10.5422
▁투르	-10.5422
▁달러화	-10.5425
▁보게	-10.5434
▁맞는	-10.5437
▁발견한	-10.5438
▁사용하지	-10.544
▁검은	-10.544
▁있어야	-10.5442
▁펼치	-10.5443
▁주식시장	-10.5446
▁가해	-10.5452
▁일본에	-10.5453
▁계속될	-10.5457
▁레스토랑	-10.5458
▁와인	-10.546
▁않았던	-10.546
▁상태에서	-10.5462
▁영화에	-10.5463
▁직원이	-10.5465
▁확신한다	-10.5467
기업	-10.5475
▁셀	-10.5479
소를	-10.5485
▁소매	-10.5485
▁국가에서	-10.549
▁미치는	-10.5493
▁최고치	-10.5494
▁합의한	-10.5496
▁주전	-10.5499
▁생각이	-10.5503
▁맨	-10.5513
놀	-10.5513
▁포로	-10.5515
▁레드	-10.5519
사의	-10.5521
▁데일리	-10.5525
▁수사관	-10.5527
헌	-10.5527
▁중단할	-10.5527
장에	-10.5528
▁미시시피	-10.5532
릿	-10.5533
픽	-10.5533
▁Obama	-10.5534
▁마흐디	-10.5534
▁매니저	-10.5534
▁먹이	-10.5534
▁프랭크	-10.5534
▁항공우주국	-10.5534
▁퇴임	-10.5534
▁애완견	-10.5534
▁줄기세포	-10.5534
▁government	-10.5534
▁앤드류	-10.5534
▁난민촌	-10.5534
▁귀환	-10.5535
▁빌딩	-10.5535
▁쿠퍼	-10.5536
▁탄생	-10.5536
귀	-10.5536
▁후보자	-10.5538
▁리처드슨	-10.554
ush	-10.5541
▁소형	-10.5543
▁추세	-10.5544
▁침대	-10.5544
▁원래	-10.5545
▁밝혀진	-10.5545
▁매체	-10.5545
▁공산주의	-10.5548
▁후보와	-10.5553
▁인민	-10.5554
▁수송	-10.5555
▁베르	-10.5566
▁스타디움에서	-10.5568
▁동의했다	-10.5568
▁구역	-10.5568
▁낮추	-10.5569
▁텍사스주	-10.5573
▁정원	-10.5573
내내	-10.5577
▁등급	-10.5578
포트	-10.558
▁증세	-10.5581
▁무어	-10.5581
▁깊이	-10.5584
▁다르다	-10.5585
▁테니스	-10.559
▁놀	-10.5592
▁동료들	-10.5601
▁어렵다	-10.5602
▁없게	-10.5603
▁용	-10.5604
▁건물이	-10.5606
▁윤	-10.5608
▁무리	-10.5612
▁만족	-10.5627
▁딸이	-10.5632
▁작업에	-10.564
포드	-10.5645
▁육	-10.5647
▁협상에	-10.5654
▁아들이	-10.5658
▁pro	-10.5661
트라	-10.5662
▁일어났	-10.5669
▁전달했다	-10.5669
▁화요일에	-10.5672
▁추측	-10.5673
▁하락한	-10.5674
▁물품	-10.5676
▁동맹국	-10.5676
능	-10.5682
▁쉽지	-10.5685
▁교황은	-10.5692
▁옆	-10.5702
▁소식통이	-10.5706
닥	-10.5712
▁견	-10.5714
▁통계	-10.5714
▁하루에	-10.5715
▁경호	-10.5717
▁애리조나	-10.5718
▁말했	-10.5719
▁플라스틱	-10.5726
▁침략	-10.5726
▁경기부양책	-10.5726
▁샘플	-10.5726
▁예비선거	-10.5726
▁어깨	-10.5726
▁헌법재판소	-10.5726
▁옐친	-10.5726
▁롤링	-10.5726
▁득표율	-10.5726
▁응급	-10.5727
▁복역	-10.5727
▁솔직	-10.5727
▁교도소에	-10.5727
▁제정	-10.5727
▁창출	-10.5728
▁영양	-10.5728
▁창문	-10.5729
▁끝날	-10.573
▁다국적군	-10.573
▁방출	-10.5731
▁졸리	-10.5732
▁결과로	-10.5734
▁운전자	-10.5735
꺼	-10.5735
▁키우	-10.5736
▁발포	-10.5737
▁최저치	-10.574
▁경비	-10.5753
▁옆에	-10.5755
▁테러범	-10.576
▁r	-10.576
▁식사	-10.5767
▁인력	-10.5767
▁행정	-10.5769
▁신문사	-10.5769
별	-10.577
▁발견되었다	-10.5771
▁공개됐다	-10.5782
▁상상	-10.5782
▁즐	-10.5783
▁늘리	-10.5783
▁혼	-10.579
▁겨	-10.5792
마리	-10.5793
▁예정이었다	-10.5796
▁치러지	-10.5801
▁청사	-10.5804
▁화물	-10.5804
▁전복	-10.5809
▁던지	-10.581
▁up	-10.5811
▁아르	-10.5811
▁년만	-10.5811
▁X	-10.5811
▁인근에서	-10.5812
▁촬영한	-10.5816
▁학교에	-10.582
▁해상	-10.5821
니는	-10.5836
▁조건으로	-10.5838
▁따르	-10.5838
▁함	-10.5839
▁승객들	-10.584
▁모색	-10.5847
▁전부	-10.585
▁바라는	-10.5854
▁대항	-10.5857
▁일으키	-10.5858
▁카불	-10.5862
▁후보인	-10.5867
▁문제와	-10.5876
▁메이	-10.5883
▁무고	-10.5884
▁받아들이	-10.5891
군이	-10.5891
▁권고	-10.5892
혈	-10.5895
▁전반적	-10.5895
▁자리에	-10.5895
▁거절했다	-10.5896
시킨다	-10.5904
▁게재	-10.5906
▁빈곤	-10.5911
타르	-10.5911
▁잡아	-10.5913
넷	-10.5917
▁방문하는	-10.5921
▁뮤지컬	-10.5922
▁윔블던	-10.5922
▁일으킬	-10.5922
▁퍼거슨	-10.5922
▁배터리	-10.5922
▁여겨지	-10.5922
▁프리미어리그	-10.5922
▁데이빗	-10.5922
▁노르웨이	-10.5922
▁유혈사태	-10.5922
▁브리핑	-10.5922
▁낙태	-10.5922
▁상륙	-10.5922
▁검증	-10.5922
▁빠질	-10.5923
▁외무성	-10.5923
▁생방송	-10.5923
▁오마르	-10.5924
▁로딕	-10.5924
▁명인	-10.5925
▁실업률	-10.5926
▁서양	-10.5927
▁알렉스	-10.5928
▁백신	-10.5928
▁조항	-10.5928
▁드러냈다	-10.5928
▁이뤄진	-10.5929
곤	-10.593
▁음성	-10.593
ap	-10.593
▁상호	-10.593
▁접전	-10.5931
▁본토	-10.5932
▁발행	-10.5934
▁번역	-10.5935
▁분량	-10.5942
▁알렸다	-10.5947
▁지켜보	-10.5949
▁환호	-10.595
▁정상화	-10.5951
▁제리	-10.5952
▁싸	-10.5953
보호	-10.5953
▁즐기	-10.5954
▁동일한	-10.5955
▁요인	-10.5958
▁알지	-10.5961
측이	-10.5965
▁잡스	-10.5968
▁소득	-10.597
▁테러에	-10.5971
▁유도	-10.5974
ent	-10.5977
▁포장	-10.5978
비용	-10.5982
▁자택에서	-10.5987
▁해서	-10.599
▁일본인	-10.5994
▁후원	-10.5995
▁심의	-10.5995
▁정권이	-10.5996
금지	-10.601
ine	-10.6011
대표	-10.6017
▁생각하지	-10.6024
▁매달	-10.603
▁래	-10.603
▁국기	-10.6031
▁비행사	-10.6042
에게서	-10.6056
▁투표에	-10.606
▁지지한다	-10.6061
▁발표됐다	-10.6066
▁연안	-10.6067
▁의존	-10.607
▁이민	-10.607
▁포기하	-10.608
▁실질적	-10.608
▁지지자들이	-10.609
육	-10.6091
▁얻고	-10.6095
십	-10.6104
ary	-10.6108
푸	-10.6108
▁동물들	-10.6112
▁상원의원과	-10.6114
웅	-10.6118
잉	-10.6118
▁회의에	-10.6121
▁오토바이	-10.6122
▁카트리나	-10.6122
▁파바로티	-10.6122
▁피라미드	-10.6122
▁느낄	-10.6122
▁징계	-10.6122
▁보이콧	-10.6122
▁정거장	-10.6122
▁라파엘	-10.6122
▁여섯	-10.6122
▁암컷	-10.6122
▁라이언	-10.6123
▁MBC	-10.6123
way	-10.6123
▁대표들	-10.6126
▁오른쪽	-10.6126
▁American	-10.6126
▁상대방	-10.6127
▁통증	-10.6127
▁법원에서	-10.6127
▁지원하는	-10.6128
▁모금	-10.613
▁플레이어	-10.613
▁돌파	-10.6131
▁멀리	-10.6132
▁빠지	-10.6132
▁부실	-10.6138
▁유산	-10.6138
세이	-10.6139
▁지대	-10.614
▁사설	-10.6141
▁산타	-10.6143
혔다	-10.6143
▁버리	-10.6146
차량	-10.6149
▁해병	-10.6151
▁취해	-10.6152
입어	-10.6154
▁국가로	-10.6155
으면서	-10.6156
▁않는다면	-10.6156
▁플로리다주	-10.616
총리	-10.6162
▁쓸	-10.6163
▁에어	-10.6166
▁감소했다	-10.6172
▁앉아	-10.6175
▁소유하고	-10.6176
▁학생이	-10.6188
▁레바논군	-10.6188
▁처한	-10.6193
▁외치	-10.6197
▁입수	-10.6199
데이	-10.62
▁참여할	-10.6201
스럽게	-10.6202
▁전해지	-10.6203
▁실시했다	-10.6204
상의	-10.6208
오는	-10.6209
▁국민의	-10.6209
▁노리	-10.6212
▁당국에	-10.6214
▁약세	-10.6232
▁계기	-10.6238
▁마을에서	-10.6246
ee	-10.6248
▁몰고	-10.6251
▁out	-10.6258
▁상하이	-10.6259
▁코커스	-10.6259
▁무장대원	-10.626
리스트	-10.6261
▁남자들	-10.6266
됐을	-10.6266
▁두번째	-10.6271
기록	-10.6275
▁반영	-10.6279
▁단체인	-10.6284
▁웨	-10.6287
▁제시했다	-10.6288
둘	-10.6293
▁알아	-10.6295
쪽으로	-10.6297
▁하면서	-10.6297
ta	-10.6299
측에	-10.6302
▁온도	-10.6308
▁잠재적	-10.631
▁살해했다	-10.6311
물이	-10.6313
어로	-10.6313
▁감지	-10.632
K	-10.6322
▁아름다	-10.6326
▁IMF	-10.6326
▁관타나모	-10.6326
▁마돈나	-10.6326
▁객실	-10.6326
▁서식지	-10.6326
▁불가리아	-10.6326
▁FDA	-10.6327
▁화합	-10.6327
▁비틀즈	-10.6327
▁테러조직	-10.6331
▁종료	-10.6331
사회	-10.6331
▁취한	-10.6333
▁차별	-10.6337
▁전국적으로	-10.6338
▁보급	-10.6339
▁재임	-10.6339
▁범인이	-10.634
▁내려졌다	-10.634
▁재직	-10.634
헤	-10.6342
▁도심	-10.6342
엄	-10.6342
▁개편	-10.6342
▁탄소	-10.6342
벽	-10.6345
쓰	-10.6346
▁대학에서	-10.6347
됩니다	-10.6348
▁불이	-10.6352
▁열렸다	-10.6353
▁리비	-10.6356
▁다음주	-10.6367
▁원인이	-10.6371
▁로스	-10.6373
국이	-10.6374
기지	-10.6375
▁조지아	-10.6381
▁광장	-10.6381
▁모건	-10.6386
바이	-10.6387
▁포함돼	-10.6392
었는지	-10.6393
▁방향으로	-10.6394
▁In	-10.6398
▁해소	-10.6402
▁군인들이	-10.6407
속도로	-10.6407
▁범	-10.6419
▁해주	-10.642
리에	-10.6422
네스	-10.6426
본부	-10.6429
▁미터	-10.643
▁커지	-10.6439
▁소식에	-10.6441
▁최대의	-10.6446
▁제출한	-10.6459
▁화면	-10.6461
▁중심가	-10.6462
▁크레	-10.6477
▁개인적	-10.6483
ve	-10.6483
▁프라이머리에서	-10.6483
▁본다	-10.6492
대회	-10.6493
으려	-10.6496
검사	-10.6499
이란	-10.65
▁이용한	-10.6501
▁악화되	-10.6501
▁싱	-10.6514
▁상승한	-10.6515
▁부당	-10.6517
대가	-10.6522
▁농장	-10.6523
▁콜로라도	-10.6524
▁청구	-10.6525
▁뉴욕주	-10.6528
▁급증	-10.6534
▁부딪	-10.6534
▁경기침체	-10.6534
▁끔찍	-10.6534
▁먹는	-10.6534
▁아테네	-10.6534
▁히틀러	-10.6534
룸	-10.6534
▁중남미	-10.6534
▁자유무역협정	-10.6534
▁공룡	-10.6535
▁관람	-10.6535
▁벽돌	-10.6535
▁에이커	-10.6535
▁탈락	-10.6535
▁탄광	-10.6536
▁자선단체	-10.6536
▁NK	-10.6536
▁거짓	-10.6537
▁금액	-10.6537
▁점검	-10.6537
▁are	-10.6542
▁야구	-10.6543
▁자신감	-10.6544
니까	-10.6545
▁이틀간	-10.6545
▁접수	-10.6545
정도	-10.6545
▁고급	-10.6546
롭	-10.6546
▁아마디	-10.6547
▁실린	-10.6548
▁촉진	-10.6548
▁중요성	-10.6549
▁인형	-10.6551
▁우즈	-10.6553
▁존경	-10.6554
▁한국은행	-10.6555
램	-10.6559
▁남용	-10.6561
▁좋아하는	-10.6565
▁군함	-10.6565
▁노력이	-10.6565
▁겸	-10.6568
▁강세	-10.6568
▁세웠다	-10.6571
지역에	-10.6571
▁포함하여	-10.6571
▁여러분	-10.6574
시대	-10.6575
▁라이브	-10.6578
없는	-10.658
▁유발	-10.6582
▁th	-10.6584
▁유튜브	-10.6593
▁지불하	-10.6597
주에서	-10.6604
▁각자	-10.6612
▁손해	-10.6615
▁털	-10.6617
▁대학생	-10.6621
▁남편이	-10.6626
ish	-10.6626
평	-10.6626
▁약화	-10.6631
브라	-10.6634
▁설	-10.6635
▁조사한	-10.6645
웨	-10.6648
lo	-10.6648
▁법안에	-10.6649
ak	-10.665
▁당국자들	-10.6652
▁소비자들	-10.6653
겠습니다	-10.6659
▁국가들이	-10.666
▁섭취	-10.6665
▁기소된	-10.6675
▁포함됐다	-10.6676
▁Co	-10.6677
▁맛	-10.6679
▁로브	-10.6681
▁사용하고	-10.6682
겼다	-10.6683
▁잃었	-10.6686
▁미니	-10.6689
▁여기에	-10.6709
▁직면	-10.6711
줬다	-10.6716
다란	-10.6723
▁건너	-10.6729
▁매춘	-10.6746
▁OPEC	-10.6747
▁visit	-10.6747
▁루아얄	-10.6747
▁에넹	-10.6747
▁우주왕복선	-10.6747
▁울포위츠	-10.6747
▁지지선언	-10.6747
▁허커비	-10.6747
▁징후	-10.6747
▁시라크	-10.6747
▁벌써	-10.6747
▁본격적	-10.6747
▁농업	-10.6747
▁파나마	-10.6748
▁드러내	-10.6749
▁범위	-10.6749
▁술집	-10.6749
▁함유	-10.6749
▁떠날	-10.6749
▁막대한	-10.675
ow	-10.675
▁사이클	-10.675
▁디스크	-10.675
▁매매	-10.6752
▁서류	-10.6753
▁통과시켰다	-10.6753
▁연계	-10.6754
▁소행성	-10.6754
▁집권당	-10.6756
▁형식	-10.6756
▁로저	-10.6757
시오	-10.6757
▁준수	-10.6758
기자	-10.6759
▁국방성	-10.6759
▁민족	-10.6761
▁정계	-10.6761
▁경사	-10.6762
▁위원	-10.6763
▁연간	-10.6764
▁완	-10.6765
▁자동	-10.6767
필	-10.6768
▁승부	-10.6771
▁곰	-10.6773
▁얼마전	-10.6774
▁벌어졌다	-10.6777
▁내정	-10.6778
▁매케인이	-10.6779
▁중이	-10.6779
장인	-10.6779
▁표면	-10.6784
▁호소했다	-10.6788
▁내려진	-10.6794
▁있을지	-10.6796
리고	-10.68
▁관여	-10.68
▁재미있	-10.6801
전에서	-10.6805
업계	-10.6811
▁있었습니다	-10.6812
장으로	-10.6813
▁나선	-10.6816
▁세로	-10.6818
▁이어지	-10.6821
ang	-10.6826
린다	-10.6834
▁르	-10.6841
ho	-10.6841
▁불에	-10.6841
▁보조	-10.6843
버스	-10.6845
▁여부에	-10.6847
▁승인했다	-10.6857
▁전역에서	-10.6859
ga	-10.6862
▁포함된	-10.6865
▁타임	-10.6878
▁부족하다	-10.6879
▁기분	-10.6881
▁어렵	-10.6886
▁촉발	-10.6886
▁베를린	-10.6888
▁고장	-10.6889
▁바스라	-10.6892
되자	-10.6893
▁출산	-10.6894
▁바르	-10.6903
▁운동가들	-10.6903
▁건강이	-10.6904
▁도달	-10.6904
분께	-10.6906
사와	-10.6911
▁향상	-10.6911
팅	-10.6913
▁참가자들	-10.6918
▁대전	-10.6919
▁북부에	-10.6926
▁항의하	-10.6928
어서	-10.6929
▁제공한	-10.6929
▁필요로	-10.6937
▁용의자로	-10.6938
▁되찾	-10.6942
ell	-10.6959
▁소탕	-10.6959
▁열고	-10.696
▁쓰레기	-10.6962
▁밴	-10.6962
▁World	-10.6965
▁again	-10.6965
▁고이즈미	-10.6965
▁베네딕	-10.6965
▁쇠고기	-10.6965
▁싶지	-10.6965
▁조승희	-10.6965
톨	-10.6965
▁디자이너	-10.6965
▁옮기	-10.6965
▁포르노	-10.6965
▁교섭	-10.6965
▁저항세력	-10.6965
▁CDC	-10.6965
▁품목	-10.6965
▁경향	-10.6966
▁우울증	-10.6966
▁다룬	-10.6967
▁정착	-10.6967
▁벗어	-10.6967
▁계산	-10.6968
베르토	-10.6969
▁핵개발	-10.697
▁지역사회	-10.6971
▁신분	-10.6971
▁상담	-10.6971
▁도살	-10.6972
▁외곽	-10.6972
▁왕세자비	-10.6972
▁몸에	-10.6973
▁업체들	-10.6974
▁소동	-10.6975
▁대대적	-10.6976
▁에릭	-10.6978
▁물체	-10.698
▁통보	-10.698
▁취했다	-10.6982
▁일이라고	-10.6985
▁만년	-10.699
▁사체	-10.699
충	-10.6994
▁지위	-10.6995
▁뿐이다	-10.6998
팔	-10.6998
회담	-10.6999
▁강전에서	-10.6999
▁나토군	-10.7
▁억제	-10.7002
▁챔피언십	-10.7004
▁희망한다	-10.7006
▁서서	-10.7009
뉴스	-10.7012
▁결승전에서	-10.7013
▁도시인	-10.7016
▁지휘관	-10.7016
end	-10.7017
▁멀	-10.702
학자	-10.702
▁계속된	-10.7022
AM	-10.7023
▁점거	-10.7024
▁대법원장	-10.7024
▁적발	-10.7033
▁고려하고	-10.7034
공사	-10.7034
▁슬	-10.7037
▁지식	-10.7038
▁유전	-10.7039
▁되며	-10.7042
▁농민들	-10.7042
▁걸리	-10.7046
▁미국으로	-10.7049
▁모르는	-10.7052
▁스캔들	-10.7052
▁바위	-10.7052
▁진지	-10.7055
▁돌려	-10.7057
▁탈레반측	-10.7065
▁합의에	-10.7068
▁Re	-10.7072
ore	-10.7075
진다	-10.7078
이션	-10.7078
국장	-10.7082
▁갖는	-10.7083
▁회장이	-10.7089
▁복	-10.709
ty	-10.709
▁가족들과	-10.7092
▁게리	-10.7106
▁맡	-10.7106
▁하자	-10.7121
▁탑승객	-10.7122
▁흔	-10.7123
러스	-10.7125
▁윈	-10.7126
▁저자	-10.7139
▁무시	-10.7141
▁추구하	-10.7144
▁대통령직	-10.7146
▁건강에	-10.7148
▁상영	-10.7148
▁모자	-10.7149
국으로	-10.7157
▁요원들	-10.7165
▁경매에	-10.7167
▁다루	-10.7168
▁뉴햄프셔	-10.7169
▁들어간	-10.717
닌	-10.7179
▁브라이언	-10.718
▁정보부	-10.7184
랭	-10.7187
▁노트북	-10.7187
▁뉴올리언스	-10.7187
▁두려움	-10.7187
▁심장마비	-10.7187
▁아닙니다	-10.7187
▁압바스	-10.7187
▁최첨단	-10.7187
▁톰슨	-10.7187
▁대서양	-10.7187
▁무너지	-10.7187
▁윈도우	-10.7187
▁온실가스	-10.7187
▁부사장	-10.7187
▁글로벌	-10.7187
▁이자율	-10.7187
▁멈추	-10.7187
▁우간다	-10.7187
ING	-10.7188
▁talks	-10.7188
▁연례	-10.7188
▁조사할	-10.7188
▁가짜	-10.7188
▁붙여	-10.7189
▁파월	-10.719
▁타밀	-10.719
▁풍부	-10.719
▁고유가	-10.719
▁갈등	-10.719
▁비서실장	-10.7191
▁관측	-10.7191
▁상자	-10.7191
▁오프라	-10.7192
▁공격했다	-10.7192
▁개막	-10.7192
▁구름	-10.7194
▁받아왔다	-10.7196
▁열심	-10.7196
▁휴대	-10.7196
▁미첼	-10.7197
▁발급	-10.7197
▁사용자들	-10.7197
▁경비대	-10.7198
▁무슨	-10.7198
▁발발	-10.7199
▁테러단체	-10.7199
▁기증	-10.72
▁문구	-10.7201
▁선임	-10.7202
뉴	-10.7204
▁파리에서	-10.7205
▁스파이	-10.7206
▁마이	-10.721
▁남측	-10.7212
달러	-10.7213
▁신화	-10.7213
▁독일인	-10.7214
▁참석하지	-10.7215
끼	-10.7218
▁보건부	-10.7221
짐	-10.7223
has	-10.7229
▁부분이	-10.7229
▁확산되고	-10.7234
했었	-10.7239
▁완료	-10.724
▁기상청	-10.7242
▁되었	-10.7248
▁러드	-10.7249
▁가중	-10.7258
▁착용	-10.7259
▁학교에서	-10.7262
▁반대로	-10.7268
▁은행들	-10.727
▁의상	-10.7271
▁점수	-10.7271
시위	-10.7274
▁시인	-10.728
▁달러가	-10.7283
▁Mo	-10.7283
▁정치인들	-10.7283
▁작업이	-10.7285
▁프	-10.7294
▁당해	-10.7304
▁제작사	-10.7304
▁증상	-10.7308
▁결정적인	-10.7311
스런	-10.7316
▁행위에	-10.7318
▁해적들	-10.7322
▁테리	-10.7326
렉	-10.7328
▁등장	-10.7335
▁국제공항	-10.7338
원들이	-10.7345
▁보도에	-10.7346
가격	-10.7353
▁사진이	-10.7353
▁입지	-10.7357
▁정리	-10.7361
디아	-10.7366
▁불어	-10.7372
혼	-10.7376
▁언론과	-10.7378
▁명백	-10.7378
▁동성애	-10.7378
▁십	-10.738
념	-10.738
ard	-10.7382
▁반복	-10.7383
▁부지	-10.7388
▁no	-10.739
▁반지	-10.7391
갔	-10.7397
▁남부에	-10.7405
per	-10.7408
자르	-10.7408
▁출입	-10.7411
▁에베레스트	-10.7412
▁그렇다	-10.7414
▁로드리게스	-10.7414
▁믿을	-10.7414
▁브래드	-10.7414
▁이브라힘	-10.7414
▁찾지	-10.7414
▁펼친	-10.7414
▁도요타	-10.7414
▁허드슨	-10.7414
▁플루토늄	-10.7414
▁빼앗	-10.7414
▁해수면	-10.7414
▁아마디네자드	-10.7414
▁인터폴	-10.7414
▁남아프리카	-10.7414
▁빅토리아	-10.7414
▁야생동물	-10.7414
▁터널	-10.7414
▁의약품	-10.7414
▁햄	-10.7415
스티	-10.7415
▁남학생	-10.7415
▁금융위기	-10.7415
▁무덤	-10.7415
▁평화유지군	-10.7416
▁들어갈	-10.7417
▁이루어진	-10.7418
▁예약	-10.7419
▁단행	-10.7419
▁완성	-10.742
▁채취	-10.742
▁종이	-10.742
▁밀려	-10.7421
▁유통	-10.7422
▁주에	-10.7423
▁고위급	-10.7423
▁구류	-10.7424
▁포터	-10.7426
▁양쪽	-10.7426
로우	-10.7427
▁배제	-10.743
▁베리	-10.7432
▁파키스탄군	-10.7433
▁적합한	-10.7433
▁군사력	-10.7434
▁입법	-10.7435
▁양보	-10.7438
▁빠졌다	-10.7438
칭	-10.7438
▁임대	-10.7439
▁준비하고	-10.744
▁st	-10.7441
▁해체	-10.7441
▁서안	-10.7441
셀	-10.7446
▁경쟁력	-10.7446
▁회수	-10.7447
▁아프	-10.7448
폰	-10.7449
빙	-10.745
ke	-10.7451
▁선거법	-10.7452
▁주연	-10.7452
폐	-10.7452
▁체포됐	-10.7455
▁남성들	-10.7456
값	-10.7458
시스템	-10.746
▁Z	-10.7461
▁반전	-10.7462
▁경로	-10.7463
▁벌여	-10.7465
▁직접적	-10.7467
▁따뜻	-10.7469
▁나타내는	-10.747
▁미래에	-10.747
▁선수로	-10.7471
▁코치	-10.7473
▁향한	-10.7481
VS	-10.7485
▁공무원	-10.7486
▁턱	-10.749
▁사면	-10.7491
▁너무나	-10.7495
▁보인	-10.7499
▁센	-10.7504
▁쪽	-10.751
해달라	-10.7511
▁법정에서	-10.7517
▁논	-10.7524
▁군이	-10.7524
▁시인했다	-10.7528
▁News	-10.753
▁Ma	-10.7531
▁넘기	-10.7532
▁정기적	-10.7533
▁살았	-10.7539
▁연구에서	-10.7546
▁위험성	-10.7551
리그	-10.7553
▁궤도	-10.7556
▁관객들	-10.7557
▁제이	-10.7562
▁변호	-10.7563
▁맞고	-10.7569
▁클	-10.757
▁회전	-10.7582
▁연대	-10.7585
▁뿐이라	-10.7588
겼	-10.7589
혔	-10.7591
▁un	-10.7591
▁국가에	-10.7607
▁맞이	-10.7617
▁파키스탄에서	-10.7622
▁은행에	-10.7626
▁좌절	-10.7627
퇴	-10.7628
▁폴리	-10.7634
▁러	-10.7635
▁트	-10.7646
▁스타벅스	-10.7647
▁나눴다	-10.7647
▁느낌	-10.7647
▁망원경	-10.7647
▁성추행	-10.7647
▁아라비아	-10.7647
▁자르다리	-10.7647
▁최우선	-10.7647
▁토크쇼	-10.7647
▁확률	-10.7647
▁무승부	-10.7647
▁수류탄	-10.7647
▁시나리오	-10.7647
▁Center	-10.7647
▁삭감	-10.7647
▁맥캔	-10.7647
▁에드워드	-10.7647
▁활발	-10.7647
▁남자아이	-10.7648
▁긴밀	-10.7648
▁하원의장	-10.7648
▁교외	-10.7648
▁머레이	-10.7648
▁뉴욕시	-10.7648
▁물고기	-10.7649
▁추격	-10.7649
▁외환	-10.7649
▁체류	-10.7649
▁송금	-10.7649
▁실현	-10.765
▁간주	-10.7651
코프	-10.7654
▁포스트	-10.7656
▁Ch	-10.7659
▁상금	-10.7659
▁목격했다	-10.7659
▁해저	-10.7662
▁우세	-10.7665
▁낮아	-10.7666
▁당부했다	-10.7668
▁상업	-10.7669
▁저질렀다	-10.767
▁사라졌다	-10.7671
▁묻는	-10.7674
▁착수했다	-10.7674
▁맡았다	-10.7676
▁총통	-10.768
▁이득	-10.7681
▁상세	-10.7682
▁인터넷에	-10.7683
치고	-10.7683
▁기본적	-10.7685
널리	-10.7686
▁의견이	-10.7687
▁증	-10.7691
칸	-10.7695
규모	-10.7695
▁차질	-10.7695
▁목록	-10.7696
덕	-10.7696
ain	-10.7702
▁신도들	-10.7713
▁개인적으로	-10.7715
▁위하여	-10.7716
▁화가	-10.7716
않게	-10.7717
▁해당하	-10.7721
사업	-10.7722
▁중심지	-10.7722
▁기적	-10.7723
▁달한다	-10.7725
▁생각해	-10.7727
▁주최	-10.7729
▁부검	-10.7735
▁수행할	-10.7735
▁촉구하	-10.7746
▁다르	-10.7749
▁제공했다	-10.7755
▁일어나는	-10.7756
▁새롭	-10.7758
▁차례의	-10.7758
▁하에	-10.7762
과정	-10.7765
▁압수	-10.7766
▁행동에	-10.7767
리안	-10.7772
▁힘들다	-10.7776
▁성공한	-10.7778
▁탈레반이	-10.778
▁사실에	-10.7783
▁이름으로	-10.779
▁분야에서	-10.7792
▁게릴라	-10.7796
관련	-10.7797
버리	-10.7797
▁멤버	-10.78
▁크다	-10.78
▁방문해	-10.7802
▁출연했다	-10.7803
▁장관과	-10.7805
▁브로	-10.7808
able	-10.7809
▁강진이	-10.7815
객	-10.7815
▁가방	-10.7818
▁테러리스트들	-10.782
키로	-10.782
▁몰려	-10.7821
▁방콕	-10.7821
ance	-10.7824
▁칭	-10.7827
▁검문소	-10.783
▁제시한	-10.7831
스케	-10.7842
소리	-10.7846
▁등에	-10.7846
▁출생	-10.7847
▁남아있는	-10.7849
▁물러나	-10.7852
▁옹호	-10.7853
▁패스	-10.7855
어스	-10.7857
▁이후에	-10.786
▁암시	-10.7863
▁명성	-10.7865
▁성당	-10.7865
▁진전이	-10.7868
▁블루	-10.7874
▁모른다고	-10.7875
징	-10.788
상으로	-10.7883
훈	-10.7883
▁Seoul	-10.7885
▁갤런	-10.7885
▁높게	-10.7885
▁뉴델리	-10.7885
▁똑같	-10.7885
▁메드베데프	-10.7885
▁서브프라임	-10.7885
▁아웅산수치	-10.7885
▁유죄판결	-10.7885
▁세속주의	-10.7885
▁스크린	-10.7885
▁출구조사	-10.7885
▁국립공원	-10.7885
▁포셋	-10.7885
행사	-10.7885
▁권총	-10.7886
▁증강	-10.7886
▁연패	-10.7886
▁Minister	-10.7887
▁중앙은행	-10.7887
▁단독	-10.7887
▁카를로스	-10.7887
▁연구결과	-10.7888
▁연행	-10.7888
▁복원	-10.7889
▁연출	-10.7889
▁환율	-10.7889
▁인권단체	-10.7891
▁여러번	-10.7892
▁its	-10.7894
▁부처	-10.7896
▁수면	-10.7897
▁부품	-10.7897
▁사용된	-10.7898
▁정기	-10.7898
▁뛰	-10.7898
▁수색작업	-10.7899
▁활성화	-10.7901
▁유인	-10.7903
▁sh	-10.7903
▁고조되	-10.7903
▁재활용	-10.7906
▁매력	-10.7911
▁체포되었다	-10.7911
▁카리	-10.7911
▁미성년자	-10.7915
▁안내	-10.7916
▁루니	-10.7916
▁도구	-10.7918
▁도디	-10.7921
기술	-10.7922
▁건물에	-10.7922
▁가난한	-10.7925
▁말이	-10.7925
▁종교적	-10.7925
▁두려워	-10.7928
▁남아있다	-10.7932
▁대리인	-10.7937
▁맡았	-10.7938
▁업적	-10.7938
짓	-10.7939
않	-10.794
▁공정한	-10.794
콜	-10.7941
폴	-10.7943
▁웨인	-10.7944
감독	-10.7947
▁선고했다	-10.795
▁미리	-10.7951
▁영국과	-10.7953
화된	-10.7957
버렸다	-10.7958
▁상당수	-10.7966
▁딘	-10.7972
▁간에	-10.7975
▁안으로	-10.7976
▁표준	-10.7979
▁토대	-10.7981
▁주권	-10.7984
▁시사	-10.7987
▁기분이	-10.7991
▁위원장이	-10.7991
▁방송에	-10.7993
▁도착할	-10.7994
내용	-10.7996
▁홍	-10.7998
▁기아	-10.7998
▁이슈	-10.7999
▁막아	-10.8002
▁열었다	-10.8002
업자들	-10.8004
▁결심	-10.8009
▁신장	-10.8013
▁궁	-10.8016
tr	-10.8018
결과	-10.8021
▁출두	-10.8026
▁응답	-10.8029
▁공정	-10.803
확실한	-10.804
▁자라	-10.8041
▁판결이	-10.8046
▁떨어졌	-10.8049
▁출신으로	-10.8057
▁사무	-10.8058
▁석방됐다	-10.8065
▁예정이었	-10.8069
▁An	-10.8074
▁수여	-10.8076
▁재정적	-10.8078
▁기각	-10.8091
▁받아들여	-10.81
▁제작자	-10.8101
났다	-10.8103
▁바뀌	-10.8104
▁지구에	-10.8117
옥	-10.8117
▁소년이	-10.8122
넨	-10.8123
▁국가비상사태	-10.8128
▁FIFA	-10.8129
▁IBM	-10.8129
▁먹고	-10.8129
▁선거관리위원회	-10.8129
▁앞섰다	-10.8129
▁하이브리드	-10.8129
▁주유소	-10.8129
▁open	-10.8129
▁자전거	-10.8129
▁섹시	-10.8129
▁상관	-10.8129
▁티벳	-10.8129
▁윈프리	-10.8129
▁최루탄	-10.8129
▁교착	-10.8129
▁켈리	-10.8129
▁사과했다	-10.8129
▁부양책	-10.8129
▁AIG	-10.8129
▁좌석	-10.8129
▁바꿀	-10.8129
▁BDA	-10.813
▁MDC	-10.813
▁급습	-10.813
▁이뤄질	-10.8131
▁돌아갈	-10.8131
▁설계	-10.8131
▁앨런	-10.8131
▁독감	-10.8131
▁서식하	-10.8132
▁추모	-10.8132
▁데리고	-10.8133
쪽	-10.8134
▁CD	-10.8134
▁재배치	-10.8134
▁통행	-10.8135
▁by	-10.8136
▁줄이기	-10.8137
▁심판	-10.8138
▁휴일	-10.8139
▁개체수	-10.8139
▁보증	-10.814
▁던진	-10.814
▁윌슨	-10.8142
▁출장	-10.8143
▁서브	-10.8144
▁피난	-10.8145
▁해석	-10.8146
▁전형적	-10.8147
▁인터	-10.8151
스카	-10.8153
▁여파	-10.8155
▁도난	-10.8155
▁탈북자	-10.8156
▁않았습니다	-10.8161
▁AS	-10.8162
▁꽃	-10.8163
▁셰	-10.8164
작업	-10.8166
윈	-10.8168
▁아미	-10.8169
▁발견됐	-10.8171
▁골드	-10.8174
▁산하	-10.8175
▁공개하지	-10.8179
▁드레스	-10.818
닉	-10.8181
▁얻게	-10.8182
▁전격	-10.8184
라데	-10.8185
롱	-10.8186
aid	-10.8187
▁국회에서	-10.8187
▁권고했다	-10.819
콘	-10.8191
▁명백한	-10.8191
곡	-10.8191
▁활동에	-10.8192
칼	-10.8192
벤	-10.8194
▁외국인들	-10.8196
▁원장	-10.8197
▁AI	-10.8199
▁사라지	-10.8199
▁외상	-10.82
▁공주	-10.8206
▁메리	-10.8208
수술	-10.8209
▁피하기	-10.8214
▁김치	-10.8215
ure	-10.8219
▁축	-10.822
▁관객	-10.8224
ong	-10.8226
▁분석했다	-10.8233
▁떠난	-10.8234
▁거리에서	-10.8236
▁코스	-10.8237
▁수감된	-10.8238
▁양자	-10.8239
교육	-10.8242
▁Bo	-10.8242
▁그랜드	-10.8243
▁였다	-10.8246
에르	-10.8249
▁이라크내	-10.8249
▁지역인	-10.825
▁준다	-10.8251
▁판매량	-10.8253
▁방법에	-10.8257
나무	-10.8263
▁사안	-10.8264
▁BA	-10.8274
▁발견되지	-10.8275
▁공격한	-10.8285
▁출신인	-10.8289
▁거부한	-10.829
데스	-10.8292
▁차지하는	-10.8298
▁초에	-10.8313
▁테러범들	-10.8318
▁모두에게	-10.8323
▁Al	-10.8325
▁조언	-10.8329
▁것들	-10.8331
▁서쪽	-10.8337
▁동영상에서	-10.8344
▁군과	-10.8352
▁모아	-10.8352
▁현상이	-10.8358
▁가리	-10.836
▁담고	-10.836
▁이씨	-10.836
▁고안	-10.8362
▁점이	-10.8367
▁네바다	-10.837
▁의원들이	-10.8375
룰	-10.8375
둥	-10.8376
콤	-10.8378
▁데이비스	-10.8378
냉	-10.8378
▁troop	-10.8379
▁국제우주정거장	-10.8379
▁맨해튼	-10.8379
▁무렵	-10.8379
▁바티칸	-10.8379
▁스탈린	-10.8379
▁유람선	-10.8379
▁호나우두	-10.8379
▁Day	-10.8379
▁깨끗	-10.8379
▁퇴진	-10.8379
▁Show	-10.8379
▁국무총리	-10.8379
▁언덕	-10.8379
▁행렬	-10.8379
▁요즘	-10.8379
▁시티그룹	-10.8379
▁아스날	-10.8379
▁왜곡	-10.8379
▁유괴	-10.838
▁국민투표	-10.838
▁보조금	-10.838
▁동참	-10.838
▁자발적	-10.838
▁절약	-10.8381
▁존스턴	-10.8381
▁자동차업계	-10.8381
▁연승	-10.8381
▁창설	-10.8382
▁아기들	-10.8382
▁불안정	-10.8382
▁역임	-10.8383
▁가끔	-10.8383
▁모집	-10.8385
▁연방정부	-10.8385
▁행동이	-10.8385
▁열리	-10.8386
됐는지	-10.8387
▁개성	-10.8389
▁만능	-10.8391
▁피랍된	-10.8392
▁혼자	-10.8392
▁My	-10.8394
▁시골	-10.8394
▁합의문	-10.8394
▁상병	-10.8395
▁수컷	-10.8396
▁도청	-10.8396
▁부속	-10.8396
분야	-10.8396
▁위생	-10.8397
▁지원금	-10.8397
▁후임	-10.8403
▁준장	-10.8403
대사	-10.8406
▁눈물	-10.8409
▁지나가	-10.841
▁화장	-10.8411
▁제치	-10.8412
▁퀸	-10.8414
▁젊은이들	-10.8415
▁유럽과	-10.8419
▁유물	-10.8421
▁발매	-10.8423
po	-10.8425
▁편의	-10.8425
국의	-10.8425
▁출전하지	-10.8427
황	-10.8429
▁경주	-10.8433
▁불가능하다	-10.8438
▁조선	-10.8439
▁매수	-10.8439
ick	-10.8441
좌	-10.8443
▁공개한	-10.8444
▁돌아와	-10.8444
동맹	-10.8445
라면	-10.8452
▁아프간에	-10.8455
▁칼리	-10.8458
▁병력이	-10.8461
▁전용	-10.8462
ts	-10.8463
▁호주에서	-10.8466
노조	-10.8469
▁단장	-10.8478
쟁	-10.848
▁취하고	-10.848
▁포트	-10.8484
▁학생들에게	-10.8487
▁충	-10.8488
▁영화에서	-10.8489
▁본드	-10.8489
카르	-10.8497
▁변화에	-10.8507
▁유해	-10.8507
보기	-10.8513
▁내지	-10.8519
▁회사에	-10.8529
ma	-10.8532
▁인정하지	-10.8538
▁갔	-10.8541
▁별도	-10.8542
▁판다	-10.8544
위원	-10.8549
▁참가한	-10.8553
웠	-10.8561
na	-10.8569
병원	-10.8572
▁이적	-10.8572
무라	-10.8572
▁지방에서	-10.8575
TV	-10.858
▁의제	-10.8603
이라면	-10.8603
▁남겨	-10.8609
▁뉴저지	-10.8625
▁용납	-10.8627
▁민주당이	-10.8629
촌	-10.863
ab	-10.863
▁방송에서	-10.8631
렐	-10.8632
▁광부	-10.8634
▁가즈프롬	-10.8635
▁내무장관	-10.8635
▁디트로이트	-10.8635
▁럼스펠드	-10.8635
▁마이스페이스	-10.8635
▁믿는다	-10.8635
▁박격포	-10.8635
▁억만장자	-10.8635
▁음주운전	-10.8635
▁인명피해	-10.8635
▁저렴	-10.8635
▁창기라이	-10.8635
▁러닝메이트	-10.8635
▁후지모리	-10.8635
▁라호르	-10.8635
▁피츠버그	-10.8635
▁take	-10.8635
▁코카인	-10.8635
▁가져올	-10.8635
▁알제리	-10.8635
▁국방위원장	-10.8635
▁아빠	-10.8636
▁미셸	-10.8636
▁돌아올	-10.8636
▁APEC	-10.8636
▁워렌	-10.8636
▁LG	-10.8637
▁참배	-10.8637
▁산맥	-10.8637
▁굿	-10.8638
▁클라크	-10.8638
▁치매	-10.8639
▁발령	-10.8639
▁전쟁이	-10.8641
▁매입	-10.8641
▁로켓포	-10.8641
▁의심되는	-10.8643
▁부결	-10.8643
▁파커	-10.8643
▁회계	-10.8644
▁미라	-10.8644
▁시민권	-10.8644
▁구조작업	-10.8652
▁약탈	-10.8657
▁걸렸다	-10.8657
▁던졌다	-10.8661
▁분경	-10.8663
▁해방	-10.8665
▁이스라엘에	-10.8666
▁돌아왔다	-10.8667
▁않습니다	-10.8667
▁프레	-10.8672
▁투표율	-10.8673
▁납치한	-10.8675
▁업무를	-10.8679
▁실패한	-10.8681
▁진행될	-10.8683
▁d	-10.8683
▁당일	-10.8684
▁하비	-10.8686
▁전사	-10.8688
▁한달	-10.8688
▁인치	-10.869
▁덜	-10.8691
▁진행중	-10.8693
▁불과하다	-10.8693
느	-10.8693
▁클린턴과	-10.8695
▁호텔에	-10.8695
▁강간	-10.8696
▁평화상	-10.8698
균	-10.8702
▁해안에	-10.8704
▁자치	-10.8708
맥	-10.8709
홀	-10.8711
▁민간인들	-10.8711
▁빌리	-10.8716
▁휘	-10.8718
조약	-10.8722
▁재고	-10.8729
▁You	-10.873
▁것이기	-10.8731
▁나치	-10.8733
▁Y	-10.8733
▁출	-10.8738
스크	-10.874
▁북부에서	-10.8742
ail	-10.8742
▁시작됐	-10.8743
커스	-10.8746
▁부리	-10.8746
▁느	-10.8749
▁롤	-10.8751
▁아는	-10.8751
▁간부	-10.8752
돼있다	-10.8754
▁맞은	-10.8756
▁찾아내	-10.8762
▁유기	-10.8764
▁파크	-10.8766
▁인공	-10.8767
▁세운	-10.8768
▁틀	-10.8774
▁교도소에서	-10.8774
▁수락	-10.8775
▁계속할	-10.878
▁연말	-10.8786
ne	-10.8787
담당	-10.8788
▁가르	-10.8788
식이	-10.8792
▁피랍	-10.8792
지원	-10.8795
▁비극	-10.8803
▁프랑스에서	-10.8803
용으로	-10.8807
▁벌어지	-10.8808
하러	-10.8815
▁부상자들	-10.8816
▁때문이라	-10.8817
▁웨이	-10.8818
▁상사	-10.882
▁이슬라마바드	-10.8822
▁시간에	-10.8831
▁페리	-10.8832
▁수사에	-10.8832
co	-10.8836
▁보좌관들	-10.8838
스테	-10.884
군의	-10.8842
▁재무	-10.885
▁군중들	-10.885
더스	-10.8856
▁베어	-10.8864
▁이들에게	-10.8864
▁가즈니	-10.8876
▁에티오피아	-10.8877
호가	-10.8881
제품	-10.8884
▁아시아에서	-10.8886
핑	-10.8887
▁위치해	-10.8889
▁중점	-10.889
▁잇따	-10.8894
냥	-10.8894
▁금메달	-10.8898
▁엘리베이터	-10.8898
▁최고경영자	-10.8898
껏	-10.8898
넌	-10.8898
▁북극곰	-10.8898
▁라모스	-10.8898
▁남아프리카공화국	-10.8898
▁돌아다니	-10.8898
▁넬슨	-10.8898
▁떠오르	-10.8898
▁재배	-10.8899
▁포획	-10.8899
▁결합	-10.89
▁설정	-10.8901
▁처형	-10.8902
▁배심원단	-10.8902
▁진료	-10.8902
▁석방된	-10.8902
▁대테러	-10.8903
▁마찰	-10.8903
▁실무	-10.8904
▁파편	-10.8904
소한	-10.8904
▁밀러	-10.8905
▁펄	-10.8906
▁포경선	-10.8906
▁예선	-10.8909
▁다가오	-10.891
▁던져	-10.8911
▁환수	-10.8911
▁난민들	-10.8912
▁사이버	-10.8913
▁반등	-10.8914
▁미셀	-10.8915
▁배포	-10.8918
▁소유주	-10.8919
▁거친	-10.8921
▁사회당	-10.8921
▁사라진	-10.8924
▁찾았다	-10.8926
▁넣었다	-10.8927
▁쉬운	-10.8927
▁사살했다	-10.8929
자리	-10.8932
냈	-10.8933
▁맞았다	-10.8934
안토니오	-10.8936
▁전체가	-10.8938
▁먼지	-10.894
▁그곳에서	-10.894
▁대비해	-10.8948
▁기원	-10.8948
▁캔	-10.8951
▁여단	-10.8954
원인	-10.8955
률이	-10.8958
▁전파	-10.896
▁로드	-10.8961
ha	-10.8965
궁	-10.8967
▁성분	-10.8981
▁써	-10.8984
신문	-10.899
인데	-10.8993
▁독재자	-10.9
▁확인하기	-10.9003
▁한명	-10.9005
성에	-10.9006
하겠	-10.9007
▁열기	-10.9009
▁수년	-10.9009
▁제공하기	-10.9009
▁것일	-10.9011
▁정부군과	-10.9015
▁선택했다	-10.9017
▁대선에	-10.902
▁기울	-10.9022
▁월스트리트	-10.9024
▁전시회	-10.9029
자료	-10.9029
학과	-10.9033
▁표시했다	-10.9035
▁걸려	-10.9036
▁부위	-10.9039
▁폭로	-10.9041
▁남쪽	-10.9042
▁해왔다	-10.9043
▁대원들	-10.9045
돼있	-10.9056
시장에서	-10.9057
ig	-10.9058
▁보유한	-10.906
▁이른	-10.9062
▁유지할	-10.9063
▁약속한	-10.9063
▁축출	-10.9065
▁일시적	-10.9066
▁모리	-10.9066
▁과격	-10.9077
▁목적이	-10.9078
▁렌	-10.9085
▁바지	-10.9087
▁회원들	-10.9103
점으로	-10.9106
룬	-10.911
▁장소에서	-10.9113
▁그들에게	-10.9119
▁당황	-10.9119
▁만났	-10.912
▁차지한	-10.9121
▁즐기는	-10.9121
▁년형	-10.9121
▁서한	-10.9122
어질	-10.9122
▁수요일에	-10.9131
▁장교	-10.9131
버트	-10.9136
▁활동이	-10.9137
▁처음에	-10.9146
▁일단	-10.9148
▁소유한	-10.9148
스탄	-10.9152
탁	-10.9153
▁치를	-10.9156
▁벗	-10.9157
▁풀어	-10.9161
▁중상	-10.9161
▁휩쓸	-10.9166
▁오스카	-10.9166
▁투명	-10.9167
▁military	-10.9168
▁굉장	-10.9168
▁브루니	-10.9168
▁시애틀	-10.9168
▁엉덩이	-10.9168
▁해수욕장	-10.9168
▁그린피스	-10.9168
▁크레이그	-10.9168
▁바하마	-10.9168
▁애완동물	-10.9168
▁흘러	-10.9168
▁대한민국	-10.9168
▁카지노	-10.9168
▁고등법원	-10.9169
▁Intern	-10.9169
▁브레이크	-10.9169
▁면접	-10.9169
▁스콧	-10.9169
▁무소속	-10.9169
▁State	-10.9169
▁동굴	-10.9169
▁밝혀냈다	-10.9169
▁슈퍼볼	-10.9169
▁오늘밤	-10.917
▁낭비	-10.917
▁불황	-10.917
▁좌파	-10.9171
▁장벽	-10.9171
보드	-10.9171
▁추천	-10.9171
▁소총	-10.9171
▁텐트	-10.9171
▁절감	-10.9172
▁돌아온	-10.9172
▁정밀	-10.9172
▁사진들	-10.9172
▁외쳤다	-10.9172
▁생명체	-10.9173
▁소비자들이	-10.9173
▁유골	-10.9173
▁승점	-10.9173
▁치른	-10.9174
▁교내	-10.9174
▁금속	-10.9174
▁창조	-10.9174
▁다행히	-10.9175
▁반환	-10.9175
▁보수당	-10.9176
▁휴식	-10.9177
▁병사들이	-10.9178
▁네바다주	-10.9178
▁매출	-10.9178
▁기념식	-10.9179
▁위축	-10.9179
▁위협에	-10.918
▁느낀다	-10.9181
▁클린턴에	-10.9182
▁인도분	-10.9182
▁단식	-10.9183
학생	-10.9184
▁할지	-10.9185
▁헐	-10.9186
▁김씨	-10.9187
▁밀어	-10.9188
▁풍	-10.9188
BC	-10.9189
▁아민	-10.9191
▁남미	-10.9192
out	-10.9193
▁무산	-10.9194
▁분야에	-10.9195
▁화제	-10.9195
▁제보	-10.9196
▁알라	-10.9198
▁소화	-10.9199
▁공안	-10.92
▁케이시	-10.9202
▁구단	-10.9203
▁받아들이지	-10.9206
YO	-10.9207
▁출연해	-10.9207
id	-10.9207
▁나체	-10.9209
▁버지니아주	-10.9209
▁경찰청	-10.9209
▁근처에	-10.9213
▁남쪽으로	-10.9214
시티	-10.9222
▁좋아한다	-10.9224
▁장성	-10.9227
▁통해서	-10.9228
▁지지자들에게	-10.923
▁이어졌다	-10.9231
▁원치	-10.9234
연구	-10.924
안전	-10.9243
▁번지	-10.9245
▁거래됐다	-10.9245
킹	-10.9252
멜	-10.9253
납	-10.9255
척	-10.9256
▁컵	-10.9258
▁과제	-10.9258
Y	-10.9258
▁피어	-10.9259
캐	-10.9261
앤	-10.9261
타운	-10.9262
김	-10.9262
▁살아남	-10.9264
▁입어	-10.9267
때까지	-10.9269
▁전하고	-10.9273
▁go	-10.9274
▁국경지역	-10.9275
▁Ha	-10.9277
▁강타한	-10.9281
▁언급한	-10.9284
▁제일	-10.9286
▁복장	-10.9286
▁위장	-10.9287
▁유지하	-10.9294
되었는데	-10.9294
▁러시아와	-10.9296
▁위안	-10.9298
▁입수한	-10.9298
▁탄도	-10.9302
▁명단에	-10.9305
▁참여했다	-10.9307
▁내리는	-10.9307
타임	-10.931
▁재해	-10.9317
▁폭력사태로	-10.9322
▁최고위	-10.9325
▁성명서	-10.9326
▁신원이	-10.9331
▁시일	-10.934
▁이라크인	-10.9343
▁법적으로	-10.9343
▁방문에	-10.9345
▁세트에서	-10.9353
▁대안	-10.9353
▁결정이	-10.9357
▁시청자들	-10.9361
▁인정받	-10.9363
▁상원에서	-10.9365
▁리오	-10.9367
▁목요일에	-10.9367
▁받으	-10.9367
▁종식	-10.9368
▁조국	-10.9376
▁친환경	-10.9381
▁자녀들	-10.9387
os	-10.9388
▁취소했다	-10.9389
마르	-10.9397
▁안나	-10.9402
▁압	-10.9403
▁밝히기	-10.9409
▁발이	-10.9423
벨트	-10.9424
▁쳐	-10.9426
▁피고인	-10.9426
까요	-10.9427
▁전쟁에서	-10.9427
▁이민자들	-10.9428
▁못하다	-10.9431
▁편집	-10.9434
사고	-10.9435
▁Pa	-10.9439
▁알려	-10.9443
▁얻었	-10.9444
▁원주민	-10.9446
▁Associat	-10.9446
▁England	-10.9446
▁기준금리	-10.9446
▁듣지	-10.9446
▁머리카락	-10.9446
▁버냉키	-10.9446
▁슬픔	-10.9446
▁원자바오	-10.9446
▁크로아티아	-10.9446
▁텔레비전	-10.9446
▁트라볼타	-10.9446
▁헬리콥터	-10.9446
▁호날두	-10.9446
▁규칙	-10.9446
▁유수프	-10.9446
▁침묵	-10.9446
▁스튜디오	-10.9446
▁바바라	-10.9446
▁휴스턴	-10.9446
▁감바	-10.9446
▁멸종위기	-10.9447
▁신용카드	-10.9447
▁놀랄	-10.9447
▁처방	-10.9447
▁숨겨	-10.9447
▁모험	-10.9447
▁대선주자	-10.9448
▁논문	-10.9448
▁요르단강	-10.9448
▁남녀	-10.9448
▁레이저	-10.9449
축구연맹	-10.9449
▁재선	-10.9449
▁반체제	-10.9449
▁도핑	-10.9449
▁구호품	-10.945
▁금융시장	-10.9451
▁탐사선	-10.9454
▁대기업	-10.9457
▁역대	-10.9457
▁입력	-10.9458
▁일어나지	-10.946
▁가택	-10.9461
▁코피	-10.9462
▁세가	-10.9464
▁졸업	-10.9464
▁지나치	-10.9464
▁느끼는	-10.9465
▁헬	-10.9465
▁우승자	-10.9468
▁개발한	-10.9469
▁시카고에서	-10.947
업체들	-10.9471
▁첫날	-10.9471
▁끝났다	-10.9471
▁폴슨	-10.9473
하에	-10.9473
▁작용	-10.9477
▁라울	-10.9477
▁경비원	-10.9478
▁조씨	-10.9479
▁복지	-10.948
▁장기적	-10.9482
▁여기서	-10.9486
▁이르기	-10.9486
▁계속하고	-10.9487
▁유명하다	-10.9494
▁개설	-10.9494
▁약품	-10.9496
▁카르	-10.95
▁중단됐다	-10.9501
▁탈레반과	-10.9502
▁선원들	-10.9503
▁날이	-10.9505
▁결함	-10.9508
장비	-10.9509
▁틸	-10.9512
▁For	-10.9513
▁가족들에게	-10.9515
▁절도	-10.9523
▁이른다	-10.9523
▁선적	-10.9525
▁fir	-10.9527
▁군중	-10.9527
▁세부	-10.9527
▁처분	-10.9531
▁확인되	-10.9536
▁시작될	-10.9538
투표	-10.9541
▁대통령으로	-10.9541
▁투기	-10.9542
RK	-10.9542
▁워터	-10.9544
서비스	-10.9547
▁중반	-10.9548
▁강에	-10.9551
▁결승전	-10.9552
구조	-10.9552
ss	-10.9552
세계	-10.9554
시에서	-10.9554
월드	-10.9557
▁과정에	-10.9561
▁개최된	-10.9561
▁총리직	-10.9564
▁민주적	-10.9566
▁멜	-10.9577
베스	-10.9581
▁쓰는	-10.9586
▁바닥에	-10.9587
▁변호인	-10.9591
▁배심원	-10.9592
▁강화할	-10.9593
▁선박이	-10.9596
▁움직임이	-10.9598
▁탐험	-10.9599
▁연구가	-10.96
▁조직원	-10.9603
▁집회에	-10.9604
부를	-10.9608
▁남아있	-10.962
der	-10.962
▁돌입	-10.9627
▁다수의	-10.963
▁들어와	-10.9632
▁농민	-10.9633
▁선출된	-10.9635
▁플	-10.9637
▁피살	-10.9638
세포	-10.9638
▁공무원들	-10.9641
바르	-10.9647
ast	-10.9647
텐	-10.9648
기때문에	-10.9654
▁취하지	-10.9657
▁형태로	-10.9657
▁조치로	-10.9665
▁자카르타	-10.9665
카드	-10.9667
▁물어	-10.9678
사이트	-10.9681
어요	-10.9681
럴	-10.9681
▁급락	-10.9682
▁지수가	-10.9688
▁추락한	-10.969
▁AT	-10.9696
럽	-10.9706
me	-10.9712
치료	-10.9719
▁넘겨	-10.972
▁구제금융	-10.9721
▁요청한	-10.9721
▁음료	-10.9725
▁내고	-10.9728
▁알바니아	-10.973
닛	-10.9732
▁House	-10.9732
▁뮌헨	-10.9732
▁산타클로스	-10.9732
▁애니메이션	-10.9732
▁애틀랜타	-10.9732
▁칸다하르	-10.9732
NEW	-10.9732
▁맥케인	-10.9732
▁식민지	-10.9732
▁브루스	-10.9732
▁마사지	-10.9732
▁히드로	-10.9732
▁Part	-10.9733
▁적응	-10.9733
▁몸값	-10.9733
▁기획	-10.9734
▁집필	-10.9734
▁군사작전	-10.9735
▁금년	-10.9735
▁출국	-10.9736
▁가죽	-10.9736
▁마침	-10.9737
▁새겨	-10.9737
▁권위	-10.9738
▁소유권	-10.9739
▁칼라	-10.9739
▁추문	-10.974
▁장거리	-10.974
air	-10.9742
▁모래	-10.9743
▁복수	-10.9743
▁불교	-10.9744
▁나와즈	-10.9744
▁대폭	-10.9744
▁편안	-10.9745
▁신병	-10.9745
▁모으	-10.9746
▁주주들	-10.9746
▁다이애나비	-10.9748
같이	-10.9748
▁받아들였다	-10.9748
▁대령	-10.975
▁모았다	-10.9751
▁구경	-10.9751
▁주말에	-10.9751
▁교육부	-10.9751
▁프로그램이	-10.9753
▁예선전	-10.9754
▁있겠	-10.9754
▁알렌	-10.9755
▁관점에서	-10.9762
▁상관없	-10.9764
▁변호사들	-10.9769
▁자정	-10.9769
▁장기간	-10.9769
▁예정되어	-10.9771
▁태우고	-10.9773
▁녹화	-10.9776
▁폭격기	-10.9777
▁여아	-10.9778
▁참사	-10.978
▁인명	-10.9782
▁남성과	-10.9785
▁주소	-10.9787
▁효율적	-10.9788
▁돈이	-10.9789
▁시계	-10.9789
▁차원에서	-10.9791
▁여야	-10.9791
▁발달	-10.9793
▁그곳에	-10.9799
▁증언했다	-10.9799
▁인도주의적	-10.9801
▁하더라	-10.9802
받은	-10.9805
▁레이더	-10.9806
▁데비	-10.9808
▁제외하고	-10.9811
슬리	-10.9811
▁클로	-10.9812
▁조절	-10.9815
라인	-10.9815
▁구호단체	-10.9822
day	-10.9823
▁입원했다	-10.9824
▁대우	-10.9825
▁파키스탄에	-10.9825
▁특별히	-10.9825
▁무시하	-10.9829
▁오바마에	-10.9834
▁have	-10.9834
▁프라	-10.9844
▁확신했다	-10.9846
▁생존자들	-10.9846
▁들었	-10.9849
▁중심부	-10.985
베르	-10.9852
▁경우에	-10.9854
디스	-10.9859
▁확인된	-10.9863
▁제트	-10.9867
어진	-10.9868
▁중계	-10.9868
▁대회에	-10.987
▁이송됐다	-10.9878
▁기울이	-10.9881
▁투자자	-10.9886
▁판결에	-10.9893
da	-10.9896
▁내리고	-10.9904
▁내용에	-10.9904
▁개발에	-10.9905
▁정치적으로	-10.9905
▁예술가	-10.9908
▁줄리	-10.991
▁내게	-10.9912
▁평양에서	-10.9913
▁선장	-10.9914
▁경제학자들	-10.9915
▁초래	-10.9917
▁어린이들이	-10.9926
기금	-10.9926
▁대답했다	-10.9928
▁있었기	-10.993
▁있으	-10.9934
▁국회의원들	-10.9935
▁없애	-10.9939
▁원하지	-10.994
▁강화하고	-10.9941
▁장악	-10.9946
▁명령했다	-10.9949
ice	-10.9953
장과	-10.9954
mp	-10.9958
ti	-10.9965
▁교전이	-10.9965
만으로	-10.9966
▁소속의	-10.9976
▁말에	-10.9978
▁제작된	-10.998
▁일으키는	-10.9984
▁자랑	-10.9985
▁묵	-10.9988
▁dis	-10.9989
현정	-10.9995
부가	-10.9997
베리	-10.9998
▁열렸	-11
▁재활	-11
▁금연	-11.0002
▁필립	-11.0003
▁실업	-11.0007
▁이슬람교	-11.0008
▁분쟁이	-11.001
▁강행	-11.0013
▁한다면	-11.0017
▁주당	-11.002
▁지역이	-11.0022
▁엘리	-11.0024
▁세탁	-11.0025
▁끊임없	-11.0026
▁느꼈다	-11.0026
▁땅에	-11.0026
▁떨어질	-11.0026
▁마케팅	-11.0026
▁베어스턴스	-11.0026
▁베탕쿠르	-11.0026
▁부적절	-11.0026
▁브리트니	-11.0026
▁비즈니스	-11.0026
▁썼다	-11.0026
▁아칸소	-11.0026
▁에르도간	-11.0026
▁에스토니아	-11.0026
▁오케스트라	-11.0026
▁타협	-11.0026
▁테러지원국	-11.0026
▁펭귄	-11.0026
▁캔자스	-11.0026
▁되돌아	-11.0026
▁오렌지	-11.0026
▁맥도날드	-11.0026
▁소탕작전	-11.0026
▁줬다	-11.0027
▁남기	-11.0027
▁고릴라	-11.0027
▁영광	-11.0029
일라	-11.0029
▁수만명	-11.0029
▁호송	-11.0029
▁버튼	-11.0029
▁저택	-11.0029
▁USA	-11.003
▁조짐	-11.003
최지	-11.0031
▁적자	-11.0031
▁만여명	-11.0032
▁영감	-11.0032
▁타결	-11.0032
▁개념	-11.0035
▁서약	-11.0035
▁들어온	-11.0035
▁Con	-11.0037
▁평소	-11.0037
▁포위	-11.004
▁풀려났다	-11.004
▁국가인	-11.004
▁식수	-11.0041
▁줄이는	-11.0041
▁파문	-11.0043
▁여유	-11.0043
▁입구	-11.0044
▁공조	-11.0045
▁연방준비제도이사회	-11.0046
▁가져다	-11.0046
▁사회에	-11.005
▁갈라	-11.005
▁적극	-11.0051
▁적십자사	-11.0052
▁겪었다	-11.0053
▁버전	-11.0054
▁미치지	-11.0058
▁저지르	-11.0058
▁잡았다	-11.0058
▁유용	-11.0058
▁앞선	-11.0059
▁하산	-11.0059
▁가자지구에서	-11.0063
▁지속되	-11.0066
▁일원	-11.0066
▁슛	-11.0068
son	-11.0074
▁괴한	-11.0076
▁갖기	-11.0079
▁방문객들	-11.0081
▁파일	-11.0086
▁Gr	-11.0087
▁해명	-11.0088
▁인도네시아에서	-11.0095
▁붕괴된	-11.0096
▁클리	-11.0096
▁전년	-11.0103
농	-11.0106
▁싶어한다	-11.0113
▁나아가	-11.0114
▁주차	-11.0117
▁성지	-11.0122
▁미만	-11.0122
▁세관	-11.0128
▁펼쳐	-11.0129
▁청년	-11.0129
▁도주	-11.0132
▁행사에서	-11.0133
얀	-11.0138
▁중심에	-11.0139
협정	-11.0141
홍	-11.0142
떼	-11.0142
▁손자	-11.0142
▁말하면서	-11.0147
▁건수	-11.0149
어져	-11.015
▁국회에	-11.015
▁재판이	-11.015
▁심사	-11.0151
▁En	-11.0153
▁재판에	-11.0153
▁프랑스와	-11.0156
▁보호하고	-11.0156
있었다	-11.0166
▁유지하기	-11.0171
▁동맹국들	-11.0173
▁파손됐다	-11.0177
▁지원하기	-11.018
▁킨	-11.0181
▁자금이	-11.0183
▁통신사	-11.0188
스에서	-11.0191
▁여사와	-11.0191
▁오리	-11.0194
▁비만	-11.0195
▁죽었다	-11.0198
▁생산하는	-11.0198
부분	-11.0205
▁관광지	-11.0209
▁독재	-11.0215
▁제공하고	-11.0217
▁사람과	-11.0231
▁쏟아	-11.0231
▁앙	-11.0232
선거	-11.0234
▁근무하	-11.0238
▁부르는	-11.0245
▁바닥	-11.0247
▁논의했다	-11.0253
▁사임했다	-11.0256
▁고무	-11.0259
▁공판	-11.0263
▁물었다	-11.0266
한국	-11.0268
▁높아	-11.0271
▁클라	-11.0271
럼	-11.0274
▁가족에게	-11.0274
▁의장이	-11.0276
▁전체에	-11.0282
▁추락했다	-11.0284
받고	-11.0288
▁벌어졌	-11.0288
▁나타났	-11.0291
▁요청할	-11.0294
▁인접	-11.0295
▁파파라치	-11.0295
▁안전에	-11.0297
워드	-11.0304
▁자행	-11.0309
나갈	-11.031
당했다	-11.0311
사이	-11.0313
널	-11.0313
▁Be	-11.0315
ner	-11.0315
▁마을에	-11.0315
▁오클라호마	-11.0321
렘	-11.0322
▁기술이	-11.0324
▁득표	-11.0328
딜	-11.0329
겔	-11.0329
눌	-11.0329
▁Foreign	-11.0329
▁WTO	-11.0329
▁골든글로브	-11.0329
▁구호물품	-11.0329
▁뉴욕타임스	-11.0329
▁동유럽	-11.0329
▁야스쿠니	-11.0329
▁유니세프	-11.0329
▁일으켜	-11.0329
▁좋게	-11.0329
▁침팬지	-11.0329
▁티셔츠	-11.0329
▁포괄적	-11.0329
▁항생제	-11.0329
▁황우석	-11.0329
▁흰색	-11.0329
렁	-11.0329
▁덕분에	-11.0329
▁유조선	-11.0329
▁say	-11.0329
▁다운로드	-11.0329
▁크로커	-11.0329
week	-11.0329
▁니케이	-11.0329
▁첩보	-11.0329
▁유적지	-11.0329
▁모로코	-11.0329
▁Time	-11.0329
▁종합	-11.0329
▁Secretary	-11.0329
▁착취	-11.0329
▁혈액	-11.0329
▁바꿔	-11.033
▁출범	-11.033
▁트로피	-11.033
▁양키스	-11.033
▁요새	-11.033
▁운반	-11.033
의원	-11.0331
▁폭등	-11.0332
▁하얀	-11.0332
▁패리스	-11.0332
▁복권	-11.0332
▁근교	-11.0333
▁대략	-11.0333
▁어두운	-11.0333
▁현지경찰	-11.0333
▁지도자들과	-11.0334
▁풍선	-11.0334
▁안된다	-11.0334
▁차원	-11.0336
▁아이돌	-11.0336
▁거둔	-11.0338
▁볼튼	-11.0339
▁상반기	-11.0339
▁엘바	-11.034
▁설문	-11.034
▁영원	-11.0342
▁소란	-11.0343
▁쏘	-11.0346
▁알려주	-11.0346
▁명칭	-11.0348
▁뒤집	-11.0349
ah	-11.0349
▁제프리	-11.035
▁부유	-11.0352
▁타이어	-11.0352
▁모르겠다	-11.0353
▁입학	-11.0354
▁줄여	-11.0355
▁조속	-11.0355
해준	-11.0357
▁묘지	-11.0357
▁의자	-11.0357
▁예상보다	-11.036
ian	-11.0361
▁분실	-11.0365
▁전염	-11.0368
▁기권	-11.0369
▁트레	-11.037
▁제방	-11.0372
▁주장했지만	-11.0372
▁채권	-11.0373
▁미시간	-11.0373
▁중령	-11.0376
▁주류	-11.0376
▁실어	-11.0377
▁양성	-11.038
후보	-11.0381
▁시위자	-11.0382
▁명에서	-11.0383
▁투표할	-11.0387
레나	-11.0388
▁과시	-11.0395
▁추구	-11.0401
▁사용하기	-11.0404
▁지낸	-11.0404
롤	-11.0406
▁착용하	-11.0406
▁개최되	-11.0408
▁지구에서	-11.0408
▁보도한	-11.0418
▁스텔	-11.0423
▁사랑하는	-11.0429
▁프레드	-11.043
▁보낸다	-11.0433
▁보내기	-11.0436
▁끄	-11.0437
▁기리	-11.0442
▁기자들이	-11.0444
▁당의	-11.0445
생활	-11.0447
IS	-11.0447
ft	-11.0448
사령관	-11.0455
▁아시	-11.0461
▁과장	-11.0462
사진	-11.0463
생산	-11.0466
▁장착	-11.047
▁몽	-11.0472
▁설치된	-11.0476
ub	-11.0484
워진	-11.0488
▁흥미	-11.0488
▁신도	-11.0489
▁장악하	-11.049
▁참가하	-11.0492
to	-11.0494
▁증인	-11.0503
▁올리고	-11.0506
차이	-11.0507
▁부문에서	-11.0511
▁친척	-11.0516
▁납	-11.0526
▁있거	-11.0528
우드	-11.0529
▁가기	-11.0532
연대	-11.0538
▁con	-11.0538
▁환경에	-11.0544
▁서울에	-11.0548
▁나타난	-11.0551
받아	-11.0551
▁사용한다	-11.0552
▁라인	-11.0559
▁De	-11.0562
one	-11.0562
▁전설	-11.0564
회의에서	-11.0572
▁이해할	-11.0573
▁클레	-11.0578
▁명시	-11.059
inter	-11.0597
느냐	-11.0598
이기도	-11.0598
▁국무장관이	-11.0604
▁시까지	-11.0604
▁통일	-11.0605
▁파이	-11.0608
▁부장	-11.0611
▁지방의	-11.0613
▁사육	-11.0613
▁죽이	-11.0617
▁아바	-11.0621
▁자신에	-11.0622
land	-11.0623
잡	-11.0626
ie	-11.0628
▁표결	-11.0633
▁피닉스	-11.0637
왈	-11.0637
▁년전	-11.0639
▁아랍에미리트	-11.0641
리오	-11.0641
밍	-11.0642
▁AFP	-11.0642
▁NFL	-11.0642
▁WFP	-11.0642
▁걷는	-11.0642
▁국회의사당	-11.0642
▁로스앤젤레스	-11.0642
▁베이루트	-11.0642
▁불렀다	-11.0642
▁스튜어트	-11.0642
▁클루니	-11.0642
▁평화협상	-11.0642
▁되풀이	-11.0642
▁마라도나	-11.0642
▁제니퍼	-11.0642
▁모바일	-11.0642
▁셰이크	-11.0642
▁교과서	-11.0642
▁린제이	-11.0642
▁잔혹	-11.0642
▁election	-11.0642
TON	-11.0642
▁취득	-11.0642
▁여자아이	-11.0642
▁진흙	-11.0642
▁페이스북	-11.0642
▁LPGA	-11.0642
▁침범	-11.0642
▁흐름	-11.0642
▁칭찬	-11.0642
▁물러	-11.0642
▁정해지지	-11.0642
▁닉슨	-11.0643
▁학년	-11.0643
▁가속화	-11.0643
▁호킹	-11.0643
▁연극	-11.0643
▁워너	-11.0644
▁불평	-11.0644
▁같습니다	-11.0644
▁스카이	-11.0644
▁학위	-11.0645
▁점프하	-11.0646
▁기술자	-11.0646
▁모터	-11.0647
▁AU	-11.0647
▁추출	-11.0648
▁식물	-11.0648
▁병역	-11.0648
▁때로	-11.0649
▁뚫	-11.065
▁기습	-11.0651
▁현행	-11.0651
▁극단주의자들	-11.0651
▁지르	-11.0651
▁유행	-11.0653
▁정교	-11.0653
▁가자지구에	-11.0655
▁우방	-11.0655
▁전대통령	-11.0655
▁세인트	-11.0656
▁지연되	-11.0657
▁연임	-11.0659
▁광부들	-11.0659
▁줄이고	-11.066
▁전략적	-11.0662
▁보호하는	-11.0663
▁회부	-11.0665
▁동전	-11.0666
▁격리	-11.0666
▁가축	-11.0667
▁참여하는	-11.0668
▁머리에	-11.0668
▁디스	-11.0668
▁기후변화	-11.0669
▁인계	-11.0669
▁인체	-11.0669
▁정오	-11.067
▁참여하지	-11.0674
▁그라운드	-11.0675
▁비유	-11.0676
▁호화	-11.0676
▁불화	-11.0681
▁우리베	-11.0683
▁참석해	-11.0685
▁아이티	-11.0685
▁이룩	-11.0686
▁뉴욕에	-11.0688
▁열정	-11.0689
▁봉	-11.069
▁시달리고	-11.0692
▁연방수사국	-11.0693
▁거주지	-11.0694
▁위협하	-11.0694
▁성공회	-11.0694
▁반미	-11.0696
▁감시단	-11.0698
려진	-11.0699
▁실력	-11.0708
▁비교해	-11.0714
▁개조	-11.0719
▁자크	-11.0719
▁솔	-11.0719
통이	-11.072
달라	-11.0724
▁만여	-11.0725
▁노력에	-11.0725
▁바다로	-11.0728
▁독자	-11.073
▁당했	-11.0731
▁do	-11.0732
시켜야	-11.0737
▁사제	-11.074
▁이어질	-11.074
▁위협했다	-11.0741
았던	-11.0741
▁무장대원들	-11.0744
▁선정됐다	-11.0745
▁생성	-11.0746
▁수용할	-11.0747
안보	-11.0751
▁부자	-11.0753
버릴	-11.0753
▁끝나는	-11.0756
AR	-11.0758
▁닐	-11.0759
투어	-11.076
▁단기	-11.0762
▁서명했다	-11.0767
▁전범	-11.0767
▁정신과	-11.0767
▁주교	-11.0767
▁우주인	-11.0772
▁해외에서	-11.0773
J	-11.0774
▁인기가	-11.0777
▁상의	-11.078
시즌	-11.0781
개혁	-11.0782
▁들어가는	-11.0785
▁하도록	-11.079
▁동영상에	-11.0803
▁되었습니다	-11.0803
▁의원들에게	-11.0804
▁정보국	-11.0806
▁적당	-11.0813
머리	-11.0815
▁청소년들	-11.0823
인들에게	-11.0824
버린	-11.083
▁IT	-11.0831
▁떼	-11.0832
▁특이	-11.0833
▁파손되	-11.0834
요원	-11.0839
▁염려	-11.084
▁오픈에서	-11.0841
▁아내와	-11.0841
▁it	-11.0845
▁당국과	-11.085
ill	-11.085
군은	-11.0853
▁리버	-11.086
▁선언한	-11.0865
▁힐튼이	-11.0868
레이크	-11.087
▁관리자	-11.087
▁일상적	-11.0871
여부	-11.0872
▁어머니와	-11.0872
▁학생들과	-11.0878
▁모스	-11.088
▁Mar	-11.0882
▁참가했다	-11.0883
▁확보했다	-11.0884
▁기간에	-11.0886
▁헤어	-11.089
▁단계에	-11.0891
ting	-11.0891
▁유대	-11.0894
▁Vi	-11.0897
▁취급	-11.0897
▁혼란에	-11.0898
▁ur	-11.09
르게	-11.0903
▁중단하고	-11.0904
▁본국	-11.0908
해져	-11.0912
▁이뤄	-11.0914
▁지니	-11.0914
▁참석하기	-11.0921
▁남편과	-11.0929
▁주장이	-11.0931
전쟁	-11.0933
기위해	-11.0938
리어	-11.0939
ca	-11.0943
▁국민이	-11.0945
▁소방관	-11.0949
▁확고	-11.0952
▁비가	-11.0952
퀴	-11.0953
▁루이지애나	-11.0953
▁지지도	-11.0954
▁살아가	-11.0955
▁n	-11.0955
꾼	-11.0957
▁결의안에	-11.0957
PA	-11.0957
▁승자	-11.0961
▁선거전	-11.0962
팩	-11.0964
▁광우병	-11.0964
▁뉴캐슬	-11.0964
▁당나귀	-11.0964
▁매머드	-11.0964
▁무너져	-11.0964
▁싶은	-11.0964
▁이르렀다	-11.0964
▁재확인	-11.0964
▁집무실	-11.0964
▁카자흐스탄	-11.0964
▁국가주석	-11.0964
▁몸무게	-11.0964
마누엘	-11.0964
▁김선일	-11.0964
▁대주교	-11.0964
▁무너진	-11.0964
▁중산층	-11.0964
▁글래스고	-11.0964
▁예언자	-11.0964
▁지중해	-11.0964
▁영부인	-11.0964
▁세비야	-11.0964
▁퇴치	-11.0964
ASH	-11.0964
▁효력	-11.0964
▁수십억	-11.0965
▁맞붙	-11.0965
▁쇼핑몰	-11.0965
▁연휴	-11.0965
▁벌어들	-11.0965
▁둘째	-11.0965
▁아마존	-11.0965
▁왕복선	-11.0965
▁높아졌다	-11.0965
▁농담	-11.0965
▁공군기지	-11.0965
▁레논	-11.0966
▁예배	-11.0966
문화	-11.0966
▁당원	-11.0966
▁취약	-11.0966
▁허블	-11.0966
▁몰래	-11.0966
▁유혈	-11.0967
▁할아버지	-11.0967
▁선데이	-11.0967
▁밤새	-11.0968
▁공백	-11.0968
▁제안한	-11.0968
▁피닉스호	-11.097
▁종양	-11.0971
국들	-11.0971
▁mm	-11.0972
▁제패	-11.0973
▁천문학자들	-11.0973
▁폐기물	-11.0974
▁우연	-11.0974
보고	-11.0974
▁감량	-11.0975
▁계열사	-11.0975
▁코너	-11.0976
▁책정	-11.0976
▁사법부	-11.0976
▁기름	-11.0976
▁난동	-11.0976
호프	-11.0977
▁이례적	-11.0977
▁확실하지	-11.0979
▁정체	-11.0979
▁부른	-11.0979
▁지속될	-11.0981
▁버진	-11.0982
▁비행기에	-11.0982
점에서	-11.0983
▁재발	-11.0984
▁패한	-11.0984
▁강연	-11.0985
▁성경	-11.0986
▁페르	-11.0986
▁감원	-11.0987
▁상위	-11.0988
▁부통령이	-11.0988
▁청소	-11.0988
▁있었는지	-11.0991
▁넣어	-11.0992
▁방치	-11.0993
▁비난한	-11.0995
▁정상회의	-11.0996
▁가결	-11.0996
▁공세	-11.0997
▁시경	-11.1
▁나란	-11.1005
▁전송	-11.1012
▁내정자	-11.1014
▁전례	-11.1014
▁고수	-11.1014
▁원자력	-11.1016
▁한쪽	-11.1018
논	-11.1019
▁채우	-11.1019
▁가정에	-11.1019
▁지키기	-11.1021
▁라이프	-11.1022
▁주가가	-11.1026
베키	-11.1027
▁제약	-11.1027
▁공부	-11.103
▁면적	-11.1031
▁광대	-11.1031
▁낙	-11.1035
▁꾸	-11.1037
▁시작되었다	-11.1038
학회	-11.1041
ical	-11.1041
▁리서치	-11.1042
▁현안	-11.1047
▁가서	-11.1049
▁발리	-11.1049
▁사업가	-11.1051
▁고려해	-11.1055
▁구상	-11.1064
지구	-11.1065
선에	-11.1065
▁하트	-11.1068
▁빙	-11.1071
▁기소했다	-11.1073
▁돌리	-11.1075
▁조사하기	-11.1076
▁에스	-11.1082
▁걸었다	-11.1083
RA	-11.1087
회견에서	-11.1095
▁경영자	-11.1096
▁노스	-11.1096
▁모스크바에서	-11.1101
▁요구에	-11.1105
▁조사단	-11.1106
▁취임한	-11.1108
▁증진	-11.1109
▁액	-11.1111
▁시점에서	-11.1112
▁문자	-11.1115
▁공격수	-11.1116
▁총선에	-11.112
▁No	-11.1125
▁적대	-11.1135
총장	-11.1139
▁연기했다	-11.1143
▁총격으로	-11.1146
▁연이	-11.1153
▁출전한	-11.1153
▁수비	-11.1157
▁경제의	-11.1158
직에서	-11.1158
▁발의	-11.1161
iz	-11.1162
▁싸우	-11.1169
미국	-11.117
▁강사	-11.1171
▁여자들	-11.1171
나라	-11.1177
▁LO	-11.1181
전선	-11.1187
ML	-11.1194
바로	-11.1194
▁가져	-11.1196
▁균	-11.1197
ag	-11.1199
▁포기했다	-11.1199
▁만료	-11.1203
▁의혹에	-11.1203
▁새해	-11.1205
AG	-11.1206
▁시작되는	-11.1207
▁노동부	-11.121
▁탈출했다	-11.1213
▁중에서	-11.1215
▁금지하고	-11.1217
▁관리인	-11.1217
▁시스템이	-11.1218
▁모술	-11.1219
▁구하기	-11.1222
첼	-11.1225
▁협상단	-11.1226
▁주인이	-11.1226
▁안드레	-11.1227
tion	-11.1246
▁꺼	-11.1247
▁산책	-11.1248
▁짜	-11.1253
▁제공한다	-11.1255
▁엄	-11.1255
▁인도에서	-11.1257
▁판결했다	-11.1258
▁만명에	-11.1259
▁산악	-11.126
▁Te	-11.1262
▁공학	-11.1264
▁불가피	-11.1267
▁선고받	-11.1268
▁측에서	-11.1268
▁자회담에	-11.1271
▁측면	-11.1272
▁펜실베니아	-11.1277
▁독일에서	-11.1278
바리	-11.128
▁위스콘신	-11.128
▁켄터키	-11.1282
MA	-11.1283
▁수명	-11.1285
▁오해	-11.1285
어졌다	-11.1291
▁플래	-11.1292
▁메릴랜드	-11.1292
법안	-11.1293
▁언	-11.1295
융	-11.1295
▁국회의	-11.1296
▁승객들이	-11.1296
▁시설에	-11.1297
▁도널드	-11.1297
▁마흐무드	-11.1297
▁벤자민	-11.1297
▁세계보건기구	-11.1297
▁우주정거장	-11.1297
▁잃지	-11.1297
▁그루지아	-11.1297
▁상파울루	-11.1297
▁촛불	-11.1297
▁커뮤니티	-11.1297
▁피아노	-11.1297
▁부작용	-11.1297
▁안락사	-11.1297
▁닥터	-11.1298
▁불쾌	-11.1298
▁자서전	-11.1298
▁호르몬	-11.1298
▁런던에	-11.1298
▁퇴장	-11.1298
▁침투	-11.1298
▁하버드	-11.1298
▁타이완	-11.1298
▁지뢰	-11.1299
▁양육권	-11.1299
▁조셉	-11.1299
▁두뇌	-11.1299
▁여배우	-11.1299
▁풍경	-11.1299
▁녹색	-11.1299
▁쿠르드족	-11.13
▁홈런	-11.1301
▁연방법원	-11.1301
▁국가안보	-11.1301
▁인디아나	-11.1301
▁침수	-11.1302
▁해킹	-11.1302
▁재벌	-11.1302
▁아끼	-11.1302
▁토양	-11.1302
▁언제든	-11.1303
▁수비수	-11.1303
▁유예	-11.1304
▁지닌	-11.1304
▁임박	-11.1305
▁정보기관	-11.1305
▁토론토	-11.1306
개의	-11.1307
▁조종	-11.1308
▁구단주	-11.1309
▁경기도	-11.1309
데르	-11.1309
▁후퇴	-11.131
▁기초	-11.131
▁약혼	-11.1311
▁닷	-11.1313
▁필리스	-11.1313
▁문신	-11.1313
▁닭	-11.1313
▁교량	-11.1314
▁비준	-11.1314
▁off	-11.1315
▁착	-11.1315
▁활기	-11.1317
▁차림	-11.1317
▁군복	-11.1318
▁결장	-11.1319
▁가고	-11.1319
▁일축했다	-11.132
▁요트	-11.1322
▁구형	-11.1323
께	-11.1324
▁지하드	-11.1327
▁감면	-11.1329
▁나가는	-11.1329
▁군데	-11.1333
▁팜	-11.1333
▁모욕	-11.1335
NA	-11.1336
▁비방	-11.134
▁범죄에	-11.1342
▁시장과	-11.1343
▁에디	-11.1345
▁확실하다	-11.1349
▁발부	-11.135
▁그럼	-11.135
▁산소	-11.1358
▁군부대	-11.136
▁듀	-11.1361
▁비평	-11.1373
▁Me	-11.1373
▁우드	-11.1376
▁자선	-11.1377
▁만나기	-11.1381
▁ex	-11.1382
져야	-11.1385
▁숨기	-11.1386
종일	-11.1387
▁상원의원에	-11.1388
▁경찰서에	-11.139
▁거론	-11.1391
▁엠	-11.1391
▁도시로	-11.1391
▁끈	-11.1391
▁사회주의	-11.1395
arm	-11.1395
▁알았다	-11.1403
▁아이들과	-11.1407
▁부장관	-11.1409
▁이베이	-11.1414
▁벌어지고	-11.1414
ER	-11.1415
▁기반으로	-11.1417
▁제공해	-11.1424
▁장려	-11.1425
▁카라	-11.1426
▁pre	-11.1427
▁추진하고	-11.1428
▁밝혀내	-11.1434
답	-11.1444
▁신문에	-11.1448
웬	-11.145
솔	-11.1452
▁과학적	-11.1454
▁관계자들과	-11.1456
▁들리	-11.1457
힘	-11.1458
▁포함된다	-11.1461
▁표현했다	-11.1468
▁판사들	-11.1473
▁강진	-11.1474
▁시작해	-11.1475
율이	-11.1475
▁물리치	-11.1478
▁내년에	-11.1481
▁war	-11.1481
▁CO	-11.1486
▁부상당	-11.1488
▁향했다	-11.1494
▁미소	-11.1499
▁관중	-11.1506
두고	-11.1506
▁사이트에	-11.1512
▁북부지역	-11.1535
tic	-11.1536
▁기다려	-11.1538
▁벽에	-11.1542
▁취소됐다	-11.1543
▁감옥	-11.1553
하르	-11.1564
▁도시에	-11.1566
구역	-11.1567
▁내장	-11.1573
▁문제점	-11.1576
▁아이들에게	-11.1579
▁La	-11.1586
체제	-11.1589
▁유입	-11.16
▁그때	-11.1603
▁보호할	-11.1604
▁얻는	-11.1604
▁났다	-11.1605
▁소식통들	-11.1614
▁콩	-11.1615
▁곤	-11.1616
▁지냈	-11.1617
렌스	-11.1619
▁동일	-11.162
▁배급	-11.1623
스틴	-11.1629
▁국정원	-11.1631
일정	-11.1633
효	-11.1634
▁홈페이지에	-11.1635
▁매사추세츠	-11.1636
▁국왕이	-11.1636
튜	-11.1641
▁치솟	-11.1642
▁모니터	-11.1642
즘	-11.1642
▁냄새	-11.1642
▁매코맥	-11.1642
▁맥코맥	-11.1642
▁메사추세츠	-11.1642
▁미드필더	-11.1642
▁박테리아	-11.1642
▁블룸버그	-11.1642
▁슈워제네거	-11.1642
▁스피처	-11.1642
▁악영향	-11.1642
▁알자와히리	-11.1642
▁암스트롱	-11.1642
▁오징어	-11.1642
▁오키나와	-11.1642
▁이스탄불	-11.1642
▁친선경기	-11.1642
▁캠벨	-11.1642
▁케르비엘	-11.1642
▁프로듀서	-11.1642
▁그루지야	-11.1642
▁뱅크	-11.1642
▁수하르토	-11.1642
▁재정경제부	-11.1642
▁동계올림픽	-11.1642
▁바쿠바	-11.1642
▁흥행	-11.1642
▁아스널	-11.1642
▁도덕적	-11.1642
▁중서부	-11.1643
▁방사능	-11.1643
▁침착	-11.1643
▁무하메드	-11.1643
▁속옷	-11.1643
▁계곡	-11.1643
▁종신형	-11.1643
ext	-11.1643
▁탔다	-11.1643
▁면밀	-11.1644
▁생겨	-11.1644
▁태양열	-11.1644
▁대피령	-11.1644
▁환경보호	-11.1644
▁블록	-11.1644
▁요격	-11.1644
▁아닐	-11.1645
▁맹세	-11.1645
▁아담	-11.1645
▁화석	-11.1646
▁불안감	-11.1646
▁몸집	-11.1647
▁AK	-11.1647
▁SK	-11.1647
▁품질	-11.1648
▁총알	-11.1648
▁피셔	-11.1648
▁소령	-11.1649
▁외교관계	-11.1649
▁교토	-11.165
▁성행위	-11.165
port	-11.165
▁존드로	-11.165
▁항복	-11.1651
▁지침	-11.1651
부의	-11.1651
▁여년	-11.1651
▁도망	-11.1652
▁대학살	-11.1652
▁사원에서	-11.1652
▁곡물	-11.1652
▁참전	-11.1653
▁원격	-11.1653
▁반대한다	-11.1654
▁배제하지	-11.1654
▁용서	-11.1655
▁같았다	-11.1656
직원	-11.1656
▁정통	-11.1657
▁얼리	-11.1659
▁수백만명	-11.1661
몬드	-11.1663
▁아카데미상	-11.1663
▁지표	-11.1663
▁후보들이	-11.1663
▁산악지역	-11.1665
▁제트기	-11.1665
▁시범	-11.1666
▁댄	-11.1668
▁필립스	-11.1669
▁가르치	-11.167
▁인정한	-11.167
디는	-11.167
▁만찬	-11.1672
▁정책이	-11.1673
▁남았다	-11.1676
▁크리스티나	-11.1676
▁붐	-11.1679
▁빵	-11.1679
▁운하	-11.1679
▁진행됐다	-11.168
▁구제안	-11.1683
▁리타	-11.1683
▁혼다	-11.1683
▁안되	-11.1688
▁지문	-11.1688
▁인자	-11.1691
▁염	-11.1694
▁미술	-11.1696
▁단서	-11.1698
▁가난	-11.17
▁결의	-11.17
▁생겼다	-11.1702
▁조치에	-11.1704
▁아프가니스탄에	-11.1709
▁시위대와	-11.1709
▁지속된	-11.1709
▁상아	-11.171
▁윤리	-11.171
▁장악한	-11.171
전문가	-11.171
지오	-11.1711
대의	-11.1715
▁캐리	-11.1717
▁성전	-11.1718
공항	-11.1719
▁일방적	-11.1719
▁부진	-11.1722
▁팬들에게	-11.1725
▁확인해	-11.1728
▁포기하지	-11.1728
▁춤	-11.1732
▁감옥에	-11.1733
ide	-11.1734
mar	-11.1735
▁미치	-11.1736
▁확인하는	-11.174
을때	-11.1744
▁기한	-11.1744
▁집안	-11.1751
아누	-11.1751
조정	-11.1752
▁급진	-11.1752
▁검토하	-11.1754
▁일째	-11.1754
▁칼로	-11.1755
▁강조하고	-11.1759
▁말로	-11.1761
전문	-11.1767
▁신의	-11.1768
▁이브	-11.1769
▁반군과	-11.1771
▁말했지만	-11.178
▁통로	-11.1781
리언	-11.1782
▁환영했다	-11.1782
▁미친	-11.1786
▁우리들	-11.1787
비오	-11.1792
▁임명된	-11.1799
be	-11.1807
굴	-11.1808
찌	-11.1809
빛	-11.1812
테러	-11.1817
▁돌보	-11.1821
▁금지하는	-11.1822
▁공원에서	-11.1822
▁드는	-11.1824
▁헤이	-11.1826
▁걸려있	-11.1833
▁제품에	-11.1833
▁모의	-11.1837
▁임원	-11.1837
해진다	-11.1842
동물	-11.1846
중이다	-11.1857
▁반대했다	-11.1862
▁후보에게	-11.1863
▁란	-11.1868
▁실직	-11.1874
▁목격한	-11.1874
▁중국인	-11.1878
야만	-11.1878
▁미군측	-11.1881
▁그레	-11.1882
아나	-11.1885
ess	-11.1887
▁광장에	-11.1892
▁장소로	-11.1892
▁듯한	-11.1894
sh	-11.1895
▁경제와	-11.1897
▁부근에	-11.1903
▁폰	-11.1904
▁같	-11.1906
▁움직임에	-11.191
대에서	-11.1914
▁로라	-11.192
▁고고학자들	-11.1925
▁제작자들	-11.1925
▁쌍	-11.193
▁주거	-11.1931
▁Sh	-11.1932
▁기숙사	-11.194
▁일으켰	-11.194
▁사무실에서	-11.1944
▁납치범들	-11.195
▁건물에서	-11.195
▁면에서	-11.1951
오르	-11.1955
▁봤	-11.1956
mi	-11.1957
▁법정에	-11.1958
파르	-11.1963
▁박탈	-11.1966
▁손님	-11.1973
▁저가	-11.1977
회장	-11.1979
▁국무	-11.1982
▁스탠	-11.1988
▁연령	-11.1989
픈	-11.1994
ight	-11.1996
▁천억	-11.1997
ster	-11.1998
틱	-11.1999
▁캐롤	-11.1999
▁BMW	-11.1999
▁Court	-11.1999
▁구스마오	-11.1999
▁김계관	-11.1999
▁놀랐다	-11.1999
▁뉴멕시코	-11.1999
▁돕고	-11.1999
▁만장일치	-11.1999
▁모하마드	-11.1999
▁브리티시	-11.1999
▁사형집행	-11.1999
▁승용차	-11.1999
▁실업수당	-11.1999
▁애틀란타	-11.1999
▁자메이카	-11.1999
▁캠퍼스	-11.1999
▁캥거루	-11.1999
▁크누트	-11.1999
▁클리블랜드	-11.1999
▁탈라바니	-11.1999
▁펼칠	-11.1999
▁피추시킨	-11.1999
긋	-11.1999
▁세실리아	-11.1999
▁깃발	-11.1999
▁비영리	-11.1999
▁냉동	-11.1999
▁빈민가	-11.2
▁퍼트레이어스	-11.2
▁벨몬트	-11.2
▁월드시리즈	-11.2
▁제라드	-11.2
▁Chin	-11.2
▁나라들	-11.2
▁러셀	-11.2
▁미망인	-11.2
▁편집자	-11.2
▁ETA	-11.2
▁노왁	-11.2
▁염두	-11.2
▁구조조정	-11.2001
▁공략	-11.2001
▁펠리	-11.2001
▁전염병	-11.2001
▁메뉴	-11.2001
▁무엇인지	-11.2001
▁유효	-11.2001
▁격추	-11.2001
▁평범	-11.2002
▁검찰총장	-11.2002
▁보석금	-11.2002
▁완공	-11.2002
▁간섭	-11.2002
▁멈	-11.2002
▁외교정책	-11.2002
▁사마라	-11.2002
▁뜨거	-11.2003
▁감추	-11.2003
▁밀림	-11.2003
▁악재	-11.2003
▁보상금	-11.2003
▁페리노	-11.2003
▁천억원	-11.2003
▁방북	-11.2003
▁건립	-11.2003
▁국영방송	-11.2004
▁교황청	-11.2004
▁탄약	-11.2004
▁제이미	-11.2004
▁다짐	-11.2004
▁주치의	-11.2005
▁머피	-11.2005
▁행방	-11.2006
▁십대	-11.2006
▁발목	-11.2007
▁야심	-11.2007
▁안겨	-11.2008
▁피플	-11.2008
▁타입	-11.2008
▁즐거	-11.2009
▁지질	-11.201
▁교회에서	-11.201
▁세균	-11.201
▁악성	-11.2011
▁구타	-11.2011
▁월마트	-11.2011
▁북동쪽	-11.2011
▁왔습니다	-11.2012
▁폭풍우	-11.2012
건물	-11.2012
▁막고	-11.2012
▁북서쪽	-11.2013
놨다	-11.2013
▁중단하라	-11.2014
▁순찰대	-11.2016
부문	-11.2017
▁대피소	-11.2018
▁브라	-11.202
▁종파	-11.202
▁유포	-11.2021
▁안건	-11.2023
▁터미널	-11.2024
▁것이냐	-11.2025
▁번영	-11.2026
해졌	-11.2027
▁안심	-11.2028
▁상원의원직	-11.2032
▁대도시	-11.2032
▁최상	-11.2032
▁만든다	-11.2035
▁공개되지	-11.2035
▁제인	-11.2044
▁기내	-11.2045
▁통상	-11.2046
▁관료	-11.2046
▁속한	-11.2048
▁맹	-11.2048
▁유아	-11.2049
▁달아	-11.2049
▁자리잡고	-11.205
▁큐	-11.2054
▁메달	-11.2055
디어	-11.2055
line	-11.2058
▁갖는다	-11.2058
▁당장	-11.2063
▁아버지와	-11.2064
▁state	-11.2065
▁바퀴	-11.2065
▁범죄자들	-11.2071
▁신고했다	-11.2071
▁흐르	-11.2075
▁연관된	-11.2078
▁중장	-11.2081
▁전반적으로	-11.209
▁환영한다	-11.2092
▁지도자로	-11.2097
▁릭	-11.2098
▁칩	-11.21
▁차가	-11.2105
죄로	-11.2106
▁time	-11.2107
▁카페인	-11.2107
▁민주당과	-11.2109
▁감독상	-11.211
국민	-11.211
졌습니다	-11.2113
시기	-11.2113
▁만들었	-11.2113
▁소유자	-11.2114
▁둔화	-11.2118
▁전달한	-11.2118
▁포착	-11.2118
▁이끌었	-11.2124
▁보여주기	-11.2124
▁매트	-11.2125
▁링	-11.2126
▁배로	-11.2126
▁하나이다	-11.2128
▁검	-11.213
▁일정이	-11.2131
▁했을	-11.2131
▁든다	-11.2131
▁인정하	-11.2133
▁묘	-11.2133
▁에이	-11.2143
▁전당	-11.2146
▁그쳤다	-11.2147
니에	-11.2155
▁방한	-11.2156
▁반도	-11.2158
▁가려	-11.2159
▁지났	-11.2159
▁비극적	-11.2165
단이	-11.2166
▁떨어지는	-11.2167
▁얼음이	-11.217
▁불안한	-11.2173
▁양상	-11.2175
▁페이스	-11.2177
▁피해지역	-11.2178
섭	-11.2178
▁살해하겠다	-11.2178
ame	-11.2179
멘	-11.218
셰	-11.2181
핀	-11.2182
펜	-11.2183
▁핀	-11.2183
▁무장괴한	-11.2183
시키지	-11.2184
▁들어있는	-11.2188
▁모르고	-11.2191
▁기자들과	-11.2194
주택	-11.2196
▁물리	-11.2198
▁개최지	-11.2198
▁제조사	-11.2199
ect	-11.2202
▁시판	-11.2203
리노	-11.2206
▁블로그	-11.221
▁주지사와	-11.221
pp	-11.2213
▁국민에게	-11.2217
▁발견되	-11.222
▁영국으로	-11.2225
▁미국에서는	-11.2228
▁기어	-11.2231
▁거치	-11.2232
▁내로	-11.2234
▁시리아와	-11.2238
▁다음과	-11.2239
▁흔적	-11.2242
병력	-11.2246
▁목소리로	-11.2248
▁이라크전에	-11.2251
▁미트	-11.2252
▁세라	-11.2252
▁대변	-11.2253
▁철수시키	-11.2256
▁갑작스	-11.2258
▁시도한	-11.2261
▁Sc	-11.2281
▁하는데	-11.2285
▁전설적	-11.2287
▁덕	-11.2288
▁치고	-11.2289
▁진행할	-11.229
득	-11.229
자들과	-11.2293
▁오지	-11.2295
min	-11.23
▁국가들과	-11.2305
▁줄기	-11.2305
▁열려	-11.2307
프레	-11.2317
▁부탁	-11.232
▁백악관에	-11.2323
▁최대한	-11.2331
▁mo	-11.2342
▁케이	-11.2348
▁암호	-11.2354
줘	-11.2357
혐의로	-11.2358
▁당연	-11.2359
ife	-11.2359
▁델타	-11.2363
▁덧붙	-11.2364
▁사업에	-11.2364
▁이루어	-11.2365
▁콜린	-11.2365
▁미화	-11.2365
▁고속	-11.2366
▁도쿄에서	-11.2369
삭	-11.2369
▁머무	-11.237
▁내셔널	-11.237
▁화염	-11.237
▁넘어섰다	-11.237
▁무책임	-11.237
▁브로드웨이	-11.237
▁색깔	-11.237
▁에탄올	-11.237
▁올바른	-11.237
▁웨스트버지니아	-11.237
▁저작권	-11.237
▁초등학교	-11.237
▁흡수	-11.237
믹	-11.237
▁United	-11.237
▁꿈이	-11.237
▁댈러스	-11.237
▁따돌리	-11.237
▁여동생	-11.237
▁최우수	-11.237
▁하반기	-11.237
▁이벤트	-11.237
▁도메인	-11.237
▁셔츠	-11.237
▁하리리	-11.237
▁습관	-11.237
▁다뤄	-11.237
▁앙겔	-11.237
▁ISS	-11.237
트로터	-11.237
▁수하물	-11.237
▁겁니다	-11.237
▁투데이	-11.237
▁비평가들	-11.2371
▁압승	-11.2371
▁빨간색	-11.2371
▁유혹	-11.2371
▁어휘	-11.2371
▁홀랜드	-11.2371
▁후계자	-11.2371
▁디스커버리호	-11.2371
▁열쇠	-11.2371
▁결백	-11.2372
▁코스피	-11.2372
▁평결	-11.2372
▁부회장	-11.2373
▁삼림	-11.2373
▁글렌	-11.2373
▁자치구	-11.2373
▁이른바	-11.2373
▁영입	-11.2373
▁초대형	-11.2374
▁제재조치	-11.2374
세스	-11.2374
▁스위	-11.2375
▁에이미	-11.2375
▁벌금형	-11.2376
▁영역	-11.2376
▁데니스	-11.2377
▁자회담에서	-11.2377
▁허위	-11.2377
▁전미	-11.2378
▁개헌	-11.2378
▁독점	-11.2379
▁공통	-11.2383
▁경위	-11.2383
▁담겨있다	-11.2383
▁외출	-11.2383
▁자매	-11.2386
▁퇴직	-11.2387
▁호흡기	-11.2387
▁소감	-11.2387
▁오락	-11.2389
▁어려워	-11.2389
▁공방	-11.2391
▁늘어났다	-11.2391
▁실내	-11.2391
▁악화될	-11.2392
▁걸프	-11.2392
▁국정	-11.2393
▁올릴	-11.2394
▁리더	-11.2395
▁시술	-11.2395
▁노동력	-11.2396
▁자회사	-11.2397
▁대담	-11.2398
▁동성	-11.2399
트릭	-11.24
▁분출	-11.2402
하자는	-11.2403
▁투표권	-11.2403
▁도왔다	-11.2404
세요	-11.2404
▁불가피하다	-11.2405
▁놓았다	-11.2405
▁자유당	-11.2406
▁상정	-11.2406
▁초래할	-11.2408
▁후보작	-11.241
▁입장권	-11.2411
▁우파	-11.2412
cent	-11.2414
▁장착된	-11.2415
▁업	-11.2415
▁정한	-11.2417
▁박수	-11.2424
▁조카	-11.2424
▁올리는	-11.2425
▁사이즈	-11.2425
▁win	-11.2426
▁딜러	-11.2427
▁보았다	-11.243
▁방사	-11.2431
티스	-11.2431
▁정비	-11.2433
▁위법	-11.2434
▁후임자	-11.2434
▁상태였다	-11.2436
▁여개	-11.2436
ors	-11.2436
우주	-11.2437
▁부인과	-11.2442
▁될지	-11.2445
▁수잔	-11.245
▁납치됐다	-11.2452
▁지미	-11.2454
▁위기로	-11.2459
제로	-11.2459
▁암살된	-11.2467
▁관해서	-11.2468
▁운동가	-11.2468
▁입원한	-11.2468
▁지목했다	-11.2472
▁영국에	-11.2473
▁고백	-11.2474
▁확인한	-11.2477
▁폐쇄했다	-11.2478
다소	-11.248
ber	-11.2489
▁북한에서	-11.249
▁용인	-11.2491
▁발생했던	-11.2496
▁그날	-11.2497
▁정당이	-11.2499
시키는데	-11.2499
▁하려	-11.2501
▁마련했다	-11.2504
이라도	-11.2505
▁무엇이	-11.2505
▁오를	-11.251
em	-11.2511
NDO	-11.2512
▁내리기	-11.2522
▁중유	-11.2523
공장	-11.2523
▁이겨	-11.2524
▁톱	-11.2524
관계자	-11.2525
▁여진이	-11.2528
▁잃어버	-11.2529
▁맡아	-11.2531
▁웹사이트에서	-11.2532
▁우주에서	-11.2542
작업을	-11.2544
▁여행객들	-11.2545
▁복합	-11.2547
▁경찰들	-11.2551
▁펼치고	-11.2552
▁여러분들	-11.2553
접	-11.2555
방법	-11.2559
▁알리기	-11.2561
컴	-11.2563
▁이탈	-11.2563
억	-11.2564
▁측에	-11.2565
탑	-11.2567
묘	-11.2567
▁인적	-11.2567
▁피신	-11.2567
환경	-11.2572
하우스	-11.2576
푸르	-11.2578
▁전인	-11.2578
ze	-11.2585
▁주민이	-11.2589
▁내주	-11.2591
▁시도했다	-11.2592
▁개발도상국	-11.2595
▁적대적	-11.2595
▁임신한	-11.2602
▁괜찮	-11.2609
▁게이	-11.2614
연구원	-11.2614
▁일년	-11.2616
▁공격할	-11.2618
▁각료	-11.2623
▁악의	-11.2627
▁선보	-11.2644
▁다음으로	-11.2649
▁정부에서	-11.2649
▁끝내	-11.265
▁예상되는	-11.2658
▁따뜻하	-11.2662
ai	-11.2662
▁관심사	-11.2666
과정에서	-11.2669
수단	-11.267
▁공개할	-11.267
▁거래가	-11.267
▁중국인들	-11.2674
▁많지	-11.2677
▁사진에	-11.2677
▁녹아	-11.268
▁방문이	-11.2689
▁루스	-11.2691
▁조달	-11.2694
▁마련하기	-11.2698
룩	-11.2699
▁고려할	-11.2701
▁시작되	-11.2703
▁없기	-11.2708
▁직면한	-11.271
▁부부의	-11.2712
▁상업적	-11.2715
▁참가자	-11.2715
▁납치했다	-11.272
▁펼쳤	-11.2721
▁올렸	-11.2723
▁파키스탄이	-11.2725
▁영구	-11.2729
▁수행하	-11.2731
▁흉	-11.2735
▁언론인	-11.2735
▁상원의	-11.2736
▁편이	-11.2737
▁필수	-11.2738
▁정찰	-11.2738
▁국세청	-11.2743
▁데뷔	-11.2743
쁜	-11.275
흘	-11.275
대사관	-11.2752
렬	-11.2753
쇠	-11.2753
▁끌려	-11.2754
▁터뜨	-11.2754
덩	-11.2754
▁BBK	-11.2754
▁Pakistan	-11.2754
▁SUV	-11.2754
▁UFO	-11.2754
▁issue	-11.2754
▁과테말라	-11.2754
▁국가보안법	-11.2754
▁높였다	-11.2754
▁두개골	-11.2754
▁리얼리티	-11.2754
▁마호메트	-11.2754
▁베테랑	-11.2754
▁보건복지부	-11.2754
▁엔터테인먼트	-11.2754
▁정동영	-11.2754
▁조선중앙통신	-11.2754
▁조코비치	-11.2754
▁집행유예	-11.2754
▁추수감사절	-11.2754
▁토마토	-11.2754
▁퍼레이드	-11.2754
겹	-11.2754
▁high	-11.2754
▁닌텐도	-11.2754
▁당분간	-11.2754
▁싱가폴	-11.2754
▁열렬한	-11.2754
무장혁명군	-11.2754
▁의구심	-11.2754
▁제네바	-11.2754
▁뉴욕증시	-11.2754
▁콜레라	-11.2754
▁수족관	-11.2754
▁태어나	-11.2754
▁유태인	-11.2754
▁링컨	-11.2755
▁원내대표	-11.2755
▁규명	-11.2755
▁가볍	-11.2755
▁좌익	-11.2755
▁down	-11.2755
▁대지진	-11.2755
▁의료보험	-11.2755
▁신용위기	-11.2755
▁결렬	-11.2755
▁힌두교	-11.2755
▁꾸준	-11.2755
▁삼엄	-11.2755
▁혼합	-11.2755
▁검출	-11.2756
▁참패	-11.2756
▁티켓	-11.2756
▁코미디언	-11.2756
▁비공개	-11.2756
▁배럭	-11.2756
▁연합뉴스	-11.2756
▁워커	-11.2757
▁설교	-11.2757
▁성사	-11.2757
▁호주오픈	-11.2757
▁신념	-11.2758
▁노리에가	-11.2758
▁사찰	-11.2758
▁Star	-11.2758
▁과잉	-11.2758
▁세번째	-11.2758
▁영예	-11.2758
▁격분	-11.2758
▁응원	-11.2758
▁나라에서	-11.2758
▁이정인	-11.2758
▁깜	-11.2759
▁광경	-11.2759
▁검진	-11.2759
▁태양계	-11.2759
▁관행	-11.2759
▁포스터	-11.276
▁HD	-11.2761
▁극심	-11.2761
▁계단	-11.2761
▁권유	-11.2761
▁지폐	-11.2762
▁저격	-11.2763
▁보수파	-11.2763
시스	-11.2763
▁순회	-11.2763
▁히트	-11.2764
▁DC	-11.2764
▁매춘부	-11.2764
▁레저	-11.2765
▁섞	-11.2766
▁여성에게	-11.2766
▁재생	-11.2767
▁발작	-11.2767
▁후보자들	-11.2768
▁밀수	-11.2769
▁남겼다	-11.2769
▁단호	-11.2769
▁체인	-11.2769
▁비자금	-11.277
▁보류	-11.2771
▁시사회	-11.2771
▁더이상	-11.2771
▁돌아갔다	-11.2772
▁풍자	-11.2773
▁맡게	-11.2773
▁사우스	-11.2774
▁기념일	-11.2774
▁소방관들	-11.2774
▁오고	-11.2774
▁연예	-11.2775
▁통신과	-11.2776
▁빨간	-11.2778
▁인플루엔자	-11.2781
▁국면	-11.2781
▁장난	-11.2781
▁달에	-11.2783
▁야간	-11.2784
▁발견돼	-11.2784
▁정상적으로	-11.2786
▁장관들	-11.2786
▁단백질	-11.2788
▁호우	-11.2789
▁애쓰고	-11.2792
▁현직	-11.2794
▁제프	-11.2796
▁작곡가	-11.2804
▁하마스와	-11.2806
▁석상	-11.2807
▁서있	-11.2809
lin	-11.2812
▁결승에서	-11.2818
▁비율이	-11.282
red	-11.2821
▁미사	-11.2821
▁년째	-11.2822
▁취해야	-11.2822
▁심정	-11.2825
▁계층	-11.2828
▁잡혀있	-11.2828
▁가격에	-11.2828
▁붙이	-11.2829
▁범죄자	-11.2836
▁봐	-11.2837
자들에	-11.2838
위기	-11.2839
▁람	-11.2841
▁논의하고	-11.2842
▁이끌었다	-11.2844
▁찬사	-11.2844
▁지명자	-11.2845
▁시민단체	-11.2846
▁정보가	-11.2854
▁차량은	-11.2855
▁분기에	-11.2856
▁페이	-11.2863
▁was	-11.2864
▁친구들과	-11.2865
▁하원에서	-11.2866
▁흔들리	-11.2866
▁헤르	-11.2868
▁부수	-11.2869
▁Ri	-11.2871
▁와서	-11.2877
▁리사	-11.2882
▁코커스에서	-11.2885
▁팔려	-11.2888
▁보아	-11.2889
▁결정된	-11.289
프리	-11.2891
▁가할	-11.2893
▁베를린에서	-11.2893
▁진행하는	-11.2894
▁러시아에서	-11.2894
▁잡기	-11.2895
▁나르	-11.2896
▁첸	-11.29
mer	-11.2902
▁돌입했다	-11.2904
▁감자	-11.2909
▁사무소	-11.291
▁배정	-11.291
▁식으로	-11.2914
▁나갔다	-11.2916
▁어디에	-11.2917
▁홀에서	-11.2918
▁결승전에	-11.2919
▁제기한	-11.292
▁수의사	-11.2922
되게	-11.2924
▁수반과	-11.293
▁살아있는	-11.293
▁개국이	-11.2934
▁재판소	-11.2937
▁문화적	-11.2937
own	-11.2938
▁의견에	-11.294
▁해변에서	-11.2941
▁가두	-11.2944
▁조사했다	-11.2944
명이	-11.2949
▁파고	-11.295
▁강화했다	-11.295
응	-11.2953
▁몬	-11.2955
▁어디	-11.2957
▁칠	-11.296
휴	-11.2964
몽	-11.2965
▁앤더슨	-11.2965
교회	-11.2965
컨	-11.2966
▁에바	-11.2968
첨	-11.2968
오픈	-11.2969
돈	-11.297
떨어진	-11.297
피크	-11.2971
▁정치범	-11.2973
▁길에	-11.2974
▁미수	-11.2975
▁여행사	-11.2979
▁유지하는	-11.2987
▁참모	-11.2996
임에	-11.2998
▁헌신	-11.3008
하일	-11.3009
▁기관들	-11.3011
▁요한	-11.3011
▁폭발했다	-11.3018
▁one	-11.3018
▁계획한	-11.3018
▁비리	-11.3019
▁파르	-11.302
▁동원해	-11.3021
주재	-11.3021
수준	-11.3022
▁공격하는	-11.3022
▁사태로	-11.3025
▁초과	-11.3029
▁가담	-11.3032
▁판매되	-11.3033
▁개헌안	-11.3034
▁갇혀	-11.3047
mo	-11.3052
▁시작하는	-11.3058
ds	-11.3058
▁빼	-11.306
ction	-11.3062
▁하락했	-11.3062
▁기념하기	-11.3064
수사	-11.3069
▁대리	-11.3069
▁대원	-11.3082
▁덴버	-11.3085
▁개막식	-11.3086
▁버렸다	-11.3086
▁방문객	-11.3086
▁양곤	-11.3088
▁주문했다	-11.3089
것을	-11.3089
▁공장에서	-11.3089
▁재미	-11.3091
발전	-11.3092
▁위반한	-11.3093
▁윤리적	-11.3096
데일	-11.3098
▁방문했	-11.3101
모어	-11.3103
줘야	-11.3108
클리	-11.3108
▁시작하기	-11.3111
북한	-11.3114
▁까	-11.3114
▁쇼에	-11.3117
텍	-11.312
▁구조대원	-11.3122
▁PF	-11.3124
▁바탕	-11.3125
▁무기한	-11.3126
V	-11.3129
▁도움으로	-11.3131
▁호흡	-11.3135
SA	-11.3137
님	-11.3139
롬	-11.3145
▁America	-11.3145
our	-11.3147
▁중동평화	-11.3149
▁하겠다	-11.3151
디오	-11.3151
▁주사	-11.3152
▁FTSE	-11.3154
▁Human	-11.3154
▁갤럭시	-11.3154
▁동남아시아	-11.3154
▁로맨틱	-11.3154
▁아웅산수지	-11.3154
▁얀코비치	-11.3154
▁엔데버호	-11.3154
▁짝짓기	-11.3154
▁카톨릭	-11.3154
▁타블로이드	-11.3154
▁폴라로이드	-11.3154
▁횟수	-11.3154
돋	-11.3154
룽	-11.3154
엽	-11.3154
▁곤돌라	-11.3154
▁내비쳤다	-11.3154
▁농작물	-11.3154
▁라왈핀디	-11.3154
▁로페즈	-11.3154
▁루마니아	-11.3154
▁마닐라	-11.3154
▁백화점	-11.3154
▁유망주	-11.3154
▁이데올로기	-11.3154
▁치렀	-11.3154
▁카라카스	-11.3154
▁카리스마	-11.3154
▁페널티킥	-11.3154
▁페르난도	-11.3154
▁자이툰	-11.3154
▁테이블	-11.3154
▁뮤직	-11.3154
▁party	-11.3155
▁살모넬라균	-11.3155
▁평론가들	-11.3155
▁보스니아	-11.3155
▁대중교통	-11.3155
▁동점골	-11.3155
▁소수민족	-11.3155
▁대통합민주신당	-11.3155
▁소아과	-11.3155
▁결승골	-11.3155
▁Brit	-11.3155
▁밀접	-11.3155
▁범람	-11.3155
▁가자시티	-11.3155
▁나중에	-11.3155
▁부정선거	-11.3155
▁Press	-11.3155
▁패널	-11.3156
▁관광산업	-11.3156
▁울머	-11.3157
▁연예인	-11.3157
▁난폭	-11.3158
▁평생	-11.3158
▁오스틴	-11.3158
▁표적이	-11.3159
▁PA	-11.3159
▁기둥	-11.3159
▁선택한	-11.3159
▁결별	-11.316
▁온천	-11.316
▁경제성장률	-11.3161
▁연구조사	-11.3162
▁심장병	-11.3162
▁매사추세츠주	-11.3162
▁홈페이지	-11.3162
▁지칭	-11.3162
▁도착했을	-11.3163
▁줄어	-11.3163
▁면허	-11.3163
▁바이오	-11.3163
▁억압	-11.3163
▁동행	-11.3163
▁숨지게	-11.3164
▁페퍼	-11.3164
▁감동	-11.3164
▁면제	-11.3164
▁바스크	-11.3165
▁외각	-11.3165
▁세레나	-11.3165
▁책임감	-11.3167
▁관세	-11.3168
▁사절	-11.3169
▁천연	-11.3169
▁감안	-11.317
▁무너졌다	-11.317
느라	-11.3171
▁드문	-11.3172
▁과실	-11.3173
▁삼았다	-11.3173
▁버크	-11.3174
OS	-11.3176
▁조업	-11.3176
▁프린스	-11.3179
준다	-11.3179
티드	-11.318
▁맞이하	-11.3182
▁반란	-11.3184
▁정치에	-11.3185
▁뒤에서	-11.3185
▁대승	-11.3185
▁신비	-11.3186
▁여정	-11.3187
▁국민당	-11.3187
▁이끈	-11.3188
군과	-11.3191
▁투수	-11.3195
▁행운	-11.3196
▁낙관적	-11.3197
▁Q	-11.3197
▁질서	-11.3201
▁많았다	-11.3201
▁누드	-11.3203
▁하는지	-11.3204
▁양당	-11.3206
▁넘어서	-11.3206
▁어선	-11.3215
▁빗	-11.3218
▁덩어리	-11.322
▁후임으로	-11.3225
▁샘	-11.3228
▁움직	-11.3232
▁모닝	-11.3233
▁번식	-11.3235
▁이룬	-11.3237
▁의뢰인	-11.3241
▁대처하기	-11.3243
▁내기	-11.3244
▁걸스	-11.3249
▁살해됐다	-11.3251
▁무혐의	-11.3254
▁괴	-11.326
▁유명인사	-11.326
▁행동으로	-11.3261
▁별로	-11.3261
▁방콕에서	-11.3263
▁야당의	-11.3264
▁경선이	-11.3266
▁불과했다	-11.3266
▁포기할	-11.3267
▁전통적으로	-11.3274
▁감기	-11.3277
ence	-11.3278
▁도로에	-11.3279
▁줄어들었다	-11.328
론자들	-11.3284
GB	-11.3284
▁제안에	-11.3284
▁감행했다	-11.3286
▁지정된	-11.329
▁바스라에서	-11.3291
▁당원들	-11.3294
▁용의	-11.3296
▁이란에서	-11.3296
▁동남	-11.3296
ear	-11.3297
▁지사	-11.33
▁충고	-11.3302
▁발생하기	-11.3302
노프	-11.3303
▁퇴원	-11.3305
▁주자	-11.3308
▁맡기	-11.3311
성과	-11.3311
코르	-11.3313
▁거라고	-11.3317
▁취하	-11.3319
▁로한이	-11.332
▁안다	-11.3328
윤	-11.3329
▁험	-11.3329
▁물질이	-11.3331
▁국경지역에	-11.3334
▁all	-11.3334
라이트	-11.3334
▁분명한	-11.3339
▁구입한	-11.3344
▁말하지	-11.3346
▁수감됐다	-11.3348
▁행한	-11.3351
게이트	-11.3351
▁탑	-11.3352
▁퍼지	-11.3353
▁심화	-11.3353
▁소방	-11.3355
▁죽을	-11.3355
▁태국에서	-11.3365
▁관광객이	-11.3365
▁결승	-11.3371
▁협정에	-11.3376
▁선보였	-11.3377
▁정직	-11.3378
덤	-11.3379
▁전선	-11.3379
헤드	-11.3379
▁발표하지	-11.3381
▁도시들	-11.3384
X	-11.3385
즐	-11.3385
▁공직	-11.3388
▁지구로	-11.3396
스텐	-11.3396
▁위치에	-11.3397
보고서	-11.3397
▁파괴됐다	-11.3401
사람	-11.3402
노동	-11.3411
통제	-11.3413
▁남지	-11.3415
▁겐	-11.3417
어지고	-11.3418
▁이어진	-11.3423
▁후안	-11.3424
▁지원한	-11.3426
▁발생한다	-11.3428
빌리	-11.3431
▁이목	-11.3433
mon	-11.3433
▁단체에	-11.3438
▁직면해	-11.344
▁방송과	-11.3456
코스	-11.3457
▁제어	-11.3464
처리	-11.3464
▁다쳤	-11.3466
▁강전	-11.3468
▁일요일에	-11.3473
▁통근	-11.3482
세르	-11.3483
▁의뢰	-11.3485
▁이외	-11.3486
▁민주당원들	-11.3487
학원	-11.3488
▁놓여	-11.3496
회에서	-11.3499
▁여객기에	-11.35
롭게	-11.3506
▁복용한	-11.3508
▁섬에	-11.3511
▁석방했다	-11.3515
▁게임에서	-11.3515
▁선호	-11.352
▁보여준	-11.3521
▁관료들	-11.3521
▁획득했다	-11.3523
▁맞았	-11.3524
▁한반도에서	-11.353
▁침	-11.3531
▁사정	-11.3534
로프	-11.3536
▁or	-11.3537
▁정부로부터	-11.3537
▁감염자	-11.354
▁승리하는	-11.355
법에	-11.3553
▁법무	-11.3555
▁괴한들	-11.356
▁버몬트	-11.3561
▁자연적	-11.3562
▁다국적	-11.3563
cy	-11.3563
▁나눠	-11.3564
▁경제성장	-11.3565
쾌	-11.3568
▁공습이	-11.3568
▁수성	-11.3569
▁OECD	-11.3571
▁WWF	-11.3571
▁가톨릭	-11.3571
▁금융제재	-11.3571
▁레젭	-11.3571
▁몬타나	-11.3571
▁무크타다	-11.3571
▁버시바우	-11.3571
▁부정부패	-11.3571
▁브뤼셀	-11.3571
▁사카쉬빌리	-11.3571
▁쫓겨	-11.3571
▁컨퍼런스	-11.3571
▁콘크리트	-11.3571
▁콜레스테롤	-11.3571
▁프리메라리가	-11.3571
▁합참의장	-11.3571
윗	-11.3571
쿤	-11.3571
▁로널드	-11.3571
▁임산부	-11.3571
▁휴양지	-11.3571
▁오마바	-11.3571
▁팔루자	-11.3571
▁힉스	-11.3571
▁기번스	-11.3571
▁횡단	-11.3571
▁쟁점	-11.3571
▁may	-11.3571
▁뒤덮	-11.3571
▁president	-11.3571
▁이소연	-11.3571
▁주니어	-11.3571
▁아지즈	-11.3571
▁크리켓	-11.3571
▁페인트	-11.3571
▁Bank	-11.3571
▁농촌	-11.3572
▁근접	-11.3572
▁소요사태	-11.3572
▁번호판	-11.3572
▁와중에	-11.3572
ile	-11.3572
▁주장해	-11.3573
▁호르타	-11.3573
▁여객선	-11.3573
▁불쾌감	-11.3573
▁동북아	-11.3573
▁간첩	-11.3573
▁평창	-11.3573
▁엄중	-11.3573
▁Ex	-11.3573
▁통계청	-11.3574
▁최후	-11.3574
▁싸울	-11.3574
▁연애	-11.3574
▁이루어질	-11.3575
▁연습	-11.3575
▁평등	-11.3575
▁총격사건	-11.3575
▁패션계	-11.3576
▁활력	-11.3576
▁피델	-11.3576
▁단절	-11.3576
▁정글	-11.3577
▁말라위	-11.3577
▁팔렸다	-11.3578
스테이트	-11.3578
▁금지령	-11.3578
▁포격	-11.3578
▁평방	-11.3579
▁예금	-11.3579
▁테네시주	-11.3579
돌프	-11.358
▁변동	-11.358
▁황제	-11.358
▁추모식	-11.3581
▁본래	-11.3581
▁지나친	-11.3581
▁수년간	-11.3581
▁완수	-11.3582
▁테러공격	-11.3583
▁베스트	-11.3583
▁인도와	-11.3583
모토	-11.3584
▁울프	-11.3584
▁철거	-11.3585
▁스탠리	-11.3585
ious	-11.3585
잡이	-11.3585
▁급파	-11.3586
▁테마	-11.3587
▁뉴저지주	-11.3587
▁반격	-11.3587
▁사격	-11.3588
▁액수	-11.3588
▁터진	-11.3589
▁태아	-11.3589
▁건조	-11.359
▁질식	-11.359
▁루이	-11.3592
▁구분	-11.3592
▁선박에	-11.3592
▁신종	-11.3592
▁데이트	-11.3594
받을	-11.3594
▁정유	-11.3595
▁앙리	-11.3595
▁지도력	-11.3596
▁스노	-11.3597
▁경찰청장	-11.3598
▁leader	-11.3598
▁Ge	-11.3598
▁안개	-11.3599
▁분양	-11.36
▁휩싸였다	-11.36
▁상실	-11.3602
▁외모	-11.3602
▁발사된	-11.3603
▁분명하다	-11.3604
▁가즈니주	-11.3606
▁살리	-11.3606
▁문학	-11.3606
▁상징적인	-11.3607
▁조그	-11.3608
▁만톤	-11.3609
▁압도	-11.361
▁두목	-11.3611
▁피고인들	-11.3611
▁반감	-11.3612
▁열린다	-11.3613
▁한국정부	-11.3613
▁도와	-11.3615
▁도박	-11.3616
▁일본인들	-11.3616
▁작용할	-11.3617
▁핵문제	-11.3618
▁허리	-11.3621
지도자	-11.3622
▁은행이	-11.3623
▁미쳤다	-11.3625
▁보수적인	-11.3626
▁억류된	-11.3627
▁파악하	-11.3628
▁앤드	-11.3628
▁인파	-11.3629
▁열리기	-11.363
▁아카	-11.3632
up	-11.3632
▁독일과	-11.3633
▁박물관에	-11.3633
▁이건	-11.3634
▁접근할	-11.3634
▁차고	-11.3637
▁작품상	-11.364
▁발사한	-11.3641
▁흉기	-11.3642
▁배아	-11.3643
▁높이고	-11.3643
▁과일	-11.3643
▁당선된	-11.3646
▁가한	-11.3648
▁중년	-11.3648
▁심각하다	-11.3656
▁우주비행사들	-11.3656
▁캄	-11.3656
▁쉐	-11.3656
wo	-11.3658
▁만행	-11.366
치기	-11.3661
▁노동자들이	-11.3665
▁켄	-11.3666
레즈	-11.3666
tor	-11.3666
▁전술	-11.3669
▁개혁안	-11.3671
▁끝내고	-11.3671
▁거물	-11.3671
▁맺었다	-11.3673
▁가하고	-11.3674
▁아랍어	-11.3675
▁되면서	-11.3676
▁알바	-11.3678
▁영화로	-11.3678
▁이상으로	-11.3682
ew	-11.3682
▁만족한다	-11.3684
▁동해	-11.3686
▁여성으로	-11.3689
▁top	-11.3695
▁차지할	-11.37
주기	-11.3701
▁외교관들	-11.3703
▁거부하	-11.3704
▁교도	-11.3704
▁방위	-11.3705
▁수직	-11.3705
▁이용자들	-11.3705
▁Po	-11.3706
간다	-11.3707
▁이동했다	-11.3709
아웃	-11.371
죄	-11.3711
코트	-11.3714
▁피로	-11.3715
ther	-11.3715
▁경쟁에서	-11.3716
▁수습	-11.372
▁치료제	-11.3724
▁열리고	-11.3729
▁이견	-11.3732
▁군의	-11.3732
ern	-11.3735
▁시대에	-11.3737
험	-11.374
▁워싱턴에	-11.3742
▁전임	-11.3743
▁등장하	-11.3756
▁결정될	-11.3757
▁빚어	-11.376
이면	-11.3761
into	-11.3762
착륙	-11.3763
물질	-11.3769
▁설립한	-11.377
▁앤더슨은	-11.3772
▁장소에	-11.3773
▁표기	-11.3773
▁극적	-11.3774
자에	-11.3775
▁해치	-11.3779
▁관대	-11.3783
▁들어가기	-11.3783
▁공격하기	-11.3784
▁발사했다	-11.3785
마드	-11.3786
▁마르코	-11.3787
▁고정	-11.3792
▁마이크로	-11.3793
▁고집	-11.3799
▁전경	-11.3803
▁시스템에	-11.3806
▁참가국들	-11.3807
▁플로	-11.3809
▁지지율로	-11.3814
▁파괴된	-11.3814
촉	-11.3815
▁실려	-11.3818
털	-11.3819
장소	-11.3819
사실	-11.3821
머스	-11.3824
▁중재자	-11.3827
▁메가	-11.3828
나마	-11.383
wa	-11.3831
▁하에서	-11.3834
여행	-11.3834
▁합의안	-11.3836
▁장례식에	-11.3839
증권	-11.384
▁클럽에서	-11.3841
▁난자	-11.3846
▁반군에	-11.3849
▁대학생들	-11.3852
▁특파원이	-11.3852
더미	-11.3853
▁일반인들	-11.3854
▁수퍼대의원	-11.3859
시에	-11.3861
문서	-11.3863
마른	-11.3864
▁통과한	-11.3868
▁이라크로	-11.3871
▁내용이다	-11.3874
학자인	-11.3879
▁명명	-11.3884
▁노력으로	-11.3884
▁판매하는	-11.3885
▁지점에	-11.3889
안이	-11.3893
▁Cas	-11.3896
중국	-11.3897
킨스	-11.39
▁의원들과	-11.39
▁미국내	-11.3911
▁교착상태	-11.392
▁증가시키	-11.3927
▁게임에	-11.3935
▁인정하고	-11.3936
▁랜드	-11.3938
▁치르는	-11.394
old	-11.3941
▁곳곳	-11.3943
▁토로	-11.3945
▁최근까지	-11.3946
▁쓰이	-11.3947
▁램	-11.3953
▁들어갔	-11.3953
▁고전	-11.3956
▁나갔	-11.3957
▁전문의	-11.3961
▁정상에	-11.3964
▁간다	-11.3965
▁겪었	-11.3966
▁저널	-11.3969
▁qu	-11.3979
▁작년에	-11.3987
▁도달했다	-11.3988
▁매케인과	-11.3994
▁중태라	-11.3994
▁비전	-11.3995
럭	-11.3996
▁테네시	-11.3997
▁검문	-11.3998
▁강화하기	-11.3999
롯	-11.4002
▁년대에	-11.4003
탔	-11.4005
▁풀려	-11.4005
▁페트로	-11.4006
▁냉전	-11.4006
셜	-11.4006
▁Australia	-11.4006
▁death	-11.4006
▁그린스펀	-11.4006
▁급상승	-11.4006
▁낙하산	-11.4006
▁농산물	-11.4006
▁대량살상무기	-11.4006
▁디얄라	-11.4006
▁라우터바흐	-11.4006
▁롱고리아	-11.4006
▁선거캠페인	-11.4006
▁슈나이더	-11.4006
▁앨라배마	-11.4006
▁언색호	-11.4006
▁오차범위	-11.4006
▁잃게	-11.4006
▁지구온난화	-11.4006
▁카메론	-11.4006
▁테헤란	-11.4006
쭉	-11.4006
▁올랜도	-11.4006
▁마스터스	-11.4006
▁유시프	-11.4006
▁저녁식사	-11.4006
▁퇴역	-11.4006
▁획기적	-11.4006
▁클레이코트	-11.4006
▁정부청사	-11.4006
▁괴롭	-11.4006
▁리더십	-11.4006
▁황교수	-11.4006
▁졸릭	-11.4006
▁사냥꾼	-11.4006
▁선거일	-11.4006
▁검열	-11.4007
▁자살폭탄	-11.4007
▁GNP	-11.4007
▁get	-11.4007
▁검시관	-11.4007
▁아르빌	-11.4007
▁call	-11.4007
▁부상당했다	-11.4007
▁줄어든	-11.4007
▁호킨스	-11.4008
▁안젤리	-11.4008
▁무엇인가	-11.4008
▁토끼	-11.4008
▁동맹관계	-11.4008
▁반도체	-11.4008
▁그린랜드	-11.4008
▁자본주의	-11.4008
▁우편	-11.4008
▁친밀	-11.4009
▁보도자료	-11.401
▁아바타	-11.401
▁기념품	-11.401
▁재능	-11.401
▁증산	-11.401
▁교역	-11.4011
▁불경기	-11.4011
▁발송	-11.4011
▁증오	-11.4011
▁자유로운	-11.4012
▁납부	-11.4012
▁늘어난	-11.4012
▁오만	-11.4012
▁내다봤	-11.4012
▁학자들	-11.4012
▁친절	-11.4013
book	-11.4013
▁샤론	-11.4014
▁살짜리	-11.4014
▁서열	-11.4014
▁주머니	-11.4014
▁회색	-11.4014
▁교차	-11.4014
▁탈세	-11.4015
▁Air	-11.4015
▁선거자금	-11.4015
▁섬유	-11.4016
▁출간	-11.4016
▁잔디	-11.4016
▁한국전쟁	-11.4016
lay	-11.4016
▁누설	-11.4017
▁라틴	-11.4018
▁미시간주	-11.4019
▁악명	-11.4019
▁호위	-11.4019
▁총살	-11.4019
▁지난밤	-11.4019
▁동요	-11.4019
▁인천	-11.402
▁베이비	-11.402
▁상표	-11.4021
▁십만	-11.4021
▁시몬	-11.4021
▁없음	-11.4022
▁온실	-11.4022
▁린다	-11.4023
▁울리	-11.4024
사이드	-11.4024
▁파워	-11.4024
▁태어났다	-11.4026
▁신설	-11.4027
▁스파이스	-11.4028
▁들어보	-11.4028
▁참수	-11.4029
▁충돌했다	-11.403
▁생선	-11.403
▁타운	-11.403
▁점에서	-11.4031
ease	-11.4031
▁죄수	-11.4032
▁탈당	-11.4033
▁노벨상	-11.4033
유지	-11.4034
▁끌어들이	-11.4034
▁양호	-11.4036
▁총리로	-11.4036
런스	-11.4036
▁경의	-11.4037
▁피터슨	-11.4037
▁루디	-11.4038
▁물리적	-11.4039
▁유타	-11.4039
▁본즈	-11.404
▁어미	-11.4041
▁프로그램과	-11.4041
▁선제	-11.4041
▁제조회사	-11.4041
▁종전	-11.4042
▁Gu	-11.4044
▁국토안보부	-11.4044
▁받았습니다	-11.4045
▁진정시키	-11.4045
게임	-11.4045
ZA	-11.4045
벨리	-11.4047
▁모였다	-11.4049
▁단일	-11.405
▁진상	-11.4051
센터에서	-11.4053
▁비공식	-11.4055
▁생활에	-11.4055
단계	-11.4055
▁설립자	-11.4055
▁놀이	-11.4056
▁주입	-11.4056
▁피우	-11.4056
▁자루	-11.4057
▁보호소	-11.4058
▁비행선	-11.4058
▁경유	-11.4058
▁못하면	-11.4059
▁졸	-11.406
▁주정부	-11.4062
▁경상	-11.4065
▁허용하는	-11.4066
▁의사당	-11.4066
▁중국정부	-11.4067
▁끝나지	-11.4067
▁싱글	-11.4067
▁이민법	-11.4068
▁만들어내	-11.407
▁기여	-11.4071
▁돌아가는	-11.4073
▁들어서	-11.4073
▁들어주	-11.4076
▁제기되	-11.4077
▁되려	-11.4077
▁주둔군	-11.4077
▁신성	-11.4079
▁파업이	-11.408
▁토로했다	-11.408
파인	-11.4081
▁서울시장	-11.4082
▁활	-11.4083
▁성능	-11.4084
▁기대된다	-11.4084
▁서쪽으로	-11.4086
▁외계인	-11.4088
▁불거	-11.409
▁배에	-11.4091
▁한가지	-11.4092
▁내리지	-11.4095
▁적군	-11.4096
▁실종됐다고	-11.4096
▁작전에	-11.4096
▁샤프	-11.4097
▁밝혀지	-11.4097
ite	-11.41
tive	-11.4102
▁미군에	-11.4104
▁막는	-11.4104
▁효과적인	-11.4105
▁줄었다	-11.4107
▁자란	-11.4109
NU	-11.4109
▁의미하는	-11.4114
▁만대	-11.4117
▁대신해	-11.4117
▁통과할	-11.4118
▁의원과	-11.4118
▁무서	-11.4119
▁서부지역	-11.412
▁격려	-11.4125
▁알려졌	-11.4126
▁맞지	-11.4127
▁나아	-11.413
▁근거지	-11.413
▁말했었다	-11.4131
▁해준다	-11.4133
▁팔레스타인과	-11.4136
▁외곽에서	-11.4142
▁위크	-11.4145
▁생각된다	-11.4146
것이	-11.4149
여금	-11.4149
ns	-11.4153
▁살상	-11.4154
▁항해	-11.4156
▁지불할	-11.4158
▁생각할	-11.4161
▁해결하는	-11.4163
▁금지된	-11.4168
▁수만	-11.4169
▁싶어하	-11.417
▁관여하	-11.4171
마저	-11.418
▁lo	-11.4181
▁요구해	-11.4186
▁정국	-11.4189
▁로즈	-11.4191
▁연인	-11.4195
▁아나	-11.4199
▁일종	-11.4199
났	-11.4201
▁순간에	-11.4201
▁식당에서	-11.4201
▁시선	-11.4201
▁증거로	-11.4203
▁So	-11.4204
▁실시됐다	-11.4205
▁KT	-11.4207
ey	-11.4212
▁건물들	-11.4214
▁투자가들	-11.4215
▁공급받	-11.4217
▁되어야	-11.4218
팀이	-11.4223
▁공해	-11.4223
▁di	-11.423
길에	-11.423
▁수행했다	-11.423
▁멘	-11.4232
▁Di	-11.4234
▁바비	-11.4235
▁수행한	-11.424
▁마련된	-11.4247
▁국내에서	-11.4249
켜	-11.4249
▁일이었다	-11.4255
▁지방에	-11.4256
라트	-11.4261
▁제품들	-11.4264
si	-11.4264
▁시작한다	-11.4265
▁행위로	-11.4265
리코	-11.4266
재단	-11.4267
괴	-11.4269
▁아프리카에서	-11.427
뜨	-11.427
톱	-11.4272
팬	-11.4275
러운	-11.4276
head	-11.4277
혁명	-11.4278
번호	-11.4282
▁오르는	-11.4283
▁유럽에	-11.4284
대책	-11.4287
io	-11.4288
▁주도하고	-11.4289
▁작고	-11.4292
지점	-11.4293
▁아파트에서	-11.4293
퍼스	-11.4294
▁브레	-11.43
▁적지	-11.4303
▁보도된	-11.4304
▁aid	-11.4304
마이어	-11.4305
▁다스	-11.4309
▁파기	-11.4311
방안	-11.4312
▁배달	-11.4314
글리	-11.4321
스트라	-11.4323
범죄	-11.4327
▁지어	-11.433
워크	-11.4332
vo	-11.4343
▁지배하	-11.4346
▁성공할	-11.4346
▁여진	-11.4348
▁요인이	-11.4354
감시	-11.4355
화물	-11.4359
▁정말로	-11.4361
▁진출에	-11.4365
ck	-11.4365
▁Dis	-11.4368
▁영화화	-11.4369
예프	-11.4372
▁효과적	-11.4373
▁결함이	-11.4375
▁사고에	-11.4375
▁후송	-11.438
▁카라치	-11.4381
▁간부들	-11.4384
별로	-11.4385
▁나비	-11.4387
▁연기됐다	-11.4389
▁검찰에	-11.439
▁가사	-11.4392
▁선포한	-11.4394
정권	-11.4399
▁하스	-11.4402
▁떠났	-11.4403
▁바그다드에	-11.4404
적이지	-11.4405
▁Wi	-11.4405
▁내야	-11.4405
▁친구와	-11.4406
▁모여들	-11.4406
▁대조	-11.4408
▁운전자들	-11.4419
▁도착해	-11.4425
▁일본군	-11.4425
략	-11.4428
▁압도적	-11.4432
▁닉	-11.4434
▁너	-11.4437
▁중단된	-11.4438
▁선박들	-11.4442
dict	-11.4443
▁우주비행	-11.4443
DM	-11.4446
▁파견했다	-11.445
▁위반했다	-11.445
▁우려하는	-11.4451
▁def	-11.4453
▁구조됐다	-11.4453
▁휩싸	-11.4453
▁발표에	-11.4454
므	-11.4456
▁낙찰	-11.4457
▁피의자	-11.4459
▁총기난사	-11.446
헴	-11.446
world	-11.446
▁GPS	-11.446
▁HSBC	-11.446
▁가라앉	-11.446
▁가석방	-11.446
▁갱신	-11.446
▁국제사면위원회	-11.446
▁김경준	-11.446
▁돈세탁	-11.446
▁땅콩	-11.446
▁몰디브	-11.446
▁믿음	-11.446
▁베스트셀러	-11.446
▁손해배상	-11.446
▁신천옹	-11.446
▁아라파트	-11.446
▁아이슬란드	-11.446
▁애널리스트	-11.446
▁우비넨	-11.446
▁자부심	-11.446
▁자이언트	-11.446
▁찍었다	-11.446
▁콘텐트	-11.446
▁페르난데스	-11.446
▁푸에르토리코	-11.446
▁해리왕자	-11.446
넥	-11.446
밭	-11.446
▁가금류	-11.446
▁무중력	-11.446
▁전화통화	-11.446
▁폭넓	-11.446
▁황박사	-11.446
윙	-11.446
▁발레리	-11.446
▁오페라	-11.446
▁프리킥	-11.446
ough	-11.446
▁차세대	-11.446
▁진원지	-11.446
▁Thi	-11.446
▁Wild	-11.4461
▁후쿠다	-11.4461
▁플레이오프	-11.4461
▁놀랍	-11.4461
▁라시드	-11.4461
▁남서쪽	-11.4461
▁브라더스	-11.4461
▁트레킹	-11.4461
▁딜리	-11.4461
▁강아지	-11.4461
▁프레슬리	-11.4461
▁익사	-11.4461
▁설문조사	-11.4461
▁선제골	-11.4461
▁삭스	-11.4461
▁아이팟	-11.4461
▁왕궁	-11.4461
▁공동성명	-11.4461
▁화폐	-11.4461
▁다툼	-11.4461
▁삼성그룹	-11.4462
▁푸켓	-11.4462
▁make	-11.4462
▁포옹	-11.4462
▁탑재	-11.4462
▁이틀째	-11.4462
▁지방선거	-11.4462
▁침실	-11.4462
▁인디언	-11.4462
▁메이저	-11.4462
▁프라임	-11.4463
▁투항	-11.4463
▁기부금	-11.4463
▁물러난	-11.4463
▁미술관	-11.4463
▁기차역	-11.4463
▁지저스	-11.4464
▁보건당국	-11.4464
▁웃음	-11.4464
▁단축	-11.4465
▁우익	-11.4465
▁않으려	-11.4465
▁맞춘	-11.4465
▁진열	-11.4465
▁헌터	-11.4465
▁때에	-11.4465
▁터너	-11.4465
▁감각	-11.4466
▁다룰	-11.4466
▁빈번	-11.4466
▁해산물	-11.4466
▁석탄	-11.4467
▁무패	-11.4467
▁정교회	-11.4467
light	-11.4467
▁데이브	-11.4468
▁선진국	-11.4468
▁직위	-11.4468
▁동등	-11.4468
▁시민이	-11.4468
▁교정	-11.4469
▁SG	-11.4469
▁왕위	-11.4469
▁시께	-11.4469
▁대기권	-11.4469
▁공항으로	-11.447
▁방위군	-11.447
▁북경	-11.447
▁변형	-11.447
▁디에고	-11.447
▁프로디	-11.4471
▁선언문	-11.4471
▁공표	-11.4471
▁공범	-11.4471
▁복부	-11.4471
▁사이먼	-11.4471
▁나이키	-11.4472
▁국토	-11.4472
▁연정	-11.4477
▁콜린스	-11.4477
▁능력이	-11.4477
▁판명	-11.4478
▁서버	-11.4479
▁나온다	-11.4481
▁우주복	-11.4481
▁린치	-11.4482
▁보리스	-11.4482
▁솜	-11.4483
▁펴	-11.4483
▁골든	-11.4483
▁콜로라도주	-11.4483
▁조각상	-11.4484
▁선동	-11.4484
▁랜	-11.4484
▁비정부	-11.4485
▁호박	-11.4487
▁영아	-11.4487
▁레노	-11.4488
▁역전	-11.4489
▁시합	-11.4489
▁결성	-11.4489
▁예보	-11.449
▁좋았다	-11.449
▁일자	-11.449
▁실바	-11.4491
▁채무	-11.4491
▁풀어주	-11.4491
▁딴	-11.4492
▁폐허	-11.4492
▁세르	-11.4492
▁조직원들	-11.4493
▁툴	-11.4493
▁리터	-11.4493
▁손님들	-11.4496
▁하위	-11.4496
▁동부에	-11.4497
▁상임	-11.4497
▁포도	-11.4498
▁버스에	-11.4499
▁주립	-11.4499
▁제작진	-11.45
▁장관급	-11.4501
▁근본주의	-11.4501
▁설치한	-11.4503
▁내려오	-11.4506
▁저명	-11.4506
▁주차장에서	-11.4507
▁잔인	-11.4507
▁감독과	-11.4509
▁연어	-11.4511
슬러	-11.4511
▁FA	-11.4512
교수	-11.4513
▁승려	-11.4517
▁게시	-11.4518
▁주식시장이	-11.4518
▁돌아간	-11.452
링턴	-11.4521
대상	-11.4523
▁정부기관	-11.4523
▁Mon	-11.4524
▁산업이	-11.4524
▁비중	-11.4525
▁보험사	-11.4526
▁결정한	-11.4527
▁목표물	-11.4528
▁곳곳에서	-11.4528
블리	-11.4528
부장	-11.453
▁교황이	-11.4531
▁접어들	-11.4532
▁본부장	-11.4532
▁국제법	-11.4533
단체인	-11.4534
▁친구인	-11.4534
▁겁	-11.4535
▁의류	-11.4536
▁쓰지	-11.4537
▁그럴	-11.4538
조건	-11.4542
▁몰린	-11.4546
▁소행	-11.4547
▁남부지역에서	-11.4548
▁다루는	-11.4548
▁시사했다	-11.4549
▁템	-11.455
▁발표하면서	-11.4556
▁병이	-11.4558
▁경제학자	-11.4558
▁주목할	-11.456
▁경호원들	-11.456
▁법에	-11.4561
▁당선됐다	-11.4561
▁영해	-11.4562
▁아크	-11.4562
▁후속	-11.4563
▁하퍼	-11.4565
▁줬	-11.4568
▁낮게	-11.4569
▁여행자	-11.457
▁기르	-11.457
▁한국계	-11.457
▁확인하지	-11.4572
▁재료	-11.4572
▁하사	-11.4576
ni	-11.4579
ls	-11.458
▁배상	-11.4581
▁간호사	-11.4582
▁Do	-11.4584
▁갇혀있	-11.4584
▁관여한	-11.4585
허가	-11.4585
▁타이거	-11.4587
▁날에	-11.4589
▁움직이는	-11.4592
▁일부분	-11.4594
▁일삼	-11.4596
▁가계	-11.4599
▁베이징에	-11.4599
▁젠	-11.46
▁박스	-11.4601
▁이유에	-11.4603
▁결혼했다	-11.4603
▁류	-11.4605
▁노력했다	-11.4606
▁전반에	-11.4613
▁우주로	-11.4617
▁영화들	-11.4617
▁제시할	-11.4618
▁희생자들이	-11.4619
▁자신만	-11.462
ull	-11.462
▁떠나지	-11.462
▁무장세력들	-11.4622
▁숨지	-11.4623
▁공화당원들	-11.4625
해줬다	-11.4626
▁사건에서	-11.463
▁단계적	-11.4631
▁설립된	-11.4637
▁교통부	-11.4641
▁이스트	-11.4645
▁발표했	-11.4647
▁담겨	-11.4649
▁토론회에서	-11.4651
▁투자가	-11.4652
티아	-11.4653
지스	-11.4654
▁매케인에	-11.4658
마라	-11.4662
▁완화하기	-11.4664
▁인터넷에서	-11.4664
▁바람에	-11.4668
▁사항이	-11.4669
▁계속됐다	-11.467
▁이용자	-11.467
▁신자	-11.4675
other	-11.4678
▁프로젝트에	-11.4687
▁목록에	-11.4696
▁올림픽에	-11.4696
▁결심했다	-11.4697
▁결정하기	-11.4699
▁팔리	-11.4699
▁레인	-11.4701
▁압수했다	-11.4702
대통령	-11.472
▁파키스탄과	-11.4728
▁개들	-11.4734
▁국제적으로	-11.4735
▁신체적	-11.4736
▁내부에	-11.4736
▁한반도에	-11.4736
▁참가국	-11.4736
특	-11.4738
▁수행하는	-11.4739
▁가정에서	-11.474
▁폭락했다	-11.4741
▁한국측	-11.4745
딕	-11.4745
풀	-11.4747
▁진도	-11.4748
탐	-11.475
책임자	-11.4752
▁드리	-11.4752
밴드	-11.4752
투쟁	-11.4752
배우	-11.4753
분쟁	-11.4753
▁나사	-11.4759
▁퇴원했다	-11.476
ef	-11.4762
▁지아	-11.4764
요금	-11.4767
모양	-11.4767
▁이혼했다	-11.4771
체계	-11.4777
▁철학	-11.4779
하기위해	-11.4781
웠던	-11.4783
▁차지했	-11.4785
▁지원했다	-11.4789
▁그곳	-11.479
됐기	-11.4795
▁앉아있	-11.4795
민들	-11.4796
▁선정했다	-11.4797
ful	-11.4798
▁악화된	-11.4798
CA	-11.4799
▁과정이	-11.48
▁돼있다	-11.48
▁작가들	-11.4801
▁방송이	-11.4802
리야	-11.4803
리드	-11.481
▁뒤지	-11.4811
▁홍콩에서	-11.4816
▁블리	-11.4818
▁엑스	-11.4821
실적	-11.4823
▁레바논에서	-11.4824
학자들	-11.4825
▁부분에	-11.4828
▁로이	-11.4829
▁직원과	-11.4831
▁집회에서	-11.4836
▁지명에	-11.4837
▁시점에	-11.4842
스러워	-11.4846
▁캘리포니아에서	-11.4846
▁여인	-11.4848
▁해결에	-11.4851
▁근본	-11.4854
▁잡혀	-11.4856
▁Prim	-11.4857
ash	-11.4858
▁소방대원	-11.4861
▁이행하	-11.4862
바인	-11.4865
▁Se	-11.4873
▁중단시키	-11.4874
▁고리	-11.4877
▁방안에	-11.4877
▁방문하고	-11.4878
▁미얀마에서	-11.4878
▁일조	-11.488
▁돌아왔	-11.4881
▁항의했다	-11.4881
▁치열	-11.4885
▁실종됐다	-11.4886
▁찾았	-11.4886
▁젊은이들이	-11.4889
▁느껴	-11.489
케르	-11.4895
▁유대인들	-11.4897
▁나타냈	-11.4899
▁불행	-11.4899
▁반군들	-11.4906
▁대표와	-11.4909
dom	-11.4911
▁일정에	-11.4917
ries	-11.4919
▁자바	-11.492
▁빠뜨	-11.4922
번에	-11.4923
▁실험에	-11.4923
▁주장했	-11.4924
▁protest	-11.4925
▁미네소타	-11.4927
끔	-11.4928
▁중력	-11.4928
▁미주리	-11.493
흥	-11.4932
▁노출되	-11.4933
리트	-11.4933
셋	-11.4935
▁창고	-11.4936
▁촉구하고	-11.4936
▁얼룩	-11.4936
벡	-11.4937
▁NYMEX	-11.4937
▁Russia	-11.4937
▁Street	-11.4937
▁Week	-11.4937
▁White	-11.4937
▁minister	-11.4937
▁official	-11.4937
▁peace	-11.4937
▁가로질러	-11.4937
▁그랜드슬램	-11.4937
▁라스무센	-11.4937
▁레드삭스	-11.4937
▁맞교환	-11.4937
▁매릴랜드	-11.4937
▁믿지	-11.4937
▁불필요	-11.4937
▁비아그라	-11.4937
▁빈라덴	-11.4937
▁생태계	-11.4937
▁소렌스탐	-11.4937
▁스콜세지	-11.4937
▁스탤론	-11.4937
▁식이요법	-11.4937
▁신용경색	-11.4937
▁싫어하	-11.4937
▁얼어붙	-11.4937
▁유네스코	-11.4937
▁제너럴	-11.4937
▁주미대사	-11.4937
▁질렀다	-11.4937
▁코네티컷	-11.4937
▁투탕카멘	-11.4937
▁팽팽	-11.4937
▁펌프	-11.4937
▁포틀랜드	-11.4937
▁푸에르타	-11.4937
덟	-11.4937
▁ECB	-11.4937
▁알자지라	-11.4937
▁와지리스탄	-11.4937
▁마터호른	-11.4937
▁아메드	-11.4937
▁국가정보원	-11.4937
▁고마움	-11.4937
▁로드맵	-11.4937
▁만델라	-11.4937
▁가이트너	-11.4937
▁헝가리	-11.4937
▁남동쪽	-11.4937
▁텔레콤	-11.4937
▁밀리밴드	-11.4937
▁Work	-11.4937
▁핑크	-11.4937
▁본거지	-11.4937
▁파이프라인	-11.4937
▁이뤄져야	-11.4937
▁아로요	-11.4937
▁외딴	-11.4937
▁거세지	-11.4937
▁FAA	-11.4937
▁블레이크	-11.4937
▁납북	-11.4937
▁버클리	-11.4937
▁몬테	-11.4938
▁WTI	-11.4938
▁불러일으키	-11.4938
▁투옥	-11.4938
▁완승	-11.4938
▁want	-11.4938
▁신분증	-11.4939
▁재처리	-11.4939
▁우호적	-11.4939
▁음란물	-11.4939
▁JP	-11.4939
▁세웠	-11.4939
▁더미	-11.4939
▁점유율	-11.494
▁청색	-11.494
▁보험금	-11.494
▁철강	-11.494
▁More	-11.4941
▁정황	-11.4941
▁나이로비	-11.4941
▁로얄	-11.4941
▁증권거래소	-11.4941
▁러브	-11.4941
▁정확하게	-11.4941
▁사절단	-11.4942
▁봅	-11.4942
▁함정	-11.4942
▁위안화	-11.4943
▁잠재력	-11.4943
▁교실	-11.4943
▁그래함	-11.4943
▁바이든	-11.4943
▁사촌	-11.4943
▁버려진	-11.4944
▁투병	-11.4944
▁은폐	-11.4944
용품	-11.4944
▁부착	-11.4945
▁절단	-11.4945
▁붙였다	-11.4945
▁유머	-11.4945
▁첫째	-11.4946
▁유언	-11.4946
▁있느냐	-11.4947
▁경색	-11.4947
▁사탕	-11.4947
평가	-11.4947
▁진심	-11.4947
▁화물선	-11.4947
▁위헌	-11.4948
▁긴장감	-11.4948
▁노엘	-11.4948
▁통역	-11.4948
life	-11.495
▁앞서있다	-11.4951
▁육상	-11.4952
▁파타당	-11.4952
▁인준	-11.4953
▁마샤	-11.4954
▁엔화	-11.4954
▁대통령궁	-11.4955
▁판결문	-11.4956
▁전인대	-11.4956
▁사람으로	-11.4957
▁시청률	-11.4957
과학	-11.4957
▁육성	-11.496
▁있을까	-11.496
▁정당화	-11.496
▁애정	-11.4961
▁투하	-11.4961
▁달렸다	-11.4961
▁쿠즈	-11.4961
▁줄리아	-11.4961
▁자체적으로	-11.4962
▁히스	-11.4962
▁차에	-11.4964
▁들어있	-11.4964
▁분배	-11.4964
▁박차	-11.4965
▁금융계	-11.4966
▁치우	-11.4967
▁공공장소에서	-11.4967
▁집이	-11.4968
▁가이드	-11.4968
▁장점	-11.4969
▁장애물	-11.4969
▁루즈	-11.4969
▁대열	-11.497
▁높았다	-11.4971
▁연맹	-11.4973
▁감행한	-11.4974
▁금주	-11.4975
▁감수	-11.4977
▁내달	-11.4977
▁발명	-11.4978
▁팔아	-11.4978
▁석방에	-11.4978
▁합법적으로	-11.4979
▁치아	-11.498
▁취업	-11.498
▁전념	-11.4981
▁치료법	-11.4981
▁금연법	-11.4985
ld	-11.4988
▁펜실베이니아주	-11.4988
▁들어왔다	-11.4989
▁매력적	-11.4989
▁테러범이	-11.4989
▁크라우	-11.4992
▁동상	-11.4995
▁합법적인	-11.4997
▁back	-11.4998
▁들소	-11.4998
▁의존하고	-11.4999
▁인종차별	-11.5
▁신선	-11.5001
▁남부지역	-11.5001
▁당이	-11.5002
▁서울대	-11.5004
ost	-11.5006
▁샬	-11.5007
▁국가와	-11.5007
▁수영장	-11.5009
▁납치범	-11.5011
▁이사장	-11.5012
▁확산되	-11.5015
▁문어	-11.5016
▁왕국	-11.5017
▁사우	-11.5017
▁양곤에서	-11.5021
▁사단	-11.5023
▁예상치	-11.5024
▁출판사	-11.5025
▁투표소	-11.5029
▁견디	-11.5029
NP	-11.5029
▁맞을	-11.503
▁대통령으로서	-11.503
▁기간이	-11.5031
▁교착상태에	-11.5032
▁비티	-11.5033
▁올드	-11.5037
▁라파	-11.5039
▁측면에서	-11.5039
▁경찰관들	-11.504
▁움	-11.504
▁이행할	-11.5041
▁실질적으로	-11.5043
▁Car	-11.5044
▁전용기	-11.5046
▁우주센터	-11.5046
▁빼고	-11.5047
▁조화	-11.5047
▁주심	-11.5051
▁목에	-11.5052
▁음와	-11.5056
▁생물학적	-11.5058
▁영화관	-11.5058
ling	-11.5059
▁이라크인들	-11.5063
▁북한군	-11.5064
▁혼인	-11.5065
▁분리주의자들	-11.5066
▁만회	-11.5071
▁오르기	-11.5076
▁심리학	-11.5077
▁이슬라마바드에서	-11.5077
arly	-11.5078
▁토레	-11.508
▁Sun	-11.5083
ix	-11.5092
▁손상된	-11.5093
▁호주군	-11.5093
ship	-11.5097
▁카불에서	-11.5098
레시	-11.5099
▁변수	-11.51
▁랩	-11.51
▁적게	-11.51
▁등정	-11.5101
▁이끌어내	-11.5104
▁고고학자	-11.5112
▁모델로	-11.5113
sk	-11.5113
▁조사팀	-11.512
시민	-11.512
▁전사들	-11.5125
▁궤도에	-11.5128
▁작전이	-11.5129
▁FC	-11.5129
▁친척들	-11.5134
▁경찰관이	-11.5144
▁측근들	-11.5145
▁충돌해	-11.5146
▁수용소에	-11.5146
▁대응할	-11.5146
▁서명한	-11.5148
▁발효	-11.5149
▁PS	-11.515
▁임명했다	-11.5152
▁착용한	-11.5153
▁엔지니어	-11.5154
▁자식	-11.5154
▁조차	-11.5158
▁중위	-11.516
▁등록된	-11.5161
란다	-11.5161
▁du	-11.5162
▁컨	-11.5166
▁그루	-11.517
▁다치	-11.5175
머니	-11.5178
▁다운	-11.5178
▁안고	-11.518
▁사고기	-11.5181
▁확보해	-11.5182
▁벨리	-11.5182
▁하우스	-11.5185
내기	-11.5186
▁가나	-11.5187
wi	-11.519
▁명만	-11.5192
▁행정부에	-11.5193
훈련	-11.5194
▁잃어	-11.5196
▁결의안이	-11.5206
줬	-11.5209
▁확보에	-11.5209
▁입히	-11.5211
닐	-11.5217
▁유전적	-11.5224
▁바라보	-11.5224
▁프로그램에서	-11.5235
▁우려해	-11.5235
▁강화된	-11.524
▁얀	-11.5243
▁제조업	-11.5245
첸	-11.5246
▁하와	-11.5247
사무소	-11.5249
▁지원에	-11.525
핵	-11.5251
금융	-11.5254
▁치명적	-11.5256
음악	-11.5256
▁포기한	-11.5257
민족	-11.5258
FC	-11.5265
▁폭발물이	-11.5267
▁일반인	-11.5269
▁전비	-11.527
▁나이에	-11.5271
▁중단됐	-11.5272
▁대면	-11.5275
▁시도하	-11.5275
▁고등	-11.5276
이라크	-11.5276
▁글로	-11.5277
▁충족	-11.5277
부족	-11.5277
now	-11.5281
▁회복하고	-11.5284
▁좌	-11.5288
▁관계자와	-11.5289
공원	-11.5289
▁과다	-11.5303
노스	-11.5304
있으며	-11.5307
상품	-11.531
▁올림픽에서	-11.531
메스	-11.5311
▁교회에	-11.5312
▁배우자	-11.5314
▁흐	-11.5315
▁무장세력과	-11.5329
▁합법적	-11.533
▁집중적	-11.5331
▁마련해	-11.5332
ack	-11.5335
▁벌여왔	-11.5338
▁민영	-11.5339
▁소행이라	-11.5345
▁해법	-11.5349
▁요구한다	-11.5349
▁기업체	-11.5349
▁wid	-11.5351
▁걸리는	-11.5352
▁처했다	-11.5354
ks	-11.5356
▁의문이	-11.5357
▁타지	-11.536
▁월말	-11.5363
▁외계	-11.5372
▁팀에	-11.5374
▁공로	-11.5376
▁공산	-11.5377
▁위험하다	-11.5378
▁만나고	-11.5378
▁수단으로	-11.5378
▁서기	-11.5379
▁트럭이	-11.538
▁이뤄졌	-11.5383
▁스티	-11.5384
▁가혹	-11.5385
▁파괴되	-11.5387
▁제의	-11.5388
ki	-11.5394
▁격돌한	-11.5394
▁중앙정보	-11.5398
▁혈	-11.5399
▁정규	-11.5399
ND	-11.54
투자	-11.54
컷	-11.54
▁나이로	-11.5402
▁fun	-11.5403
▁미끄러	-11.5404
파크	-11.5405
▁사령관이	-11.5406
▁몰리	-11.5406
▁연구자들	-11.5412
▁태어났	-11.5414
▁해역	-11.5419
▁밀집	-11.5422
▁조세	-11.5422
▁혐의와	-11.5424
▁바다에	-11.5427
▁기록됐다	-11.5429
▁수준에	-11.5429
획	-11.543
▁관리들과	-11.5432
▁뒤따	-11.5433
랙	-11.5436
▁Inter	-11.5436
돔	-11.5436
펀	-11.5436
▁앵커	-11.5437
랫	-11.5437
팍	-11.5437
▁RCTV	-11.5437
▁Service	-11.5437
▁UAE	-11.5437
▁UMP	-11.5437
▁갖췄다	-11.5437
▁갤러리	-11.5437
▁끊어	-11.5437
▁나이트클럽	-11.5437
▁네그로폰테	-11.5437
▁뉴욕상업거래소	-11.5437
▁뚜렷	-11.5437
▁매카트니	-11.5437
▁명확한	-11.5437
▁쌓인	-11.5437
▁쓰러져	-11.5437
▁아흐마디네자드	-11.5437
▁영유권	-11.5437
▁와이오밍	-11.5437
▁즈보나레바	-11.5437
▁초콜릿	-11.5437
▁해안경비대	-11.5437
▁햇볕	-11.5437
▁현수막	-11.5437
▁흑자	-11.5437
뜯	-11.5437
푼	-11.5437
▁about	-11.5437
▁신생아	-11.5437
▁갱단	-11.5437
▁자민당	-11.5437
▁아폴로	-11.5437
▁홈구장	-11.5437
▁start	-11.5437
▁딜런	-11.5437
▁피해여성	-11.5437
▁로날드	-11.5437
▁포츠머스	-11.5437
▁마리화나	-11.5437
▁agree	-11.5437
▁몰아넣	-11.5437
▁무자비	-11.5437
▁프리츨	-11.5437
▁함부르크	-11.5437
▁아이다호	-11.5437
▁Society	-11.5437
▁강원도	-11.5437
▁해들리	-11.5437
▁휴이트	-11.5437
▁발자국	-11.5437
▁마스리	-11.5437
▁흘리	-11.5437
▁under	-11.5437
▁독특	-11.5437
▁게놈	-11.5437
▁룰라	-11.5437
▁연못	-11.5437
▁봉착	-11.5437
▁scr	-11.5437
▁다이앤	-11.5437
▁오스만	-11.5437
▁가르시아	-11.5437
▁에어웨이	-11.5437
▁Franc	-11.5437
▁웰스	-11.5438
▁눈보라	-11.5438
▁출항	-11.5438
▁혜성	-11.5438
indow	-11.5438
▁게시판	-11.5438
▁무하마	-11.5438
▁도미니카	-11.5438
▁창업자	-11.5438
▁순결	-11.5438
▁test	-11.5438
▁혼잡	-11.5438
▁잡혔다	-11.5439
▁잠비아	-11.5439
▁크로스	-11.5439
▁척추	-11.5439
▁라싸	-11.5439
▁매도프	-11.5439
▁막으려	-11.5439
▁지방법원	-11.544
▁사무국장	-11.544
▁제이슨	-11.544
▁내놓았다	-11.544
▁거슬러	-11.544
▁사나	-11.544
▁돌풍	-11.544
▁선고받았다	-11.5441
▁바랍	-11.5441
▁야외	-11.5442
▁팔레스타인인	-11.5442
▁파이프	-11.5442
▁참의원	-11.5442
▁단언	-11.5442
▁기원전	-11.5442
▁인질극	-11.5442
▁묻혀	-11.5442
▁떨어졌습니다	-11.5443
▁훔쳐	-11.5443
어드	-11.5444
▁메모리	-11.5444
▁법령	-11.5445
▁독립국가	-11.5445
▁인텔	-11.5445
▁투여	-11.5446
▁재앙	-11.5446
▁해리슨	-11.5446
▁노인들	-11.5446
▁막았다	-11.5446
▁악마	-11.5447
▁이용했다	-11.5447
▁도착하자	-11.5447
▁사라질	-11.5447
▁조사결과	-11.5447
▁걸음	-11.5447
▁초드리	-11.5448
▁비참	-11.5448
▁연구하는	-11.5448
▁인수위원회	-11.5449
▁복사	-11.545
▁Man	-11.545
▁카이로	-11.5452
▁조립	-11.5452
▁순수	-11.5453
▁농부들	-11.5453
▁공작	-11.5454
▁태세	-11.5454
▁조율	-11.5454
▁남긴	-11.5454
▁실감	-11.5456
▁살리기	-11.5459
▁부양	-11.5459
▁승진	-11.546
▁다행	-11.546
▁케이스	-11.5461
▁구두	-11.5461
▁번개	-11.5462
▁배역	-11.5462
▁편집장	-11.5464
▁가져왔다	-11.5464
▁근본적	-11.5464
▁힐러리경	-11.5465
▁아이오와주	-11.5465
아주	-11.5465
▁별개	-11.5465
▁심리학자	-11.5466
▁들려	-11.547
▁멍	-11.5471
▁부인이	-11.5472
▁그래픽	-11.5472
▁점심	-11.5472
▁센트럴	-11.5472
▁따내	-11.5473
▁임상	-11.5474
▁정박	-11.5474
▁서구	-11.5475
▁목성	-11.5476
비드	-11.5478
▁기종	-11.5478
▁예산안	-11.5481
▁레이드	-11.5482
▁통과된	-11.5484
▁손길	-11.5484
▁버드	-11.5485
▁불명	-11.5486
▁추종자들	-11.5487
▁시행되	-11.5488
▁동거	-11.5488
▁도피	-11.5489
▁마루	-11.5489
▁죽였다	-11.5489
▁포즈	-11.5491
▁구성원	-11.5491
▁동력	-11.5491
▁미션	-11.5493
▁리우	-11.5493
▁포크	-11.5493
▁기술자들	-11.5494
▁토드	-11.5497
하느냐	-11.5499
▁카디	-11.55
▁캐나다에서	-11.55
▁띠	-11.55
▁Agenc	-11.55
▁없었고	-11.5502
▁참석하는	-11.5502
▁티나	-11.5503
▁본인	-11.5505
▁중립	-11.5505
▁째	-11.5509
▁자들	-11.5511
▁적도	-11.5512
▁붕괴되	-11.5512
▁따라잡	-11.5514
능력	-11.5515
▁관광객들에게	-11.5518
▁마시는	-11.5519
▁개정된	-11.5519
▁조심	-11.5524
▁끌어내	-11.5524
▁빨라	-11.5525
▁기용	-11.5527
▁공개될	-11.5532
ism	-11.5534
▁기각했다	-11.5537
AB	-11.5537
▁발표되지	-11.5539
인당	-11.5542
▁미얀마에	-11.5543
form	-11.5545
▁추락해	-11.5547
▁만연	-11.5547
▁중태	-11.5548
▁무거	-11.5549
▁이제까지	-11.555
▁북해	-11.5554
▁집어	-11.5555
▁버린	-11.5557
▁여왕이	-11.556
내려	-11.5568
▁공격해	-11.5569
▁정해진	-11.5574
▁났	-11.5576
▁연행됐다	-11.5577
▁본회의	-11.5577
▁두번째로	-11.5578
▁부분에서	-11.5579
▁길게	-11.558
판매	-11.5582
▁지나간	-11.5582
▁마주	-11.5583
▁연결하	-11.5584
▁나타난다	-11.5585
▁지지했다	-11.5585
▁슈퍼대의원	-11.5592
▁숨어	-11.5594
AT	-11.5594
▁쓰인	-11.5598
▁주시하	-11.5598
▁신뢰할	-11.5602
▁빌라	-11.5602
▁law	-11.5604
스프링스	-11.5605
▁몰아내	-11.5608
▁잘라	-11.5614
카트	-11.5618
다르	-11.5622
▁이집트에서	-11.5622
▁션	-11.5623
▁노린	-11.5624
▁해일	-11.563
건설	-11.5631
▁잡았	-11.5635
nger	-11.5636
net	-11.5638
▁가져가	-11.5641
▁광장에서	-11.5644
▁제품이	-11.5644
▁교사들	-11.5647
▁위협받	-11.565
▁주석이	-11.5651
▁시간만	-11.5653
비안	-11.5661
낸다	-11.5668
▁조사관	-11.5672
▁해안가	-11.5673
▁지켜보고	-11.5675
이상	-11.5681
two	-11.5683
데릭	-11.569
▁결정하지	-11.5691
▁발견해	-11.5692
▁무대에	-11.5693
▁가야	-11.5699
▁밀리	-11.57
▁차이나	-11.5702
▁주최한	-11.5702
▁시간으로	-11.5702
아갈	-11.5703
▁납치됐	-11.5706
▁경기장에서	-11.5709
▁라드	-11.5712
봤다	-11.5714
▁월스트리트에서	-11.572
▁외곽에	-11.5721
워스	-11.5721
▁동물원에서	-11.5723
▁대장	-11.5726
보면	-11.5728
▁여당이	-11.5728
▁높이기	-11.5729
▁센터에서	-11.5731
▁아서	-11.5736
▁월터	-11.5743
▁MP	-11.5758
▁보내지	-11.576
물리학	-11.5765
▁샌프란시스코에서	-11.5766
휘	-11.5769
▁구속됐다	-11.577
▁구속했다	-11.5771
▁운영되	-11.5772
앞	-11.5773
▁북한측	-11.5774
끄	-11.5774
재판소	-11.5774
앨	-11.5777
전략	-11.5778
ID	-11.5783
▁동의한다	-11.5783
▁이었다	-11.5785
▁운항이	-11.5788
브레	-11.5791
▁상점들	-11.5791
관광	-11.5792
▁Su	-11.5793
할때	-11.5795
▁주도하	-11.5796
에너지	-11.5797
bu	-11.5798
연방	-11.5798
▁생산된	-11.5819
▁대상자	-11.5824
▁하드	-11.5824
▁심리적	-11.5826
신원	-11.5828
▁팔레스타인인들	-11.5829
▁제국	-11.5834
단지	-11.5834
uck	-11.5842
SE	-11.5843
▁내부에서	-11.5847
▁효율	-11.5847
▁All	-11.5849
▁정신병	-11.5851
▁고속도로에서	-11.5852
▁아사	-11.5858
ama	-11.5863
▁앗아	-11.5865
▁않았다면	-11.5865
▁방문한다	-11.5865
▁방에서	-11.587
▁Un	-11.587
▁실종됐	-11.5875
▁전제	-11.5876
▁마드리드에서	-11.5876
▁임무에	-11.5878
마크	-11.5884
va	-11.5884
▁십년	-11.5885
▁모가디슈	-11.5886
전화	-11.5887
▁Sp	-11.5891
▁나간	-11.5891
▁차장	-11.5893
▁역할에	-11.5895
▁구사	-11.5898
▁he	-11.5899
벨라	-11.5899
▁롭	-11.5902
▁졌다	-11.5902
▁금요일에	-11.5904
▁하루만	-11.5905
▁들어왔	-11.5915
▁조사하는	-11.5918
▁설립했다	-11.5923
▁절반이	-11.5924
▁회사에서	-11.5926
▁해왔	-11.5928
▁업무에	-11.5935
▁하기로	-11.5937
요원들	-11.5939
모리	-11.5946
▁시청자	-11.5951
▁아비	-11.5951
▁year	-11.5951
븐	-11.5955
▁수개월	-11.5956
칙	-11.5958
▁때가	-11.5958
첩	-11.5959
듬	-11.5961
깃	-11.5961
▁혐오	-11.5961
▁했는지	-11.5962
▁첨단	-11.5963
뮤	-11.5963
▁Islam	-11.5963
▁break	-11.5963
콥	-11.5963
▁Corp	-11.5963
▁Science	-11.5963
▁USGS	-11.5963
▁claim	-11.5963
▁economic	-11.5963
▁foreign	-11.5963
▁가깝게	-11.5963
▁가솔린	-11.5963
▁꿀벌	-11.5963
▁낳았다	-11.5963
▁니스텔로이	-11.5963
▁동성결혼	-11.5963
▁디스플레이	-11.5963
▁르완다	-11.5963
▁리트비넨코	-11.5963
▁메르세데스	-11.5963
▁미항공우주국	-11.5963
▁박정희	-11.5963
▁방코델타아시아	-11.5963
▁버틀러	-11.5963
▁베를루스코니	-11.5963
▁북대서양	-11.5963
▁불매운동	-11.5963
▁성매매	-11.5963
▁순이익	-11.5963
▁심장질환	-11.5963
▁아제르바이잔	-11.5963
▁앙카라	-11.5963
▁애틀랜티스호	-11.5963
▁요하네스버그	-11.5963
▁인공위성	-11.5963
▁자르카위	-11.5963
▁정권인수팀	-11.5963
▁조선일보	-11.5963
▁좋겠다	-11.5963
▁찍힌	-11.5963
▁칠면조	-11.5963
▁키드먼	-11.5963
▁토튼햄	-11.5963
▁합법화	-11.5963
▁핸드폰	-11.5963
늬	-11.5963
옌	-11.5963
▁니제르	-11.5963
▁밀라노	-11.5963
▁선거유세	-11.5963
▁스즈키	-11.5963
▁영사관	-11.5963
▁잠수함	-11.5963
▁재규어	-11.5963
▁나뉘어	-11.5963
▁오사카	-11.5963
▁원자재	-11.5963
▁사직서	-11.5963
▁카펠로	-11.5963
▁비너스	-11.5963
▁징조	-11.5963
▁와일드	-11.5963
▁핀란드	-11.5963
▁막바지	-11.5963
▁셰퍼드	-11.5963
▁옥스포드	-11.5963
▁관절염	-11.5963
▁대운하	-11.5963
▁사형선고	-11.5963
▁반세기	-11.5963
▁페라로	-11.5963
▁블랙워터	-11.5963
▁프라이스	-11.5963
▁반짝이	-11.5963
▁묵념	-11.5963
▁참혹	-11.5963
▁즐거움	-11.5963
▁그리핀	-11.5963
▁노숙자	-11.5963
▁하이킹	-11.5963
▁몸싸움	-11.5964
▁액션	-11.5964
▁체첸	-11.5964
▁아이튠	-11.5964
▁역전승	-11.5964
▁파란색	-11.5964
▁드라이브	-11.5964
▁빠져나가	-11.5964
▁음향	-11.5964
▁휘말	-11.5964
▁인내심	-11.5964
▁농부	-11.5964
▁번화가	-11.5964
▁Right	-11.5964
▁부유층	-11.5964
▁재건축	-11.5965
▁Park	-11.5965
▁People	-11.5965
▁군복무	-11.5965
▁그린존	-11.5965
▁바오로	-11.5965
▁크리스틴	-11.5965
▁곤경에	-11.5965
▁관례	-11.5965
▁쏟아져	-11.5965
▁형벌	-11.5965
▁휴먼	-11.5965
▁파라오	-11.5966
▁소방차	-11.5966
▁불빛	-11.5966
▁좌우	-11.5966
▁정회장	-11.5966
▁노워크	-11.5966
▁가정집	-11.5966
▁오닐	-11.5967
▁꾸미	-11.5967
▁연봉	-11.5967
▁원주민들	-11.5967
▁괴물	-11.5967
▁생물체	-11.5968
▁환급	-11.5968
▁뭉	-11.5969
▁같아	-11.5969
▁연합통신	-11.5969
▁아흐메드	-11.5969
▁직무	-11.5969
▁이송됐으	-11.5969
▁마스크	-11.5969
▁어디서	-11.5969
▁난항	-11.597
▁라이더	-11.597
▁카타르	-11.597
▁부국장	-11.597
▁접종	-11.597
▁forces	-11.597
▁리틀	-11.597
▁요구사항	-11.597
▁숨져	-11.5971
▁가져오	-11.5971
▁미주리주	-11.5971
▁샤리아	-11.5971
시킴	-11.5971
▁푸미	-11.5972
▁드러나	-11.5972
▁표범	-11.5972
▁기다렸다	-11.5972
▁카누	-11.5973
▁우표	-11.5973
▁제약회사	-11.5973
▁꼬리	-11.5973
▁티모	-11.5973
▁사귀	-11.5973
▁과거사	-11.5974
▁난처	-11.5975
▁미시건주	-11.5975
▁친분	-11.5975
▁속출	-11.5975
▁반란군	-11.5975
▁비틀	-11.5975
▁놓인	-11.5976
▁휘트	-11.5976
▁유타주	-11.5977
▁사과문	-11.5977
▁굽	-11.5979
▁지켜봤다	-11.5979
▁경감	-11.598
▁타개	-11.598
▁루이지애나주	-11.5981
▁그레이스	-11.5981
▁카렌	-11.5981
▁사립	-11.5981
▁만들어졌다	-11.5982
▁백만명	-11.5982
▁각료회의	-11.5982
▁구제금융안	-11.5983
▁테디	-11.5984
▁그런데	-11.5984
▁생길	-11.5984
▁애리조나주	-11.5985
▁며칠간	-11.5985
뒀다	-11.5986
▁여건	-11.5987
▁넘겼다	-11.5987
▁김영	-11.5988
▁벤치	-11.5989
▁매설	-11.599
uk	-11.5991
▁회복세	-11.5993
▁표정	-11.5993
▁해커	-11.5994
▁형량	-11.5995
DA	-11.5995
▁펜실베니아주	-11.5995
▁외신	-11.5995
▁기념하	-11.5996
▁치타	-11.5997
▁거행	-11.6001
▁기준에	-11.6002
▁들렸다	-11.6002
▁들어있다	-11.6003
▁적들	-11.6008
▁블루스	-11.6008
▁민족주의	-11.6008
▁확정된	-11.6008
▁해외로	-11.6012
▁반경	-11.6012
▁주장했었다	-11.6012
▁않았기	-11.6012
▁돌진	-11.6013
▁연관성	-11.6013
▁총력	-11.6014
▁날려	-11.6014
▁구직	-11.6015
▁소원	-11.6015
▁이빨	-11.6017
▁쉴	-11.6017
▁압도적으로	-11.6018
▁문명	-11.6019
▁카카	-11.602
▁찔	-11.602
▁책상	-11.6023
▁은신	-11.6024
▁인내	-11.6024
▁쉽다	-11.6024
▁질병에	-11.6025
▁여론조사에	-11.6026
▁레비	-11.6028
▁불행한	-11.6028
▁퓨	-11.603
▁끝나기	-11.603
▁수송기	-11.603
▁보잉사	-11.603
▁루트	-11.6031
▁입원해	-11.6032
▁최다	-11.6037
IA	-11.6038
▁우수	-11.604
▁벌인다	-11.6041
변화	-11.6042
▁가담한	-11.6042
▁나포	-11.6044
▁정보원	-11.6045
▁스트리트	-11.6051
▁의약	-11.6052
▁저하	-11.6053
▁산책로	-11.6053
▁예상한	-11.6055
▁구속력	-11.6057
▁개체	-11.6058
▁상징으로	-11.6059
▁복도	-11.6059
▁Ne	-11.606
▁자질	-11.606
▁나노	-11.606
▁명절	-11.606
▁언론들	-11.606
▁컬	-11.6062
▁통과했다	-11.6064
▁호전	-11.6064
▁한창	-11.6066
▁국가적	-11.6067
▁놓치	-11.6068
▁주행	-11.6074
▁모색하고	-11.6081
▁교류	-11.6087
▁힘들었	-11.6087
▁국경지역에서	-11.6092
▁플로리다에	-11.6092
▁천국	-11.6095
▁다닐	-11.6096
▁정서	-11.6096
than	-11.6096
▁이겼다	-11.6103
▁pa	-11.6105
▁건스	-11.6106
▁병장	-11.611
▁인사들과	-11.6113
▁단계로	-11.6115
▁사원에	-11.6115
▁가시	-11.6116
cl	-11.6122
order	-11.6123
cer	-11.6125
▁추방된	-11.6127
▁남쪽에	-11.6132
▁인종적	-11.6133
▁low	-11.6141
▁법규	-11.6142
▁진압하기	-11.6142
▁지시한	-11.6143
▁석유회사	-11.6144
▁청문회에서	-11.6147
arry	-11.6152
바드	-11.6159
ina	-11.6159
▁매도	-11.6162
▁국가들에	-11.6162
▁클레이	-11.6167
▁고독	-11.6168
pose	-11.6172
▁추측이	-11.6177
▁희생됐다	-11.6179
▁행복한	-11.618
▁얼굴에	-11.618
▁실직자	-11.618
▁수단이	-11.6191
▁분주	-11.6194
▁기기	-11.6196
▁권했다	-11.6197
▁결혼한	-11.6203
▁크루	-11.6205
▁조심스럽	-11.621
▁환경에서	-11.6214
▁이재민들	-11.6218
▁물건들	-11.6219
hoo	-11.6219
곳	-11.6227
▁자랑하	-11.6232
▁프린	-11.6233
▁도발적	-11.6233
▁시드니에서	-11.6234
▁목적지	-11.6236
▁기업에	-11.6236
▁섭	-11.6239
▁거부할	-11.6245
▁번호	-11.6247
▁증상이	-11.6247
셨	-11.6248
▁제한하	-11.6249
orn	-11.6251
타카	-11.6253
▁참여하고	-11.6253
▁콜로	-11.6256
▁때보다	-11.6259
▁보스	-11.626
▁져야	-11.6264
▁부각	-11.6266
브리지	-11.6269
▁주어진	-11.627
action	-11.627
▁살아있	-11.6272
가렛	-11.6274
▁Ya	-11.6275
빨	-11.6277
▁이르다	-11.6278
▁자원봉사자들	-11.628
▁동원됐다	-11.6285
▁세상에	-11.6288
tory	-11.629
정치	-11.6296
▁임원들	-11.6298
▁북쪽에	-11.6305
▁지지해	-11.6306
▁Nation	-11.6308
▁이어져	-11.631
▁만들어지	-11.6311
밤	-11.6314
DP	-11.6316
rs	-11.6318
▁비난해	-11.6321
▁중단되	-11.6321
▁부문에	-11.6322
▁현대적	-11.6324
emb	-11.6328
랩	-11.633
붙	-11.6332
밀리에	-11.6332
턱	-11.6332
시리즈	-11.6334
뒤	-11.6334
최초	-11.6335
▁후보였	-11.6336
▁국무장관과	-11.6336
▁다리에	-11.6345
진압	-11.6345
▁불만이	-11.6349
워터	-11.635
ift	-11.6352
화씨	-11.6353
▁정상회담에	-11.6359
▁마티	-11.6362
▁위원회에서	-11.6365
▁미미	-11.6366
▁프로그램들	-11.6369
▁소녀들	-11.6375
▁어기	-11.6375
▁죽었	-11.6377
▁명이었다	-11.6377
▁롱	-11.6378
카니	-11.6386
▁조사관들	-11.6386
▁권장	-11.6387
▁기독교인	-11.6389
▁사용된다	-11.6391
uit	-11.6393
방식	-11.6393
▁아프간군	-11.6407
▁제작했다	-11.641
▁별장	-11.6417
▁죽고	-11.6419
▁상반	-11.642
▁생겼	-11.6425
▁손실이	-11.6427
▁다해	-11.6428
▁시달리	-11.6428
▁느끼지	-11.643
루드	-11.6435
▁차량과	-11.6438
▁노출된	-11.6438
철도	-11.6441
바락	-11.6446
▁전차	-11.6449
▁달했다	-11.6449
▁허용했다	-11.6452
▁거부하는	-11.6459
▁따르지	-11.6461
▁의거	-11.6467
관리국	-11.6467
▁헌법에	-11.6468
▁설명하지	-11.6471
▁이동하	-11.6472
▁벌이다	-11.6474
▁단계에서	-11.6474
EC	-11.6481
▁좋았	-11.6482
▁존재하	-11.6484
▁촉진시키	-11.6486
▁훔	-11.6486
지역으로	-11.6487
▁유학	-11.6488
자키	-11.6496
▁덧붙였	-11.65
▁통과하	-11.6501
▁극단주의	-11.6502
▁계열	-11.6502
▁역설	-11.6506
심리	-11.6507
▁바람직	-11.6507
▁사진기자	-11.6513
옹	-11.6515
▁기사에	-11.6516
▁신행정수도	-11.6516
eople	-11.6517
▁힌두	-11.6518
▁살모넬라	-11.6518
쯔	-11.6518
employ	-11.6518
▁California	-11.6518
▁EPL	-11.6518
▁Health	-11.6518
▁High	-11.6518
▁ISAF	-11.6518
▁Journal	-11.6518
▁NHC	-11.6518
▁UCI	-11.6518
▁securit	-11.6518
▁개성공단	-11.6518
▁걸림돌	-11.6518
▁경기후퇴	-11.6518
▁국제올림픽위원회	-11.6518
▁금강산	-11.6518
▁긱스	-11.6518
▁남우주연상	-11.6518
▁뉴잉글랜드	-11.6518
▁늦추	-11.6518
▁독극물	-11.6518
▁라크시미	-11.6518
▁상임이사국	-11.6518
▁새크라멘토	-11.6518
▁샌안토니오	-11.6518
▁서둘러	-11.6518
▁선거기부금	-11.6518
▁세골렌	-11.6518
▁아프카니스탄	-11.6518
▁악천후	-11.6518
▁애슐리	-11.6518
▁엑스파일	-11.6518
▁여러차례	-11.6518
▁옮겼다	-11.6518
▁유엔사무총장	-11.6518
▁이바노비치	-11.6518
▁재결합	-11.6518
▁제퍼슨	-11.6518
▁지켰다	-11.6518
▁췌장암	-11.6518
▁컸다	-11.6518
▁쿠즈넷소바	-11.6518
▁키티호크	-11.6518
▁하드웨어	-11.6518
▁헐리우드	-11.6518
▁홍석현	-11.6518
▁화성탐사	-11.6518
▁히스패닉	-11.6518
캇	-11.6518
▁깁슨	-11.6518
▁불공정	-11.6518
▁석유수출	-11.6518
▁나타날	-11.6518
▁유동성	-11.6518
▁깁스	-11.6518
▁스프레이	-11.6518
▁승부차기	-11.6518
▁추기경	-11.6518
▁대법관	-11.6518
▁루카스	-11.6518
▁산체스	-11.6518
▁다둘라	-11.6519
▁하니야	-11.6519
▁회교도	-11.6519
▁백과사전	-11.6519
▁무효	-11.6519
▁즐겁	-11.6519
▁어쩔	-11.6519
▁욕구	-11.6519
▁개구리	-11.6519
▁바시르	-11.6519
▁희귀	-11.6519
▁변호사와	-11.6519
▁캐롤라인	-11.6519
▁진짜	-11.6519
▁진상조사	-11.6519
▁Polic	-11.6519
HDA	-11.6519
▁어렸을	-11.6519
▁교도통신	-11.6519
▁적혀있	-11.6519
▁글로리아	-11.6519
▁게이머	-11.6519
▁탈퇴	-11.6519
▁바레인	-11.6519
▁즐겨	-11.652
▁부모님	-11.652
ww	-11.652
▁기념행사	-11.652
▁항구도시	-11.652
▁밀매	-11.652
▁출현	-11.652
▁궁금	-11.652
▁진척	-11.652
▁잠자리	-11.652
▁그만두	-11.652
▁핵연료	-11.652
▁벌어질	-11.6521
▁오래전부터	-11.6521
▁어워드	-11.6522
▁양육	-11.6522
▁액체	-11.6522
▁잠겨	-11.6522
▁주어지	-11.6522
▁내보냈	-11.6522
▁쿠마르	-11.6522
▁컬럼비아호	-11.6522
▁디젤	-11.6522
▁플루	-11.6522
▁들어올	-11.6522
▁어윈	-11.6522
▁호황	-11.6522
▁찰리	-11.6522
▁hit	-11.6522
▁평화협정	-11.6522
▁빙산	-11.6522
▁소방서	-11.6522
▁무척	-11.6523
▁실망감	-11.6523
▁오디오	-11.6523
▁야채	-11.6524
▁루머	-11.6524
▁이어갔다	-11.6525
▁돌파구	-11.6525
▁국제축구연맹	-11.6525
▁오리건주	-11.6525
▁에밀리	-11.6526
▁항공편	-11.6526
▁대위	-11.6526
▁지하실	-11.6526
▁attacks	-11.6526
▁기네스	-11.6527
▁중동평화회의	-11.6527
▁수익금	-11.6528
▁변호인단	-11.6528
▁되자	-11.6528
▁강철	-11.6528
▁거래되	-11.6529
▁충성	-11.6529
▁꺼내	-11.6529
▁누출	-11.6529
▁이뤘	-11.653
▁빅토	-11.653
▁왕조	-11.653
▁집결	-11.6531
▁모여들었다	-11.6531
▁말레이시아에서	-11.6531
▁현저	-11.6532
▁탈선	-11.6532
▁bet	-11.6533
▁표본	-11.6533
▁출산율	-11.6533
▁진동	-11.6533
▁제왕	-11.6533
▁밝혀질	-11.6533
▁의논	-11.6534
▁기대감	-11.6535
▁궁극적으로	-11.6535
▁어류	-11.6535
▁부의장	-11.6536
▁아담스	-11.6537
▁종사하	-11.6537
대학교	-11.6537
▁요청했	-11.6538
▁소유즈	-11.6539
▁지었다	-11.654
▁로렌스	-11.6541
▁관람객	-11.6541
▁비스타	-11.6542
▁과속	-11.6543
▁통제권	-11.6543
▁드물	-11.6543
▁표결에	-11.6543
▁만평	-11.6544
▁정복	-11.6544
▁않을까	-11.6544
▁코란	-11.6544
▁과감	-11.6545
▁토티	-11.6545
▁상태였	-11.6546
▁안았다	-11.6547
▁감당	-11.6549
▁난관	-11.655
▁Red	-11.6551
▁세기에	-11.6551
▁조장하	-11.6552
▁친미	-11.6553
▁재계	-11.6553
▁로렌	-11.6553
ific	-11.6554
▁알아야	-11.6554
▁적법	-11.6554
▁사료	-11.6555
▁수사팀	-11.6557
▁썩	-11.6557
▁파이낸셜	-11.6557
▁망치	-11.6557
▁분개	-11.6558
▁점유	-11.6558
▁성실	-11.656
▁가져야	-11.656
▁준결승전에서	-11.6561
프랑	-11.6562
▁북극해	-11.6564
▁주관	-11.6565
▁King	-11.6565
▁거울	-11.6567
▁자재	-11.6568
▁되는데	-11.6568
▁원형	-11.6569
▁옮겨졌다	-11.6571
▁금지했다	-11.6571
▁불량	-11.6572
▁소비자들에게	-11.6574
주간	-11.6575
▁부패혐의	-11.6575
▁스티븐스	-11.6577
▁운동화	-11.6578
▁청와대에서	-11.6579
▁벗어나기	-11.658
▁분리된	-11.658
ition	-11.658
▁바탕으로	-11.658
▁야드	-11.6582
▁제압	-11.6583
▁눈으로	-11.6583
▁리마	-11.6583
▁가혹한	-11.6584
▁변하지	-11.6585
▁체스	-11.6585
▁지냈다	-11.6586
▁su	-11.6588
마트	-11.6589
클라	-11.659
▁확정됐다	-11.6591
▁한국어	-11.6592
자산	-11.6596
▁새우	-11.6597
▁계획이었다	-11.6599
▁군용	-11.66
▁그녀에게	-11.66
▁쿠폰	-11.6603
▁음식점	-11.6603
▁계약서	-11.6605
▁자국민	-11.6607
▁주말까지	-11.6608
▁편에	-11.6612
▁클라인	-11.6615
▁명씩	-11.6615
▁트럭에	-11.6616
▁내역	-11.6622
▁카라치에서	-11.6625
bal	-11.6626
▁삼바	-11.6627
▁반대해	-11.6627
▁위권	-11.6632
▁선서	-11.6634
▁플로리다에서	-11.6634
ted	-11.6635
▁선교	-11.6635
▁이탈리아에서	-11.6636
▁지질학	-11.6636
▁생명에	-11.6636
▁육지	-11.6639
▁독자적	-11.6639
▁중심부에서	-11.6641
▁축하하기	-11.6643
▁사임한	-11.6644
▁모델이	-11.6652
▁공약으로	-11.6654
적이었다	-11.6657
▁바꾸기	-11.6666
▁나빠	-11.6668
▁urge	-11.6668
롤라	-11.6668
▁생사	-11.6672
▁자동차회사	-11.6672
▁싼	-11.6674
▁사령부	-11.6678
탈루	-11.6681
▁발표되	-11.6682
▁통제하는	-11.6686
▁대미	-11.6691
▁떠나기	-11.6693
▁철회할	-11.6695
▁가루	-11.6697
▁농장에서	-11.6701
▁농구	-11.6712
DR	-11.6719
▁우주국	-11.6721
▁주식시장에서	-11.6722
▁Ab	-11.6723
▁다양성	-11.6725
▁Mi	-11.6725
▁담당하	-11.6726
▁배우들	-11.6731
▁일부에서	-11.6735
▁사라져	-11.6736
▁Pri	-11.6736
▁신뢰도	-11.6737
▁생산성	-11.6743
▁movi	-11.6747
▁뜨	-11.6749
▁다녀	-11.675
▁타계했다	-11.6752
▁호스	-11.6755
▁관중들	-11.6755
▁화면에	-11.6755
▁부위에	-11.6757
▁자백	-11.6759
▁살아있다	-11.6776
▁예루살렘에서	-11.6777
문제에	-11.6777
▁베니스	-11.678
▁장애인	-11.6782
▁누구에게	-11.6789
▁회사측	-11.6796
하드	-11.6798
ents	-11.6799
oo	-11.6799
▁컴	-11.68
▁중심부에	-11.6801
▁허가했다	-11.6804
블라	-11.6804
ino	-11.6807
▁합류했다	-11.681
▁웬	-11.6812
▁참석자들	-11.6816
▁팀장	-11.6826
▁외무장관이	-11.6826
▁그외	-11.6826
상태에	-11.6827
▁블로거	-11.6829
▁사무실에	-11.6831
▁중단해야	-11.6835
▁당사자들	-11.6835
▁개별	-11.6838
▁협력해	-11.6848
▁폭도	-11.6849
OE	-11.6851
▁통신원	-11.6853
ron	-11.6853
▁혁신적	-11.6856
▁흔적이	-11.6856
▁파티에	-11.6858
val	-11.6862
▁거점	-11.6866
▁학자	-11.6872
▁자백했다	-11.6872
▁환자에게	-11.6873
▁취하는	-11.6874
ler	-11.6875
▁냈	-11.6876
▁물자	-11.6886
라프	-11.6888
▁마련하고	-11.6888
▁거주자	-11.6889
▁텐	-11.6891
▁day	-11.6891
▁라만	-11.6892
▁정부측	-11.6895
▁보니	-11.6895
▁취하기	-11.6896
원장	-11.6899
▁흥분한	-11.6899
▁사자	-11.6902
▁출연할	-11.6904
▁제한된	-11.6905
바오	-11.6906
죽	-11.6907
▁집권한	-11.6912
▁전화기	-11.6912
GA	-11.6913
▁시작된다	-11.6913
▁Or	-11.6914
▁시신들	-11.6914
▁사회에서	-11.6918
▁당선되	-11.692
▁이해하는	-11.692
▁car	-11.6922
자동차	-11.6922
ton	-11.6922
랭킹	-11.6922
검찰	-11.6923
▁존재하지	-11.6924
▁센터에	-11.693
▁신자들	-11.6931
업무	-11.6931
집단	-11.6937
누르	-11.6939
신청	-11.6946
▁제공되	-11.6946
하든	-11.6947
ll	-11.6958
▁상황으로	-11.6962
▁감소하고	-11.6966
▁딸들	-11.6967
시절	-11.6972
▁대중들	-11.6973
▁넘었다	-11.6976
중단	-11.6976
▁전해진	-11.6982
ney	-11.6989
▁보라	-11.699
▁발사됐다	-11.6993
USS	-11.6994
▁충격적	-11.6995
▁경제학	-11.6997
▁적었다	-11.6998
▁알았	-11.7008
▁다나	-11.7018
▁다할	-11.7021
▁일생	-11.7023
▁의대	-11.7025
글판	-11.7029
▁보장하	-11.7034
▁대항하는	-11.7036
▁해변에	-11.7039
▁압력에	-11.704
▁유독	-11.7041
▁Go	-11.7047
▁pop	-11.705
▁정해	-11.7051
▁나토군이	-11.7056
ead	-11.7056
▁수학	-11.7056
▁분리주의	-11.7057
운영	-11.7064
▁소실	-11.7072
▁메디컬	-11.7075
ord	-11.7081
▁기지에	-11.7081
받았	-11.7085
▁작동되	-11.7086
▁거래에서	-11.7087
혁	-11.7092
▁미시건	-11.7093
▁결정하는	-11.7093
▁주차장	-11.7094
▁브랜	-11.7095
▁이슬람교도들	-11.7096
▁국민과	-11.7096
▁준결승	-11.7096
둬	-11.7103
hief	-11.7105
륜	-11.7105
왓	-11.7105
q	-11.7105
놔	-11.7107
쿼	-11.7107
툰	-11.7107
▁Black	-11.7107
▁EADS	-11.7107
▁IRNA	-11.7107
▁IWC	-11.7107
▁KBS	-11.7107
▁Senate	-11.7107
▁Thai	-11.7107
▁UNHCR	-11.7107
▁strike	-11.7107
▁summit	-11.7107
▁검정색	-11.7107
▁고르바초프	-11.7107
▁공상과학	-11.7107
▁구소련	-11.7107
▁더글라스	-11.7107
▁듣게	-11.7107
▁먹어	-11.7107
▁멋지	-11.7107
▁메릴린치	-11.7107
▁몰랐다	-11.7107
▁미확인	-11.7107
▁민주노동당	-11.7107
▁바나프샤	-11.7107
▁블래터	-11.7107
▁빈민층	-11.7107
▁샀다	-11.7107
▁스필버그	-11.7107
▁식품의약국	-11.7107
▁아디다스	-11.7107
▁여중생	-11.7107
▁예방접종	-11.7107
▁위태롭게	-11.7107
▁인신매매	-11.7107
▁정찰위성	-11.7107
▁조류독감	-11.7107
▁준이치로	-11.7107
▁찍어	-11.7107
▁타이타닉	-11.7107
▁통합민주당	-11.7107
▁트러스트	-11.7107
▁트리폴리	-11.7107
▁포유류	-11.7107
▁햇빛	-11.7107
▁확립	-11.7107
▁흩어져	-11.7107
띤	-11.7107
샨	-11.7107
텀	-11.7107
퐁	-11.7107
▁demand	-11.7107
▁뇌졸중	-11.7107
▁리우데자네이루	-11.7107
▁마스터즈	-11.7107
▁볼티모어	-11.7107
▁시에라리온	-11.7107
▁신시내티	-11.7107
▁암스테르담	-11.7107
▁언젠가	-11.7107
▁정보통신부	-11.7107
▁존엄성	-11.7107
▁좁혀	-11.7107
▁헤드폰	-11.7107
▁사이언스	-11.7107
▁자페타	-11.7107
▁항공모함	-11.7107
▁메이도프	-11.7107
▁상무부	-11.7107
▁영업이익	-11.7107
▁Face	-11.7107
▁다이어트	-11.7107
▁에스트라다	-11.7107
▁타디치	-11.7107
▁흥정	-11.7107
▁노던록	-11.7107
▁카펫	-11.7107
▁버나드	-11.7107
▁스틸러스	-11.7107
▁대성당	-11.7107
▁치뤄	-11.7107
▁놀이공원	-11.7107
▁쿼터백	-11.7107
▁버크헤드	-11.7107
▁사진작가	-11.7107
▁고등학생	-11.7107
▁강대국	-11.7107
▁패트로스	-11.7107
▁height	-11.7107
hurch	-11.7107
▁경수로	-11.7107
▁슬픈	-11.7107
▁트랙	-11.7107
▁북아일랜드	-11.7107
▁낭독	-11.7107
▁고아원	-11.7107
▁정착촌	-11.7107
▁작가조합	-11.7107
▁국영언론	-11.7107
▁show	-11.7107
▁현대자동차	-11.7107
▁출혈	-11.7107
▁당뇨병	-11.7107
▁씨앗	-11.7107
▁도망쳤다	-11.7107
arge	-11.7107
▁Union	-11.7108
▁체험	-11.7108
▁블랙홀	-11.7108
▁클릭	-11.7108
▁휴전협정	-11.7108
▁GDP	-11.7108
▁식별	-11.7108
▁헬렌	-11.7108
▁볼드윈	-11.7108
▁극도로	-11.7108
▁검역	-11.7109
▁항의시위	-11.7109
▁총파업	-11.7109
▁십자가	-11.7109
▁유대교	-11.7109
▁리옹	-11.7109
▁출처	-11.7109
▁신흥	-11.7109
▁MTV	-11.7109
▁TSA	-11.7109
▁축복	-11.7109
▁계승	-11.711
▁키팅	-11.711
▁다저스	-11.711
▁soldiers	-11.711
▁크랜	-11.711
▁조세프	-11.711
▁몰락	-11.711
▁무효화	-11.711
▁부활절	-11.711
▁절망	-11.7111
▁탄원서	-11.7111
▁무장조직	-11.7111
▁연립	-11.7111
▁내륙	-11.7112
▁올라왔다	-11.7112
▁살인사건	-11.7112
▁보건장관	-11.7112
▁용감	-11.7112
▁who	-11.7113
▁제휴	-11.7113
▁흠	-11.7113
▁운용	-11.7113
▁머무르	-11.7113
▁특혜	-11.7113
▁작위	-11.7113
▁완구	-11.7113
▁프린트	-11.7114
▁최신작	-11.7114
▁deal	-11.7114
▁엔론	-11.7114
▁죽어	-11.7114
▁야망	-11.7115
ju	-11.7115
▁소년병	-11.7115
▁피켓	-11.7116
▁켄트	-11.7116
▁돌렸다	-11.7116
▁청산	-11.7116
▁바다위	-11.7116
▁로리언	-11.7117
▁환경단체	-11.7117
▁절정	-11.7117
▁종목	-11.7117
▁근방	-11.7117
▁물리학자	-11.7117
▁상환	-11.7118
▁견제	-11.7118
▁열광	-11.7119
▁넘긴	-11.7119
▁통신망	-11.7119
▁오델	-11.7119
▁Ira	-11.7119
▁폴락	-11.7119
▁최장	-11.712
▁즉석	-11.712
▁최적	-11.712
▁할렘	-11.7121
▁결정적	-11.7122
▁강탈	-11.7122
gu	-11.7122
▁귀중	-11.7123
▁관제	-11.7124
▁오찬	-11.7126
▁차이점	-11.7126
▁동점	-11.7127
▁공석	-11.7127
▁국무회의	-11.7127
▁경쟁자들	-11.7128
▁황소	-11.7128
esearch	-11.7129
▁악수	-11.713
▁지휘자	-11.7131
▁경찰국장	-11.7132
▁기지에서	-11.7132
▁타워	-11.7132
▁밀크	-11.7134
▁휴전선	-11.7134
▁도보	-11.7134
▁배출량	-11.7134
▁격전	-11.7135
▁쇼에서	-11.7136
▁테크	-11.7136
▁배아줄기세포	-11.7136
▁인터내셔널	-11.7136
▁지상군	-11.7138
▁주의보	-11.7138
보관소	-11.7139
▁파란	-11.7139
▁소포	-11.7141
▁원석	-11.7142
▁틸리	-11.7143
▁어조	-11.7143
▁결선	-11.7143
▁진술서	-11.7143
▁관점	-11.7143
▁정문	-11.7143
▁관용	-11.7146
▁메모리얼	-11.7148
▁fund	-11.7148
▁보내졌다	-11.715
▁되도록	-11.715
▁의장직	-11.7151
▁중요하게	-11.7152
▁체력	-11.7152
▁캐시	-11.7153
▁다량	-11.7153
▁부친	-11.7154
▁실업자	-11.7154
▁기자실	-11.7155
▁찾아야	-11.7157
▁희생된	-11.7159
▁뻔	-11.7159
▁내외	-11.716
▁스페인에서	-11.7161
▁베일	-11.7161
▁처사	-11.7162
▁천원	-11.7162
ater	-11.7166
▁수천만	-11.7166
▁고객들에게	-11.7166
됐음	-11.7167
▁마신	-11.7168
▁실명	-11.717
▁아마드	-11.7171
▁노동조합	-11.7171
학술	-11.7172
▁봤을	-11.7174
▁Sup	-11.7175
▁사업체	-11.7176
▁민주당원	-11.7176
군사훈련	-11.7177
FI	-11.7178
▁구조물	-11.7178
▁넘쳐	-11.7178
▁공동체	-11.7179
▁불법적으로	-11.718
LA	-11.7181
▁빛나	-11.7181
▁숨어있	-11.7182
▁마카	-11.7183
없	-11.7184
▁오르지	-11.7185
투성이	-11.7186
▁마오	-11.7187
▁양식	-11.7189
▁손잡	-11.719
행해진	-11.7191
▁정찰기	-11.7191
▁평양에	-11.7191
▁크리	-11.7192
▁이슬람교도	-11.7192
▁소치	-11.7193
▁부탁했다	-11.7194
▁딱	-11.7194
▁유지될	-11.7196
▁헌법상	-11.7196
▁에너지부	-11.7197
▁스토	-11.7199
드미	-11.72
▁교장	-11.7201
▁장르	-11.7203
▁반대파	-11.7205
▁화성에	-11.7205
▁시급	-11.7205
▁놈	-11.7206
▁패했다	-11.7208
▁집계됐다	-11.7209
▁오프	-11.721
▁합의했	-11.7212
▁꼬	-11.7216
▁급락했다	-11.7218
▁말하자	-11.7219
▁프레이	-11.7219
▁영화계	-11.722
▁수신	-11.7221
▁피지	-11.7228
▁셈	-11.7229
▁미렌	-11.723
▁세울	-11.7234
때로	-11.7236
▁주었	-11.7239
▁태워	-11.7242
▁수염	-11.7244
로윈	-11.7245
▁묵인	-11.7246
▁살기	-11.7246
▁많았	-11.7247
▁맞이했다	-11.7247
▁자카르타에서	-11.7247
▁개통	-11.7248
▁장군이	-11.7251
헌재	-11.7251
▁자동차업체	-11.7252
▁신청했다	-11.7254
▁총리실	-11.7255
▁승리해야	-11.7259
▁범인들	-11.7259
▁볼트	-11.7261
▁후회	-11.7261
▁홀리	-11.7261
▁건물들이	-11.7262
former	-11.7262
▁보석으로	-11.7267
▁당선이	-11.7272
스럽다	-11.7272
▁지역구	-11.7272
▁수출국	-11.7273
▁희	-11.7276
▁문화원	-11.7276
▁조니	-11.7277
▁대구	-11.7278
▁자진	-11.728
▁해안지역	-11.728
▁워싱턴주	-11.7281
▁뷰	-11.7288
▁비슷하다	-11.7291
lum	-11.7293
사르	-11.7298
▁깨어	-11.7301
▁재개했다	-11.7302
▁work	-11.7303
▁개제	-11.7304
▁Am	-11.7305
▁향상시키	-11.7306
▁한동안	-11.7307
▁대응하기	-11.7313
▁갖지	-11.7314
▁레오	-11.7316
▁발견되었	-11.7324
▁통과시키	-11.7328
▁목장	-11.733
▁않았었다	-11.7332
▁흥미로	-11.7334
uch	-11.7337
▁초기에	-11.7338
▁지도부와	-11.7339
▁왔었다	-11.734
▁트로	-11.7342
▁sur	-11.7345
▁BE	-11.7347
▁장군과	-11.7349
▁뒷받침	-11.7349
▁일축	-11.7353
▁정했다	-11.7363
▁파장	-11.7367
베르트	-11.737
▁사망률	-11.7372
▁유가족들	-11.7375
▁장착한	-11.7375
프레드	-11.7377
▁전후	-11.7384
▁이민자	-11.7385
▁당사자	-11.7387
king	-11.7387
▁수니파와	-11.739
담당자	-11.739
▁일으키고	-11.7392
▁모아이	-11.7395
▁월경	-11.7398
▁하늘에서	-11.7402
▁터지	-11.7404
▁요가	-11.7406
▁없다면	-11.7407
▁초까지	-11.7408
▁채워	-11.741
▁위력	-11.7411
▁도드	-11.7411
rop	-11.7414
▁억명	-11.7417
▁잠들	-11.7422
▁PM	-11.7425
▁보자	-11.7428
▁패배한	-11.7429
호선	-11.7429
대비	-11.7432
▁올라와	-11.7434
▁확산되는	-11.7436
▁보이기	-11.7438
▁아들에게	-11.744
▁경매에서	-11.7443
▁fe	-11.7445
나단	-11.7446
▁여러분이	-11.745
▁생물학자	-11.7459
▁선정한	-11.7462
노동자당	-11.7466
▁임명됐다	-11.747
▁브라질에서	-11.7475
▁사르	-11.7475
▁사라졌	-11.748
스텔	-11.7488
lu	-11.7493
▁지원자들	-11.7498
▁실시하고	-11.7501
▁대행	-11.7503
최	-11.7505
▁인용했다	-11.7505
ark	-11.7514
▁청년들	-11.7514
▁타계	-11.7516
▁베니	-11.7517
정지	-11.7517
▁도와주	-11.7517
▁바라지	-11.7521
▁회의적	-11.7527
▁실적이	-11.7527
▁토론회에	-11.7532
FA	-11.7533
▁시작되었	-11.7536
해냈다	-11.7537
꾸	-11.7538
틸	-11.7541
잎	-11.7541
뷰	-11.7542
눈	-11.7543
프로그램	-11.7544
Z	-11.7546
time	-11.7546
공화국	-11.7546
ube	-11.7547
잘	-11.7548
반응	-11.7549
테니스	-11.7549
차관보	-11.7551
처분	-11.7553
▁유튜브에	-11.7553
▁주도했다	-11.7554
▁천장	-11.7558
▁영하	-11.7563
공연	-11.7565
▁유명인사들	-11.7568
▁집행위원	-11.7571
방위	-11.7576
재정	-11.7578
▁죽음으로	-11.758
▁조각들	-11.758
▁맺어	-11.7585
▁강타했다	-11.7589
▁폭도들	-11.759
아래	-11.7595
▁주인공이	-11.7599
▁제압하	-11.7599
▁거래소	-11.76
▁기여한	-11.7602
▁사유	-11.7605
데라	-11.7608
▁El	-11.7612
▁멕시코에서	-11.7614
바라크	-11.7616
레이즈	-11.7616
금치	-11.7617
▁지장	-11.762
rd	-11.7621
▁바커	-11.7624
▁BP	-11.7624
▁선보이	-11.7625
▁nation	-11.7629
▁fire	-11.7632
ness	-11.7633
▁해결되	-11.7636
▁정당한	-11.7641
브리	-11.7648
▁않겠	-11.7652
▁불확실	-11.7653
▁생각했	-11.7653
▁케냐에서	-11.7659
▁라벨	-11.766
▁태우	-11.7661
▁비공식적	-11.7661
ali	-11.7664
▁생중계	-11.7665
▁베트남전	-11.767
each	-11.7671
▁스타디움	-11.7671
▁시도했으	-11.7675
▁선호하	-11.7675
we	-11.768
▁달링	-11.7683
▁타마	-11.7687
▁다르지	-11.7688
봐야	-11.7694
▁팬이	-11.7695
▁거뒀	-11.7696
저널	-11.77
국적	-11.7706
▁관람객들	-11.7707
▁연구실	-11.7707
▁타임즈와	-11.771
og	-11.7712
▁빠졌	-11.7714
▁공원에	-11.7714
▁베드	-11.7714
▁알렉산드	-11.7714
▁천문학	-11.7715
▁모국	-11.772
▁메인	-11.7722
▁시위대들	-11.7725
▁면역	-11.7726
▁kill	-11.7729
▁불러일으	-11.773
▁수마트라	-11.7731
overnment	-11.7731
▁냉각	-11.7732
톡	-11.7732
쑤	-11.7732
cademy	-11.7732
▁Christ	-11.7732
▁Securit	-11.7732
▁candidate	-11.7732
▁financ	-11.7732
▁group	-11.7732
▁market	-11.7732
▁갤론	-11.7732
▁건강검진	-11.7732
▁걷기	-11.7732
▁국가평의회	-11.7732
▁깨달았다	-11.7732
▁나미비아	-11.7732
▁나폴리타노	-11.7732
▁남동생	-11.7732
▁냉장고	-11.7732
▁대검찰청	-11.7732
▁디카프리오	-11.7732
▁떠올랐다	-11.7732
▁래드클리프	-11.7732
▁리투아니아	-11.7732
▁모레스모	-11.7732
▁바랐다	-11.7732
▁밸리	-11.7732
▁부동층	-11.7732
▁부총재	-11.7732
▁불균형	-11.7732
▁불러일으켰다	-11.7732
▁블록버스터	-11.7732
▁사무차장	-11.7732
▁사이언톨로지	-11.7732
▁알츠하이머	-11.7732
▁알카티리	-11.7732
▁옥수수	-11.7732
▁이스마일	-11.7732
▁전자메일	-11.7732
▁찾으려	-11.7732
▁츠방기라이	-11.7732
▁트레일러	-11.7732
▁파키스탄인민당	-11.7732
▁프랑크푸르트	-11.7732
▁플레이스테이션	-11.7732
▁혹등고래	-11.7732
▁휠체어	-11.7732
▁흡입	-11.7732
뚜	-11.7732
랏	-11.7732
윅	-11.7732
팡	-11.7732
▁Arm	-11.7732
▁CES	-11.7732
▁Heart	-11.7732
▁support	-11.7732
▁기울여야	-11.7732
▁매몰된	-11.7732
▁멜버른	-11.7732
▁멤피스	-11.7732
▁배트맨	-11.7732
▁옵션	-11.7732
▁재경부	-11.7732
▁카르발라	-11.7732
▁퀘벡	-11.7732
▁헬만드	-11.7732
▁trial	-11.7732
▁구속영장	-11.7732
▁볼리비아	-11.7732
▁tax	-11.7732
▁비무장지대	-11.7732
▁인수제안	-11.7732
▁리브니	-11.7732
▁사로잡	-11.7732
▁서두르	-11.7732
▁레코드	-11.7732
▁메케인	-11.7732
▁스콜스	-11.7732
▁자위대	-11.7732
▁중질유	-11.7732
▁산악지대	-11.7732
▁따돌렸	-11.7732
▁원동력	-11.7732
▁로드아일랜드	-11.7732
▁불가사의	-11.7732
▁산시성	-11.7732
▁Africa	-11.7732
▁수수료	-11.7732
▁올림피	-11.7732
▁Genera	-11.7732
▁엘리엇	-11.7732
▁화학물질	-11.7732
▁control	-11.7732
▁압델	-11.7732
▁벗겨	-11.7733
▁철폐	-11.7733
그너	-11.7733
▁Administration	-11.7733
▁레빈슨	-11.7733
▁교훈	-11.7733
▁thi	-11.7733
▁국가안보회의	-11.7733
▁ABN	-11.7733
▁봉투	-11.7733
▁추억	-11.7733
기동대	-11.7733
ween	-11.7733
▁헤엄	-11.7733
▁차량폭탄	-11.7734
▁당첨	-11.7734
▁도서관	-11.7734
▁불륜	-11.7734
▁마피아	-11.7734
▁부대변인	-11.7734
▁슬림	-11.7734
▁숙박	-11.7734
▁놀라움	-11.7734
▁별칭	-11.7734
▁멜론	-11.7734
▁도둑	-11.7734
▁그레그	-11.7734
▁입후보	-11.7734
▁그래미	-11.7735
▁희미	-11.7735
▁게시물	-11.7735
▁스튜	-11.7735
▁장례	-11.7735
▁축구선수	-11.7735
▁우주여행	-11.7735
▁생애	-11.7735
▁정몽	-11.7735
▁대리모	-11.7735
▁예상됩니다	-11.7735
▁알라위	-11.7736
▁필름	-11.7736
▁six	-11.7736
▁우려했다	-11.7736
▁나눈	-11.7736
▁제국주의	-11.7737
▁벤처	-11.7737
▁케이프	-11.7737
▁이루어졌	-11.7737
▁청원서	-11.7737
▁대슐	-11.7737
▁집값	-11.7737
had	-11.7738
▁공헌	-11.7738
▁신기록	-11.7738
▁출입국	-11.7738
▁태생	-11.7738
▁로빈슨	-11.7738
▁오웬	-11.7738
▁범죄행위	-11.7738
▁학계	-11.7738
▁팻	-11.7739
▁우편물	-11.7739
▁생생	-11.7739
▁누구인지	-11.7739
▁단결	-11.7739
▁프로스트	-11.7739
▁관통	-11.7739
▁홀더	-11.7739
▁증파	-11.7739
▁단편	-11.7739
▁절실	-11.774
▁공공연	-11.774
▁조롱	-11.774
▁레빈	-11.7741
▁불법행위	-11.7741
▁지방정부	-11.7741
▁대피시켰다	-11.7741
▁코웰	-11.7741
▁급증했다	-11.7741
▁자동차산업	-11.7742
▁언니	-11.7742
▁법무상	-11.7742
로프트	-11.7743
▁지명되기	-11.7743
▁Pro	-11.7743
▁전해드	-11.7743
▁심슨이	-11.7744
▁바꾼	-11.7744
▁아델	-11.7744
▁이맘	-11.7745
▁지불했다	-11.7745
▁Prosecutor	-11.7745
▁골절	-11.7745
▁생계	-11.7746
▁생체	-11.7746
▁물러났다	-11.7746
▁군사정부	-11.7746
▁신랑	-11.7746
▁신년	-11.7747
▁허브	-11.7747
▁팬더	-11.7747
▁조직위	-11.7747
▁메인주	-11.7747
▁자폭	-11.7747
▁왕관	-11.7748
▁증대	-11.7748
▁포탄	-11.7748
▁hy	-11.7749
▁주연상	-11.7749
▁무력화	-11.775
▁놓여있다	-11.775
▁부합	-11.775
▁브라이언트	-11.7751
▁라마	-11.7751
▁찾아온	-11.7751
▁통상적	-11.7752
▁건축물	-11.7752
▁풀려나	-11.7752
▁마술	-11.7753
▁실망했다	-11.7753
▁루터	-11.7753
▁호건	-11.7754
▁외국인들이	-11.7754
▁비축	-11.7754
▁해골	-11.7755
▁대사와	-11.7756
▁던졌	-11.7756
EO	-11.7756
▁발판	-11.7757
▁우위	-11.7759
▁거액	-11.776
ray	-11.776
쿠르	-11.7762
▁중단시켰다	-11.7762
▁부주의	-11.7762
▁변명	-11.7763
▁변했다	-11.7763
▁부분적으로	-11.7763
▁인권문제	-11.7764
▁꾸며	-11.7764
▁사지	-11.7765
▁유실	-11.7765
▁우정	-11.7765
▁동의안	-11.7766
▁유로화	-11.7766
▁분노한	-11.7767
▁경미	-11.7767
펠드	-11.7768
▁주일간	-11.7768
▁찾아냈다	-11.7769
▁남북간	-11.7771
▁도출	-11.7772
▁모방	-11.7772
dy	-11.7772
▁궁지에	-11.7773
▁상속	-11.7774
▁국회의장	-11.7774
▁신씨	-11.7774
▁과오	-11.7779
▁차분	-11.7781
▁신차	-11.7782
▁궁전	-11.7783
▁당내	-11.7783
▁있냐	-11.7783
▁아니었	-11.7784
▁반사	-11.7784
키마	-11.7785
▁유니버	-11.7787
▁주립대학	-11.7787
▁깨진	-11.7788
▁벗기	-11.7788
▁말해주	-11.7789
▁아스	-11.779
▁자리잡	-11.7792
▁당파	-11.7792
▁보았	-11.7793
▁하나였다	-11.7793
▁기뻐	-11.7796
우트	-11.7796
▁등장한다	-11.7797
▁주범	-11.7798
▁친부	-11.7799
▁박탈당	-11.78
▁요리사	-11.78
▁순교자	-11.7806
▁페어	-11.7806
▁생산업체	-11.7808
▁감사원	-11.7809
▁있었는데	-11.7809
▁연상	-11.7811
▁정세	-11.7812
▁킴	-11.7813
▁정치인들이	-11.7813
▁대금	-11.7815
▁섬에서	-11.7816
▁키트	-11.7817
▁주최하	-11.7818
▁어스	-11.7821
▁대개	-11.7822
▁캘	-11.7825
▁편리	-11.7825
▁유발할	-11.7826
▁랜디	-11.7828
교사	-11.7831
▁살레	-11.7834
▁합쳐	-11.7835
▁예외	-11.7836
▁설명할	-11.7839
▁경찰서로	-11.7841
▁Cl	-11.7842
▁소방대원들	-11.7843
▁밝혀져	-11.7845
▁좋아지	-11.785
▁개막식에	-11.7852
▁발표되었다	-11.7853
제작	-11.7854
▁크라	-11.7854
부장관	-11.7855
ust	-11.7857
▁제출된	-11.7858
공학	-11.7859
▁ban	-11.786
ook	-11.7861
▁교대	-11.7861
▁종업원	-11.7861
▁늘었다	-11.7863
ves	-11.7864
▁펼쳐지	-11.7866
▁낭	-11.787
▁위함	-11.787
▁죽어가	-11.7874
▁흙	-11.7875
▁부모에게	-11.7875
보라	-11.7876
ung	-11.7877
UK	-11.7878
▁구매자	-11.788
▁받아들이기	-11.788
표한다	-11.788
▁가속	-11.788
▁비판하는	-11.7882
▁입소	-11.7884
▁의사회	-11.7886
▁코드	-11.7889
▁덴	-11.789
▁정면	-11.7891
▁애플사	-11.7892
▁오바	-11.7893
▁직원들에게	-11.7895
받지	-11.7898
▁테러리스트들이	-11.7898
▁미세	-11.7899
렉스	-11.79
▁주변국들	-11.7902
▁소매업	-11.7904
▁고민하	-11.7905
▁로게	-11.7907
▁유지해	-11.791
▁해당한다	-11.7912
ague	-11.7912
▁노르	-11.7915
▁bo	-11.7916
▁결승에	-11.7918
ncy	-11.7919
▁돌아보	-11.792
▁사이트에서	-11.792
▁목록에서	-11.7925
▁놓았	-11.7926
▁영국으로부터	-11.7929
▁살해되	-11.7932
ving	-11.7933
브론	-11.7935
▁초고속	-11.7936
▁전락	-11.7941
공유	-11.7941
▁쥐들	-11.7957
▁유사하다	-11.7959
▁남동부에서	-11.796
▁안면	-11.7967
▁올라갔	-11.7974
TA	-11.7974
▁Her	-11.7975
시피	-11.7977
NC	-11.7979
버렸	-11.7981
▁쓰여	-11.7982
▁축출된	-11.7982
▁도와주는	-11.7987
▁장갑	-11.799
▁정보통	-11.7995
▁축구팬들	-11.7997
▁Com	-11.7998
▁켜	-11.8001
▁head	-11.8001
▁촉	-11.8005
▁단원	-11.8006
▁에드로	-11.8007
분별	-11.8014
▁카바	-11.8025
▁특성	-11.8031
▁파라	-11.8033
▁케인	-11.8033
▁착륙했다	-11.8034
▁탐험가	-11.8035
▁죽인	-11.8035
▁묘사한	-11.8039
con	-11.8046
▁감정적	-11.8046
dition	-11.8053
▁엑	-11.8057
달아	-11.8057
▁명중	-11.806
mas	-11.8062
▁베티	-11.8066
키야	-11.8066
gy	-11.8069
▁Br	-11.8074
lbar	-11.8078
▁cont	-11.808
▁나간다	-11.808
ise	-11.8084
리프	-11.8084
▁인부	-11.8085
저스	-11.8089
▁출발한	-11.8091
▁확산됐다	-11.8092
매장	-11.8095
▁회복할	-11.8101
▁아타	-11.8103
▁대비하고	-11.8105
▁영국인들	-11.8108
▁축구팬	-11.8123
▁폐쇄됐다	-11.8131
▁참석한다	-11.8132
▁제조업체들	-11.8133
▁압박했다	-11.8139
자본	-11.8143
▁알려왔	-11.8144
▁하락하고	-11.8148
버거	-11.8149
늘	-11.8149
티브	-11.8155
끈	-11.8155
EL	-11.8156
▁월드컵에서	-11.8156
▁언론사	-11.8161
▁인정한다	-11.8171
▁관계없	-11.8176
▁삼아	-11.8177
▁존재한다	-11.8184
혹	-11.819
있게	-11.8191
▁지나면	-11.8192
기남	-11.8194
▁전신	-11.8196
▁상대적	-11.8198
▁반기	-11.8202
▁시도할	-11.8207
회사들	-11.8207
사령부	-11.8209
▁페이지에	-11.8209
페이스	-11.821
칩	-11.8211
엠	-11.8211
쥐	-11.8213
잠	-11.8213
rk	-11.8218
km	-11.8219
조합	-11.8224
▁딸에게	-11.8225
▁교수들	-11.8229
트너	-11.8235
키스	-11.8238
▁안된	-11.8238
레오	-11.8238
▁추진해	-11.8245
▁나쁘	-11.8249
▁연결된	-11.8252
▁슬로	-11.8253
▁Tri	-11.8258
▁편으로	-11.826
▁신문들	-11.8264
▁이외에	-11.8265
▁인도주의	-11.8266
▁Dai	-11.8269
행진	-11.8277
▁들지	-11.828
▁폐쇄하기	-11.8282
퍼트	-11.8283
▁방영되	-11.8284
▁남성에게	-11.8295
ator	-11.8295
러진	-11.8305
▁경신	-11.8312
▁관리하는	-11.8313
연금	-11.832
▁주마	-11.8329
▁저질렀	-11.833
▁흉내	-11.8331
펙	-11.8339
▁열정적	-11.834
▁탈북자들	-11.8342
▁적합	-11.8344
▁아파	-11.8345
▁순례	-11.8348
▁걸렸	-11.8356
▁Qu	-11.8357
well	-11.8358
▁비싸	-11.8363
▁싶었	-11.8365
▁공적	-11.8373
▁입찰	-11.8377
▁창립	-11.8378
▁마쳤	-11.8378
EA	-11.8379
랍	-11.8386
▁북동	-11.8388
캣	-11.8391
얄	-11.8391
▁마텔	-11.8393
홉	-11.8395
▁디스커버리	-11.8395
▁콜롬	-11.8396
▁도미니	-11.8396
▁원정	-11.8396
콕	-11.8397
궈	-11.8398
ontrol	-11.8398
efense	-11.8398
▁오피니언	-11.8398
갓	-11.8398
▁AIDS	-11.8398
▁DAX	-11.8398
▁Earth	-11.8398
▁IUCN	-11.8398
▁Office	-11.8398
▁PETA	-11.8398
▁economy	-11.8398
▁grow	-11.8398
▁problem	-11.8398
▁system	-11.8398
▁threaten	-11.8398
▁국제영화제	-11.8398
▁남태평양	-11.8398
▁다비덴코	-11.8398
▁댓글	-11.8398
▁루고보이	-11.8398
▁만토바니	-11.8398
▁무기징역	-11.8398
▁미식축구	-11.8398
▁발렌시아	-11.8398
▁부드러운	-11.8398
▁비정상적	-11.8398
▁서유럽	-11.8398
▁세컨드라이프	-11.8398
▁슈퍼마켓	-11.8398
▁아르메니아	-11.8398
▁애틀랜틱	-11.8398
▁어소시에이션	-11.8398
▁유투브	-11.8398
▁잉그리드	-11.8398
▁출퇴근	-11.8398
▁칼데론	-11.8398
▁캠브리지	-11.8398
▁키프로스	-11.8398
▁타임스퀘어	-11.8398
▁티크리트	-11.8398
▁프랑수아	-11.8398
▁하르툼	-11.8398
▁해밀턴	-11.8398
긍	-11.8398
덱	-11.8398
▁견뎌	-11.8398
▁끊겼	-11.8398
▁빈센트	-11.8398
▁스타워즈	-11.8398
▁시트콤	-11.8398
▁전두환	-11.8398
▁크라이튼	-11.8398
▁테러리즘	-11.8398
▁파딜라	-11.8398
▁핵폐기	-11.8398
▁CAC	-11.8398
▁대배심	-11.8398
▁서포터	-11.8398
▁어리석	-11.8398
▁여기저기	-11.8398
▁즐긴다	-11.8398
▁패터슨	-11.8398
▁아메바	-11.8398
▁은하계	-11.8398
▁제레미	-11.8398
▁home	-11.8398
▁보너스	-11.8398
▁돌려보내	-11.8398
▁바이에른	-11.8398
▁Commission	-11.8398
▁미생물	-11.8398
▁국가안보보좌관	-11.8398
▁유연한	-11.8399
▁금리인하	-11.8399
▁무언가	-11.8399
▁전비법안	-11.8399
▁뛰어넘	-11.8399
▁어쩌	-11.8399
house	-11.8399
▁갑작스럽	-11.8399
▁말리부	-11.8399
▁구제금융법안	-11.8399
▁부녀자	-11.8399
▁세르게이	-11.8399
▁아스카리	-11.8399
▁선거인단	-11.8399
▁알라스카	-11.8399
▁종지부	-11.8399
▁소비에트	-11.8399
▁벗어났다	-11.8399
▁어둠	-11.8399
▁산업자원부	-11.8399
▁얼룩말	-11.8399
▁베이징올림픽	-11.8399
▁마지드	-11.8399
▁용도로	-11.8399
▁탈옥	-11.8399
▁소방당국	-11.8399
▁낫다	-11.8399
▁작별	-11.8399
도날드	-11.84
▁XP	-11.84
▁수감생활	-11.84
▁report	-11.84
▁겨누	-11.84
▁건강보험	-11.84
▁군사행동	-11.84
▁홈경기	-11.84
▁미뤄	-11.84
▁십먼	-11.84
▁슈렉	-11.84
▁office	-11.84
▁Plan	-11.84
▁스마트	-11.84
▁One	-11.8401
▁디즈니랜드	-11.8401
▁북극광	-11.8401
▁약물검사	-11.8401
▁압류	-11.8401
▁층짜리	-11.8401
▁East	-11.8401
▁cut	-11.8401
▁포털	-11.8401
▁피난처	-11.8401
▁우발적	-11.8401
▁날카로	-11.8401
▁killed	-11.8401
▁투명성	-11.8401
▁업종	-11.8401
▁콜롬보	-11.8401
▁비밀요원	-11.8401
▁봉급	-11.8401
▁머독	-11.8402
▁보험회사	-11.8402
▁부정행위	-11.8402
▁드럼	-11.8402
▁복음	-11.8402
▁비웃	-11.8402
객들	-11.8402
▁싸워	-11.8402
▁기관총	-11.8402
▁푸른	-11.8402
▁페드로	-11.8402
▁루시디	-11.8403
etro	-11.8403
▁편견	-11.8403
▁스노우	-11.8403
▁축구스타	-11.8403
▁교각	-11.8403
▁필사적	-11.8403
▁근절	-11.8403
▁알렉	-11.8403
▁간접	-11.8403
▁케이티	-11.8403
▁형편	-11.8403
▁결말	-11.8404
▁매리	-11.8404
▁윈터	-11.8404
night	-11.8404
▁자치권	-11.8404
▁애견	-11.8405
▁암살사건	-11.8405
▁합작	-11.8405
▁짐작	-11.8405
▁폭발사고	-11.8405
▁하렐	-11.8405
▁아프리카연합	-11.8405
▁반테러	-11.8405
▁에베레스트산	-11.8405
▁org	-11.8405
▁계급	-11.8405
▁애완용	-11.8406
▁헝	-11.8406
▁듀크	-11.8406
▁경합	-11.8406
▁요한슨	-11.8406
▁휴회	-11.8407
▁가디언	-11.8407
▁선례	-11.8407
▁사망원인	-11.8407
▁종말	-11.8407
▁속편	-11.8408
▁소도시	-11.8408
▁주택시장	-11.8408
▁안타깝게	-11.8408
▁폭력배	-11.8409
▁난입	-11.8409
▁연합정부	-11.8409
▁실천	-11.8409
▁상향	-11.8409
▁무시했다	-11.8409
▁무례	-11.8409
▁설전	-11.8409
▁발머	-11.841
▁대국민	-11.841
▁보스톤	-11.841
▁부시대통령	-11.841
▁투자은행	-11.8411
▁변함없	-11.8411
▁해산시키기	-11.8411
▁플래시	-11.8412
▁평온	-11.8412
▁설비	-11.8413
▁years	-11.8413
▁로지스	-11.8414
▁들어설	-11.8414
▁놀란	-11.8415
▁무레이	-11.8415
▁버몬트주	-11.8415
▁야유	-11.8415
▁상업용	-11.8416
▁결단	-11.8417
▁일기장	-11.8417
▁입건	-11.8417
▁메모	-11.8418
▁조엘	-11.8418
▁음료수	-11.8418
▁국세청장	-11.8418
▁김양	-11.8419
▁불확실성	-11.8419
▁가장자리	-11.842
▁용납하지	-11.842
▁종교단체	-11.8421
▁은둔	-11.8421
▁담요	-11.8422
▁매료	-11.8422
▁역설했다	-11.8423
▁공금	-11.8423
▁속력	-11.8424
▁과연	-11.8425
▁근본주의자들	-11.8425
▁용량	-11.8425
▁아샤	-11.8425
▁위독	-11.8427
▁난방	-11.8427
▁매복	-11.8427
▁요크	-11.8427
▁천여	-11.8428
▁유영	-11.8429
▁당부	-11.8429
▁왕비	-11.843
▁토미	-11.843
▁군사위원회	-11.8431
▁토레스	-11.8431
tions	-11.8431
▁싶었다	-11.8432
▁커뮤니케이션	-11.8432
▁골드만	-11.8432
▁검찰청	-11.8433
▁아쉬	-11.8435
▁호스트	-11.8436
▁서점	-11.8436
▁것인데	-11.8436
▁로빈	-11.8437
▁시립	-11.8437
▁당신들	-11.8438
스쿨	-11.8439
▁펼쳐진	-11.8439
▁고의적으로	-11.844
▁거품	-11.8441
해준다	-11.8442
▁번복	-11.8443
▁리츠	-11.8443
▁나오기	-11.8445
▁af	-11.8445
▁거머쥐었	-11.8446
▁소모	-11.8446
▁인권단체들	-11.8447
먼트	-11.8447
▁정치국	-11.8448
▁경계선	-11.8448
▁동부지역	-11.8448
▁매직	-11.8448
▁관장	-11.8452
▁심각성	-11.8452
▁뉴햄프셔주	-11.8452
▁잠재	-11.8452
AF	-11.8453
▁수감돼	-11.8453
▁게르	-11.8453
▁연구소에서	-11.8453
mb	-11.8454
▁메르	-11.8454
▁페니	-11.8454
▁거주민	-11.8456
▁꺼리	-11.8456
▁요구했었다	-11.8457
▁유출된	-11.8458
▁등장했다	-11.846
▁설사	-11.846
▁끝내기	-11.8462
▁오버	-11.8463
ger	-11.8464
정규직	-11.8464
▁보물	-11.8464
▁엄청나	-11.8465
▁기울이지	-11.8465
▁함대	-11.8467
▁성범죄자	-11.8468
▁간직	-11.8468
▁국어	-11.8469
▁소실됐다	-11.8472
▁기자단	-11.8472
▁생각되는	-11.8474
▁로케	-11.8474
▁나누어	-11.8475
▁속해	-11.8479
▁해역에서	-11.8479
▁불안해	-11.8481
▁외화	-11.8482
▁교리	-11.8484
▁전반전	-11.8485
▁원내	-11.8486
▁옹호하	-11.8489
▁이윤	-11.8491
▁주의회	-11.8493
▁지형	-11.8493
▁헨	-11.8494
eav	-11.8496
▁거기에	-11.8496
▁공개되	-11.8496
▁청장	-11.8496
▁기미	-11.8499
ous	-11.85
▁구성원들	-11.8501
▁웨스	-11.8501
▁알바로	-11.8503
▁분단	-11.8509
▁피랍됐	-11.851
▁기자였	-11.851
사미	-11.8512
▁지원국	-11.8512
▁기숙사에서	-11.8513
▁과학기술	-11.8513
▁이루기	-11.8519
▁밝혀졌	-11.8524
▁수혈	-11.8524
▁키니	-11.8529
▁맛봤	-11.8532
▁채용	-11.8532
▁야스	-11.8533
▁유니	-11.8533
▁안정화	-11.8535
▁간주되	-11.8538
▁출발했다	-11.8538
▁조치들	-11.854
▁사육사들	-11.8541
AP	-11.8545
▁안정성	-11.8547
▁도하	-11.8548
▁출동했다	-11.855
▁뒤진	-11.8551
ox	-11.8552
▁다크	-11.8552
▁등반	-11.8553
▁용지	-11.8557
▁버렸	-11.8561
▁Space	-11.8566
▁크레인	-11.8567
evi	-11.8568
▁투표자	-11.857
▁활동가들	-11.8577
▁시차	-11.8577
▁가문	-11.8582
▁저서	-11.859
▁환경적	-11.8592
▁보수주의	-11.8594
▁여자친구와	-11.8598
▁추적하	-11.86
▁김만	-11.86
▁유나이티드와	-11.8601
▁인류학	-11.8605
▁고심하	-11.8606
▁잎	-11.8606
▁제출해야	-11.8607
▁선수들에게	-11.8608
▁유서	-11.8611
▁쉽	-11.8611
▁접어	-11.8614
▁각료들	-11.8626
ony	-11.8626
▁상하이에서	-11.8627
▁같지	-11.863
▁적용할	-11.8632
▁납세자들	-11.8635
▁경제팀	-11.8639
▁만부	-11.8648
▁친구들이	-11.8649
성분	-11.8649
셰르	-11.8651
▁건강상	-11.8652
▁봉인	-11.8656
▁더위	-11.8657
▁헤리	-11.8658
side	-11.8663
▁피난민	-11.8663
투스	-11.8665
였음	-11.8667
▁선출됐다	-11.8673
▁ask	-11.8675
▁레스토랑에서	-11.8676
▁부패와	-11.8678
▁구리	-11.8681
▁구사하	-11.8684
▁초소	-11.8688
▁표현할	-11.8699
환자	-11.8699
▁덤	-11.8715
▁끝나면	-11.872
▁팔린	-11.8723
gra	-11.8725
▁자비	-11.8726
▁나일	-11.8727
▁근대	-11.8731
▁계획안	-11.8732
▁거절한	-11.8734
▁일쯤	-11.8735
▁월급	-11.8741
▁추산되	-11.8745
▁특파원들	-11.8746
▁이하로	-11.8748
▁메카	-11.8758
▁이때	-11.8761
▁무능	-11.8763
▁찌	-11.8769
타그	-11.8774
▁경쟁사	-11.8776
▁빠	-11.8776
ave	-11.8779
▁비서	-11.8787
hat	-11.8789
AS	-11.8791
▁표하고	-11.8792
히코	-11.8793
▁공직자	-11.8798
▁장악했다	-11.8799
봤	-11.8801
▁발전기	-11.8805
란드	-11.8809
▁제소	-11.881
▁휴대폰으로	-11.8812
▁점령한	-11.8813
▁대피하	-11.8816
▁안전성	-11.882
▁도발	-11.8825
▁우려된다	-11.8826
▁미대사	-11.8827
해주기	-11.8834
▁상징인	-11.8836
▁한계	-11.8846
nel	-11.8847
▁Cur	-11.8852
▁직면하	-11.8861
ble	-11.8861
▁생산되	-11.8861
▁사망자들	-11.8868
▁성대	-11.8868
▁보리	-11.8872
▁본부에서	-11.8873
▁비난한다	-11.8875
▁인도적	-11.8877
▁전사자	-11.8877
▁치료하는	-11.8878
▁버려	-11.8882
그리	-11.8883
▁싶어하지	-11.889
▁가방에	-11.8891
▁약화시키	-11.8893
lan	-11.8894
었었다	-11.8906
나갔다	-11.8907
▁구매자들	-11.8913
▁매장에서	-11.8913
잡지	-11.8913
활	-11.8914
▁개최국	-11.8914
▁요인들	-11.8915
▁인물들	-11.8916
▁그러면	-11.8917
하듯	-11.8917
봐	-11.8919
엑	-11.8921
▁생물학	-11.8921
보험	-11.8924
춤	-11.8924
폭탄	-11.8925
잇	-11.8928
월드컵	-11.8928
큰	-11.8929
제조	-11.8932
▁We	-11.8936
모델	-11.8937
▁수감됐	-11.8942
▁당혹	-11.8942
열차	-11.8946
장애	-11.8947
▁막지	-11.8947
계약	-11.8948
소득	-11.8951
▁스캔들에	-11.8952
대결	-11.8955
모건	-11.8958
▁모기	-11.896
▁거론되	-11.8963
▁전장에	-11.8973
집회	-11.8976
그라	-11.898
▁참여하기	-11.8981
일본	-11.8993
▁한국전	-11.8998
소니	-11.9006
▁제시하지	-11.9007
▁무차별	-11.9007
▁성교	-11.9009
▁중단하겠다	-11.901
▁Live	-11.9013
AI	-11.9013
▁자행한	-11.9016
▁미성년	-11.9019
▁나타낸	-11.9024
▁재기	-11.9033
▁확보하고	-11.9034
▁모욕적	-11.904
tan	-11.904
▁후보간	-11.9045
low	-11.9048
식품	-11.9049
쿨	-11.906
▁높았	-11.9061
▁표지	-11.9064
랜스	-11.9067
▁강조하는	-11.908
▁상승했	-11.9081
▁vi	-11.9091
▁낙관	-11.9095
성명	-11.91
▁패트	-11.9101
▁참모총장	-11.9101
▁right	-11.9101
▁안타깝	-11.9102
▁곤란	-11.9102
▁터무니	-11.9105
슐	-11.9106
둑	-11.9107
슬라브	-11.911
▁프란시스	-11.911
▁경기부양	-11.9112
껴	-11.9112
궐	-11.9113
mission	-11.9113
뚱	-11.9113
팽	-11.9113
place	-11.9113
▁Group	-11.9113
▁OMX	-11.9113
▁police	-11.9113
▁마르세유	-11.9113
▁솔로몬	-11.9113
▁아름답	-11.9113
륭	-11.9113
ampaign	-11.9113
▁ESTA	-11.9113
▁Europe	-11.9113
▁Georg	-11.9113
▁Green	-11.9113
▁John	-11.9113
▁KKK	-11.9113
▁Microsoft	-11.9113
▁RBS	-11.9113
▁SNCF	-11.9113
▁Watch	-11.9113
▁envoy	-11.9113
▁general	-11.9113
▁return	-11.9113
▁withdraw	-11.9113
▁고혈압	-11.9113
▁나스랄라	-11.9113
▁네브라스카	-11.9113
▁뉴욕타임즈	-11.9113
▁다녔다	-11.9113
▁다빈치	-11.9113
▁대기오염	-11.9113
▁대선예비후보	-11.9113
▁델라웨어	-11.9113
▁독립선언	-11.9113
▁뒷좌석	-11.9113
▁드림라이너	-11.9113
▁레오나르도	-11.9113
▁루프트한	-11.9113
▁만파운드	-11.9113
▁머물렀다	-11.9113
▁먹었다	-11.9113
▁메탄가스	-11.9113
▁모토로라	-11.9113
▁믿어지	-11.9113
▁바예스테로스	-11.9113
▁박스오피스	-11.9113
▁발렌타인	-11.9113
▁북방한계선	-11.9113
▁분리독립	-11.9113
▁비디오테이프	-11.9113
▁사우스다코타	-11.9113
▁스머프	-11.9113
▁스테로이드	-11.9113
▁스프린트	-11.9113
▁시니오라	-11.9113
▁아리조나	-11.9113
▁아쿠아리움	-11.9113
▁애국전선	-11.9113
▁에메랄드	-11.9113
▁엔터프라이즈	-11.9113
▁오마이뉴스	-11.9113
▁와코비아	-11.9113
▁울프위츠	-11.9113
▁워싱턴포스트	-11.9113
▁인공심장	-11.9113
▁자와히리	-11.9113
▁조기총선	-11.9113
▁최연소	-11.9113
▁카메룬	-11.9113
▁카스파로프	-11.9113
▁컨소시엄	-11.9113
▁클랩튼	-11.9113
▁펠릭스	-11.9113
▁폴란스키	-11.9113
▁현충일	-11.9113
▁홀로코스트	-11.9113
▁히말라야	-11.9113
프로농구	-11.9113
ready	-11.9113
▁Change	-11.9113
▁공청회	-11.9113
▁극단적인	-11.9113
▁부끄러	-11.9113
▁스릴러	-11.9113
▁시베리아	-11.9113
▁알레르기	-11.9113
▁외할머니	-11.9113
▁라말라	-11.9113
▁빔보	-11.9113
▁에버튼	-11.9113
▁카제미	-11.9113
▁크로포드	-11.9113
어느때보다	-11.9113
▁목걸이	-11.9113
▁산티아고	-11.9113
▁카우치	-11.9113
▁허덕이	-11.9113
▁현기증	-11.9113
▁아세안	-11.9113
▁우체국	-11.9113
▁분화구	-11.9113
▁엘비스	-11.9113
▁알메이다	-11.9113
▁퇴근	-11.9113
▁퇴출	-11.9113
▁김일성	-11.9113
▁임상실험	-11.9113
▁트레이드	-11.9113
▁삼성전자	-11.9113
▁민주변화	-11.9113
▁불도저	-11.9113
▁오피스	-11.9113
▁떠다니	-11.9113
▁아침식사	-11.9113
▁스프링스틴	-11.9113
▁공동기자회견에	-11.9113
▁메세지	-11.9113
revent	-11.9113
▁리프트	-11.9113
▁세비르	-11.9113
▁트레이시	-11.9113
▁손가락	-11.9113
▁디아즈	-11.9113
▁행정명령	-11.9113
▁추도식	-11.9113
▁Miss	-11.9113
▁현명한	-11.9113
▁니가타	-11.9113
▁듀프레	-11.9113
▁Centr	-11.9113
▁버핏	-11.9113
▁쓰러진	-11.9113
▁월경작전	-11.9113
▁가오리	-11.9113
▁민주변화운동	-11.9113
▁히트곡	-11.9113
▁탐지기	-11.9113
▁불상사	-11.9113
▁종합병원	-11.9113
▁클리닉	-11.9113
▁히잡	-11.9113
▁consumer	-11.9113
▁빠져나갔다	-11.9113
▁결론지었다	-11.9113
▁재가동	-11.9113
▁적임자	-11.9113
▁슬럼	-11.9113
▁rul	-11.9113
▁헐값	-11.9113
▁구급차	-11.9113
▁홍보담당자	-11.9113
▁슬램	-11.9113
▁골드버그	-11.9114
▁출몰	-11.9114
▁블랙베리	-11.9114
▁Ill	-11.9114
▁데이비스컵	-11.9114
▁쥐스틴	-11.9114
▁완패	-11.9114
▁바꿨	-11.9114
▁아름다움	-11.9114
▁평의회	-11.9114
▁강제진압	-11.9114
▁fail	-11.9114
▁올라간다	-11.9114
▁천수이	-11.9114
▁사기꾼	-11.9114
▁run	-11.9114
▁겸손	-11.9114
▁용암	-11.9114
▁놀이기구	-11.9114
▁감기약	-11.9114
▁마샬	-11.9114
▁베풀	-11.9114
▁선거운동본부	-11.9114
▁rate	-11.9114
▁스페이스	-11.9115
▁동북	-11.9115
▁press	-11.9115
▁청취	-11.9115
▁패션쇼	-11.9115
▁폭염	-11.9115
홍색	-11.9115
▁목욕	-11.9115
▁ATP	-11.9115
▁노골적	-11.9115
▁비겁	-11.9115
▁남아시아	-11.9115
▁출근	-11.9115
▁수세기	-11.9115
▁유니티	-11.9115
▁갈망하	-11.9116
imate	-11.9116
▁금전적	-11.9116
▁WTA	-11.9116
▁달려있다	-11.9116
▁사형제도	-11.9116
▁육류	-11.9116
▁검은색	-11.9116
▁계절	-11.9116
▁라디오뉴스	-11.9116
▁완강	-11.9117
▁가져온	-11.9117
▁주모자	-11.9117
▁관습	-11.9117
▁숙박비	-11.9117
▁베이커	-11.9117
▁입혔다	-11.9117
▁뉴먼	-11.9118
cial	-11.9118
▁응급실	-11.9118
▁실용적	-11.9119
▁올리버	-11.9119
▁축구협회	-11.9119
▁상무위원	-11.9119
▁환경운동	-11.9119
▁채굴	-11.9119
▁잠입	-11.9119
▁산업지수	-11.912
▁유명해졌다	-11.912
▁USB	-11.912
▁성폭행범	-11.912
▁터졌다	-11.9121
▁처방전	-11.9121
▁임시정부	-11.9121
▁아이콘	-11.9121
▁담합	-11.9121
자격	-11.9121
▁청원	-11.9121
IJ	-11.9122
uel	-11.9122
▁화산재	-11.9122
▁자궁	-11.9122
▁열악	-11.9122
디언	-11.9122
▁move	-11.9123
▁모스크	-11.9124
▁신랄	-11.9124
▁사무국	-11.9124
▁소득세	-11.9124
▁하향	-11.9124
▁교신	-11.9124
▁스토리	-11.9124
▁검시	-11.9124
▁잠복	-11.9124
▁에릭슨	-11.9125
▁can	-11.9125
▁어두	-11.9125
▁회생	-11.9125
▁상인들	-11.9126
▁수상작	-11.9126
▁담았다	-11.9126
▁구슬	-11.9126
▁정치활동	-11.9126
▁과열	-11.9127
▁떼어	-11.9127
▁독려	-11.9127
프로축구	-11.9127
▁양빈	-11.9127
▁변종	-11.9128
▁진학	-11.9128
▁털어	-11.9128
▁성취	-11.9129
▁모빌	-11.9129
▁통치권	-11.913
▁장시간	-11.913
▁감형	-11.913
▁축적	-11.9131
▁거칠	-11.9132
▁친교	-11.9132
▁벗어나지	-11.9133
▁연주자	-11.9134
▁벵	-11.9134
▁혼자서	-11.9134
▁추위	-11.9135
▁간격	-11.9135
▁행보	-11.9135
▁응용	-11.9135
▁친지들	-11.9135
▁표출	-11.9135
▁칼리드	-11.9136
▁칭하며	-11.9137
▁파탄	-11.9137
ex	-11.9138
▁월터스	-11.9139
▁자율	-11.9139
▁석권	-11.914
▁돌발	-11.914
▁경고문	-11.914
▁동조	-11.914
▁아예	-11.914
▁단단	-11.9141
▁도매	-11.9141
wn	-11.9142
▁않음	-11.9143
▁없어질	-11.9143
▁카본	-11.9143
▁중국어	-11.9144
▁신청자	-11.9144
▁인도양	-11.9145
▁보수주의자들	-11.9145
▁재연	-11.9145
▁실체	-11.9146
▁조종사들	-11.9146
일간	-11.9146
▁극우	-11.9146
▁상류	-11.9147
요리	-11.9147
▁쓰러졌다	-11.9148
▁형법	-11.9148
▁나빠지	-11.9149
▁국정원장	-11.9149
▁경영자들	-11.9149
▁달아나	-11.915
▁증명서	-11.915
▁그렇지만	-11.915
▁그라이브	-11.915
▁의문사	-11.915
▁오메	-11.9151
▁위스콘신주	-11.9151
▁환경부	-11.9151
▁세월	-11.9152
▁만들어낸	-11.9152
▁모친	-11.9152
▁아래서	-11.9152
▁유형	-11.9153
▁인출	-11.9154
▁의향	-11.9154
툴라	-11.9155
▁카나리	-11.9156
▁소중	-11.9158
▁영국항공	-11.9158
▁제마	-11.9158
▁별명	-11.9158
▁사본	-11.9159
▁시작하자	-11.916
▁공단	-11.9161
▁폰다	-11.9162
▁보고됐다	-11.9162
▁쥬	-11.9163
▁맘	-11.9163
▁올림픽위원회	-11.9163
▁피력	-11.9165
▁저조	-11.9166
▁병원측	-11.9166
▁특권	-11.9166
▁원정경기에서	-11.9166
▁농성	-11.9166
▁동화	-11.9166
▁건전	-11.9167
포르	-11.9167
▁도와준	-11.9168
▁배신	-11.9168
▁아론	-11.9168
▁연비	-11.9169
▁Hy	-11.9169
▁이민국	-11.9171
▁set	-11.9174
토프	-11.9175
▁중학교	-11.9176
▁초보	-11.918
▁푸드	-11.9181
퍼드	-11.9183
▁저지대	-11.9183
▁영구적	-11.9187
▁부호	-11.9189
▁강행할	-11.919
▁동부지역에서	-11.919
▁녹스	-11.9192
▁불타	-11.9192
▁실시간	-11.9193
▁보장받	-11.9193
▁주거지	-11.9194
▁피랍됐다	-11.9197
▁감독관	-11.9197
▁받아들여지	-11.9198
▁기법	-11.9198
▁시에나	-11.9202
▁나타낸다	-11.9202
▁뉴욕시장	-11.9202
▁선진	-11.9206
▁최소화	-11.9207
▁국가대표팀	-11.9207
▁호르	-11.9208
▁소비량	-11.9209
▁얻어야	-11.9211
▁공급하기	-11.9213
▁맞서기	-11.9213
▁오노	-11.9214
▁정당성	-11.9215
▁설치했다	-11.9217
▁마시지	-11.9218
of	-11.9218
광장	-11.9218
▁무시한	-11.9219
▁모가디슈에서	-11.9219
▁마우	-11.9219
▁입성	-11.9221
▁들어간다	-11.9226
rug	-11.9226
▁거주지역	-11.9229
▁통과시킨	-11.923
▁거미	-11.923
▁만족할	-11.9231
▁이루어지지	-11.9236
▁힘들어	-11.9237
▁제외됐다	-11.9244
▁확보하기	-11.9247
▁케네	-11.9247
▁로키	-11.9249
▁잡히	-11.9251
▁개종	-11.9251
▁분산	-11.9254
▁프라하	-11.9255
▁제거하는	-11.9256
▁무성	-11.9259
▁충분하다	-11.9262
▁India	-11.9262
▁옐로	-11.9263
ham	-11.9263
▁멜로	-11.9264
▁노력해야	-11.9269
▁안치	-11.9274
▁발사해	-11.9279
▁석방되	-11.9279
▁스키장	-11.9284
▁공정하	-11.9286
▁조언했다	-11.9287
▁살았다	-11.9289
▁가설	-11.929
▁사죄	-11.9294
우먼	-11.9295
주민들	-11.9297
▁신고서	-11.9297
▁제안했	-11.9298
플랜	-11.9298
▁모술에서	-11.9302
▁취지	-11.9302
▁정하지	-11.9306
▁보여주었다	-11.9308
▁비명	-11.931
▁가든	-11.9313
했어야	-11.9313
▁사랑한다	-11.9314
▁입게	-11.9315
▁페러	-11.9317
▁싸우고	-11.9318
▁샤리	-11.9318
▁발견하게	-11.9333
슈아	-11.9335
▁갑작스러	-11.9336
▁메이어	-11.9339
PR	-11.934
▁상원의원들	-11.934
▁개헌안에	-11.9345
▁고소했다	-11.9352
끌어냈다	-11.9364
▁구성했다	-11.9367
▁전달하는	-11.9367
▁벤와	-11.9367
▁봐야	-11.9368
SL	-11.9369
▁제조업자	-11.9371
▁고려해야	-11.9372
▁도서	-11.9379
▁철로	-11.9381
웃	-11.9381
▁War	-11.9383
▁작품들	-11.9394
▁알프레	-11.9398
▁연안에서	-11.9398
▁매치	-11.9402
▁필리	-11.9408
▁작성했다	-11.9412
치오	-11.9413
워졌다	-11.9415
▁물려	-11.9415
▁구역에서	-11.9416
▁강화하	-11.9419
▁알레	-11.9436
▁재정비	-11.9452
▁적기	-11.9452
▁어부들	-11.9455
▁변기	-11.9458
▁자료들	-11.9459
▁분파	-11.9461
▁인하했다	-11.9464
▁코브	-11.9467
▁배심원들	-11.9469
젤리	-11.9472
▁돌아가기	-11.9475
▁배치되어	-11.9476
▁가파	-11.9484
▁디지	-11.9485
▁Jon	-11.9487
▁무장괴한들	-11.9489
▁지상에서	-11.9498
▁차트	-11.9504
▁주간지	-11.951
▁기소장	-11.9516
▁취했	-11.9517
TS	-11.952
▁도슨	-11.9533
pt	-11.9535
nois	-11.954
▁노스캐롤라이나에서	-11.9541
▁대표자	-11.9547
unt	-11.9549
▁사퇴했다	-11.955
▁일본측	-11.9555
▁보행	-11.9564
▁부정했다	-11.957
▁수행하기	-11.9574
▁봉쇄했다	-11.9575
▁보수적	-11.9575
▁포착했다	-11.958
재산권	-11.9582
▁표준시	-11.9589
▁사망하기	-11.9598
▁돌봐	-11.9607
▁sen	-11.9612
▁검사들	-11.9623
▁보안국	-11.9635
▁슈퍼대의원들	-11.9644
▁확정했다	-11.9648
▁Ban	-11.9648
▁구입했다	-11.9652
▁CH	-11.9658
▁인기있	-11.9658
▁Tru	-11.966
▁평화롭	-11.9661
▁회피	-11.9661
▁원만	-11.9662
ier	-11.9671
▁연행했다	-11.9673
▁나와있	-11.9675
▁제작됐다	-11.968
▁두려워하	-11.9682
보좌관	-11.9686
싸	-11.9687
큐	-11.9687
Space	-11.9692
대장	-11.9692
행동	-11.9693
켄	-11.9693
졸	-11.9694
듀	-11.9695
낙	-11.9695
▁전해왔	-11.9695
기상청	-11.9696
빅	-11.9697
평균	-11.9697
미사일	-11.9698
축구	-11.9698
▁시설들	-11.9699
▁포로로	-11.9699
리서치	-11.97
포인트	-11.9703
▁추측되	-11.9703
▁Fi	-11.9709
평화	-11.9709
등록	-11.9709
▁지휘관들	-11.9711
결정	-11.9714
소송	-11.9716
조각	-11.9717
보낼	-11.9718
▁붕괴됐다	-11.9719
테오	-11.9721
▁부족해	-11.9729
다닐	-11.9729
▁디나	-11.9732
쳐야	-11.9737
증세	-11.9739
세워	-11.9746
불안	-11.9755
▁둔화되	-11.9759
수익	-11.9759
▁마련하는	-11.976
▁멀어	-11.9762
드윈	-11.9762
▁전달하기	-11.9769
▁안전하다	-11.9773
▁br	-11.9777
▁환호하	-11.978
▁부과했다	-11.9804
▁서적	-11.9812
▁끝났	-11.9815
▁배치된	-11.9818
▁남았	-11.9831
▁준결승전	-11.9836
▁쫓아	-11.9842
▁윌리암	-11.9844
오브	-11.9846
▁심기	-11.9853
보르	-11.9854
▁드러냈	-11.9857
▁제거했다	-11.9858
하원	-11.9859
▁떨어뜨	-11.9859
▁정당들	-11.9861
▁붙어	-11.9865
▁행성들	-11.9869
▁늘려	-11.9872
▁알래스카주	-11.9874
▁실시됐	-11.9876
셉	-11.9878
뇨	-11.988
▁트래	-11.988
▁lead	-11.988
onsumer	-11.9881
벳	-11.9881
▁비무장	-11.9882
▁Auto	-11.9882
▁Council	-11.9882
▁Depart	-11.9882
▁French	-11.9882
▁Institute	-11.9882
▁Israel	-11.9882
▁NHK	-11.9882
▁SARS	-11.9882
▁SNL	-11.9882
▁UCLA	-11.9882
▁Washington	-11.9882
▁capital	-11.9882
▁expresse	-11.9882
▁job	-11.9882
▁missile	-11.9882
▁politic	-11.9882
▁가깝다	-11.9882
▁광저우	-11.9882
▁국제통화기금	-11.9882
▁나뭇가지	-11.9882
▁노스다코타	-11.9882
▁닫았	-11.9882
▁댕기열	-11.9882
▁데이터베이스	-11.9882
▁도마뱀	-11.9882
▁동아시아	-11.9882
▁롤러코스터	-11.9882
▁만배럴	-11.9882
▁맞먹는	-11.9882
▁맨하탄	-11.9882
▁명확하지	-11.9882
▁무사콸라	-11.9882
▁무작위	-11.9882
▁밀워키	-11.9882
▁보궐선거	-11.9882
▁불공평	-11.9882
▁브래들리	-11.9882
▁사파테로	-11.9882
▁선글라스	-11.9882
▁선덜랜드	-11.9882
▁성폭력	-11.9882
▁세계경제포럼	-11.9882
▁스폰서	-11.9882
▁쌓아	-11.9882
▁아틀레티코	-11.9882
▁에두아르	-11.9882
▁여우주연상	-11.9882
▁연방준비은행	-11.9882
▁유럽중앙은행	-11.9882
▁융통성	-11.9882
▁이슬라미야	-11.9882
▁인수합병	-11.9882
▁족자카르타	-11.9882
▁츠요시	-11.9882
▁캄푸쉬	-11.9882
▁캐시미르	-11.9882
▁코리아타임즈	-11.9882
▁코뿔소	-11.9882
▁코펜하겐	-11.9882
▁콴타스	-11.9882
▁클래식	-11.9882
▁클리브랜드	-11.9882
▁통합러시아당	-11.9882
▁트랜스포머	-11.9882
▁트럼프	-11.9882
▁파라마운트	-11.9882
▁파르베즈	-11.9882
▁프리미엄	-11.9882
▁휘두르	-11.9882
퀘	-11.9882
텔레그래프	-11.9882
▁change	-11.9882
▁노란색	-11.9882
▁대북제재	-11.9882
▁묶어	-11.9882
▁애국심	-11.9882
▁차이나데일리	-11.9882
▁천안문	-11.9882
▁흘렀	-11.9882
축구대표팀	-11.9882
▁마들렌	-11.9882
▁배기가스	-11.9882
▁스펙터	-11.9882
▁심사숙고	-11.9882
▁주일미군	-11.9882
간담회에서	-11.9882
▁poll	-11.9882
▁강렬한	-11.9882
▁냉소적	-11.9882
▁레예스	-11.9882
▁복부비만	-11.9882
▁친인척	-11.9882
▁트레이너	-11.9882
▁나르기스	-11.9882
▁쓰러지	-11.9882
▁유니폼	-11.9882
▁의사소통	-11.9882
▁조연상	-11.9882
▁카밀라	-11.9882
▁클래스	-11.9882
▁짐바브웨아프리카민족	-11.9882
▁백만장자	-11.9882
▁안테나	-11.9882
▁고프섬	-11.9882
▁끼치지	-11.9882
▁왓슨	-11.9882
▁헬멧	-11.9882
▁욕실	-11.9882
무차관	-11.9882
▁구덩이	-11.9882
▁에볼라	-11.9882
▁그랜트	-11.9882
▁리스본	-11.9882
▁Glob	-11.9882
▁스트립	-11.9882
▁의정서	-11.9882
▁붐비는	-11.9882
▁서부텍사스산	-11.9882
▁Music	-11.9882
프로야구	-11.9882
▁이스트우드	-11.9882
▁만수르	-11.9882
▁장래에	-11.9882
ould	-11.9882
▁발리우드	-11.9882
▁클라우디	-11.9882
▁트루먼	-11.9882
▁선두주자	-11.9882
▁물고문	-11.9882
▁혈압	-11.9882
▁에어컨	-11.9882
▁스코어	-11.9882
▁징수	-11.9882
▁컨트리	-11.9882
▁현존하	-11.9882
▁펠트	-11.9883
▁폭죽	-11.9883
▁내보내	-11.9883
▁Rock	-11.9883
▁악몽	-11.9883
▁깨뜨	-11.9883
▁bill	-11.9883
▁집주인	-11.9883
▁휘둘	-11.9883
▁MLS	-11.9883
▁곤봉	-11.9883
▁좌초	-11.9883
▁로하스	-11.9883
▁다이빙	-11.9883
▁제주도	-11.9883
▁압축	-11.9883
▁give	-11.9883
▁free	-11.9884
▁혈통	-11.9884
NSC	-11.9884
▁착각	-11.9884
▁전자제품	-11.9884
▁차량폭탄테러	-11.9884
▁세계무역센터	-11.9884
▁경범죄	-11.9884
▁권좌	-11.9884
▁장병들	-11.9884
▁언더파	-11.9884
▁fr	-11.9884
▁과격단체	-11.9884
▁니켈	-11.9884
▁학습	-11.9884
▁비서관	-11.9884
▁Free	-11.9885
ility	-11.9885
▁추락사고	-11.9885
▁행정장관	-11.9885
▁바이올	-11.9885
▁타깃	-11.9885
▁움직여	-11.9885
▁음란	-11.9885
▁글로브	-11.9885
▁라마디	-11.9885
▁출품	-11.9885
▁브랜슨	-11.9885
▁독살	-11.9885
▁보호구역	-11.9885
▁toward	-11.9885
▁기반시설	-11.9885
▁클로버	-11.9886
▁dur	-11.9886
wood	-11.9886
▁지켜볼	-11.9886
▁심각해지	-11.9886
첸코	-11.9886
▁Out	-11.9886
▁Lo	-11.9886
▁교도관	-11.9886
▁왕립	-11.9886
▁행해지	-11.9886
▁상여금	-11.9886
▁충실	-11.9887
▁부흥	-11.9887
▁미시시피강	-11.9887
▁가리키	-11.9887
▁주가지수	-11.9887
▁특별검사	-11.9887
▁신탁	-11.9887
▁자금지원	-11.9887
▁관절	-11.9887
▁치욕	-11.9888
▁붉은색	-11.9888
▁스몰	-11.9888
▁아시안	-11.9888
▁Big	-11.9888
▁헬러	-11.9888
▁한계선	-11.9889
▁유로스타	-11.9889
▁특검	-11.9889
▁낙타	-11.9889
▁휩쓸려	-11.9889
ground	-11.9889
▁사흘	-11.9889
▁출구	-11.9889
▁평화회담	-11.989
▁올라있다	-11.989
▁계란	-11.989
▁소멸	-11.989
▁떠올리	-11.9891
▁도킹	-11.9891
▁대선결과	-11.9891
▁적합하지	-11.9891
▁피해규모	-11.9892
▁능가	-11.9892
▁삼판	-11.9892
▁소방서장	-11.9892
▁쏘아	-11.9892
▁목재	-11.9893
▁선거결과	-11.9893
▁솔라나	-11.9893
▁테너	-11.9894
▁채팅	-11.9894
▁항목	-11.9894
▁메릴랜드주	-11.9894
공간	-11.9895
▁양봉	-11.9895
▁도망치	-11.9895
▁종족	-11.9895
▁태형	-11.9896
▁변함	-11.9896
▁소변	-11.9896
▁조별	-11.9896
▁Op	-11.9896
▁온건	-11.9897
▁신변	-11.9897
▁갈색	-11.9897
▁드물게	-11.9897
▁세르비아계	-11.9898
▁친근	-11.9898
▁영공	-11.9898
▁천만원	-11.9898
▁길거리	-11.9898
▁오존	-11.9899
▁파열	-11.99
▁청구했다	-11.99
▁커져	-11.9901
▁쇼핑센터	-11.9901
▁무관	-11.9901
▁외교위원회	-11.9901
▁코메	-11.9902
▁다수당	-11.9902
gle	-11.9902
▁실험실	-11.9902
▁전국위원회	-11.9903
▁열망	-11.9903
▁집행위원회	-11.9903
water	-11.9905
▁우울	-11.9905
▁코스타	-11.9905
▁셸	-11.9906
▁앉아서	-11.9906
reme	-11.9907
▁댄스	-11.9908
▁클린트	-11.9908
▁치유	-11.9908
▁소탕하기	-11.9908
▁동계	-11.9908
▁성전환	-11.9908
▁버티	-11.9909
▁군당국	-11.9909
▁기장	-11.991
▁유래	-11.9911
▁청구서	-11.9911
▁확고히	-11.9911
▁바람직하다	-11.9912
▁우유	-11.9912
▁웬디	-11.9912
▁산출	-11.9913
▁테러사건	-11.9913
▁vote	-11.9914
▁실형	-11.9915
▁relation	-11.9915
▁지낼	-11.9916
▁철수시킬	-11.9916
▁반입	-11.9916
▁합성	-11.9917
▁구입하는	-11.9917
▁특유	-11.9917
▁내몰	-11.9918
▁방중	-11.9918
▁헤비	-11.9919
노브	-11.9919
▁모터스	-11.992
▁총탄	-11.992
▁현명하	-11.992
▁추측된다	-11.9921
▁로이드	-11.9921
▁시설물	-11.9921
▁뒷받침할	-11.9922
▁국교	-11.9922
▁쫓아내	-11.9922
▁싸운	-11.9922
▁석방하라	-11.9923
▁원료	-11.9924
▁천체	-11.9925
▁파병군	-11.9925
▁가르쳐	-11.9925
▁버니	-11.9926
iden	-11.9927
▁원작	-11.9929
▁되어있다	-11.9929
▁우선시	-11.9931
▁논리	-11.9931
▁담보	-11.9932
▁불신	-11.9933
omen	-11.9933
▁미끄러지	-11.9933
▁카라다	-11.9936
▁모리스	-11.9938
▁여신	-11.9939
▁피랍자	-11.994
▁날조	-11.994
▁탄력	-11.9942
▁보내야	-11.9944
▁도처에	-11.9945
▁마련됐다	-11.9946
▁안경	-11.9947
▁건국	-11.9948
▁백명	-11.9948
▁정해졌	-11.9948
▁니콜슨	-11.9948
▁훔쳤	-11.9951
▁유린	-11.9951
▁있으면	-11.9952
▁개입하지	-11.9954
▁검찰관	-11.9955
▁인신	-11.9955
▁선거위원회	-11.9956
▁밝혀내지	-11.9958
큐리	-11.9958
▁마리오	-11.9959
▁원더	-11.996
▁기뻐했다	-11.9962
▁불확실한	-11.9962
▁함자	-11.9963
▁기조	-11.9963
▁전망된다	-11.9964
▁게재했다	-11.9964
▁온스	-11.9966
▁추측했다	-11.9966
▁실시하는	-11.9969
▁찬스	-11.9969
▁알약	-11.9972
▁흥미롭	-11.9974
무대	-11.9976
▁외곽지역	-11.9977
추어	-11.9982
▁후송됐다	-11.9985
▁방일	-11.9987
▁중부지역	-11.9988
▁예측하기	-11.999
▁기본스	-11.9992
▁인디애나주	-11.9992
▁화학적	-11.9994
▁공보	-11.9996
드리스	-11.9997
▁주장하면서	-11.9997
▁풀기	-11.9997
▁기여했다	-11.9998
▁묘사하고	-11.9998
▁여행객들이	-11.9999
▁맺었	-11.9999
▁쏟아지	-11.9999
▁발생했었다	-12.0005
▁중독자	-12.0005
▁회복하기	-12.0006
▁마디	-12.0007
첼로	-12.001
▁농지	-12.001
▁중추	-12.0013
▁경신했다	-12.0014
▁주저	-12.0016
▁방법이라고	-12.0018
타이거	-12.0022
▁현재로서	-12.0022
▁만두	-12.0023
▁다투	-12.0023
▁배치했다	-12.0024
▁후원자	-12.0026
▁사바	-12.0026
▁솔로	-12.0027
▁보고타	-12.0028
▁절대적	-12.003
소식	-12.0031
▁기상학자	-12.0031
▁상징하	-12.0032
▁바꾸어	-12.0035
▁맥스	-12.0035
▁말하면	-12.0036
▁살펴보	-12.0039
인구가	-12.0041
▁육박	-12.0052
▁타오	-12.0053
▁취급하	-12.0054
▁연구센터	-12.0055
▁나쁘지	-12.0058
▁Good	-12.0061
▁넘치	-12.0062
▁공제	-12.0067
▁선사	-12.0067
▁통근자들	-12.0069
이었기	-12.0071
▁사회자	-12.0076
ress	-12.0077
▁확실시되	-12.0079
▁오래전	-12.0081
▁오크	-12.0082
▁검문소에서	-12.0084
▁성당에서	-12.0084
▁공판에서	-12.0088
▁설명하는	-12.009
▁생산국	-12.0091
less	-12.0094
▁달성하기	-12.0095
▁Che	-12.0096
▁촉발됐다	-12.0097
▁가담했다	-12.0099
▁이둘	-12.0101
▁막사	-12.0103
den	-12.0105
느린	-12.0105
▁경제학자인	-12.0107
uff	-12.011
▁제명	-12.0112
▁사람이었다	-12.0124
▁만들려	-12.0131
▁골프장	-12.0131
스버그	-12.0141
▁잠정적	-12.0141
▁실장	-12.0143
▁치르기	-12.0144
▁유명해	-12.0144
▁주중	-12.0148
▁조야	-12.0149
▁기관사	-12.0157
▁국제공항에서	-12.0159
▁팔기	-12.0162
▁피살됐다	-12.0164
▁드러	-12.0173
ound	-12.0176
▁세워졌	-12.0181
▁내린다	-12.0183
오차	-12.0186
▁오염된	-12.0194
▁회복되	-12.0195
▁질문들	-12.0213
▁개발도상국들	-12.0216
▁선생님	-12.0217
▁회기	-12.0219
▁혁신	-12.0223
하더라	-12.0223
▁출두했다	-12.0224
▁금융기관	-12.0228
폴리스	-12.0235
전문가들	-12.0236
▁학부모	-12.0237
통계국	-12.0239
▁학교측	-12.024
▁허락했다	-12.0241
▁마니	-12.0242
러드	-12.0252
▁블로거들	-12.0261
▁마린	-12.0271
▁개별적	-12.0276
▁올리기	-12.028
▁체포되	-12.028
▁루시	-12.0283
▁지불해야	-12.0284
▁사과한다	-12.0291
▁대항해	-12.0292
▁엔지니어들	-12.0293
▁소비자에게	-12.0296
▁위주	-12.0302
HP	-12.0309
▁용이하	-12.032
▁지정했다	-12.0321
▁순찰차	-12.033
▁훈련시키	-12.0348
▁중단한다	-12.0351
▁발효된	-12.0351
▁세무	-12.0358
▁조합원들	-12.0364
극적으로	-12.0379
라이츠	-12.038
▁장갑차	-12.0387
▁피난민들	-12.0396
▁가수들	-12.0397
▁도착하기	-12.0398
▁돌려받	-12.0403
▁자랑스럽	-12.0413
▁거라	-12.0433
LB	-12.0433
▁예일대	-12.0437
▁연결되	-12.0437
▁서머	-12.0437
ON	-12.0442
▁개발자들	-12.0446
▁문화부	-12.0447
▁타자	-12.0452
▁납치하려	-12.0453
▁트랜	-12.0461
▁로비스트	-12.0465
▁잠정	-12.0465
▁청중들	-12.0476
▁이슬람인들	-12.0484
놓는다	-12.0484
▁hel	-12.049
▁간호사들	-12.0491
르모	-12.0493
▁투입되	-12.0507
▁스파	-12.0509
▁증명했다	-12.0509
▁SI	-12.051
dle	-12.0511
▁무기들	-12.0511
쉽	-12.0511
낭	-12.0522
▁동의하지	-12.0523
아버지	-12.0524
흙	-12.0524
따	-12.0525
▁연결시키	-12.0527
헬	-12.0529
덜	-12.0529
▁대변하는	-12.0529
싸움	-12.0529
쓸	-12.0529
딸	-12.0529
끝	-12.053
오바마	-12.0531
박물관	-12.0531
검색	-12.0533
[...]
