<pad>	0
<s>	0
</s>	0
<unk>	0
▁.	-2.9274
▁,	-2.96328
▁	-3.31379
s	-3.96395
and	-4.20455
in	-4.59995
the	-4.60138
a	-4.79394
of	-4.8824
to	-4.8975
▁The	-5.0679
for	-5.37974
e	-5.39963
that	-5.44076
is	-5.51965
on	-5.63425
said	-5.76317
was	-5.77113
by	-5.86271
with	-5.92475
ing	-5.94106
from	-5.94795
▁S	-5.96038
inthe	-5.9636
at	-6.08383
ofthe	-6.11218
an	-6.1467
as	-6.148
ed	-6.15297
it	-6.22716
▁the	-6.25825
or	-6.25926
are	-6.26139
were	-6.36572
▁and	-6.37027
has	-6.37534
his	-6.4137
d	-6.4896
its	-6.49041
after	-6.5895
their	-6.61233
▁A	-6.63653
U	-6.64573
about	-6.64693
had	-6.65229
al	-6.67769
ly	-6.71584
have	-6.721
er	-6.72584
her	-6.72765
▁said	-6.72956
onthe	-6.75396
▁but	-6.77876
will	-6.81142
y	-6.81663
over	-6.87804
forthe	-6.92754
▁which	-6.94039
▁a	-6.94365
ina	-6.94437
government	-6.95224
also	-6.96017
people	-6.9779
who	-6.98808
out	-6.98819
t	-6.98882
more	-6.9952
sand	-7.00527
atthe	-7.00971
tothe	-7.01904
n	-7.03365
▁But	-7.0349
up	-7.04862
two	-7.07255
all	-7.08814
S	-7.09219
re	-7.11506
▁In	-7.11781
fromthe	-7.16244
this	-7.20647
un	-7.26141
▁who	-7.27352
theUnitedStates	-7.27615
tobe	-7.27668
p	-7.28132
him	-7.28166
o	-7.28415
A	-7.29173
one	-7.29227
hasbeen	-7.3017
them	-7.30323
but	-7.30528
no	-7.3155
willbe	-7.32563
he	-7.32653
i	-7.32826
time	-7.33193
some	-7.33681
sof	-7.33687
would	-7.33794
into	-7.36972
▁He	-7.37335
police	-7.3944
es	-7.39529
▁hesaid	-7.41516
since	-7.41697
man	-7.4248
morethan	-7.43334
c	-7.46616
only	-7.47028
new	-7.47155
be	-7.47882
I	-7.48467
President	-7.48555
before	-7.50845
T	-7.51031
just	-7.51218
off	-7.52971
▁accordingto	-7.53049
against	-7.53153
r	-7.53188
when	-7.53447
reported	-7.5397
our	-7.55087
m	-7.55739
any	-7.56166
down	-7.57305
three	-7.57417
military	-7.57996
andthe	-7.58133
officials	-7.59105
other	-7.59281
havebeen	-7.59483
says	-7.59915
C	-7.60007
between	-7.61326
asa	-7.62848
which	-7.63756
ata	-7.64054
not	-7.64754
under	-7.65203
P	-7.66001
Monday	-7.66156
can	-7.66491
th	-7.67361
B	-7.67706
now	-7.68533
▁I	-7.68801
withthe	-7.69144
us	-7.71303
ers	-7.71573
back	-7.71805
Wednesday	-7.7182
four	-7.72377
NorthKorea	-7.72513
K	-7.7273
Tuesday	-7.73464
g	-7.74245
▁including	-7.74431
if	-7.74877
made	-7.74986
hadbeen	-7.76297
could	-7.77373
like	-7.77944
F	-7.77966
through	-7.7815
bythe	-7.78155
there	-7.78276
en	-7.79808
home	-7.79886
▁It	-7.80611
my	-7.80819
work	-7.81136
sare	-7.81422
you	-7.8175
de	-7.82502
ona	-7.82543
ofa	-7.82571
told	-7.82577
thatthe	-7.82753
G	-7.83573
state	-7.83804
▁N	-7.84139
million	-7.85255
Sunday	-7.85442
being	-7.85809
day	-7.86156
five	-7.86415
▁They	-7.86914
security	-7.88008
do	-7.88484
witha	-7.89488
official	-7.89886
spokesman	-7.9007
reports	-7.90242
me	-7.90412
they	-7.90555
say	-7.91184
China	-7.91685
while	-7.917
Thursday	-7.9208
saidthe	-7.92773
b	-7.93394
ic	-7.93767
son	-7.93923
theU	-7.95267
▁And	-7.95447
E	-7.95661
▁We	-7.96586
D	-7.96811
first	-7.96899
so	-7.97086
political	-7.97354
M	-7.97913
k	-7.97924
presidential	-7.97951
The	-7.99276
another	-7.9931
wouldbe	-8.00617
anew	-8.01172
leader	-8.01197
u	-8.01655
we	-8.02003
what	-8.02044
group	-8.02132
Obama	-8.02632
men	-8.03124
war	-8.03454
w	-8.03804
le	-8.03933
meeting	-8.04009
children	-8.04465
▁with	-8.04785
American	-8.04816
W	-8.05241
fora	-8.05276
lastyear	-8.05575
campaign	-8.06003
than	-8.06163
international	-8.06322
where	-8.06619
several	-8.06862
▁m	-8.07053
still	-8.08073
h	-8.0817
▁percent	-8.08278
called	-8.08345
public	-8.08389
power	-8.08776
your	-8.10207
countries	-8.10392
very	-8.10428
report	-8.10587
percent	-8.10629
CNN	-8.10767
andother	-8.1128
company	-8.11493
yesterday	-8.11709
around	-8.11952
party	-8.12443
Chinese	-8.12542
ch	-8.12861
found	-8.12972
PrimeMinister	-8.1313
N	-8.1378
top	-8.14589
life	-8.1459
onMonday	-8.14703
inIraq	-8.14706
thefirst	-8.15422
president	-8.15633
left	-8.15707
announced	-8.15716
authorities	-8.15762
well	-8.15948
O	-8.16222
national	-8.16453
six	-8.16554
▁Its	-8.16626
H	-8.16698
both	-8.16797
she	-8.1714
economic	-8.17153
co	-8.17229
former	-8.17248
lastweek	-8.17249
L	-8.17316
won	-8.17491
high	-8.17634
long	-8.17687
able	-8.1784
later	-8.18297
country	-8.18834
those	-8.19064
business	-8.19276
f	-8.19276
today	-8.19552
during	-8.19605
released	-8.19653
set	-8.1975
less	-8.1983
R	-8.19835
many	-8.19861
began	-8.19913
most	-8.2003
here	-8.20152
isa	-8.20406
per	-8.20729
years	-8.20845
put	-8.2088
year	-8.20963
held	-8.21611
way	-8.21922
l	-8.22974
oil	-8.23117
side	-8.23372
until	-8.23428
onSunday	-8.23456
talks	-8.23547
outof	-8.23655
ion	-8.23839
workers	-8.2394
swere	-8.23963
onWednesday	-8.244
SouthKorean	-8.24722
team	-8.24921
should	-8.25169
onTuesday	-8.25363
troops	-8.25419
attack	-8.25574
election	-8.25717
duringthe	-8.2586
water	-8.25865
land	-8.25881
intothe	-8.25976
market	-8.26126
Friday	-8.26157
▁She	-8.26368
Korea	-8.26723
aid	-8.26726
Seoul	-8.26776
system	-8.26889
money	-8.26929
near	-8.2697
Iran	-8.27081
without	-8.27141
used	-8.27422
students	-8.27473
dis	-8.27572
st	-8.27749
air	-8.28531
go	-8.28922
program	-8.28981
▁C	-8.29433
city	-8.29465
taking	-8.29583
led	-8.29639
ingthe	-8.29753
house	-8.299
sin	-8.30051
may	-8.30198
leaders	-8.30542
afterthe	-8.30661
plan	-8.31661
law	-8.31763
sto	-8.32582
nuclear	-8.32582
anda	-8.32843
Korean	-8.32848
take	-8.32938
women	-8.33266
killed	-8.33833
British	-8.34545
companies	-8.34552
thegovernment	-8.34682
atleast	-8.34946
court	-8.35018
end	-8.3531
▁or	-8.35436
▁U	-8.3549
candidate	-8.35657
run	-8.35756
school	-8.35808
based	-8.36016
age	-8.36555
asthe	-8.36738
US	-8.36772
administration	-8.36883
AssociatedPress	-8.37153
office	-8.37311
▁where	-8.37521
capital	-8.37631
violence	-8.37651
early	-8.37725
car	-8.37752
major	-8.38274
ever	-8.38401
took	-8.38627
away	-8.39005
im	-8.39452
foreign	-8.39778
fire	-8.39975
among	-8.40008
am	-8.40285
il	-8.40456
show	-8.40566
Iraq	-8.40601
seven	-8.40677
▁This	-8.40871
even	-8.40891
late	-8.40908
stop	-8.40972
▁was	-8.41144
elections	-8.41252
thisyear	-8.41704
use	-8.41825
nearly	-8.419
li	-8.42167
get	-8.42337
because	-8.42602
onThursday	-8.42612
how	-8.4267
financial	-8.42792
didnot	-8.42806
last	-8.42974
making	-8.43123
▁he	-8.4328
groups	-8.43421
el	-8.43621
▁while	-8.43861
hit	-8.4394
local	-8.44155
upto	-8.44257
got	-8.4446
ist	-8.44472
line	-8.44486
ar	-8.44725
lastmonth	-8.44825
good	-8.45043
eight	-8.45182
case	-8.45475
Japanese	-8.45553
again	-8.4577
further	-8.46002
Iraqi	-8.46552
dead	-8.46969
thesame	-8.4788
support	-8.47936
area	-8.48153
these	-8.4833
▁After	-8.4833
▁Itis	-8.48338
toldCNN	-8.48364
Saturday	-8.48398
visit	-8.48486
▁Some	-8.48581
▁Bush	-8.48689
▁An	-8.4879
edby	-8.48893
cut	-8.48943
started	-8.49281
free	-8.4933
toa	-8.49365
head	-8.49432
isnot	-8.49973
lost	-8.50107
te	-8.50345
▁million	-8.50418
asked	-8.50623
then	-8.50807
Japan	-8.50938
International	-8.51209
thecountry	-8.51339
ity	-8.51514
Sen	-8.51542
Democratic	-8.51592
couldbe	-8.51608
building	-8.52056
such	-8.52151
v	-8.52443
forces	-8.52649
whether	-8.52918
TV	-8.532
family	-8.53222
food	-8.53605
Bush	-8.53612
world	-8.54088
Washington	-8.5415
policy	-8.54163
yearold	-8.54205
chief	-8.54217
NorthKorean	-8.54281
▁President	-8.54386
toget	-8.5468
aboutthe	-8.55439
soldiers	-8.55481
pro	-8.55797
came	-8.55926
Israel	-8.56153
service	-8.56478
militants	-8.56591
▁D	-8.56656
▁accordingtothe	-8.56901
right	-8.5693
ex	-8.56968
place	-8.57183
tohelp	-8.57211
key	-8.57336
thathe	-8.57592
▁shesaid	-8.57605
media	-8.57735
name	-8.57739
action	-8.57747
point	-8.57793
see	-8.57889
ro	-8.5795
▁His	-8.57954
really	-8.58305
overthe	-8.5836
light	-8.58837
hand	-8.58902
face	-8.5956
thecountrys	-8.59606
win	-8.60064
Afghanistan	-8.60154
itwas	-8.60324
ad	-8.60367
ation	-8.60412
nations	-8.60468
▁That	-8.6061
SouthKorea	-8.60834
statement	-8.61073
fuel	-8.61201
J	-8.61312
days	-8.61327
make	-8.6171
▁However	-8.618
wasnot	-8.61834
vote	-8.61875
others	-8.61875
Clinton	-8.62263
died	-8.62305
fighting	-8.62556
ive	-8.62595
star	-8.62662
members	-8.62765
economy	-8.62969
▁If	-8.62983
recent	-8.63056
old	-8.63234
record	-8.63432
been	-8.6358
states	-8.63641
history	-8.63645
froma	-8.63712
game	-8.63785
ri	-8.63891
season	-8.63913
aftera	-8.63928
hard	-8.6417
already	-8.64231
National	-8.64293
se	-8.64514
Pakistan	-8.64514
▁Police	-8.64536
information	-8.64668
billion	-8.64799
thenew	-8.6488
mission	-8.65011
deal	-8.65572
using	-8.6564
di	-8.65956
▁Obama	-8.66087
Pyongyang	-8.66365
flight	-8.66366
con	-8.6643
sent	-8.66558
attacks	-8.66707
gave	-8.66831
Co	-8.67064
must	-8.67091
video	-8.67101
center	-8.67529
voters	-8.67795
French	-8.67802
open	-8.68195
industry	-8.68275
past	-8.68311
aeda	-8.68325
force	-8.68386
London	-8.68467
amid	-8.68493
oneofthe	-8.68605
recently	-8.68941
ally	-8.69076
▁an	-8.69817
each	-8.69827
NewYork	-8.69831
almost	-8.70073
help	-8.70509
▁com	-8.70645
ra	-8.70657
issue	-8.70761
▁T	-8.70766
maybe	-8.70777
human	-8.71355
much	-8.7138
ur	-8.71385
z	-8.71432
test	-8.7152
television	-8.71716
Re	-8.72122
process	-8.72166
fell	-8.72333
Palestinian	-8.72471
leading	-8.72572
working	-8.72733
trade	-8.72779
ta	-8.73214
possible	-8.73235
woman	-8.73334
once	-8.73381
la	-8.73453
investigation	-8.73504
agreement	-8.73646
change	-8.73655
release	-8.73778
ent	-8.73791
border	-8.73899
clear	-8.73921
European	-8.73923
every	-8.73987
problems	-8.7406
V	-8.74251
▁For	-8.74424
▁Two	-8.74508
expected	-8.74513
charges	-8.74737
Kim	-8.74788
heart	-8.74874
body	-8.74879
ship	-8.75015
thisweek	-8.75374
▁they	-8.75417
Americans	-8.75483
including	-8.75635
showed	-8.75773
research	-8.75856
ofhis	-8.75919
confirmed	-8.76117
ho	-8.7615
ul	-8.76253
operation	-8.76305
nation	-8.76431
met	-8.76546
better	-8.76602
field	-8.76726
health	-8.76819
newspaper	-8.76978
No	-8.77026
low	-8.7707
different	-8.77286
totake	-8.77383
nine	-8.77513
shot	-8.77517
▁whichis	-8.7765
Republican	-8.77659
ut	-8.77733
mo	-8.7783
reached	-8.77975
ry	-8.78125
parliament	-8.78178
sfrom	-8.78199
inhis	-8.78283
claimed	-8.78345
Baghdad	-8.78423
strong	-8.78423
▁as	-8.78516
red	-8.78735
hospital	-8.78807
▁people	-8.78913
anti	-8.79198
ling	-8.7937
move	-8.79462
ayear	-8.79503
earlier	-8.79526
intoa	-8.79561
▁Itwas	-8.7961
throughthe	-8.79662
negotiations	-8.79717
ve	-8.79736
bya	-8.79783
little	-8.79858
becauseof	-8.8001
De	-8.80114
May	-8.8023
Congress	-8.80541
across	-8.80579
position	-8.8058
ton	-8.80617
small	-8.80626
theUS	-8.80809
energy	-8.81013
saidhe	-8.81094
ty	-8.81241
▁As	-8.81263
young	-8.81296
space	-8.81311
▁B	-8.81368
est	-8.81397
efforts	-8.81568
town	-8.81569
live	-8.81657
big	-8.81746
Russian	-8.81829
technology	-8.81896
future	-8.81969
▁is	-8.82019
▁CNN	-8.82054
film	-8.82098
news	-8.82232
▁One	-8.82339
tomake	-8.82419
▁military	-8.8254
night	-8.8256
closed	-8.82668
train	-8.82765
gas	-8.82858
officialssaid	-8.82871
prices	-8.83018
development	-8.83085
ac	-8.83446
shave	-8.83472
ni	-8.83598
Lee	-8.83671
saidthat	-8.83879
protesters	-8.84022
hewas	-8.8413
enough	-8.84217
measures	-8.84487
start	-8.84514
together	-8.84589
em	-8.84623
hundredsof	-8.84754
online	-8.84819
race	-8.8482
region	-8.85151
Ba	-8.85176
▁billion	-8.85264
lawmakers	-8.85309
deaths	-8.85405
second	-8.85427
having	-8.85435
▁Hesaid	-8.85581
victory	-8.8587
Website	-8.86094
Chinas	-8.86204
debate	-8.86212
trial	-8.86266
lead	-8.86305
play	-8.8633
post	-8.86387
bank	-8.86658
room	-8.86724
protests	-8.86731
saidinastatement	-8.86763
person	-8.8683
final	-8.86901
include	-8.86979
poll	-8.87002
community	-8.87018
site	-8.87022
areas	-8.87032
▁F	-8.87086
never	-8.87512
▁With	-8.87556
plansto	-8.87588
peace	-8.87877
issues	-8.87896
sincethe	-8.87936
find	-8.8798
named	-8.87982
killing	-8.88143
ma	-8.88187
province	-8.88425
yearsago	-8.88656
Ma	-8.88715
sex	-8.88731
order	-8.88787
ant	-8.88844
think	-8.88881
primeminister	-8.89059
child	-8.89089
going	-8.89099
Hamas	-8.89143
third	-8.8917
canbe	-8.89186
▁says	-8.89207
ap	-8.89277
level	-8.89406
music	-8.89482
officialsaid	-8.89549
St	-8.89559
following	-8.89583
hours	-8.89678
da	-8.89948
Beijing	-8.90027
added	-8.9008
ir	-8.9008
rs	-8.9013
call	-8.9022
thousandsof	-8.90224
months	-8.90232
▁TheU	-8.90248
ies	-8.90272
Al	-8.90358
March	-8.90359
something	-8.90434
match	-8.90755
global	-8.90871
ab	-8.91029
missing	-8.91215
▁Inthe	-8.91274
close	-8.91302
ter	-8.91321
outside	-8.91342
isexpectedto	-8.91529
ment	-8.91638
opposition	-8.91767
duringa	-8.91768
inSeoul	-8.91779
best	-8.91947
sfor	-8.91971
percentof	-8.92295
come	-8.92339
growing	-8.92357
often	-8.92403
travel	-8.92457
thesecond	-8.92471
Israeli	-8.92516
black	-8.92521
um	-8.92623
might	-8.92651
tohave	-8.92658
os	-8.92703
dueto	-8.92795
things	-8.92916
theywere	-8.92934
behind	-8.93023
Internet	-8.93238
supporters	-8.9337
▁policesaid	-8.93585
study	-8.936
arrested	-8.93686
ting	-8.9381
▁Im	-8.93923
ce	-8.93941
medical	-8.93964
large	-8.94105
▁whowas	-8.94152
lower	-8.94223
whenthe	-8.94274
cityof	-8.94276
getting	-8.94372
ne	-8.94524
played	-8.94536
primary	-8.94548
points	-8.94558
Afghan	-8.94569
seen	-8.94771
ong	-8.94775
need	-8.9478
beforethe	-8.94802
believe	-8.94993
saying	-8.95013
accused	-8.95099
RohMoohyun	-8.95152
term	-8.95228
▁TheKoreaTimes	-8.95289
▁Butthe	-8.95396
running	-8.9544
intelligence	-8.95442
coming	-8.95683
sthat	-8.95691
scientists	-8.95743
rate	-8.95807
California	-8.95831
brought	-8.95885
Russia	-8.95897
committee	-8.95903
▁Morethan	-8.95939
immediately	-8.95983
theNorth	-8.96017
ran	-8.96019
half	-8.96305
activities	-8.96325
ia	-8.96417
ring	-8.96446
▁While	-8.96615
saw	-8.96652
doing	-8.96733
▁when	-8.9683
nomination	-8.96921
ten	-8.96977
did	-8.97162
▁butthe	-8.97168
▁accordingtoa	-8.97184
whenhe	-8.97201
stage	-8.97439
thought	-8.97468
base	-8.97533
Democrats	-8.97727
far	-8.9785
board	-8.9792
let	-8.97987
done	-8.9815
candidates	-8.98178
civilians	-8.98328
thelatest	-8.98342
toward	-8.98394
illegal	-8.98443
offer	-8.98614
onFriday	-8.98683
▁Thegovernment	-8.98686
ness	-8.98712
▁P	-8.98764
itis	-8.98805
victims	-8.98809
wasa	-8.98915
et	-8.99144
control	-8.99323
June	-8.99326
legal	-8.99353
thismorning	-8.99532
▁Hewas	-8.99655
given	-8.99848
▁andthe	-8.99881
onSaturday	-9.00028
received	-9.00066
plans	-9.00158
airport	-9.00175
ha	-9.0019
nuclearweapons	-9.00244
Europe	-9.00269
strike	-9.00364
times	-9.00375
AP	-9.00435
▁Thisis	-9.00441
private	-9.00449
offthe	-9.00498
damage	-9.0057
turn	-9.00643
ol	-9.00728
▁K	-9.00742
▁About	-9.0079
tax	-9.00853
always	-9.00927
Dr	-9.01048
ice	-9.01106
pay	-9.01108
Asian	-9.01229
ary	-9.01289
planned	-9.01319
theeconomy	-9.0132
organization	-9.01396
senior	-9.01554
▁At	-9.01554
ate	-9.01733
triedto	-9.01868
pre	-9.01947
▁saying	-9.01968
residents	-9.01998
urged	-9.02207
December	-9.02436
known	-9.02516
fall	-9.0256
himself	-9.02632
rival	-9.02732
In	-9.03032
population	-9.03074
special	-9.03123
amajor	-9.03146
taken	-9.03219
ted	-9.03233
vi	-9.03337
cars	-9.03451
University	-9.03574
week	-9.03575
▁When	-9.03576
nextyear	-9.03588
rule	-9.03709
inAfghanistan	-9.03725
growth	-9.03836
forced	-9.03857
sold	-9.0386
didnt	-9.04133
saidit	-9.04195
spent	-9.04196
fired	-9.04443
ground	-9.04553
raised	-9.04609
nearthe	-9.04615
▁however	-9.04645
full	-9.04727
minutes	-9.04821
backto	-9.04858
hold	-9.04891
shouldbe	-9.04928
▁then	-9.04961
intheir	-9.04976
shows	-9.04989
event	-9.05093
NATO	-9.05106
opening	-9.05149
SecretaryofState	-9.05185
sh	-9.0526
along	-9.05378
lo	-9.05409
againstthe	-9.05473
ofits	-9.05474
next	-9.05568
book	-9.05751
toldreporters	-9.06155
job	-9.06215
sales	-9.06237
diplomatic	-9.06268
emergency	-9.06313
death	-9.06346
needed	-9.0635
hotel	-9.06796
price	-9.06815
production	-9.06894
PresidentBush	-9.06899
▁China	-9.07091
tour	-9.07181
themost	-9.07228
went	-9.07312
services	-9.07409
survey	-9.07766
▁SouthKorea	-9.07853
opened	-9.0791
great	-9.07989
rising	-9.08029
▁NorthKorea	-9.08094
results	-9.08383
warning	-9.08465
turned	-9.08482
themselves	-9.08575
identified	-9.08689
parties	-9.08722
project	-9.09073
▁Meanwhile	-9.09078
remain	-9.09237
underthe	-9.09239
evidence	-9.09257
denied	-9.09559
ud	-9.09591
markets	-9.0961
operations	-9.0969
total	-9.09712
problem	-9.09755
either	-9.09789
conditions	-9.09893
article	-9.09999
movie	-9.10094
id	-9.10242
bo	-9.10301
inside	-9.10302
crisis	-9.10344
claim	-9.10432
forthefirsttime	-9.1048
aday	-9.10488
ordered	-9.10627
tryingto	-9.10632
theTaliban	-9.10633
road	-9.10825
hope	-9.1083
data	-9.10922
higher	-9.10951
saysthe	-9.11016
important	-9.11026
decision	-9.11032
included	-9.11041
▁To	-9.11082
speech	-9.11138
partof	-9.11148
nt	-9.11164
dont	-9.11185
hi	-9.11231
yet	-9.11387
ge	-9.11474
▁Sen	-9.11504
warned	-9.11551
question	-9.11589
break	-9.11594
fans	-9.11624
homes	-9.11682
launched	-9.11749
ended	-9.11756
op	-9.11821
bid	-9.11927
goal	-9.11974
NorthKoreas	-9.12027
bomb	-9.12106
drug	-9.12129
▁Clinton	-9.12153
▁So	-9.12187
federal	-9.12201
storm	-9.12213
continued	-9.12233
too	-9.12385
theyare	-9.12441
central	-9.12473
edthe	-9.12569
thelast	-9.12588
Y	-9.12609
pressure	-9.12621
give	-9.12661
labor	-9.12667
white	-9.12813
poor	-9.12816
read	-9.12852
na	-9.12955
minister	-9.13041
member	-9.13099
▁so	-9.13304
serious	-9.13434
why	-9.13699
hearing	-9.13717
goingto	-9.13797
lessthan	-9.13935
ham	-9.13991
allowed	-9.14169
January	-9.1424
passed	-9.14319
worth	-9.14326
passengers	-9.14522
▁Theyearold	-9.14601
playing	-9.14724
computer	-9.14783
ti	-9.14812
art	-9.1482
employees	-9.14928
carrying	-9.14935
ah	-9.15182
players	-9.15184
inan	-9.1522
theworld	-9.15243
fight	-9.15298
current	-9.15322
heavy	-9.15324
▁What	-9.15359
mis	-9.15493
agency	-9.15534
oneof	-9.15856
David	-9.15913
aimedat	-9.15913
view	-9.15942
love	-9.15951
weapons	-9.15971
ke	-9.16003
aheadof	-9.16067
Japans	-9.16122
summit	-9.16124
spokeswoman	-9.16127
forhis	-9.16158
short	-9.16235
families	-9.16436
kept	-9.16459
▁No	-9.16476
battle	-9.16553
April	-9.16594
foot	-9.16615
hopes	-9.16652
McCain	-9.16683
injured	-9.16724
comes	-9.16776
director	-9.16902
became	-9.16927
dropped	-9.16939
Western	-9.16942
struck	-9.17118
doesnot	-9.17133
thenumberof	-9.17142
Iranian	-9.17218
Britain	-9.17334
press	-9.17368
general	-9.17416
earthquake	-9.17483
August	-9.17496
quickly	-9.17499
Mo	-9.175
doctors	-9.17517
toldthe	-9.17695
act	-9.17711
▁Ina	-9.17742
▁whose	-9.17753
▁officialssaid	-9.17909
weekend	-9.17967
increase	-9.17995
defense	-9.18067
allthe	-9.18109
Tokyo	-9.1812
New	-9.18133
port	-9.18157
▁BarackObama	-9.18248
September	-9.18338
France	-9.18404
sure	-9.18407
safety	-9.18527
Pakistani	-9.18657
rally	-9.18708
Gaza	-9.18895
know	-9.18951
army	-9.19006
demand	-9.19088
king	-9.19142
asthey	-9.19163
thebest	-9.19191
network	-9.19269
inits	-9.19289
Indian	-9.19315
prosecutors	-9.19321
isthe	-9.19428
situation	-9.19434
German	-9.19649
cities	-9.19665
holding	-9.19671
▁Her	-9.19762
tosee	-9.19779
heard	-9.19977
▁we	-9.19998
soon	-9.20006
alotof	-9.20093
▁TheUnitedStates	-9.20094
intheworld	-9.20129
ism	-9.20135
theworlds	-9.20144
theWhiteHouse	-9.2024
responsibility	-9.20259
bar	-9.20286
Sa	-9.20389
ian	-9.20411
isnow	-9.20448
training	-9.20476
non	-9.20492
John	-9.2073
English	-9.20778
edto	-9.20899
stand	-9.20942
title	-9.20995
month	-9.21024
steps	-9.21068
session	-9.21142
deep	-9.21158
officers	-9.21167
claims	-9.21271
cost	-9.21297
sources	-9.21329
▁Now	-9.21332
aroundtheworld	-9.21441
forward	-9.21455
July	-9.21461
mi	-9.21477
cause	-9.21488
▁it	-9.21505
sea	-9.21508
▁All	-9.21527
request	-9.21559
address	-9.21715
ous	-9.21718
father	-9.21859
▁whois	-9.21914
programs	-9.21958
▁Another	-9.2211
theUnitedNations	-9.22259
Taliban	-9.2226
ashe	-9.22297
hostages	-9.22423
willnot	-9.22432
afew	-9.22545
thing	-9.22553
resolution	-9.22708
asit	-9.22743
wounded	-9.22746
bodies	-9.22773
pe	-9.2279
manager	-9.22827
feel	-9.22946
worked	-9.22959
ifthe	-9.22963
spending	-9.22994
outofthe	-9.23022
destroyed	-9.2305
vehicle	-9.23137
wouldnot	-9.2314
experts	-9.23163
inJanuary	-9.23241
inWashington	-9.23243
annual	-9.23387
▁Ithink	-9.23415
means	-9.23497
rights	-9.23665
Committee	-9.23675
park	-9.23681
wanted	-9.23725
progress	-9.23853
tore	-9.23865
remains	-9.23872
station	-9.24045
paid	-9.24126
ceremony	-9.24205
officer	-9.24243
parents	-9.24489
February	-9.24601
feet	-9.24605
andhis	-9.24613
drop	-9.24656
blood	-9.2475
Commission	-9.24765
winning	-9.24886
increased	-9.24963
ated	-9.24976
banks	-9.24997
delegates	-9.25104
x	-9.25427
todo	-9.25479
look	-9.2552
bad	-9.25545
bill	-9.25561
seat	-9.25571
female	-9.25584
rise	-9.2565
failed	-9.25712
citizens	-9.25749
Park	-9.25771
round	-9.25806
▁she	-9.25854
injuries	-9.25857
funds	-9.26056
signed	-9.26114
return	-9.26189
hurt	-9.26279
tokeep	-9.26341
launch	-9.2637
▁Lee	-9.26641
ize	-9.2665
Sea	-9.26655
saidWednesday	-9.26745
Earth	-9.26895
arrest	-9.26895
popular	-9.26916
costs	-9.26931
probably	-9.26971
▁Earlier	-9.27079
▁E	-9.27128
alleged	-9.27167
published	-9.27168
England	-9.2717
BarackObama	-9.27221
built	-9.2726
suspects	-9.27423
ending	-9.27516
remained	-9.27622
andthen	-9.27676
▁You	-9.27695
interview	-9.27737
anything	-9.27858
murder	-9.27908
detained	-9.27916
calls	-9.27929
proposed	-9.27968
products	-9.27976
che	-9.27982
wife	-9.28061
inBeijing	-9.28088
issued	-9.28092
construction	-9.28096
leadership	-9.28112
fear	-9.28227
humanrights	-9.28281
reform	-9.28414
Le	-9.2842
WhiteHouse	-9.28475
plant	-9.28554
ba	-9.28574
staff	-9.28614
someofthe	-9.28818
actually	-9.28874
buildings	-9.28906
lives	-9.2895
▁On	-9.28955
saidMonday	-9.28975
attacked	-9.28999
willhave	-9.29016
democracy	-9.29069
deputy	-9.29089
wrote	-9.2909
daily	-9.29112
worldwide	-9.29126
arenot	-9.29191
sinthe	-9.29213
Roh	-9.29264
inwhich	-9.29271
ru	-9.29277
experience	-9.29336
▁Thats	-9.29433
treatment	-9.29605
au	-9.29631
partofthe	-9.29679
aircraft	-9.29723
sanctions	-9.29738
visitors	-9.2977
camp	-9.29794
mer	-9.29831
present	-9.29901
ill	-9.30086
keep	-9.30088
prison	-9.30119
message	-9.30245
conference	-9.30294
La	-9.3032
regime	-9.30325
thatthey	-9.30328
Day	-9.30409
needs	-9.30519
agreed	-9.3059
within	-9.30669
saidTuesday	-9.30756
▁not	-9.30782
themain	-9.30956
weeks	-9.30998
contract	-9.31042
suspected	-9.31053
story	-9.3106
America	-9.31068
City	-9.3118
row	-9.312
thenations	-9.31218
ung	-9.31275
expressed	-9.31386
po	-9.31424
Shiite	-9.31472
commercial	-9.31581
fully	-9.31653
▁theU	-9.31792
Paris	-9.31801
membersofthe	-9.31855
protest	-9.31874
ev	-9.31926
list	-9.31934
trading	-9.32049
documents	-9.32156
firm	-9.32177
NationalAssembly	-9.3224
▁Accordingto	-9.32281
▁Wehave	-9.32282
patients	-9.32298
ruling	-9.32301
oftheir	-9.32305
credit	-9.32338
living	-9.32375
Ha	-9.32438
▁suchas	-9.32577
▁Weare	-9.32582
cast	-9.3264
thetwo	-9.3267
helped	-9.32702
mother	-9.32718
ard	-9.32728
starting	-9.3275
bridge	-9.32871
real	-9.32906
va	-9.3304
theBritish	-9.3305
screen	-9.33077
aseriesof	-9.33153
terrorism	-9.332
role	-9.33385
available	-9.33425
jobs	-9.33457
period	-9.33497
newsagency	-9.33742
showing	-9.33801
crew	-9.33895
ahead	-9.33961
games	-9.33967
betweenthe	-9.34002
isstill	-9.3401
softhe	-9.34038
offered	-9.34115
weather	-9.34156
arm	-9.34158
threat	-9.34327
Ra	-9.34331
store	-9.34379
Michael	-9.34437
share	-9.3445
rose	-9.34482
conservative	-9.34491
Asia	-9.34496
education	-9.3464
cases	-9.34701
asecond	-9.34725
difficult	-9.34856
Bar	-9.34983
allies	-9.35013
ler	-9.35049
whose	-9.35172
itself	-9.35318
dy	-9.35352
ier	-9.35388
schools	-9.35393
personal	-9.35446
ang	-9.35462
inBaghdad	-9.35517
step	-9.3554
ck	-9.35603
cat	-9.35635
swith	-9.35701
eachother	-9.35776
andits	-9.35778
fl	-9.35869
shooting	-9.35906
comments	-9.35934
district	-9.35961
related	-9.3601
snow	-9.36012
previous	-9.36028
vehicles	-9.36061
spoke	-9.36063
movement	-9.36091
complete	-9.36122
▁Many	-9.36128
paper	-9.3613
fine	-9.36199
edin	-9.36287
hada	-9.363
Australian	-9.36347
November	-9.36359
▁Kim	-9.36402
social	-9.36417
▁Japan	-9.36422
▁after	-9.36507
North	-9.36508
safe	-9.36518
likely	-9.36586
satellite	-9.36596
hassaid	-9.36602
seats	-9.36657
radio	-9.3671
direct	-9.36726
policies	-9.3676
Agency	-9.36771
nothing	-9.36786
LosAngeles	-9.36818
▁G	-9.36821
ance	-9.36826
thepresident	-9.36849
inNewYork	-9.36995
target	-9.37008
union	-9.37037
thatis	-9.37046
seeking	-9.371
coalition	-9.37131
suffered	-9.3722
Na	-9.37354
figures	-9.37377
broke	-9.37441
suchas	-9.37463
▁its	-9.37496
rejected	-9.37659
daughter	-9.37664
trip	-9.37674
inthecountry	-9.37675
declared	-9.37712
doesnt	-9.37745
Mar	-9.37771
▁Re	-9.37794
Turkey	-9.37796
togo	-9.37842
disease	-9.38064
Spanish	-9.38098
surgery	-9.38111
wherethe	-9.38148
tion	-9.38179
aswellas	-9.38219
despite	-9.38225
thetop	-9.38253
Turkish	-9.38254
Italian	-9.38279
numberof	-9.38355
inLondon	-9.38376
does	-9.38397
Koreans	-9.38425
front	-9.38436
decided	-9.38486
October	-9.38513
Paul	-9.38537
aman	-9.38557
figure	-9.38613
ber	-9.38686
cash	-9.38744
Lebanese	-9.38774
cancer	-9.38774
complex	-9.38776
insouthern	-9.39039
mayhave	-9.39062
membersof	-9.39064
tic	-9.39112
tourists	-9.39159
rebels	-9.392
thecurrent	-9.39204
ban	-9.39228
voice	-9.39317
parliamentary	-9.39389
content	-9.39466
panel	-9.39472
ating	-9.39495
shewas	-9.39604
host	-9.39743
▁has	-9.3976
stopped	-9.39771
discovered	-9.39774
notto	-9.39806
laws	-9.39808
ful	-9.39825
onhis	-9.39843
word	-9.3987
▁Atleast	-9.39922
insurgents	-9.39985
Florida	-9.39987
▁Al	-9.40049
▁Both	-9.40137
ForeignMinistry	-9.40143
potential	-9.40152
talkswith	-9.40197
Corp	-9.40201
events	-9.40273
World	-9.40369
sign	-9.40389
spot	-9.40407
whenthey	-9.40709
street	-9.4071
performance	-9.40737
zone	-9.40787
ski	-9.40853
res	-9.40894
involving	-9.40917
hu	-9.4096
cover	-9.40967
prisoners	-9.41164
visitto	-9.41216
alone	-9.41216
Li	-9.41254
investment	-9.41276
southern	-9.41374
coast	-9.41445
Im	-9.41447
Hollywood	-9.41523
terrorists	-9.41527
dangerous	-9.41531
werenot	-9.4155
inthis	-9.41615
ized	-9.41729
▁PresidentBush	-9.41772
broadcast	-9.41855
date	-9.4205
care	-9.42051
News	-9.42091
normal	-9.42093
additional	-9.42114
necessary	-9.42168
failure	-9.42207
marriage	-9.42222
quarter	-9.42306
plane	-9.42338
An	-9.4245
kids	-9.42451
makes	-9.42455
ci	-9.42637
quoted	-9.42643
theirown	-9.42709
▁saidthe	-9.42736
InteriorMinistry	-9.42927
behavior	-9.42927
number	-9.42937
Muslim	-9.43023
flights	-9.43105
civilian	-9.43111
form	-9.43132
peoplewho	-9.43165
abig	-9.43181
acrossthe	-9.43286
summer	-9.43295
conflict	-9.43297
moved	-9.43312
hour	-9.43315
Taiwan	-9.43353
expect	-9.43386
majority	-9.43417
allegedly	-9.43461
Minister	-9.43489
der	-9.43541
▁although	-9.43555
anumberof	-9.43569
table	-9.43577
joins	-9.43603
department	-9.43611
▁killing	-9.43621
lawyer	-9.43629
everyone	-9.43684
drugs	-9.43688
defeat	-9.43696
church	-9.43717
rain	-9.43947
thatwe	-9.4401
nominee	-9.44017
words	-9.44044
faces	-9.44125
violent	-9.44226
▁M	-9.44241
▁troops	-9.44247
charged	-9.44328
townof	-9.4434
voting	-9.4435
River	-9.44354
style	-9.44375
kindof	-9.44434
togive	-9.44436
allow	-9.44456
concern	-9.44536
regional	-9.44558
Chicago	-9.44561
rules	-9.44609
▁Thereare	-9.44675
sofar	-9.4473
surge	-9.44733
▁HillaryClinton	-9.44772
honor	-9.44812
securityforces	-9.44834
material	-9.44839
ability	-9.44898
aw	-9.44918
winner	-9.44928
serve	-9.44931
transfer	-9.45053
statementsaid	-9.45062
▁LONDON	-9.4507
▁De	-9.45085
Gen	-9.45104
isalso	-9.45169
numbers	-9.45174
few	-9.4519
above	-9.45207
holiday	-9.45213
touse	-9.4546
ley	-9.45462
changes	-9.45488
rest	-9.45549
ka	-9.45554
hot	-9.45574
part	-9.45621
saidthey	-9.45717
wont	-9.45755
inNovember	-9.45758
class	-9.45787
arrived	-9.45809
career	-9.45819
apparently	-9.45829
ors	-9.45893
followed	-9.45901
Jo	-9.46033
wide	-9.46094
truck	-9.46173
Islamic	-9.46275
inter	-9.46297
driving	-9.46297
thatit	-9.46314
backed	-9.46362
aroundthe	-9.46411
mon	-9.46512
course	-9.46541
Group	-9.46542
toprotect	-9.46545
asan	-9.46572
friends	-9.46576
draw	-9.46597
foryears	-9.4663
moving	-9.46673
iv	-9.46679
actor	-9.46684
thereare	-9.46843
rich	-9.46873
headquarters	-9.46873
conducted	-9.46937
▁Gen	-9.47047
isbeing	-9.47111
theyre	-9.47236
sites	-9.47269
domestic	-9.47368
reportedly	-9.47401
hisfirst	-9.47519
maker	-9.4753
calledfor	-9.47563
provide	-9.47563
comment	-9.4758
arms	-9.47594
respect	-9.47605
ions	-9.47661
damaged	-9.47714
helping	-9.4773
giving	-9.47742
wouldhave	-9.47759
accept	-9.47769
missile	-9.47817
player	-9.47842
Senate	-9.47852
theright	-9.47877
incident	-9.47921
UN	-9.47955
State	-9.47964
Association	-9.47976
armed	-9.48079
votes	-9.48109
▁http	-9.48127
▁Bushsaid	-9.48356
commander	-9.48367
corruption	-9.48407
Di	-9.48452
takes	-9.48537
become	-9.48538
agreedto	-9.48542
cannot	-9.4855
male	-9.48648
relations	-9.48675
environmental	-9.48701
shares	-9.48715
cr	-9.4874
facilities	-9.48746
straight	-9.48746
guard	-9.48747
suspended	-9.48838
cap	-9.48872
risk	-9.48886
researchers	-9.48902
someone	-9.48905
reason	-9.48942
beat	-9.48951
intheU	-9.48953
Myanmar	-9.48994
▁Authorities	-9.49008
sun	-9.49099
Se	-9.4913
hair	-9.49136
werekilled	-9.49142
thatshe	-9.49205
customers	-9.49223
lines	-9.49227
eye	-9.49293
inChina	-9.49332
promised	-9.4936
challenge	-9.49365
nextweek	-9.49368
ov	-9.49404
▁By	-9.49428
Christian	-9.49491
activity	-9.49498
overseas	-9.49505
Ka	-9.49594
commission	-9.496
jail	-9.49601
brain	-9.49604
den	-9.49631
thosewho	-9.49657
ie	-9.49667
scandal	-9.49701
true	-9.49764
appeared	-9.49784
developing	-9.49798
ju	-9.49848
condition	-9.49906
basedon	-9.49919
certain	-9.50019
walk	-9.50139
▁Former	-9.50218
traffic	-9.50242
suit	-9.50256
▁Our	-9.50272
judge	-9.50291
band	-9.50313
average	-9.50317
polls	-9.50394
nearby	-9.50419
involvedin	-9.50543
ping	-9.50616
index	-9.50642
wind	-9.50754
inJuly	-9.50873
trust	-9.50897
loss	-9.50909
▁asp	-9.50978
wa	-9.51103
PresidentGeorgeW	-9.51112
India	-9.51115
fi	-9.51161
ren	-9.51278
gu	-9.51283
mark	-9.51289
Royal	-9.51307
count	-9.51442
described	-9.51473
success	-9.51501
largely	-9.51507
thatwas	-9.51518
com	-9.51713
charge	-9.51738
theyearold	-9.51823
caused	-9.51986
newsconference	-9.52009
▁People	-9.5201
tr	-9.52103
ways	-9.52131
consider	-9.5223
ssuchas	-9.52314
Cabinet	-9.52351
dozensof	-9.52354
approved	-9.52375
akey	-9.52477
agood	-9.52478
▁Roh	-9.52483
operating	-9.52518
▁catcodeTotalID	-9.52564
Man	-9.52578
nearticle	-9.52589
articlec	-9.52624
▁W	-9.52645
happened	-9.52736
aweek	-9.52822
saidyesterday	-9.52882
aU	-9.5299
Department	-9.53063
tomeet	-9.53124
governments	-9.53161
singer	-9.53175
want	-9.53223
author	-9.53265
Health	-9.53288
twice	-9.53345
competition	-9.53351
common	-9.53396
pass	-9.53424
soldier	-9.53447
planning	-9.53476
wants	-9.53507
leaving	-9.53533
United	-9.536
▁andthat	-9.53605
tests	-9.5361
j	-9.53796
south	-9.53828
Moscow	-9.53836
ofthem	-9.53845
thecase	-9.53848
developed	-9.53884
inga	-9.53916
created	-9.53943
accusedof	-9.54066
nextmonth	-9.54311
King	-9.54325
mid	-9.54335
command	-9.54401
leave	-9.54438
forits	-9.54497
born	-9.54532
relationship	-9.54619
lived	-9.54622
journalists	-9.54657
Obamas	-9.54736
coach	-9.54776
reportsthat	-9.54814
▁Were	-9.54857
management	-9.54934
effort	-9.54958
package	-9.54962
carried	-9.55027
voted	-9.55166
▁Washington	-9.55257
forecast	-9.55307
university	-9.55321
scheduled	-9.5536
animal	-9.55384
shutdown	-9.55417
targeted	-9.55433
animals	-9.55449
▁These	-9.5545
directly	-9.55466
returnedto	-9.55478
inJune	-9.55489
ek	-9.55496
thecompany	-9.55529
Bank	-9.55574
tro	-9.55599
avery	-9.55651
student	-9.55747
protection	-9.55779
losses	-9.55832
traditional	-9.55843
isnt	-9.55882
▁whichhas	-9.55898
ak	-9.55902
ask	-9.55963
supply	-9.56028
thelargest	-9.561
considered	-9.56104
Ar	-9.56219
▁California	-9.56306
independence	-9.56326
▁though	-9.56382
ash	-9.56397
organizations	-9.56411
mightbe	-9.56455
thecity	-9.56456
beginning	-9.56473
ade	-9.56493
crime	-9.56514
towork	-9.56529
agencies	-9.56532
kidnapping	-9.56534
helicopter	-9.56576
investors	-9.56609
required	-9.56616
politics	-9.56722
usually	-9.56826
Army	-9.56853
onits	-9.56853
wantto	-9.56856
themilitary	-9.57071
serving	-9.57072
ial	-9.57119
model	-9.57163
single	-9.57174
arebeing	-9.572
reach	-9.57215
Colombia	-9.57218
Center	-9.57285
works	-9.5731
Musharraf	-9.57532
afternoon	-9.57686
thathas	-9.57731
atan	-9.57742
responsiblefor	-9.57749
inMarch	-9.57753
hiswife	-9.57778
▁Thenew	-9.57794
Bo	-9.57973
girl	-9.58063
whowas	-9.58097
▁Most	-9.58107
sought	-9.58112
disaster	-9.58162
crash	-9.58206
theplane	-9.58225
theattack	-9.58244
imposed	-9.58287
West	-9.58335
▁Other	-9.58387
neighborhood	-9.58521
provided	-9.58568
involved	-9.58569
afterbeing	-9.58614
camera	-9.58668
spokesmansaid	-9.58763
▁McCain	-9.58772
source	-9.588
critical	-9.58864
tra	-9.58888
written	-9.58931
CondoleezzaRice	-9.58991
Organization	-9.58991
main	-9.59008
Su	-9.59053
theNational	-9.59118
suicide	-9.59189
concerns	-9.59253
Be	-9.5932
houses	-9.59397
abouta	-9.59446
thenation	-9.59449
saidshe	-9.5947
saidhewas	-9.59639
increasing	-9.59704
leg	-9.59741
spread	-9.59742
wasfound	-9.59752
Egypt	-9.59809
trouble	-9.59915
morning	-9.5996
awayfrom	-9.59962
bring	-9.59968
inher	-9.59972
shavebeen	-9.59977
software	-9.5999
green	-9.60047
interest	-9.6007
looked	-9.60074
river	-9.60119
ig	-9.60125
girls	-9.60172
rape	-9.60179
severe	-9.60194
becoming	-9.60212
unit	-9.60264
rates	-9.60298
theInternet	-9.60365
ofher	-9.60427
hy	-9.60449
caught	-9.60651
fraud	-9.60665
terrorist	-9.60714
mine	-9.60754
search	-9.60858
▁alongwith	-9.60876
executive	-9.60944
theNorths	-9.60947
matter	-9.60959
criticism	-9.6098
returnto	-9.61149
sleep	-9.61256
El	-9.61262
resort	-9.6132
theincident	-9.61429
Sunni	-9.61434
sor	-9.61451
tohold	-9.6146
Olympic	-9.61498
supplies	-9.61512
science	-9.61513
husband	-9.61541
▁Although	-9.6161
Thailand	-9.61655
occurred	-9.61779
visited	-9.61787
chargedwith	-9.61811
sayshe	-9.6186
mass	-9.61869
investigators	-9.61896
nd	-9.61905
af	-9.61926
▁aswellas	-9.6193
delay	-9.61934
filed	-9.61955
effortsto	-9.62107
ca	-9.62119
fortheir	-9.62134
Police	-9.62166
hands	-9.62188
saidThursday	-9.62191
Robert	-9.62224
abroad	-9.62229
ll	-9.62252
confidence	-9.62261
assault	-9.62274
similar	-9.62398
linkedto	-9.62469
calledon	-9.62471
appeal	-9.62473
bus	-9.62493
dispute	-9.62495
inSeptember	-9.62529
closeto	-9.62546
withhis	-9.62547
sale	-9.62566
ko	-9.62572
meters	-9.62577
▁whichwas	-9.62604
drive	-9.6264
▁Healso	-9.62694
br	-9.62733
influence	-9.62821
ell	-9.62918
▁Accordingtothe	-9.62949
rock	-9.6296
thesituation	-9.62996
prepared	-9.63014
accessto	-9.63031
gr	-9.63135
delegation	-9.6323
football	-9.63242
kill	-9.6331
Grand	-9.63323
stay	-9.63333
sexual	-9.63474
insidethe	-9.63522
cant	-9.63564
image	-9.63591
everything	-9.63704
tohis	-9.63718
Ko	-9.63772
sell	-9.63795
posted	-9.63816
Democrat	-9.6391
theUniversityof	-9.63938
danger	-9.6396
▁Iam	-9.63974
House	-9.63978
ofan	-9.64056
Min	-9.64057
awoman	-9.64063
society	-9.64099
tournament	-9.64099
museum	-9.64099
various	-9.64102
currently	-9.64111
range	-9.64123
asmall	-9.64149
produced	-9.64157
arestill	-9.64162
dog	-9.64203
ships	-9.64228
chairman	-9.64281
reportedthat	-9.64282
keeping	-9.64303
bound	-9.64367
wrong	-9.64404
les	-9.64406
alongthe	-9.64433
izing	-9.6446
Tibetan	-9.64472
▁citing	-9.64475
ish	-9.64563
athome	-9.64616
sub	-9.6464
attempt	-9.64644
selling	-9.6465
alcohol	-9.64671
sky	-9.64841
JohnMcCain	-9.64892
fish	-9.64905
towin	-9.64911
joined	-9.64918
County	-9.64949
fund	-9.64953
religious	-9.64976
inKorea	-9.64978
▁L	-9.64997
youcan	-9.6501
alongwith	-9.65025
Germany	-9.65029
assaying	-9.65058
▁JohnMcCain	-9.65094
northern	-9.65103
Che	-9.65138
captured	-9.65155
▁TheUS	-9.65157
foreigners	-9.65176
weight	-9.65182
aspartof	-9.6521
speed	-9.65229
friend	-9.65273
effect	-9.65319
thismonth	-9.65355
He	-9.65357
themto	-9.65369
inyears	-9.65377
placed	-9.6538
questions	-9.65392
staterun	-9.65397
remarks	-9.65426
felt	-9.65481
ofthose	-9.65513
ray	-9.65532
Council	-9.6554
ists	-9.65556
ago	-9.65587
Go	-9.6565
scored	-9.65659
rescue	-9.65692
bi	-9.65703
donot	-9.6573
politicians	-9.65735
approach	-9.65749
Da	-9.65769
boy	-9.6578
accepted	-9.65822
ball	-9.6584
actions	-9.65841
wi	-9.65846
corporate	-9.65861
Airport	-9.65874
inJapan	-9.65919
ence	-9.65925
collapsed	-9.66162
Party	-9.66188
sat	-9.66204
tostop	-9.66215
threatened	-9.66215
fiveyears	-9.66316
theDemocratic	-9.66336
becauseofthe	-9.6636
setup	-9.66392
deadline	-9.66413
SecurityCouncil	-9.66424
▁Officials	-9.6644
ster	-9.66491
admitted	-9.66502
raid	-9.66547
Pa	-9.66598
saiditwas	-9.66605
pound	-9.66626
floor	-9.66627
believed	-9.66699
gathered	-9.66706
married	-9.66719
block	-9.66722
▁H	-9.66739
Christmas	-9.66751
nuclearprogram	-9.66754
blue	-9.66754
reporters	-9.66782
Peter	-9.66809
films	-9.66828
contest	-9.66844
consumers	-9.66863
talk	-9.66977
bed	-9.67008
ward	-9.67025
thebiggest	-9.67035
ble	-9.67116
imp	-9.67143
choice	-9.67188
teams	-9.67194
upon	-9.67201
computers	-9.67256
Koreas	-9.67289
rolein	-9.67297
sc	-9.6732
telling	-9.67327
anyone	-9.67367
determined	-9.67449
whohave	-9.6752
attention	-9.67521
Republicans	-9.67547
club	-9.6756
airline	-9.67624
▁Seoul	-9.67629
Arab	-9.67633
▁Their	-9.67649
providing	-9.67655
Black	-9.67675
double	-9.67681
Irans	-9.67737
giant	-9.67746
increasingly	-9.67785
cross	-9.67825
har	-9.67865
thenext	-9.67888
knew	-9.67893
meetingwith	-9.67918
waskilled	-9.68016
massive	-9.6805
thegroup	-9.68135
seized	-9.68135
▁Russia	-9.68139
seeing	-9.68181
send	-9.68247
miles	-9.68282
ner	-9.68299
ph	-9.68314
meet	-9.68325
que	-9.68327
letter	-9.68366
God	-9.68367
consumer	-9.68416
swho	-9.68518
specific	-9.68546
smoke	-9.68558
demonstrators	-9.68564
tell	-9.68567
banned	-9.68572
hehad	-9.68585
Illinois	-9.68599
toprovide	-9.68626
ledby	-9.6864
initial	-9.68673
tough	-9.68707
activists	-9.68811
Australia	-9.68836
pa	-9.68878
▁Thetwo	-9.6889
alittle	-9.68899
owner	-9.68934
enter	-9.68972
twoyears	-9.68981
Ali	-9.68992
elected	-9.69019
Sh	-9.69059
wantsto	-9.69081
▁especially	-9.69086
huge	-9.69087
officialssay	-9.69129
items	-9.69139
inthepast	-9.69249
ga	-9.69299
territory	-9.69349
Cuba	-9.69376
recession	-9.69378
todiscuss	-9.69385
tosend	-9.69397
refusedto	-9.69403
▁Since	-9.69466
secret	-9.69472
budget	-9.69481
modern	-9.69481
sound	-9.69493
Pakistans	-9.69494
Island	-9.69495
youre	-9.69505
Central	-9.69541
card	-9.69541
thewar	-9.6971
finished	-9.69772
LeeMyungbak	-9.69791
journalist	-9.69847
magazine	-9.69884
sfirst	-9.69891
heis	-9.69973
shed	-9.70028
oppositionleader	-9.7004
attheendof	-9.70049
create	-9.70071
hostage	-9.70169
SouthKoreas	-9.7025
usedto	-9.70282
located	-9.70305
ey	-9.70328
proposal	-9.7038
trapped	-9.70381
doubt	-9.7041
culture	-9.7041
▁Watch	-9.7041
overtheweekend	-9.70441
formal	-9.70441
immediate	-9.70459
DemocraticParty	-9.70498
min	-9.70574
inFebruary	-9.70589
impact	-9.70604
fromhis	-9.70622
For	-9.70671
wehave	-9.70712
accident	-9.70782
die	-9.70782
holds	-9.70812
tobring	-9.70816
▁R	-9.70817
ledto	-9.70826
lose	-9.70848
ast	-9.7087
sen	-9.70929
ana	-9.70948
sucha	-9.7098
net	-9.70992
self	-9.7107
Ho	-9.71087
alive	-9.71203
Texas	-9.71219
za	-9.71252
SupremeCourt	-9.71256
pounds	-9.7126
college	-9.71308
property	-9.71349
CEO	-9.71351
spring	-9.71362
debt	-9.71374
urging	-9.71378
ani	-9.71447
nolonger	-9.71465
terror	-9.71466
toavoid	-9.71481
topay	-9.71498
hisown	-9.71506
gar	-9.71592
north	-9.71618
demonstrations	-9.71621
independent	-9.71634
ties	-9.71658
track	-9.71743
South	-9.7175
▁Three	-9.71784
calledthe	-9.71834
stocks	-9.71877
Senator	-9.71912
theelection	-9.71947
outsidethe	-9.71959
edwith	-9.7196
moment	-9.72001
stock	-9.72144
hasnot	-9.72155
UriParty	-9.7216
mustbe	-9.72165
birth	-9.72173
Ed	-9.72185
size	-9.7219
completed	-9.72238
▁Several	-9.72286
surrounding	-9.72307
discussions	-9.72322
Brown	-9.72429
ends	-9.72484
▁Iran	-9.72496
happen	-9.72546
decidedto	-9.72578
begin	-9.72583
gets	-9.72669
chance	-9.72696
amongthe	-9.72747
raise	-9.72755
sp	-9.72847
wearing	-9.72852
couldnot	-9.72987
carriedout	-9.73116
value	-9.73119
quality	-9.7319
inDecember	-9.73215
path	-9.7323
favorite	-9.73242
goes	-9.73277
San	-9.73292
▁headded	-9.73295
amonth	-9.73303
bombs	-9.73339
democratic	-9.73346
We	-9.73346
intheregion	-9.73352
prize	-9.73359
van	-9.73414
tells	-9.73482
treated	-9.73512
CNNA	-9.73522
fighters	-9.73536
toleave	-9.73591
theother	-9.73602
▁Oneofthe	-9.7363
rocket	-9.73636
via	-9.73643
sometimes	-9.73651
whowere	-9.7371
buy	-9.73728
collapse	-9.73753
tu	-9.73753
▁Theyare	-9.73757
East	-9.73786
▁Hes	-9.73904
worst	-9.73925
previously	-9.73937
Car	-9.73961
kidnapped	-9.74052
below	-9.74078
Me	-9.74127
dress	-9.7417
suggested	-9.74196
equipment	-9.74199
relief	-9.742
Alaska	-9.74202
om	-9.7422
lay	-9.74253
Lu	-9.74357
marked	-9.74499
crowd	-9.74519
andwas	-9.7453
callsfor	-9.74555
communist	-9.74634
counter	-9.74724
agroupof	-9.7473
fast	-9.74734
Mi	-9.74738
anun	-9.74868
language	-9.74877
ja	-9.74958
itsown	-9.75042
highway	-9.75106
try	-9.75164
exercise	-9.7517
▁Four	-9.75191
crucial	-9.75194
EU	-9.75204
nationwide	-9.7521
details	-9.7523
pain	-9.75243
tookplace	-9.75244
toplay	-9.75247
ink	-9.75284
agree	-9.75314
willalso	-9.75342
theinternational	-9.75377
Com	-9.75422
demands	-9.75424
partsof	-9.75456
Oscar	-9.7557
estimated	-9.75613
waters	-9.75653
mostly	-9.75687
▁SouthKorean	-9.75709
visiting	-9.75717
measure	-9.75761
buying	-9.75789
boat	-9.75922
theChinese	-9.7599
struggling	-9.76007
▁Despite	-9.76033
lu	-9.76042
sister	-9.7611
levels	-9.76156
willcontinue	-9.76194
solution	-9.76195
personnel	-9.76208
Do	-9.76216
therewere	-9.7624
forher	-9.76257
ifthey	-9.76268
plot	-9.76279
thereport	-9.76288
combat	-9.76299
extra	-9.76319
inGaza	-9.76412
whenit	-9.76527
cold	-9.76539
fan	-9.76632
finally	-9.76701
joint	-9.76715
warm	-9.76775
theway	-9.76883
boost	-9.76912
din	-9.76944
affected	-9.77029
transport	-9.77119
Tehran	-9.7714
Kennedy	-9.7714
hewould	-9.77174
inAugust	-9.7723
becausethe	-9.77245
theworst	-9.77273
cited	-9.77305
alliance	-9.77336
minute	-9.77397
▁My	-9.77402
Air	-9.77423
series	-9.77511
systems	-9.77685
Africa	-9.77712
Mexico	-9.7789
Defense	-9.77943
businesses	-9.77954
inOctober	-9.77956
includes	-9.77956
route	-9.77961
environment	-9.77975
thearea	-9.77985
greater	-9.77987
Bill	-9.7803
inthefirst	-9.78074
herhusband	-9.78077
calm	-9.78132
historic	-9.78158
ik	-9.78203
contact	-9.78215
own	-9.78231
Con	-9.78293
setting	-9.78345
heat	-9.7835
changed	-9.78359
initially	-9.78366
fresh	-9.78372
inPakistan	-9.7838
movies	-9.78388
separate	-9.78401
ForeignMinister	-9.78405
stateof	-9.78481
stars	-9.78562
remaining	-9.78636
offering	-9.78684
PC	-9.78735
onMay	-9.78805
▁PrimeMinister	-9.78835
concert	-9.78846
advance	-9.78904
Saudi	-9.78909
saiditwould	-9.78914
mar	-9.78961
thecourt	-9.78962
account	-9.78963
justice	-9.78971
demanding	-9.79018
shown	-9.79119
healthcare	-9.79174
wonthe	-9.79187
canceled	-9.79223
thehighest	-9.79225
reduce	-9.79226
agreat	-9.79302
fo	-9.79325
theAmerican	-9.79346
losing	-9.79372
phone	-9.79396
ride	-9.79502
whoare	-9.79503
▁Thefirst	-9.79504
practice	-9.79508
ger	-9.79567
HillaryClinton	-9.79604
twoweeks	-9.79606
James	-9.79607
ara	-9.79623
bit	-9.79625
highschool	-9.79626
ahuge	-9.79651
Tr	-9.79669
couple	-9.79682
thefilm	-9.79698
War	-9.79766
▁ET	-9.79793
ze	-9.79809
ker	-9.79823
planto	-9.79913
blame	-9.7992
product	-9.79922
whole	-9.79952
watched	-9.79996
theday	-9.80003
page	-9.80031
looking	-9.80042
Je	-9.80059
confirm	-9.80102
controlled	-9.8015
Chairman	-9.80168
▁TheKoreaHerald	-9.80171
reduction	-9.80183
fellow	-9.80185
traveling	-9.803
athird	-9.80398
del	-9.80407
tofind	-9.80417
completely	-9.80527
itsfirst	-9.80555
shift	-9.80568
inEurope	-9.80592
anestimated	-9.80617
tri	-9.8066
nor	-9.8066
Iraqs	-9.8074
island	-9.80754
standing	-9.80774
Ta	-9.80778
▁Ma	-9.80816
happy	-9.8084
criticized	-9.80876
saidina	-9.80877
gold	-9.80881
oo	-9.80966
committed	-9.80985
thatcould	-9.81022
Gov	-9.81192
channel	-9.81202
grave	-9.81216
correspondent	-9.81292
lawmaker	-9.8136
▁Even	-9.81371
▁Speaking	-9.81399
wayto	-9.81425
wear	-9.81433
export	-9.81436
thefirsttime	-9.81445
inSouthKorea	-9.8145
ari	-9.81492
tried	-9.81503
extended	-9.81592
ure	-9.81662
teen	-9.81716
draft	-9.81725
▁There	-9.81745
explosives	-9.81769
believedtobe	-9.818
Ki	-9.81874
criminal	-9.81911
▁you	-9.81974
aspecial	-9.81987
Ru	-9.82001
ities	-9.8203
cu	-9.8209
Steve	-9.82117
roads	-9.82144
turning	-9.82172
peoplewere	-9.82204
finding	-9.82205
appointed	-9.82227
driver	-9.8224
album	-9.82244
detention	-9.82244
strategy	-9.82244
scene	-9.82256
authority	-9.82271
easy	-9.82278
partner	-9.82278
theyhave	-9.82341
witness	-9.8239
arrival	-9.82402
weare	-9.8241
clean	-9.82474
resume	-9.82484
bio	-9.8257
▁despite	-9.82594
Martin	-9.82594
idea	-9.8262
ruled	-9.82636
Syria	-9.82708
toallow	-9.82763
officially	-9.8278
threeyears	-9.82796
bright	-9.82797
StateDepartment	-9.82821
theInternational	-9.82864
apartment	-9.82913
toldThe	-9.82924
brother	-9.82985
lookingfor	-9.82996
brand	-9.83034
knownas	-9.83047
threats	-9.83068
shortlyafter	-9.83115
natural	-9.83147
gen	-9.83165
Thai	-9.83238
Arizona	-9.83262
Dutch	-9.83296
Justice	-9.83297
casualties	-9.83297
affect	-9.833
bailout	-9.83353
Mu	-9.8339
Kosovo	-9.83418
freed	-9.83447
inthearea	-9.83472
theonly	-9.83477
pulled	-9.83479
governor	-9.83556
rent	-9.8361
Marine	-9.83621
goals	-9.83648
hasa	-9.8365
demanded	-9.83666
Ministry	-9.83755
iya	-9.83755
inApril	-9.838
civil	-9.83809
birds	-9.83824
HongKong	-9.83828
insteadof	-9.83835
powerful	-9.83837
cell	-9.83852
Han	-9.83871
failedto	-9.83949
tor	-9.83995
saidSunday	-9.84124
continue	-9.84146
ifit	-9.8415
books	-9.84215
yearsof	-9.84228
Venezuela	-9.84249
Hospital	-9.8428
atthetime	-9.84308
response	-9.8434
Ad	-9.84345
council	-9.84352
Province	-9.84359
thefinal	-9.8437
appearance	-9.84392
dark	-9.84409
inthecapital	-9.84448
arealso	-9.84459
ob	-9.84496
So	-9.84521
missiles	-9.84583
▁aformer	-9.84613
peoplewerekilled	-9.84636
comp	-9.84643
blast	-9.84645
questioned	-9.84645
beyond	-9.84671
diedin	-9.84681
stone	-9.84709
peaceful	-9.84748
anofficial	-9.84755
Sch	-9.84804
freedom	-9.84874
tryto	-9.84924
images	-9.84932
Am	-9.84971
highly	-9.84974
thecitys	-9.85073
ow	-9.8512
character	-9.85127
willnotbe	-9.85153
Georgia	-9.85157
injury	-9.85225
listof	-9.85308
regular	-9.85315
Inter	-9.85329
broken	-9.85405
stress	-9.85408
flu	-9.85418
AirForce	-9.85436
NicolasSarkozy	-9.85437
hunt	-9.85437
angry	-9.8546
ens	-9.8547
Pennsylvania	-9.85505
▁EnglandCNN	-9.8551
▁Also	-9.85513
professional	-9.85554
isthat	-9.85567
ts	-9.85577
gg	-9.85591
goingtobe	-9.8565
foran	-9.85657
Smith	-9.85659
cooperation	-9.85683
theendof	-9.85688
executives	-9.85701
theJapanese	-9.85718
tostay	-9.85737
wasnt	-9.85754
su	-9.85776
slike	-9.85784
sourcessaid	-9.85986
opportunity	-9.85989
active	-9.86006
Service	-9.86025
watching	-9.86064
exchange	-9.86077
gun	-9.86174
UK	-9.86184
facing	-9.86297
▁Then	-9.86314
species	-9.86347
supporting	-9.86438
▁Those	-9.86451
appear	-9.86488
bought	-9.8651
ization	-9.86522
babies	-9.86522
han	-9.8653
aswell	-9.86537
ite	-9.86538
toreturnto	-9.86548
▁buthe	-9.86552
recall	-9.8663
doctor	-9.86659
ontheir	-9.86678
flow	-9.86682
seed	-9.86689
places	-9.86691
design	-9.86695
revealed	-9.86761
flying	-9.86763
positive	-9.86776
thecapital	-9.86815
fourth	-9.86841
cents	-9.86845
presence	-9.86982
anhour	-9.87022
▁Israeli	-9.87023
theth	-9.87025
millionsof	-9.87041
rebel	-9.87044
push	-9.87126
walking	-9.87136
toprevent	-9.87179
wood	-9.87315
quite	-9.87379
widely	-9.87441
smaller	-9.87478
Gi	-9.87498
bombings	-9.87545
morethanmillion	-9.87581
ki	-9.87591
Pacific	-9.87612
Google	-9.87616
buried	-9.87621
assistance	-9.87623
smoking	-9.87624
stateofemergency	-9.87637
weak	-9.87653
benefits	-9.87738
yearsold	-9.87753
wall	-9.87762
ub	-9.87813
Mark	-9.87846
attackson	-9.87853
▁Ifyou	-9.87869
affairs	-9.87883
Gu	-9.87894
astatement	-9.87994
location	-9.88061
victim	-9.88094
▁StateDepartment	-9.88133
urge	-9.88188
thepublic	-9.8822
▁butit	-9.88236
limited	-9.88279
itwould	-9.88281
whenshe	-9.88294
landing	-9.88345
oftheU	-9.88365
througha	-9.88422
ding	-9.88425
▁theofficialsaid	-9.88438
Cho	-9.88453
▁points	-9.88495
mountain	-9.88548
jo	-9.88591
Te	-9.88594
Palestinians	-9.88645
lawyers	-9.88666
farmers	-9.88683
ealand	-9.88717
ethnic	-9.88727
Canadian	-9.88732
Dubai	-9.88732
provincial	-9.88732
earlierthismonth	-9.88752
peopleare	-9.88776
older	-9.88784
theSouth	-9.88797
spacestation	-9.88812
compound	-9.88856
Pi	-9.88861
▁Thereport	-9.88889
wecan	-9.88897
ambassador	-9.88898
du	-9.88914
SouthKoreans	-9.88919
device	-9.88943
policeand	-9.88947
speak	-9.88948
rare	-9.88974
io	-9.89053
willingto	-9.89076
ick	-9.89103
Red	-9.89155
sports	-9.89156
forest	-9.89162
debut	-9.89192
Lo	-9.89193
records	-9.89213
Inc	-9.89275
Mon	-9.89348
lifted	-9.89358
behindthe	-9.89379
dogs	-9.89384
lookat	-9.89562
famous	-9.89577
General	-9.89625
welcome	-9.89633
inBritain	-9.89723
Departmentof	-9.89837
agenda	-9.89856
assistant	-9.89863
jet	-9.89896
Du	-9.899
Research	-9.899
putting	-9.89931
continuing	-9.89953
euro	-9.89971
deployed	-9.90005
chi	-9.90038
stood	-9.90043
structure	-9.90063
othercountries	-9.90075
overnight	-9.90157
ya	-9.90202
theparty	-9.90238
becausethey	-9.90285
Ja	-9.90302
ticket	-9.90453
African	-9.90546
actress	-9.90549
gay	-9.90565
tradition	-9.9058
jumped	-9.90589
original	-9.90619
metwith	-9.90626
reportsof	-9.90641
wentto	-9.90702
relay	-9.90705
exports	-9.90748
troop	-9.90824
SaudiArabia	-9.90827
▁whohas	-9.90836
travelers	-9.90844
infrontof	-9.90854
writing	-9.90992
negative	-9.90992
Chelsea	-9.90992
widespread	-9.91003
simply	-9.91006
ingup	-9.91015
neighboring	-9.91036
Microsoft	-9.91075
reporter	-9.91097
thereleaseof	-9.91118
note	-9.91119
▁Today	-9.91144
discussed	-9.91261
learned	-9.91374
longer	-9.91392
allows	-9.91401
expert	-9.91466
display	-9.91469
aformer	-9.91476
meetings	-9.91497
▁J	-9.91573
gi	-9.91582
Institute	-9.91592
western	-9.91651
ec	-9.9172
closing	-9.91751
NASA	-9.91799
incentral	-9.91881
unless	-9.91893
km	-9.91913
landed	-9.92019
explosion	-9.92027
finance	-9.92069
morethanpercent	-9.92082
ug	-9.92093
northof	-9.92093
andtwo	-9.92138
Liverpool	-9.92142
reaching	-9.92194
▁addingthat	-9.92208
simple	-9.9223
indicated	-9.9227
ministry	-9.92349
exploded	-9.92358
relatives	-9.92362
timefor	-9.9238
planes	-9.92411
diplomats	-9.92468
VicePresident	-9.92513
slightly	-9.92537
Web	-9.9257
Ca	-9.92575
edout	-9.92575
Johnson	-9.92596
oppositionGrand	-9.9261
mind	-9.92648
probe	-9.92657
crimes	-9.9266
successful	-9.92675
▁authoritiessaid	-9.92712
sentence	-9.92714
atleastpeople	-9.92749
andI	-9.92769
bytheendof	-9.92799
dic	-9.92831
lying	-9.92852
▁John	-9.92861
faced	-9.92879
physical	-9.92916
allof	-9.92929
UnitedNations	-9.92937
alot	-9.92992
bl	-9.93024
tight	-9.93026
loans	-9.93046
contactwith	-9.9305
Iraqis	-9.93056
follow	-9.93057
wing	-9.93073
returned	-9.93201
century	-9.93226
reasons	-9.93227
thethird	-9.93231
ready	-9.93237
Administration	-9.93295
fashion	-9.93305
baby	-9.93307
producing	-9.93308
havea	-9.93325
anger	-9.93332
Diana	-9.93334
text	-9.93355
understand	-9.93363
gained	-9.93389
hang	-9.93394
corner	-9.93405
rat	-9.93467
toend	-9.93475
projects	-9.93541
toshow	-9.93666
wereinjured	-9.9377
▁British	-9.93866
Tuesdays	-9.93891
calling	-9.93909
▁New	-9.93932
gains	-9.94019
ag	-9.94025
eyes	-9.94047
square	-9.94061
flag	-9.94065
theglobal	-9.94076
standards	-9.94118
ett	-9.9412
tobecome	-9.94164
ery	-9.94211
users	-9.94227
Mc	-9.94252
Shin	-9.94349
theSouthKorean	-9.94385
goods	-9.94424
afterhe	-9.94427
chemical	-9.94481
prosecutor	-9.94484
Ro	-9.94485
threw	-9.94491
patrol	-9.94494
tourism	-9.94507
vessel	-9.94514
mostofthe	-9.94514
pace	-9.94516
blow	-9.94532
extremely	-9.94546
inc	-9.94562
ofanonymity	-9.94582
thegovernments	-9.94595
ver	-9.94613
waste	-9.94621
pick	-9.94626
unveiled	-9.94653
reduced	-9.94748
seriously	-9.94754
policeofficers	-9.94793
▁From	-9.94836
Ben	-9.94859
burned	-9.94931
Jan	-9.94964
alarge	-9.94965
remote	-9.95006
ages	-9.95036
soffice	-9.95078
thedeal	-9.95096
tocontinue	-9.95103
edup	-9.95223
decline	-9.95226
ville	-9.95248
grow	-9.95283
strip	-9.95288
ax	-9.95296
removed	-9.95298
supportfor	-9.95325
Britains	-9.95351
aninternational	-9.95358
theNorthKorean	-9.95383
pledge	-9.95397
delayed	-9.95458
surface	-9.95466
super	-9.95477
Security	-9.95575
reportsthe	-9.95584
effective	-9.9561
box	-9.95627
PervezMusharraf	-9.95632
Ukraine	-9.95633
Mr	-9.95645
basic	-9.95659
LoneStar	-9.95671
frozen	-9.95671
legislation	-9.95673
climatechange	-9.95682
KoreanPeninsula	-9.95696
withan	-9.95698
anewsconference	-9.9575
Howard	-9.9576
notonly	-9.95767
scan	-9.95787
wasalso	-9.95788
▁some	-9.95811
thatwould	-9.95817
Times	-9.95819
torch	-9.95851
sight	-9.95889
theprosecution	-9.95898
herself	-9.95936
par	-9.95959
Williams	-9.95978
▁O	-9.95987
eastern	-9.96071
refused	-9.96108
withher	-9.96114
av	-9.96116
delivered	-9.96171
envoy	-9.96193
provinces	-9.96194
hasalready	-9.96212
theman	-9.96219
asking	-9.96228
thatwill	-9.96267
assets	-9.96309
add	-9.9633
▁one	-9.9636
killedpeople	-9.96374
names	-9.96438
mph	-9.96438
theregion	-9.96474
stores	-9.96479
▁includingthe	-9.96497
wild	-9.96502
electricity	-9.96527
leads	-9.96534
dialogue	-9.96548
invited	-9.96558
ear	-9.9657
status	-9.96573
▁Under	-9.96588
taxes	-9.96704
winter	-9.96786
housing	-9.96788
Chavez	-9.96837
sentto	-9.96838
upthe	-9.96858
Putin	-9.96867
▁Hesaidthe	-9.96868
▁Korea	-9.96875
bottom	-9.96876
tomorrow	-9.96876
Fatah	-9.96878
NationalPartyGNP	-9.96881
governing	-9.96907
changing	-9.9691
theBush	-9.96926
ofthis	-9.96949
ator	-9.96958
officialshave	-9.96964
Chung	-9.96966
downthe	-9.96966
arenow	-9.96981
convention	-9.97015
▁Theres	-9.97089
Hu	-9.97115
runs	-9.9717
neighbors	-9.97254
▁Ihave	-9.97277
Burma	-9.97288
humans	-9.973
militant	-9.97356
Secretary	-9.97363
▁Iwas	-9.97365
acting	-9.97443
sending	-9.97446
overall	-9.9747
skin	-9.97474
audience	-9.97547
income	-9.97622
WorldCup	-9.9764
itwill	-9.97643
toys	-9.97719
toreach	-9.97777
campus	-9.978
Green	-9.97815
boats	-9.97839
spend	-9.97844
▁Florida	-9.97966
wealth	-9.97974
thisis	-9.98011
Governor	-9.98079
whatthey	-9.98081
Charles	-9.98087
Hezbollah	-9.98095
wedding	-9.981
globalwarming	-9.981
dream	-9.98104
▁Because	-9.98105
division	-9.9811
crackdownon	-9.98121
repeated	-9.98156
je	-9.98179
decades	-9.98197
mean	-9.98224
attorney	-9.98268
formally	-9.98288
certainly	-9.98292
areexpectedto	-9.98298
ou	-9.98309
agent	-9.98318
q	-9.98356
tie	-9.98368
newspapers	-9.98371
industrial	-9.98416
follows	-9.9842
healthy	-9.98581
adeal	-9.9862
hoping	-9.98663
march	-9.98667
ants	-9.98725
BA	-9.98755
shes	-9.98774
seconds	-9.98801
theKorean	-9.98827
werealso	-9.98879
sdeath	-9.98889
rice	-9.98898
whena	-9.9894
makers	-9.98984
▁aspokesmanfor	-9.9903
controversial	-9.9904
eventually	-9.99055
promise	-9.9906
fled	-9.99089
andtheir	-9.99133
regulations	-9.9914
Ch	-9.99153
foundthat	-9.99185
werearrested	-9.992
followingthe	-9.99253
alsosaid	-9.99274
Vietnam	-9.99328
festival	-9.9933
fought	-9.9933
split	-9.99339
Sudan	-9.9934
nuclearreactor	-9.99381
DNA	-9.99387
uh	-9.9941
fair	-9.9943
Ni	-9.99443
Venezuelan	-9.9946
ning	-9.99479
gathering	-9.99521
theyhad	-9.99522
▁During	-9.99547
targets	-9.99606
▁even	-9.99626
oftheyear	-9.99754
clearly	-9.9977
emissions	-9.99771
significant	-9.9979
▁Musharraf	-9.99794
wasarrested	-9.99834
dismissed	-9.9985
gl	-9.9987
rooms	-9.99872
telephone	-9.99876
Lebanon	-9.99903
suspect	-9.99955
theinvestigation	-10.0002
tent	-10.0016
scale	-10.0025
Po	-10.0026
crashed	-10.0033
beating	-10.0037
▁US	-10.004
constitution	-10.004
touch	-10.0041
presented	-10.005
beingheld	-10.0051
breaking	-10.0053
BenazirBhutto	-10.0058
flew	-10.0059
someof	-10.006
Richard	-10.0065
gunmen	-10.0065
financialcrisis	-10.0069
aedainIraq	-10.0069
tonight	-10.007
pump	-10.007
ranked	-10.0076
pledged	-10.008
twomonths	-10.0083
drivers	-10.0085
▁told	-10.0088
gives	-10.0091
ofall	-10.0092
refugees	-10.0096
deployment	-10.0098
dollar	-10.0103
ven	-10.0107
considering	-10.0107
▁itwas	-10.0109
NationalParty	-10.0111
hole	-10.0112
ifyou	-10.0118
▁Prosecutors	-10.0119
cameas	-10.0125
retired	-10.0127
heading	-10.0136
falling	-10.0149
untilthe	-10.0161
formorethan	-10.0162
whatit	-10.0164
facility	-10.0168
madethe	-10.0171
betweenand	-10.0174
write	-10.0174
heads	-10.0176
currency	-10.0176
wait	-10.0177
speaking	-10.0177
▁Japans	-10.0182
worse	-10.0183
waiting	-10.0184
ChampionsLeague	-10.0185
correct	-10.0185
hadno	-10.0185
convoy	-10.0185
footage	-10.0187
wins	-10.0188
▁Heis	-10.0188
▁Themove	-10.0192
todeath	-10.0192
manwho	-10.0196
ofU	-10.02
covered	-10.0208
accordingto	-10.0209
Apple	-10.0209
alert	-10.0214
Universityof	-10.0215
therewas	-10.022
asshe	-10.0222
totheir	-10.0226
thetwoKoreas	-10.0236
fit	-10.0239
Tibet	-10.024
narrow	-10.0241
whetherthe	-10.0245
mosque	-10.0246
recovered	-10.0251
mile	-10.0251
Iowa	-10.0258
ofour	-10.026
limit	-10.0264
auction	-10.0266
knows	-10.0266
announcement	-10.0269
roundof	-10.027
reaction	-10.0272
Union	-10.0276
hisfather	-10.0277
pl	-10.0284
offers	-10.0284
pushed	-10.0289
oncondition	-10.029
ajoint	-10.0295
fe	-10.0295
theformer	-10.0298
secretary	-10.0298
differences	-10.0303
chair	-10.0308
▁V	-10.0313
cultural	-10.0313
inflation	-10.0313
cutting	-10.0319
▁wherehe	-10.0329
Jim	-10.0334
rightnow	-10.0334
atp	-10.0335
thetalks	-10.0338
deathtoll	-10.0339
requested	-10.0339
edon	-10.0343
prompted	-10.0348
thestartof	-10.0348
▁France	-10.0348
assassination	-10.0358
uk	-10.0361
resigned	-10.0369
prevent	-10.0369
advantage	-10.0374
print	-10.0374
asingle	-10.0375
▁thegovernment	-10.0378
friendly	-10.0385
drove	-10.0385
chain	-10.039
Muslims	-10.04
document	-10.0401
pilot	-10.0402
embassy	-10.0404
▁Just	-10.0404
reading	-10.0408
Far	-10.0413
deadly	-10.0415
SanFrancisco	-10.0431
focus	-10.0433
Islam	-10.0436
offensive	-10.0437
inMay	-10.0437
himto	-10.0438
thousands	-10.0439
heavily	-10.044
signsof	-10.0441
journey	-10.0443
pretty	-10.0443
vacation	-10.0443
SaddamHussein	-10.0443
toxic	-10.0445
Intelligence	-10.0448
bombing	-10.0448
▁Five	-10.0449
delivery	-10.0449
thesixpartytalks	-10.045
Ne	-10.0451
erupted	-10.0453
adviser	-10.0456
signs	-10.0461
Jones	-10.0463
Chief	-10.047
asmanyas	-10.047
arent	-10.0473
whohad	-10.0476
analyst	-10.0476
pitch	-10.0481
thecouple	-10.0482
andher	-10.0489
causedby	-10.0493
rail	-10.0493
professor	-10.0496
dollars	-10.0498
▁Hundredsof	-10.0499
▁Australia	-10.05
followinga	-10.0501
▁Lastweek	-10.0502
Bushs	-10.0503
couldhave	-10.0513
protect	-10.0514
jailed	-10.0515
Ber	-10.0515
opponents	-10.0516
inlate	-10.0517
ious	-10.0517
▁leaving	-10.0517
favor	-10.0518
theycan	-10.0522
watch	-10.0523
ontheground	-10.0523
generation	-10.0525
Bur	-10.0532
millionpeople	-10.0536
tested	-10.0537
door	-10.054
tobuy	-10.0541
fears	-10.0541
meter	-10.0545
staying	-10.0547
socalled	-10.0548
duringhis	-10.0548
quake	-10.0548
onboard	-10.0549
ministers	-10.055
targeting	-10.056
visa	-10.056
▁Itsa	-10.056
gain	-10.0563
wan	-10.0564
blocked	-10.0564
gh	-10.0565
thebill	-10.0567
stability	-10.057
gate	-10.0571
Chrysler	-10.0574
Argentina	-10.0574
Development	-10.0575
enemy	-10.0575
governmenthas	-10.0575
desert	-10.0575
shopping	-10.0575
reflect	-10.0578
kin	-10.0582
era	-10.0583
thcentury	-10.0583
earned	-10.0583
Bay	-10.0584
Kurdish	-10.0587
controlof	-10.0587
aides	-10.0588
options	-10.0588
pose	-10.0589
strongly	-10.0591
flooding	-10.0599
thetwocountries	-10.0604
Ithink	-10.0605
Abbas	-10.0608
Michigan	-10.0609
▁andit	-10.0619
Christ	-10.0623
tobegin	-10.0627
sharp	-10.0634
formed	-10.0635
As	-10.0637
restaurant	-10.0641
symbol	-10.0642
Har	-10.0649
andothers	-10.065
else	-10.065
produce	-10.0652
shock	-10.0654
aheadofthe	-10.0656
George	-10.0667
noone	-10.0671
ifhe	-10.0672
ip	-10.0678
daysof	-10.0684
sothat	-10.0685
picture	-10.0687
studies	-10.0688
lets	-10.069
alternative	-10.069
▁hasbeen	-10.0695
pi	-10.0696
cent	-10.0696
Nepal	-10.0697
▁asenior	-10.0702
Bhutto	-10.0704
onApril	-10.0706
Soviet	-10.0707
inrecentyears	-10.0708
unemployment	-10.071
Ge	-10.0711
thebank	-10.0713
mostof	-10.0715
streets	-10.0718
abuse	-10.0723
willmake	-10.0723
▁NASA	-10.0724
ionof	-10.0728
survived	-10.0729
arrivedin	-10.073
registered	-10.0735
village	-10.0738
conspiracy	-10.0745
thesizeof	-10.0745
evacuated	-10.0748
materials	-10.0751
theworldslargest	-10.0753
toput	-10.0753
survivors	-10.0757
▁itsaid	-10.0758
critics	-10.0761
teacher	-10.0767
andnot	-10.0769
counterpart	-10.0772
rum	-10.0773
▁Sarkozy	-10.0779
farm	-10.078
innorthern	-10.0781
ny	-10.0788
relatedto	-10.0788
boycott	-10.0788
hospitals	-10.0792
hes	-10.0792
▁Thecompany	-10.0797
headof	-10.0807
sense	-10.0811
equal	-10.0814
si	-10.0816
▁also	-10.0817
havebeenkilled	-10.0821
usedby	-10.0826
isscheduledto	-10.0827
served	-10.0829
imbabwe	-10.0833
eating	-10.0834
humanitarian	-10.0834
ora	-10.0834
mobile	-10.0838
todevelop	-10.0838
▁Dr	-10.0841
email	-10.0842
tsunami	-10.0843
soccer	-10.0843
palace	-10.0843
val	-10.0843
shrine	-10.0844
settlement	-10.0845
yn	-10.0847
thepossibilityof	-10.0849
Cl	-10.085
lastnight	-10.085
divided	-10.0854
tomove	-10.0855
operate	-10.0859
Frank	-10.086
likea	-10.0867
tocome	-10.0867
adult	-10.0868
relationswith	-10.0873
Court	-10.0882
interests	-10.0885
▁Be	-10.0885
ratherthan	-10.0887
torelease	-10.089
tochange	-10.0891
saythe	-10.0893
lock	-10.0893
ging	-10.0894
rivals	-10.0896
photos	-10.0897
ped	-10.0898
analysts	-10.0909
motion	-10.0909
ideas	-10.0909
theFrench	-10.091
inthecity	-10.0915
individuals	-10.0917
east	-10.0919
review	-10.0922
shuttle	-10.0934
▁SouthKoreas	-10.0934
award	-10.0935
bear	-10.0935
virus	-10.0938
responded	-10.0942
compete	-10.0943
couples	-10.0944
iz	-10.0945
hoursafter	-10.0953
▁ayearold	-10.0962
hoped	-10.0963
hear	-10.0964
hisfamily	-10.0967
zoo	-10.0967
evening	-10.0967
hal	-10.0972
werefound	-10.0975
lar	-10.0976
▁Ifthe	-10.0977
onJuly	-10.0978
sensitive	-10.098
temporary	-10.098
Authority	-10.098
assembly	-10.098
Boston	-10.098
realestate	-10.098
▁Though	-10.098
cable	-10.098
Harry	-10.0981
frontrunner	-10.0981
▁Six	-10.0982
producer	-10.0985
basis	-10.0985
▁oneofthe	-10.0987
CIA	-10.099
▁officials	-10.0991
itsnuclear	-10.0992
acrossthecountry	-10.0993
receive	-10.0993
declaration	-10.0993
GNP	-10.0996
▁won	-10.0996
afull	-10.0998
organizers	-10.0999
thereis	-10.1
latest	-10.1001
lackof	-10.1002
Office	-10.1006
tosell	-10.1009
Sarkozy	-10.101
harm	-10.1018
Colombian	-10.102
longterm	-10.1022
saythat	-10.1028
Pe	-10.1032
license	-10.1045
answer	-10.105
tape	-10.1051
wish	-10.1054
Tour	-10.1055
attend	-10.1057
pop	-10.1062
roof	-10.1064
uff	-10.1064
believes	-10.1067
publicly	-10.107
ries	-10.1078
inour	-10.1084
adopted	-10.1092
bringing	-10.1093
strength	-10.1093
schedule	-10.1096
tensions	-10.11
struggle	-10.11
recovery	-10.1103
▁Texas	-10.1103
ez	-10.1103
inthefinal	-10.1104
balance	-10.1106
check	-10.1107
temperatures	-10.1107
ric	-10.1107
▁itis	-10.1108
Serbia	-10.1111
WallStreet	-10.1113
ji	-10.1113
standard	-10.1115
knowledge	-10.1117
needto	-10.1118
▁Investigators	-10.1119
Barcelona	-10.1119
plastic	-10.1119
Boeing	-10.1119
Berlin	-10.1119
bin	-10.1119
DefenseSecretary	-10.1119
beableto	-10.112
▁Putin	-10.112
ithas	-10.1126
▁both	-10.1127
earlierthisyear	-10.1127
umb	-10.1133
pictures	-10.1134
sixmonths	-10.1136
Yahoo	-10.1139
introduced	-10.114
Iam	-10.1142
thefactthat	-10.1146
amount	-10.1146
oneday	-10.1147
closely	-10.1147
statements	-10.1156
EuropeanUnion	-10.1156
Kabul	-10.1157
weekly	-10.1159
Par	-10.1166
governmentand	-10.1166
peoplein	-10.1167
profit	-10.117
Massachusetts	-10.1173
Ihave	-10.1176
save	-10.1185
auto	-10.1188
mayhavebeen	-10.1189
fly	-10.1192
▁Butit	-10.1198
uses	-10.12
flat	-10.1202
ical	-10.1203
roll	-10.1203
difference	-10.1204
warrant	-10.1209
▁police	-10.121
Space	-10.121
cuts	-10.1211
yes	-10.1213
Mayor	-10.122
ology	-10.1221
tonsof	-10.1221
thereisno	-10.1225
due	-10.1225
towns	-10.1227
tech	-10.1233
thesite	-10.1234
Ke	-10.1236
shared	-10.1242
aninvestigation	-10.1244
ib	-10.1245
andformer	-10.1246
especially	-10.1252
billionwon	-10.1256
stream	-10.1256
beaten	-10.1257
ala	-10.1257
WorldWarII	-10.1259
GOP	-10.1259
pregnant	-10.1259
Parliament	-10.1259
drama	-10.1259
punishment	-10.1262
matches	-10.1262
killedatleast	-10.1263
quit	-10.1263
RedCross	-10.1263
Brazilian	-10.1266
cellphone	-10.1267
powers	-10.1268
theuseof	-10.1268
color	-10.1268
oilprices	-10.1269
edand	-10.1273
recorded	-10.1274
funding	-10.1275
yearsinprison	-10.1279
willtake	-10.1281
Americas	-10.1281
nationalsecurity	-10.1287
stories	-10.1293
Sony	-10.1295
illegally	-10.1299
feeling	-10.1299
andJapan	-10.1303
isoneof	-10.1303
inParis	-10.1305
betweenthetwo	-10.1311
conduct	-10.1312
firing	-10.1318
ks	-10.1319
raising	-10.1321
ongoing	-10.1327
Peoples	-10.1327
▁hetold	-10.1328
build	-10.1329
quick	-10.1331
Fi	-10.1332
gang	-10.1335
positions	-10.1337
▁Not	-10.1338
reporting	-10.134
thestate	-10.1343
villages	-10.1343
outthe	-10.1343
amassive	-10.1343
atall	-10.1348
solve	-10.1352
▁Italso	-10.1354
theproblem	-10.1358
firms	-10.136
▁Well	-10.137
▁Le	-10.1376
rough	-10.1376
pet	-10.1379
foreignminister	-10.1382
patient	-10.1383
militia	-10.1385
lung	-10.1389
strict	-10.1389
convicted	-10.1393
aging	-10.1402
infected	-10.1403
Young	-10.1406
prodemocracy	-10.1407
squad	-10.141
thefamily	-10.1411
witnesses	-10.1413
drinking	-10.1416
master	-10.1416
Church	-10.1427
Khan	-10.1429
orders	-10.1429
eat	-10.143
access	-10.143
testing	-10.143
largest	-10.1449
champion	-10.1454
attackon	-10.1454
tar	-10.1454
shop	-10.1455
cleared	-10.1457
edbythe	-10.1458
cameafter	-10.1459
tz	-10.1459
ofIraq	-10.146
themoney	-10.146
warnings	-10.1463
lift	-10.1463
millionin	-10.1467
Bob	-10.1469
Tom	-10.1469
Big	-10.1471
shut	-10.1475
astrong	-10.1476
mainly	-10.1476
clashes	-10.1477
▁Theywere	-10.1477
theUN	-10.1482
ets	-10.1484
ram	-10.1484
Navy	-10.1485
totryto	-10.1487
Iwas	-10.1492
electric	-10.1493
informationabout	-10.1499
coastal	-10.15
demonstration	-10.1504
az	-10.1507
Canada	-10.1508
sdecision	-10.151
views	-10.1512
ambassadorto	-10.1518
boys	-10.1519
veto	-10.152
adults	-10.152
bilateral	-10.1521
RA	-10.1523
eda	-10.1523
contests	-10.153
▁WASHINGTONCNN	-10.1531
hadnot	-10.1532
scientist	-10.1533
avoid	-10.1541
medicine	-10.1543
appointment	-10.1545
radical	-10.1547
Yongbyon	-10.1547
▁BAGHDAD	-10.1547
AtomicEnergy	-10.1547
ManchesterUnited	-10.1547
tourist	-10.1548
Rock	-10.1548
distance	-10.1548
inexchangefor	-10.155
Good	-10.155
transportation	-10.1551
motor	-10.1551
oc	-10.1552
Afghangovernment	-10.1552
▁How	-10.1553
founder	-10.1556
havedied	-10.1556
treaty	-10.1558
CBS	-10.1563
continuedto	-10.1567
spoken	-10.1567
direction	-10.1568
listed	-10.157
White	-10.1573
vast	-10.1579
▁Shewas	-10.1581
electronic	-10.1585
rallies	-10.1588
▁Thousandsof	-10.159
▁Germany	-10.159
apolitical	-10.1592
▁Buthe	-10.1592
becauseit	-10.1602
chairmanofthe	-10.1605
tal	-10.1607
lake	-10.1611
Mac	-10.1615
orbit	-10.1618
runway	-10.1621
useof	-10.1624
Ga	-10.1625
▁More	-10.1628
▁headofthe	-10.1629
owned	-10.1641
sets	-10.1645
drew	-10.1647
gram	-10.1649
lies	-10.1655
insisted	-10.1656
wherehe	-10.1656
mm	-10.1659
ves	-10.1665
communications	-10.1675
▁Brown	-10.1677
kind	-10.1678
withits	-10.1679
Sam	-10.1686
astronauts	-10.1694
KimDaejung	-10.1694
Foundation	-10.1694
stadium	-10.1694
primaries	-10.1694
transition	-10.1694
GordonBrown	-10.1695
capacity	-10.1695
Hotel	-10.1695
ranking	-10.1696
▁Itsnot	-10.1696
▁Once	-10.1698
disappointed	-10.1698
reforms	-10.17
firefighters	-10.1701
▁because	-10.1701
lastyears	-10.1704
lin	-10.1705
Ver	-10.1708
Mars	-10.1709
administrations	-10.1709
estimate	-10.171
pray	-10.1712
convictedof	-10.1714
▁just	-10.1719
pack	-10.1719
hishome	-10.1721
presidency	-10.1723
thehospital	-10.1723
deeply	-10.1726
allowing	-10.1726
apossible	-10.1727
abducted	-10.1729
CNNThe	-10.1732
formof	-10.1736
stalled	-10.1738
athis	-10.1738
southof	-10.174
teachers	-10.174
looks	-10.1741
▁TheAPs	-10.1741
cl	-10.1742
biggest	-10.1745
inghis	-10.1745
eastof	-10.1745
Ri	-10.1749
thathewas	-10.1755
code	-10.1755
lights	-10.1756
▁Thereis	-10.1756
Yu	-10.1758
▁Thepresident	-10.1761
tostart	-10.1761
Brazil	-10.1762
individual	-10.1762
ineastern	-10.1764
hasalso	-10.1764
paying	-10.1766
restaurants	-10.1768
howmuch	-10.1771
inspectors	-10.1772
jury	-10.1773
Sundays	-10.1775
mail	-10.1776
sandother	-10.1777
theprevious	-10.1782
onan	-10.1784
internal	-10.1785
crude	-10.1785
aide	-10.179
▁like	-10.1793
Bas	-10.1796
astronaut	-10.1809
hopeful	-10.1815
everyday	-10.1817
Bi	-10.1818
error	-10.182
formerPresident	-10.1823
magnitude	-10.1823
thedecision	-10.1826
Pentagon	-10.1826
expectations	-10.183
ayearold	-10.183
trains	-10.1838
example	-10.1842
Thomas	-10.1843
Portugal	-10.1844
electoral	-10.1844
memory	-10.1844
entertainment	-10.1844
Bu	-10.1846
Egyptian	-10.1846
winds	-10.1848
ering	-10.1853
slide	-10.1854
DA	-10.1856
chosen	-10.1856
fifth	-10.1858
ones	-10.1863
tobuild	-10.1865
tobea	-10.1867
Will	-10.1874
sparked	-10.1877
allegations	-10.1883
piece	-10.1883
ky	-10.1885
owners	-10.1887
twomen	-10.1889
▁asthe	-10.1889
burning	-10.189
▁Thenumberof	-10.1894
NewYorkCity	-10.1897
Reuters	-10.1899
shi	-10.1904
▁Therewere	-10.1908
northwest	-10.191
inch	-10.1916
metal	-10.1917
Spain	-10.1918
vision	-10.192
smain	-10.192
challenges	-10.1925
Airlines	-10.1925
SA	-10.1927
judges	-10.1937
begins	-10.1939
Ger	-10.1939
callingfor	-10.1941
shots	-10.1946
Virginia	-10.1948
revenue	-10.1952
stronger	-10.1958
grand	-10.1959
Pal	-10.196
inorderto	-10.1963
regions	-10.1963
interKorean	-10.1967
wasin	-10.1969
degree	-10.1969
rural	-10.1974
disc	-10.198
suggest	-10.1985
toll	-10.1985
tosay	-10.1987
readyto	-10.1988
entry	-10.1988
▁oneof	-10.1988
digital	-10.1991
therewasno	-10.1992
dam	-10.1993
detonated	-10.1995
▁BEIJING	-10.1995
VladimirPutin	-10.1995
FARC	-10.1995
cells	-10.1995
Nadal	-10.1995
immigration	-10.1996
DefenseMinistry	-10.1996
caucuses	-10.1997
gasoline	-10.1997
discussion	-10.1999
▁TheJoongAngIlbo	-10.2001
edition	-10.2002
mistake	-10.2008
crewmembers	-10.2026
▁Obamasaid	-10.2026
treat	-10.2027
▁wherethe	-10.2028
Pyongyangs	-10.2031
insurance	-10.2034
circumstances	-10.2034
appropriate	-10.2041
therace	-10.2043
▁andI	-10.2045
wouldnotbe	-10.2045
mediareports	-10.2056
unclear	-10.2059
leak	-10.2068
Italy	-10.2072
hehas	-10.2076
hip	-10.2077
percentofthe	-10.2086
womens	-10.2088
sector	-10.2091
attheWhiteHouse	-10.2091
plants	-10.2091
issetto	-10.2094
innocent	-10.2096
fouryears	-10.2096
suffering	-10.2099
AR	-10.21
senator	-10.21
dinner	-10.2101
seek	-10.2101
thescene	-10.2103
stick	-10.2104
theyear	-10.2106
Vi	-10.2109
hr	-10.2111
entered	-10.2113
amemberofthe	-10.2114
striker	-10.2115
guy	-10.2121
mat	-10.2122
result	-10.2125
option	-10.2127
troubled	-10.2132
knee	-10.2132
concernsabout	-10.2134
improve	-10.2137
onher	-10.2137
helicopters	-10.214
tieswith	-10.2141
features	-10.2142
satthe	-10.2142
youhave	-10.2142
dby	-10.2143
▁Theyre	-10.2148
continueto	-10.2149
Mohammed	-10.2149
margin	-10.2149
sixpartytalks	-10.2149
multiple	-10.2149
Can	-10.215
acknowledged	-10.2152
cabinet	-10.2152
stands	-10.2155
moderate	-10.2155
passport	-10.2156
freetrade	-10.2157
factory	-10.2159
▁Still	-10.2159
provinceof	-10.2161
speculation	-10.2162
pickedup	-10.2164
messages	-10.2165
▁Duringthe	-10.2165
driven	-10.2167
▁Nearly	-10.2177
throughout	-10.2179
pen	-10.218
concerned	-10.2182
cameto	-10.2183
harsh	-10.2184
Show	-10.2186
focuson	-10.2188
trees	-10.2191
aserious	-10.2193
estimates	-10.2195
qui	-10.2197
thata	-10.2198
All	-10.22
ingin	-10.2203
encourage	-10.2205
sharply	-10.2208
arch	-10.2214
storms	-10.2215
isthefirst	-10.222
moral	-10.222
nucleartest	-10.2222
bag	-10.2222
theruling	-10.2225
Myanmars	-10.2225
Indiana	-10.2227
ama	-10.2231
ue	-10.2244
wasthe	-10.2244
fer	-10.2244
itz	-10.2248
▁many	-10.225
Government	-10.2252
toreplace	-10.226
causing	-10.2262
nce	-10.2262
To	-10.2266
policesaid	-10.2269
feed	-10.227
Gra	-10.2271
inearly	-10.2273
capture	-10.2273
ative	-10.2274
sentenced	-10.2275
particularly	-10.2279
secure	-10.2284
peak	-10.2286
isan	-10.2292
tookthe	-10.2292
glass	-10.2296
▁Rice	-10.2301
royal	-10.2303
penalty	-10.2305
▁Amongthe	-10.2305
captain	-10.2305
false	-10.2305
yellow	-10.2306
mouth	-10.2306
inconnectionwith	-10.2307
dealwith	-10.2308
duty	-10.2309
▁Chinese	-10.2309
Col	-10.2309
Clintons	-10.2311
Information	-10.2313
rapidly	-10.2315
toIraq	-10.2315
fun	-10.2316
scheduledfor	-10.2316
banking	-10.2316
neededto	-10.2318
ologist	-10.232
cloud	-10.2322
monitoring	-10.2325
asimilar	-10.233
Australias	-10.2333
bitter	-10.2334
▁andhe	-10.2337
ane	-10.234
Mike	-10.2343
asmuchas	-10.2344
oneofthemost	-10.2346
andone	-10.2346
inthesouthern	-10.2351
sick	-10.2354
searchfor	-10.2359
diplomat	-10.2364
faith	-10.2365
Websites	-10.2366
themove	-10.2367
Fa	-10.2368
inchargeof	-10.2369
multi	-10.2372
bow	-10.2376
livein	-10.2381
cor	-10.2388
attended	-10.239
gap	-10.2394
theMinistryof	-10.2396
Mer	-10.2403
towinthe	-10.2404
pot	-10.2408
Cha	-10.241
toreduce	-10.2416
communication	-10.242
ded	-10.2421
controversy	-10.2423
plea	-10.2426
blamed	-10.243
Election	-10.2436
develop	-10.2436
generalelection	-10.2436
whom	-10.2437
itwouldbe	-10.2439
yen	-10.2442
madea	-10.2444
towards	-10.2444
Samsung	-10.2445
aboutmillion	-10.2446
mal	-10.2449
▁Britains	-10.2449
mate	-10.2449
headed	-10.245
musical	-10.2454
PA	-10.2457
Disney	-10.246
punish	-10.2462
Bangkok	-10.2462
recognize	-10.2462
Catholic	-10.2463
charity	-10.2464
secular	-10.2464
occupation	-10.2464
concrete	-10.2464
poverty	-10.2464
capableof	-10.2464
stroke	-10.2464
CommunistParty	-10.2464
boom	-10.2465
monks	-10.2465
ayearago	-10.2467
cool	-10.2472
boss	-10.2472
presidents	-10.2476
eachyear	-10.2476
arare	-10.2477
overa	-10.2478
themovie	-10.2483
onchargesof	-10.2491
tensofthousands	-10.2491
thatkilled	-10.2492
worker	-10.2492
file	-10.2493
LasVegas	-10.2493
trend	-10.2498
thatthis	-10.2498
fatal	-10.2499
chip	-10.25
intense	-10.251
arecord	-10.251
goto	-10.2514
billionin	-10.2517
constitutional	-10.2517
▁adding	-10.2519
Indonesian	-10.2519
▁St	-10.252
dayof	-10.252
des	-10.2526
thepresidential	-10.2532
warnedthat	-10.2532
triggered	-10.2536
cleric	-10.2537
qua	-10.2543
▁withthe	-10.2545
ull	-10.2547
ration	-10.2555
window	-10.2558
Frances	-10.256
inIndia	-10.2561
vert	-10.2563
ui	-10.2566
feared	-10.2566
permanent	-10.2574
isaid	-10.2579
Daniel	-10.2583
highest	-10.2585
AS	-10.2585
▁Abe	-10.2587
Mugabe	-10.2591
offices	-10.2595
inaneffortto	-10.2595
rank	-10.26
attemptingto	-10.2601
uck	-10.2607
werewounded	-10.2609
nominated	-10.2612
onMarch	-10.2616
▁sayingit	-10.2617
perfect	-10.2619
tank	-10.2621
citizen	-10.2623
anagreement	-10.2623
tosecure	-10.2624
conclusion	-10.2625
battling	-10.2625
regret	-10.2625
▁Instead	-10.2625
identity	-10.2625
debris	-10.2625
nature	-10.2625
walked	-10.2626
benchmark	-10.2626
apply	-10.2627
comedy	-10.2629
quotedassaying	-10.2629
▁Thegroup	-10.263
BillClinton	-10.2633
thedoor	-10.2634
intention	-10.2634
pool	-10.2637
hitthe	-10.264
twoother	-10.264
saythey	-10.2643
▁SecurityCouncil	-10.2645
inthelast	-10.2647
dust	-10.2648
monthsof	-10.2652
sha	-10.2656
performed	-10.266
thePalestinian	-10.266
lie	-10.266
inaninterview	-10.266
freeze	-10.2661
thehostages	-10.2668
Shi	-10.267
beer	-10.2671
amore	-10.2671
▁Paul	-10.2673
Saturdays	-10.2674
▁two	-10.2676
ku	-10.2677
thelaw	-10.2681
theMiddleEast	-10.2683
toits	-10.2685
ium	-10.2689
Federal	-10.269
ations	-10.2697
dated	-10.2702
og	-10.2702
trying	-10.2709
▁whohad	-10.2711
loan	-10.2714
prove	-10.2715
▁former	-10.2732
YouTube	-10.2733
lack	-10.2734
atop	-10.2736
inplace	-10.2739
Singapore	-10.274
theEuropeanUnion	-10.2748
▁Atthe	-10.2751
passing	-10.2752
surprise	-10.2753
divorce	-10.2758
soil	-10.2759
▁Underthe	-10.276
ns	-10.2762
▁Li	-10.2763
▁Con	-10.2768
▁speaking	-10.277
tovisit	-10.2772
regard	-10.2772
whatthe	-10.2774
aged	-10.2776
technical	-10.2777
Sun	-10.278
thestorm	-10.2786
toraise	-10.2788
invasion	-10.2788
OsamabinLaden	-10.2789
Bangladesh	-10.2789
EhudOlmert	-10.2789
testimony	-10.2789
concept	-10.2789
numerous	-10.2789
fierce	-10.2789
communities	-10.2789
coffee	-10.2789
Joseph	-10.279
Airbus	-10.279
arrive	-10.2794
writtenstatement	-10.2801
Law	-10.2801
opposed	-10.2804
shape	-10.2804
roughly	-10.2805
threemonths	-10.2807
hospitalized	-10.2809
vital	-10.281
ide	-10.2811
hat	-10.2813
Un	-10.2814
Ku	-10.2824
contained	-10.2826
policechief	-10.2827
cometo	-10.2831
Sal	-10.2832
esand	-10.2833
uri	-10.2834
bigger	-10.2838
strain	-10.284
Pri	-10.2842
continues	-10.2848
lawsuit	-10.2848
evidenceof	-10.285
Ohio	-10.285
areaof	-10.2854
▁hesays	-10.2854
▁Ru	-10.2855
shell	-10.2856
thecrash	-10.2859
native	-10.2865
camefrom	-10.2868
▁India	-10.2876
link	-10.2876
Mor	-10.288
andeven	-10.2887
threatening	-10.289
spill	-10.2894
guests	-10.2895
▁Chinas	-10.2906
addedthat	-10.2907
flood	-10.291
ashort	-10.2913
shelter	-10.2917
approval	-10.2921
designed	-10.293
edfrom	-10.2934
ake	-10.2934
ux	-10.2935
▁Scientists	-10.2935
sWebsite	-10.2936
edinto	-10.2937
ace	-10.2938
devices	-10.2941
lic	-10.2941
accounts	-10.2942
onJune	-10.2944
Austria	-10.2946
unusual	-10.2949
Affairs	-10.2955
Science	-10.2956
SriLanka	-10.2956
substantial	-10.2956
plutonium	-10.2956
MahmoudAbbas	-10.2956
easily	-10.2956
Hyundai	-10.2957
intermsof	-10.2959
afterhis	-10.296
exactly	-10.2962
emerged	-10.2963
neck	-10.2964
▁Mostofthe	-10.2966
arecent	-10.297
ron	-10.2974
thePentagon	-10.2975
sitting	-10.2976
chest	-10.2977
▁Israel	-10.2977
resident	-10.298
nuclearprograms	-10.2981
turnout	-10.2982
Lt	-10.2983
ef	-10.2986
Str	-10.2989
decide	-10.2993
Turkeys	-10.2993
whenhewas	-10.2996
spy	-10.2998
anindependent	-10.3003
saidhewould	-10.3007
root	-10.3008
terms	-10.301
makeup	-10.3014
forum	-10.3016
cy	-10.302
repair	-10.3022
beach	-10.3022
theevent	-10.3022
werebeing	-10.3023
pushing	-10.3024
predicted	-10.3025
resources	-10.3027
Representatives	-10.3028
tiny	-10.3028
tail	-10.3028
Chad	-10.3029
Maj	-10.3034
instead	-10.3039
▁Japanese	-10.3041
saysthat	-10.3044
tokill	-10.3044
itto	-10.3046
andanother	-10.3047
edge	-10.3051
groupof	-10.3053
whohas	-10.3056
Olympics	-10.3056
olo	-10.306
suggests	-10.306
Somalia	-10.3061
berg	-10.3062
amilitary	-10.3064
slargest	-10.3065
▁Do	-10.3068
bet	-10.3071
tree	-10.3074
photo	-10.3076
hir	-10.3076
▁inwhich	-10.3078
drawing	-10.3081
Alexander	-10.3083
▁forces	-10.3083
nuclearissue	-10.3084
theprocess	-10.3084
▁Ive	-10.3091
cave	-10.3091
focusedon	-10.3092
anAmerican	-10.3093
parent	-10.3094
passenger	-10.3095
partners	-10.3095
▁andwe	-10.31
issueda	-10.3102
likethe	-10.3105
turns	-10.3107
▁Georgia	-10.3108
▁Illinois	-10.3114
talking	-10.3115
mobilephone	-10.3116
airports	-10.3122
describedas	-10.3122
hiscountry	-10.3123
vel	-10.3124
carrier	-10.3124
wine	-10.3125
AIDS	-10.3125
lawenforcement	-10.3125
representative	-10.3126
Abdul	-10.3127
NewsAgency	-10.3127
Patrick	-10.3128
handed	-10.3128
selection	-10.3129
bills	-10.3131
urban	-10.3133
thebody	-10.3134
reality	-10.3134
findings	-10.3135
violated	-10.3136
flames	-10.3137
▁aU	-10.314
Foreign	-10.3144
originally	-10.3145
▁if	-10.3146
aboutit	-10.315
ationof	-10.3151
Per	-10.3152
onlyone	-10.3156
toinvestigate	-10.3158
hitting	-10.3161
enjoy	-10.3163
graphic	-10.3169
emp	-10.3169
underway	-10.3173
Bell	-10.3174
somuch	-10.3177
theSenate	-10.3177
fence	-10.3179
letters	-10.318
contain	-10.3182
▁Iraqi	-10.3182
staged	-10.3182
VI	-10.3182
suspectedof	-10.3183
express	-10.3189
wire	-10.319
pan	-10.319
hasbecome	-10.319
reject	-10.3192
gue	-10.3192
Lake	-10.3193
expects	-10.3195
oy	-10.3202
MP	-10.3203
thestory	-10.3203
thank	-10.3206
kick	-10.3213
toimprove	-10.3215
relationshipwith	-10.3216
unknown	-10.3226
bags	-10.3227
experienced	-10.3228
negotiator	-10.3229
sthathave	-10.3231
predict	-10.3236
thedeathof	-10.3236
successfully	-10.3238
aim	-10.3239
graph	-10.324
IS	-10.3241
outthere	-10.3242
ancient	-10.3243
likelyto	-10.3245
brief	-10.3248
manufacturing	-10.3254
▁Pakistani	-10.326
meant	-10.326
Sc	-10.3261
guards	-10.3261
Dan	-10.3263
fu	-10.3266
forme	-10.3267
downtown	-10.3268
whale	-10.3268
ingof	-10.3269
Sydney	-10.3269
chiefexecutive	-10.327
apart	-10.3273
Talibanmilitants	-10.3274
killer	-10.3276
leaderofthe	-10.3279
aboard	-10.3279
epic	-10.328
attemptsto	-10.3281
negotiate	-10.3283
▁Theyhave	-10.3288
rack	-10.3288
mention	-10.3291
Jesus	-10.3292
shore	-10.3292
Daily	-10.3296
ordinary	-10.3297
wheel	-10.3297
Mexican	-10.3297
Stephen	-10.3298
surveillance	-10.3298
Museum	-10.3298
Tennessee	-10.3298
whaling	-10.3298
privacy	-10.3298
Global	-10.3298
compensation	-10.3298
referendum	-10.3298
striking	-10.3298
crackdown	-10.3298
departure	-10.3298
classified	-10.3298
sentiment	-10.3299
Jack	-10.3299
superdelegates	-10.3299
▁Embassy	-10.3299
clothes	-10.3301
Macau	-10.3301
accord	-10.3301
teens	-10.3302
theEuropean	-10.3306
snuclearprogram	-10.3306
▁now	-10.3307
tofight	-10.3309
briefly	-10.331
atotalof	-10.3312
Ican	-10.3313
Milan	-10.3314
underground	-10.3315
exist	-10.3319
undermine	-10.3321
memberofthe	-10.3321
Cuban	-10.3325
aboutmiles	-10.3327
economicgrowth	-10.3328
topromote	-10.3329
mans	-10.3329
thousand	-10.333
thatitwas	-10.3331
otherpeople	-10.3332
▁whilethe	-10.3332
defended	-10.3334
Out	-10.334
theentire	-10.3346
thepartys	-10.3347
conducting	-10.3358
thevideo	-10.3359
trained	-10.3361
factor	-10.3364
inFrance	-10.3365
FrenchPresident	-10.3373
▁Ha	-10.3374
victimsof	-10.3375
aspartofa	-10.3376
Tuesdaynight	-10.3377
inches	-10.3378
hero	-10.3378
payments	-10.3379
bat	-10.3379
▁Thelatest	-10.3379
▁CaliforniaCNN	-10.3381
becomes	-10.3386
ersaid	-10.3386
Hill	-10.3392
muchmore	-10.3393
▁butthey	-10.3398
complaint	-10.3408
upfor	-10.341
succeed	-10.3411
TA	-10.3414
odd	-10.3417
graduate	-10.3418
You	-10.3419
abill	-10.3421
inChicago	-10.3421
detailsof	-10.3422
▁Inastatement	-10.3422
rill	-10.3423
Ju	-10.3424
carry	-10.3424
agreements	-10.3426
Sol	-10.3435
inastatement	-10.3439
grown	-10.3448
Embassy	-10.3448
Ti	-10.345
accuse	-10.3451
theirhomes	-10.3453
decisions	-10.3453
NBC	-10.3456
finish	-10.3458
ChristopherHill	-10.3459
decisionto	-10.346
threatenedto	-10.3463
shops	-10.3463
achild	-10.3467
Open	-10.3468
bull	-10.347
acted	-10.3471
affiliate	-10.3472
investigating	-10.3473
league	-10.3473
wasmade	-10.3473
Championship	-10.3473
platform	-10.3473
infection	-10.3473
HarryPotter	-10.3473
initiative	-10.3474
Kuwait	-10.3474
conviction	-10.3476
escaped	-10.348
Water	-10.3481
Peru	-10.3483
alongside	-10.3484
ofthese	-10.3484
fame	-10.3485
py	-10.3489
thestreets	-10.3491
GM	-10.3493
feels	-10.3493
howthe	-10.3494
animportant	-10.3495
SouthAfrica	-10.3496
afterthey	-10.3501
hasnotbeen	-10.3502
▁soldiers	-10.3503
pickup	-10.3504
intendedto	-10.3506
Hall	-10.3507
tan	-10.3509
fa	-10.351
stations	-10.3511
repeatedly	-10.3511
generally	-10.3514
ably	-10.3517
raids	-10.3519
▁thefirst	-10.3519
atthescene	-10.352
throwing	-10.3527
col	-10.3529
engagedin	-10.3529
torun	-10.3532
▁particularly	-10.3532
mud	-10.3532
campaigning	-10.3533
froman	-10.3533
Ford	-10.3533
OS	-10.3535
guns	-10.3539
zz	-10.3539
locations	-10.3539
itsnot	-10.3539
hisson	-10.3541
acts	-10.3542
aries	-10.3544
fromtheU	-10.3549
declinedto	-10.3559
established	-10.3562
lab	-10.3564
lam	-10.357
hotels	-10.357
mor	-10.3571
▁Therewas	-10.3574
Pro	-10.3577
hasno	-10.3578
thecompanys	-10.3578
whats	-10.3579
madeby	-10.3579
Cr	-10.3581
restrictions	-10.3582
▁NEWYORKCNN	-10.3585
hisresignation	-10.3587
▁Koreas	-10.3587
killedin	-10.3589
object	-10.3593
thistime	-10.3594
purpose	-10.3596
elect	-10.3597
crowds	-10.3599
briefing	-10.3602
wantedto	-10.3604
popularity	-10.3604
unableto	-10.3605
Indonesia	-10.3606
thefire	-10.3608
reveal	-10.3612
tripto	-10.3618
pending	-10.3619
▁Wewill	-10.362
earn	-10.3622
scientific	-10.3625
fromtheir	-10.3627
tied	-10.3629
normally	-10.3631
isexpected	-10.3631
notjust	-10.3636
Gar	-10.3638
Simpson	-10.3641
drawn	-10.3641
ER	-10.3647
Jordan	-10.3651
mortgage	-10.3652
aggressive	-10.3652
Switzerland	-10.3652
contrast	-10.3652
Emergency	-10.3652
dubbed	-10.3652
confrontation	-10.3653
ache	-10.3655
incoming	-10.3655
connection	-10.3656
loud	-10.3658
everybody	-10.3662
Wi	-10.3664
destroy	-10.3666
kh	-10.3666
Hen	-10.3667
Libya	-10.3667
jump	-10.3668
appears	-10.3668
Trade	-10.3668
smost	-10.3669
spect	-10.3676
totheU	-10.3677
hastaken	-10.3678
returningto	-10.368
SanDiego	-10.368
LA	-10.3684
theConstitution	-10.3684
weaponsprogram	-10.3684
osaid	-10.3686
aletter	-10.3687
▁Only	-10.3688
designedto	-10.3688
surprised	-10.3689
Act	-10.3691
▁Ad	-10.3691
causes	-10.3692
similarto	-10.3692
readyfor	-10.3696
tension	-10.3702
containing	-10.3703
receiveda	-10.3705
planet	-10.3707
plays	-10.371
sgovernment	-10.371
▁includinga	-10.3712
choose	-10.3713
thebuilding	-10.3713
purchase	-10.3716
lined	-10.3716
task	-10.3718
ingout	-10.3718
custody	-10.3719
innorthernIraq	-10.372
▁Theman	-10.3721
wasshot	-10.3724
saved	-10.3727
windows	-10.3728
upcoming	-10.3729
forabout	-10.3733
chat	-10.3736
anational	-10.3741
asearlyas	-10.3741
dry	-10.3742
rd	-10.3743
Camp	-10.3744
expertssay	-10.3744
eng	-10.3746
Israels	-10.3749
inthenorthern	-10.375
med	-10.3754
subject	-10.3761
toldReuters	-10.3766
hall	-10.3772
NE	-10.3773
imports	-10.3774
toattend	-10.3776
theywould	-10.3777
andahalf	-10.3777
Lees	-10.3777
ithad	-10.3785
becausehe	-10.3786
todetermine	-10.3787
tocut	-10.379
continuesto	-10.3792
pointed	-10.3794
cur	-10.3795
Sha	-10.3796
hasseen	-10.3798
rating	-10.3799
tocreate	-10.3799
threatto	-10.3809
score	-10.3809
guide	-10.3809
moves	-10.3815
earth	-10.3815
hasmade	-10.3822
▁Hehas	-10.3825
robot	-10.3832
beforeit	-10.3832
Labor	-10.3832
associate	-10.3833
Atlantic	-10.3833
announcing	-10.3834
isolated	-10.3834
vaccine	-10.3834
sovereignty	-10.3834
Command	-10.3834
Scotland	-10.3834
submitted	-10.3835
highprofile	-10.3837
forall	-10.3839
colleagues	-10.3844
killings	-10.3844
collection	-10.3848
papers	-10.3849
Moore	-10.385
Andrew	-10.3858
lip	-10.3858
aprivate	-10.386
ads	-10.3862
toseek	-10.3865
signal	-10.3869
alocal	-10.3878
Home	-10.3879
shirt	-10.3879
▁died	-10.3879
Men	-10.3883
mixed	-10.3885
outto	-10.3887
▁Inaddition	-10.3889
twohours	-10.389
ened	-10.389
detected	-10.3892
Ye	-10.3897
▁another	-10.3899
shoot	-10.39
institutions	-10.3902
artist	-10.3902
hisgovernment	-10.3904
toresign	-10.3905
Art	-10.3906
somany	-10.3907
Islamist	-10.3908
wherethey	-10.3912
explosive	-10.3917
informed	-10.3918
shehad	-10.3919
improved	-10.3923
tohear	-10.3925
theywill	-10.3925
failing	-10.3925
howto	-10.3926
▁NewYork	-10.393
towardthe	-10.3931
Kar	-10.3935
seem	-10.3935
hita	-10.3937
theIranian	-10.3937
apology	-10.3937
funeral	-10.3938
mighthave	-10.3944
awarded	-10.3949
picked	-10.3953
diet	-10.3955
Mondaynight	-10.396
yard	-10.3961
agovernment	-10.3962
▁Theofficial	-10.3964
Her	-10.3966
claiming	-10.3966
rockets	-10.3966
import	-10.3968
dec	-10.3968
ano	-10.3974
coup	-10.3975
ease	-10.3977
announce	-10.3977
sees	-10.3978
eventhough	-10.3988
Director	-10.3991
▁AU	-10.3995
Greece	-10.3998
catch	-10.3999
bail	-10.4
believethe	-10.4001
apologize	-10.4001
eighth	-10.4002
cameras	-10.4004
winover	-10.4006
▁sayingthe	-10.4007
int	-10.4008
map	-10.4011
themarket	-10.4016
brutal	-10.4017
televised	-10.4018
DVD	-10.4019
promoting	-10.4019
reconciliation	-10.4019
Jakarta	-10.4019
PremierLeague	-10.4019
Swiss	-10.4019
legislative	-10.4019
easier	-10.4019
oneperson	-10.402
thegame	-10.4021
swept	-10.4021
spotted	-10.4022
Nevada	-10.4025
withouta	-10.4025
od	-10.4028
En	-10.4028
toldCNNthat	-10.4029
▁TheWhiteHouse	-10.4029
Jackson	-10.4031
unrest	-10.4037
inCalifornia	-10.4038
hell	-10.4041
sponsor	-10.4041
organized	-10.4042
marks	-10.4044
county	-10.4045
Post	-10.4048
toan	-10.4048
theopposition	-10.4049
inTibet	-10.4049
fewer	-10.405
unions	-10.4053
bell	-10.4056
committedto	-10.4058
song	-10.4058
log	-10.4058
creating	-10.406
whatever	-10.4062
tomakea	-10.4063
howmany	-10.4065
machine	-10.4072
oppositionparty	-10.4072
rather	-10.4074
maximum	-10.4075
missed	-10.4076
rifle	-10.4078
Time	-10.4081
participants	-10.4082
pp	-10.4085
Economic	-10.4086
westof	-10.4088
theIraqi	-10.4088
disappeared	-10.4094
thinking	-10.4094
Ab	-10.4101
confirmedthat	-10.4101
islands	-10.4101
donthave	-10.4104
toface	-10.4111
▁Bhutto	-10.4113
blaze	-10.4115
concernedabout	-10.4119
▁Ex	-10.4119
fires	-10.4128
theEU	-10.4128
apparent	-10.4128
islikelyto	-10.4137
And	-10.414
▁Asked	-10.4145
questioning	-10.4149
lit	-10.415
beef	-10.4152
livingin	-10.4154
employee	-10.4154
andU	-10.4159
cup	-10.4164
thedeathtoll	-10.4172
Song	-10.4172
saidhehad	-10.4175
negotiating	-10.4175
opinion	-10.4175
cho	-10.4176
absolutely	-10.4177
officialsand	-10.4178
version	-10.4181
▁CNNA	-10.4181
hurricane	-10.4182
conversation	-10.4186
comefrom	-10.4189
inAsia	-10.419
Ter	-10.4192
gan	-10.4193
pressureon	-10.4193
feature	-10.4194
argue	-10.4195
theministry	-10.4199
familymembers	-10.4199
Jewish	-10.42
Yonhap	-10.42
peopledied	-10.4202
prince	-10.4204
samples	-10.4204
ueen	-10.4205
gone	-10.4206
submit	-10.4206
climate	-10.4207
craft	-10.4207
liberal	-10.4207
technique	-10.4207
assessment	-10.4207
TonyBlair	-10.4208
Cor	-10.4208
slow	-10.4208
Valley	-10.4208
improving	-10.4208
welcomed	-10.4209
gross	-10.421
advice	-10.421
handling	-10.421
bothsides	-10.4211
▁Aspokesmanfor	-10.4213
declined	-10.4213
saidtheywould	-10.4215
spokeswomansaid	-10.4215
interestin	-10.4216
demandfor	-10.4217
perhaps	-10.422
Thaksin	-10.422
inthesame	-10.4221
fromto	-10.4225
theWest	-10.4227
hitby	-10.4227
illness	-10.423
headofthe	-10.4232
stockmarket	-10.4235
theUK	-10.4235
whales	-10.4242
Miss	-10.4246
benefit	-10.4247
closerto	-10.4254
talkingabout	-10.426
▁toldCNN	-10.4263
Bor	-10.4263
monthsago	-10.4265
edas	-10.4265
pull	-10.4266
toestablish	-10.4267
▁Atleastpeople	-10.4268
callfor	-10.427
discovery	-10.4276
investigations	-10.4276
▁Onthe	-10.4276
twin	-10.4283
▁Andthe	-10.4283
abit	-10.4285
percenttopercent	-10.4285
tur	-10.4289
fulfill	-10.4291
acre	-10.4291
label	-10.4292
SouthCarolina	-10.4293
hermother	-10.4294
prosecution	-10.4298
bu	-10.4301
theHouse	-10.4304
▁abarrel	-10.431
athletes	-10.431
minor	-10.431
rob	-10.4312
▁Th	-10.4316
Rep	-10.4318
plannedto	-10.4323
amountof	-10.4324
▁David	-10.4325
experiment	-10.4326
resolved	-10.4326
ological	-10.4326
declareda	-10.4327
justbefore	-10.4328
theDalaiLama	-10.433
incustody	-10.4331
fill	-10.4333
geta	-10.4333
centers	-10.4334
ros	-10.4335
thatNorthKorea	-10.4335
awareof	-10.4342
weapon	-10.435
fields	-10.435
inAustralia	-10.435
backtothe	-10.4353
evidencethat	-10.4355
inresponseto	-10.4355
▁TheNorth	-10.4355
theshow	-10.4359
AL	-10.4359
Mir	-10.4365
victoryover	-10.4366
policeofficial	-10.437
andwounded	-10.437
plansfor	-10.4374
hismother	-10.4378
increases	-10.438
routine	-10.4387
exhibit	-10.4391
thecar	-10.4391
Ambassador	-10.4392
ney	-10.4393
Rose	-10.4396
Missouri	-10.44
promising	-10.44
Society	-10.44
administrative	-10.44
Arsenal	-10.44
Philadelphia	-10.44
▁LOSANGELES	-10.44
fundamental	-10.44
belief	-10.44
videos	-10.44
FBI	-10.44
desire	-10.4401
▁Lastmonth	-10.4401
documentary	-10.4402
madeit	-10.4402
OlympicCommittee	-10.4402
volcano	-10.4403
Thursdays	-10.4403
toilet	-10.4403
inreturnfor	-10.4404
ousted	-10.4404
carbon	-10.4405
adozen	-10.4406
Darwin	-10.4406
legs	-10.4408
executed	-10.4408
Tony	-10.4416
sharing	-10.4416
gunman	-10.4416
takento	-10.4417
werestill	-10.4419
ple	-10.4424
Pre	-10.4425
learning	-10.4426
historical	-10.4435
MA	-10.4435
Hong	-10.4438
although	-10.4438
Dec	-10.4438
veteran	-10.4438
homeless	-10.4439
imbabwes	-10.444
undera	-10.4442
politician	-10.4442
twoyearsago	-10.4442
Press	-10.4443
▁too	-10.4444
lookingat	-10.4447
disputed	-10.4447
andthree	-10.4456
approached	-10.4456
supported	-10.4457
leaves	-10.4459
foundation	-10.4461
Jerusalem	-10.4464
camps	-10.4465
ates	-10.4465
tolda	-10.4472
thisweekend	-10.4474
strikes	-10.4474
▁theyearold	-10.4476
negotiators	-10.4477
ensure	-10.4484
ofAmerica	-10.4487
hub	-10.449
inhua	-10.449
alarm	-10.449
values	-10.4492
BarackObamas	-10.4501
ita	-10.4507
amillion	-10.4508
neither	-10.4511
▁Mo	-10.4512
Radio	-10.4513
comeback	-10.4516
thisyears	-10.4519
climb	-10.4528
topped	-10.4531
couldnt	-10.4532
tanewsconference	-10.4533
commitment	-10.4534
womanwho	-10.4536
Houseof	-10.4542
▁Ban	-10.4543
join	-10.4544
aspresident	-10.4545
foundin	-10.4546
profits	-10.4546
avi	-10.455
withtheir	-10.4551
younger	-10.4555
preliminary	-10.4557
insome	-10.4557
whathe	-10.4559
west	-10.456
clash	-10.456
ontheInternet	-10.456
andhiswife	-10.4562
lastweeks	-10.4564
function	-10.4565
▁Ricesaid	-10.4565
▁Thisisa	-10.457
William	-10.4571
effortto	-10.4572
Wednesdays	-10.4573
saidtobe	-10.4576
▁Afterthe	-10.4577
towithdraw	-10.4578
sons	-10.458
requires	-10.458
senseof	-10.4582
length	-10.4584
dictator	-10.4589
RO	-10.4591
ofany	-10.4594
Bad	-10.4594
▁Local	-10.4596
OK	-10.4596
depression	-10.4596
Wimbledon	-10.4596
congressional	-10.4596
posed	-10.4596
School	-10.4596
Greek	-10.4596
▁prompting	-10.4597
▁Later	-10.4597
▁killingatleast	-10.4597
burst	-10.4598
Feb	-10.4598
missiledefense	-10.4599
▁thereportsaid	-10.4599
steel	-10.4599
abduction	-10.4601
pr	-10.4606
wonder	-10.4607
Fox	-10.4607
throughoutthe	-10.4608
stuff	-10.4609
questionsabout	-10.4609
proper	-10.4612
Russias	-10.4612
thename	-10.4612
willhelp	-10.4613
provides	-10.4613
residence	-10.4613
adecade	-10.4614
describedthe	-10.4615
▁Hesaidhe	-10.4616
miners	-10.4617
thenight	-10.4619
▁Noone	-10.4623
burn	-10.4624
presidentialrace	-10.4627
renewed	-10.463
▁National	-10.463
thissummer	-10.4631
Ex	-10.4633
▁Robert	-10.4634
sourcesaid	-10.4637
theywant	-10.4639
▁yearold	-10.4644
onWallStreet	-10.4645
▁butits	-10.4646
representing	-10.4647
rie	-10.4651
Wednesdaynight	-10.4657
fined	-10.4659
mental	-10.4659
▁Before	-10.466
winners	-10.466
▁Seven	-10.466
ular	-10.4661
▁Palestinian	-10.4665
thatits	-10.4667
hike	-10.4667
daysafter	-10.4669
thedisease	-10.4672
▁anda	-10.4674
fever	-10.4675
Iraqigovernment	-10.4675
don	-10.4676
Television	-10.4677
theresno	-10.4678
mileskilometers	-10.4689
Cur	-10.4689
ott	-10.4691
recalled	-10.4692
esof	-10.4696
inGermany	-10.4699
raz	-10.47
controls	-10.4701
viewers	-10.4703
classic	-10.4703
It	-10.4704
roseto	-10.4707
Mary	-10.4708
proud	-10.4708
Don	-10.471
▁making	-10.471
dealingwith	-10.471
rightto	-10.471
sport	-10.4719
ord	-10.472
ura	-10.4723
Unification	-10.4724
Tim	-10.4724
wastaken	-10.4727
chaos	-10.4728
makeit	-10.473
▁Pa	-10.4737
NewHampshire	-10.4737
▁Inadditionto	-10.4738
restrict	-10.4738
counsel	-10.474
ox	-10.4742
und	-10.4742
Pat	-10.4743
thejob	-10.4748
observers	-10.4755
Chi	-10.4756
Madeleine	-10.4758
raquo	-10.4766
reporton	-10.4767
rid	-10.4768
torture	-10.477
crews	-10.4772
rig	-10.4777
grew	-10.4777
grant	-10.4777
Pu	-10.4777
theirfamilies	-10.4779
thatare	-10.478
toclose	-10.478
wouldhavebeen	-10.4782
inFlorida	-10.4782
aglobal	-10.4782
clinic	-10.4783
ET	-10.4787
theagency	-10.4787
core	-10.479
waves	-10.4791
tip	-10.4792
photograph	-10.4792
obb	-10.4794
killedby	-10.4794
Mississippi	-10.4795
suspicion	-10.4795
SuuKyi	-10.4796
Hussein	-10.4796
consecutive	-10.4796
pollution	-10.4796
abortion	-10.4796
bureau	-10.4796
arriving	-10.4796
celebrity	-10.4796
Louisiana	-10.4796
NewOrleans	-10.4796
legitimate	-10.4796
swimming	-10.4796
Detroit	-10.4796
Murray	-10.4796
substance	-10.4796
combined	-10.4797
hood	-10.4797
spacecraft	-10.4797
refugeecamp	-10.4798
villagers	-10.4798
astringof	-10.4799
erand	-10.48
momentum	-10.48
opposedto	-10.48
threedays	-10.4802
emotional	-10.4803
disappearance	-10.4804
tostepdown	-10.4806
inwestern	-10.4806
banner	-10.4806
▁Lastyear	-10.4807
sheis	-10.4807
anemergency	-10.4808
Report	-10.4808
ound	-10.4809
sad	-10.481
seemed	-10.4811
thepeopleof	-10.4811
sole	-10.4813
suicidebombing	-10.4814
toher	-10.4822
willmeet	-10.4823
resumed	-10.4823
edfor	-10.4823
▁percentof	-10.4824
dia	-10.4824
▁OnMonday	-10.4825
Abu	-10.4826
cha	-10.4831
istic	-10.4832
Spears	-10.4832
ON	-10.4833
typeof	-10.4834
responseto	-10.4834
hesaid	-10.4835
Ham	-10.4836
granted	-10.4838
meat	-10.484
ceasefire	-10.4841
abandoned	-10.4841
todeliver	-10.4844
inpart	-10.4844
forcing	-10.4846
Rice	-10.4851
legally	-10.4852
marine	-10.4853
theaccident	-10.4855
▁chief	-10.4856
Serb	-10.4862
thatyou	-10.4863
Ann	-10.4866
allegationsof	-10.4868
awayfromthe	-10.4869
theendoftheyear	-10.4871
theWorldCup	-10.4872
theOlympics	-10.4876
therestofthe	-10.4876
▁Park	-10.4877
addressed	-10.4879
Star	-10.4883
atleastone	-10.4887
▁Theyalso	-10.4889
One	-10.489
publishedin	-10.4891
Edwards	-10.4895
itwillbe	-10.4895
Carl	-10.4897
bal	-10.4897
thestudy	-10.4898
household	-10.4899
ify	-10.4899
violationof	-10.49
spreading	-10.4901
Or	-10.4902
enoughto	-10.4905
para	-10.491
identifiedas	-10.4911
stable	-10.4911
fix	-10.4916
toresume	-10.4917
directorof	-10.4918
identify	-10.4919
Ive	-10.4924
dom	-10.4925
aside	-10.4925
sum	-10.4929
theprimeminister	-10.4929
inthenext	-10.4934
solar	-10.494
Rob	-10.4941
accusations	-10.4942
appearedtobe	-10.4945
blog	-10.4946
mostimportant	-10.4949
discuss	-10.495
thetwosides	-10.4951
covering	-10.4952
▁Anew	-10.4952
respond	-10.4954
detail	-10.4954
aBritish	-10.4955
byhis	-10.4956
tobacco	-10.4957
advertising	-10.4957
asignificant	-10.4957
comb	-10.4959
sbiggest	-10.4961
Instituteof	-10.4963
ofbeing	-10.4963
hol	-10.4968
retail	-10.4969
networks	-10.4971
gear	-10.4973
ME	-10.4974
forhim	-10.4983
ments	-10.4984
inPyongyang	-10.4985
represents	-10.4985
intwo	-10.4991
governmentis	-10.4995
concluded	-10.4996
CD	-10.4996
OPEC	-10.5
College	-10.5
cyclone	-10.5
offense	-10.5
▁Researchers	-10.5
Jews	-10.5
eightyears	-10.5
Seouls	-10.5
RobertGates	-10.5
insurgency	-10.5
visible	-10.5001
levelof	-10.5001
▁Like	-10.5001
grass	-10.5001
jungle	-10.5002
Media	-10.5003
Socialist	-10.5004
WHO	-10.5005
rescuers	-10.5006
Light	-10.5006
encounter	-10.5008
usedin	-10.5009
urgent	-10.5011
spirit	-10.5011
muchof	-10.5011
indicted	-10.5011
properly	-10.5012
impossible	-10.5013
investigated	-10.5013
airlines	-10.5014
Vatican	-10.5015
wage	-10.5016
aslongas	-10.5017
yuan	-10.5023
stolen	-10.5025
significantly	-10.5028
ls	-10.5028
bypolice	-10.503
Port	-10.5034
ock	-10.5034
asmany	-10.5035
inquest	-10.5036
potentially	-10.5038
stretch	-10.5039
dealers	-10.5039
snew	-10.5039
invest	-10.5041
Beckham	-10.5042
thewoman	-10.5044
tall	-10.5045
Deputy	-10.5047
complaints	-10.5047
goalof	-10.5048
pressed	-10.5052
Beach	-10.5053
wed	-10.5054
phones	-10.5055
attempted	-10.5056
violations	-10.5056
abomb	-10.5058
▁Hu	-10.5058
sanctionsagainst	-10.5058
doit	-10.5059
proved	-10.5063
happening	-10.5064
cutoff	-10.5065
thepeople	-10.5066
havenot	-10.5066
theresults	-10.5067
▁youknow	-10.5069
▁causing	-10.507
leftthe	-10.5071
Val	-10.5075
condemnedthe	-10.5076
saidtheywere	-10.5079
Van	-10.508
stance	-10.5082
aNorthKorean	-10.5086
involvedinthe	-10.509
thanniversaryof	-10.5094
upset	-10.5094
bond	-10.5095
newly	-10.5096
joining	-10.5098
vowedto	-10.5099
thathis	-10.5113
investigator	-10.5114
Kenyan	-10.5118
itcould	-10.512
buses	-10.5123
switch	-10.5123
wayof	-10.5124
scapital	-10.5125
riskof	-10.5126
theidea	-10.5126
shoes	-10.5127
thatitis	-10.5128
caseof	-10.5135
ather	-10.5139
▁Whenthe	-10.5139
theissue	-10.514
habitat	-10.5141
alCourt	-10.5148
theplan	-10.5148
spresidential	-10.5149
returns	-10.515
NorthCarolina	-10.5153
broker	-10.5154
millionwon	-10.5156
ballot	-10.5157
Mondaymorning	-10.5158
pulling	-10.5159
trigger	-10.5164
believethat	-10.5167
handle	-10.5174
zi	-10.5175
designer	-10.5175
upwith	-10.5176
contracts	-10.5179
warn	-10.518
wasbeing	-10.5184
studying	-10.5184
cheap	-10.5186
theball	-10.5192
theD	-10.5194
anyother	-10.5197
kiss	-10.52
Bl	-10.5205
▁Inhis	-10.5205
genetic	-10.5207
Euro	-10.5208
shield	-10.5208
AungSanSuuKyi	-10.5208
Larry	-10.5208
Metropolitan	-10.5208
suspicious	-10.5208
inquiry	-10.5208
deficit	-10.5208
cult	-10.5208
Louis	-10.5208
Utah	-10.5209
Club	-10.5209
slaughter	-10.5209
percentagepoints	-10.5209
blanket	-10.521
naturalgas	-10.5211
promotion	-10.5211
anticipated	-10.5212
twodays	-10.5212
Athens	-10.5212
ng	-10.5213
whichis	-10.5213
virtually	-10.5216
denounced	-10.5217
highspeed	-10.5217
monkey	-10.5217
▁APreported	-10.5218
evenif	-10.5219
heavyrain	-10.522
Corporation	-10.5221
onceagain	-10.5221
hewants	-10.5222
IT	-10.5224
Mass	-10.5227
Carter	-10.5228
pel	-10.5234
landmark	-10.5234
rulingUriParty	-10.5236
bloody	-10.5237
Malaysian	-10.5238
shootings	-10.5242
units	-10.5243
showedthat	-10.5244
Jose	-10.5245
whilethe	-10.5247
packed	-10.525
dance	-10.525
wona	-10.5251
unlikely	-10.5251
condemned	-10.5252
ruledout	-10.5257
At	-10.5258
▁Blair	-10.5258
withdrew	-10.5258
advanced	-10.526
breach	-10.526
reward	-10.526
pair	-10.5261
thin	-10.5262
volunteers	-10.5266
actors	-10.5267
hisparty	-10.5268
writer	-10.5269
Steven	-10.5269
detainees	-10.527
NewJersey	-10.5273
suggestedthat	-10.5274
andsome	-10.5274
withdrawal	-10.5275
rescued	-10.5279
antigovernment	-10.528
▁andthey	-10.5281
▁Here	-10.5287
thatI	-10.5288
Somali	-10.5288
doors	-10.5291
pper	-10.5294
▁Theformer	-10.5294
testify	-10.5294
BO	-10.5302
▁Theother	-10.5304
Atlanta	-10.5305
Stone	-10.5305
AM	-10.5307
saysshe	-10.5309
tolive	-10.5311
chargesagainst	-10.5314
vicepresident	-10.5316
fact	-10.5318
weve	-10.5321
bases	-10.5321
halt	-10.5323
homeland	-10.5325
Public	-10.5326
monthly	-10.5327
werereported	-10.5327
▁led	-10.5328
suffer	-10.5329
saidFriday	-10.5331
lid	-10.5332
sfather	-10.5335
instance	-10.5341
Sundaynight	-10.5341
require	-10.5343
▁NorthKoreahas	-10.5344
Saturdaynight	-10.5348
backing	-10.5349
▁Youcan	-10.535
ators	-10.5353
BanKimoon	-10.5354
implement	-10.5358
floods	-10.5361
theRussian	-10.5363
versionof	-10.537
onthis	-10.537
relationsbetween	-10.5374
betterthan	-10.5374
raided	-10.5379
Constitution	-10.5383
micro	-10.5384
inprison	-10.5386
OR	-10.5389
keeper	-10.539
daysbefore	-10.5394
ersand	-10.54
wearinga	-10.54
pieceof	-10.5404
Islamabad	-10.5406
novel	-10.5407
rap	-10.5407
employment	-10.5416
notice	-10.5416
Clark	-10.542
HugoChavez	-10.5421
Oklahoma	-10.5421
prominent	-10.5421
turmoil	-10.5421
constant	-10.5421
Civil	-10.5421
steady	-10.5421
tunnel	-10.5421
releasing	-10.5421
audio	-10.5421
▁aspokeswomanfor	-10.5423
oneyear	-10.5423
wrap	-10.5424
cyber	-10.5424
transplant	-10.5424
▁Doctors	-10.5425
chose	-10.5425
missions	-10.5425
toprotest	-10.5428
peaceand	-10.5429
pur	-10.543
onitsWebsite	-10.543
clothing	-10.5431
Wa	-10.5431
suddenly	-10.5432
plunged	-10.5437
amatterof	-10.5437
Ya	-10.5438
designated	-10.544
inwhat	-10.5445
Santa	-10.5447
mom	-10.5448
AfricanAmerican	-10.5451
titles	-10.5451
notedthat	-10.5452
▁butwe	-10.5452
Roman	-10.5459
safely	-10.5461
Wal	-10.5461
prop	-10.5461
thevote	-10.5464
▁Ohio	-10.5464
execution	-10.5467
maintained	-10.5468
engineer	-10.5469
▁Turkey	-10.547
Free	-10.5473
movedto	-10.5473
showthat	-10.5477
indicates	-10.5482
fromits	-10.5486
attacking	-10.5486
thealleged	-10.5487
Sharif	-10.5487
oftheworlds	-10.5493
setto	-10.5494
marking	-10.5494
ave	-10.5496
Southern	-10.5502
asenior	-10.5506
▁Asthe	-10.5508
Journal	-10.5508
usedfor	-10.5509
bun	-10.5509
▁French	-10.5513
incidents	-10.5513
Cup	-10.5517
confident	-10.5519
leftist	-10.552
Hawaii	-10.5521
willbeheld	-10.5524
selected	-10.5525
launcheda	-10.5526
theagreement	-10.5526
herhome	-10.5528
crossborder	-10.5531
wenton	-10.5533
▁Thedecision	-10.5535
onto	-10.5539
signals	-10.5539
brokeout	-10.5541
attemptto	-10.5541
withindays	-10.5541
ye	-10.5541
theater	-10.5543
cop	-10.5544
Wright	-10.5545
throw	-10.5545
▁Ra	-10.5545
▁whohasbeen	-10.5546
threetimes	-10.5547
protecting	-10.5552
referredto	-10.5552
Ji	-10.5555
cards	-10.5558
Win	-10.556
inall	-10.5562
polling	-10.5563
spa	-10.5564
reactor	-10.5565
Mal	-10.5565
thoughttobe	-10.5567
saving	-10.5568
Education	-10.5568
bones	-10.5571
acourt	-10.5575
nar	-10.5575
premier	-10.5578
chances	-10.5581
protected	-10.5582
teenager	-10.5582
fleet	-10.5586
thelead	-10.5588
bra	-10.559
rush	-10.5591
though	-10.5591
acoupleof	-10.5592
ili	-10.5594
Fr	-10.5597
▁Over	-10.5598
whohadbeen	-10.56
intended	-10.56
dig	-10.56
thepost	-10.5601
Joe	-10.5603
wasstill	-10.5604
engineers	-10.5604
servedas	-10.5604
dates	-10.5604
lossof	-10.5606
earnings	-10.5606
recording	-10.5609
thanthe	-10.5613
PPP	-10.5616
utter	-10.5617
origin	-10.562
ispartof	-10.5621
saysit	-10.5621
haswon	-10.5622
reelection	-10.5624
powerto	-10.5624
ft	-10.5625
extreme	-10.5626
▁whichare	-10.5627
Chile	-10.5628
▁theysaid	-10.563
respondents	-10.5632
vessels	-10.5633
efficient	-10.5636
preparation	-10.5637
Rome	-10.5638
conservation	-10.5638
EastTimor	-10.5638
institute	-10.5638
SarahPalin	-10.5638
Ecuador	-10.5638
NurialMaliki	-10.5638
Reagan	-10.5638
devastating	-10.5638
expansion	-10.5638
Taylor	-10.5638
inauguration	-10.5638
technologies	-10.5638
silence	-10.5639
Kansas	-10.5639
Seattle	-10.5639
Mosul	-10.564
Scott	-10.564
secretarygeneral	-10.564
empty	-10.564
insult	-10.5641
dropping	-10.5641
MarkSmith	-10.5642
MBC	-10.5642
interestedin	-10.5643
foodand	-10.5643
leadingto	-10.5646
bytheU	-10.5647
FTA	-10.5647
thanksto	-10.5648
successor	-10.5651
larger	-10.5651
acar	-10.5652
broadcaster	-10.5652
▁ChinaCNN	-10.5653
theremaining	-10.5654
railway	-10.5659
effectively	-10.5661
tovote	-10.5663
pirates	-10.5664
isgoingto	-10.5667
inLosAngeles	-10.5669
anearby	-10.5669
setfor	-10.567
deliver	-10.5672
▁Thesecond	-10.5673
andwe	-10.5676
admission	-10.5676
background	-10.5677
rateof	-10.5678
venue	-10.5679
takeover	-10.5681
inTokyo	-10.5681
▁World	-10.5681
Wood	-10.5683
flown	-10.5684
opens	-10.5685
projected	-10.5686
afamily	-10.569
▁Korean	-10.5692
troopsand	-10.5692
Foodand	-10.5694
afire	-10.5694
commissioner	-10.5695
▁PakistanCNN	-10.57
teenagers	-10.5701
linked	-10.5707
recommended	-10.5707
everyyear	-10.571
thathehad	-10.571
FederalReserve	-10.5712
stall	-10.5713
slawyer	-10.5714
▁Whilethe	-10.5715
Maryland	-10.5717
▁Australian	-10.5718
bankruptcy	-10.5718
dontwant	-10.5721
Colorado	-10.5722
rod	-10.5723
tohead	-10.5723
wasreleased	-10.5724
closetothe	-10.5726
usinga	-10.5728
roleinthe	-10.5728
thebig	-10.573
delegate	-10.5731
models	-10.5734
operated	-10.5736
topass	-10.5737
rin	-10.574
Ray	-10.5741
Hy	-10.5741
inTexas	-10.5741
▁Army	-10.5743
saidSaturday	-10.575
ingfor	-10.575
dominated	-10.5753
inthefuture	-10.5753
marched	-10.5756
thejudge	-10.576
cargo	-10.5763
matters	-10.5765
starts	-10.5768
andmany	-10.5772
recover	-10.5775
Fred	-10.5782
Americanpeople	-10.5785
Shanghai	-10.5786
IC	-10.5786
peopleand	-10.5791
thedeathsof	-10.5793
responsible	-10.5801
havetaken	-10.5802
pit	-10.5804
wireless	-10.5808
highlight	-10.5813
oftheNational	-10.5813
sometime	-10.5814
HA	-10.5819
▁mostly	-10.5824
▁themilitarysaid	-10.5825
directorofthe	-10.5828
copy	-10.5829
GeorgeW	-10.5829
▁meaning	-10.583
intheUS	-10.583
▁TheNational	-10.5831
champions	-10.5834
percentofthevote	-10.5834
▁AP	-10.5836
sortof	-10.5837
isabout	-10.5837
acknowledge	-10.5843
▁Secretary	-10.5844
thecrowd	-10.5845
abouthis	-10.5846
Reg	-10.5848
marketing	-10.5849
Kenya	-10.585
proceed	-10.585
cellphones	-10.5851
gallon	-10.5858
Turk	-10.586
deciding	-10.5861
extensive	-10.5861
Amazon	-10.5861
binLaden	-10.5861
Technology	-10.5861
centuries	-10.5861
indicating	-10.5861
Wisconsin	-10.5861
beneath	-10.5861
hybrid	-10.5861
tragedy	-10.5861
lunch	-10.5861
PrinceHarry	-10.5861
soaring	-10.5861
NewDelhi	-10.5861
nan	-10.5862
comfortable	-10.5863
massacre	-10.5864
standoff	-10.5864
Sweden	-10.5864
carries	-10.5864
denies	-10.5865
horse	-10.5866
represent	-10.5868
pipeline	-10.5869
inthecase	-10.5869
themen	-10.5869
PKK	-10.5871
Hindu	-10.5871
creditcard	-10.5871
inhuanewsagency	-10.5872
highlevel	-10.5873
ff	-10.5873
thematter	-10.5874
▁WhiteHouse	-10.5874
Philippine	-10.5875
preparing	-10.5877
tower	-10.5878
burg	-10.5884
tobeat	-10.5885
wouldtake	-10.5885
endorsed	-10.5886
overhis	-10.5888
detailed	-10.5889
shaped	-10.5893
byan	-10.5893
mounting	-10.5894
existing	-10.5895
▁Jon	-10.5895
atmosphere	-10.5896
naked	-10.5896
classes	-10.5898
wore	-10.5898
capitalof	-10.5899
andpolice	-10.59
tracks	-10.5901
tool	-10.5901
▁Un	-10.5901
alien	-10.5902
Long	-10.5902
trick	-10.5903
Commissioner	-10.5903
partofa	-10.5907
sthatare	-10.5909
willgo	-10.591
theirfirst	-10.591
intheMiddleEast	-10.5912
guarantee	-10.5914
▁Me	-10.5914
dies	-10.5917
decade	-10.5917
hill	-10.5919
agents	-10.592
thesummer	-10.5923
Victoria	-10.5928
searchingfor	-10.5931
refer	-10.5935
forpresident	-10.5935
protesting	-10.5936
theGNP	-10.5936
ontothe	-10.5936
▁Government	-10.5937
▁TheSouthKorean	-10.5939
raped	-10.5939
achanceto	-10.595
seenas	-10.5951
oneofthem	-10.5953
attempts	-10.5955
arson	-10.5956
attorneys	-10.5964
increasein	-10.5965
coalitionforces	-10.5965
stat	-10.5967
Madrid	-10.5972
hasnt	-10.5974
weneed	-10.598
afterit	-10.5981
▁Mark	-10.5983
peer	-10.5986
sourceof	-10.5991
Os	-10.5993
anattack	-10.5996
crops	-10.5996
villageof	-10.5997
threeweeks	-10.5997
dating	-10.6
nose	-10.6011
fr	-10.6013
tosave	-10.6013
theft	-10.6014
trucks	-10.6016
justa	-10.6016
Pan	-10.6017
expecting	-10.6017
kilometers	-10.602
withinthe	-10.602
pilots	-10.6028
hiscampaign	-10.6034
milesfrom	-10.6034
ingtheir	-10.6036
rebound	-10.6037
interestrates	-10.6039
Cal	-10.604
filled	-10.6041
signof	-10.6041
erthan	-10.6044
allofthe	-10.6045
Matt	-10.6045
thetape	-10.6045
arian	-10.6045
defendants	-10.6046
stayed	-10.6047
aplan	-10.6048
lan	-10.6048
toremove	-10.6048
commitmentto	-10.6053
islandof	-10.6053
waited	-10.6057
itstroops	-10.6057
ddle	-10.6059
drink	-10.6061
herfirst	-10.6062
League	-10.6072
hashad	-10.6073
Ron	-10.6074
ourcountry	-10.6074
seems	-10.6075
frequent	-10.6076
minutesof	-10.6077
touched	-10.6077
istryingto	-10.6078
cruise	-10.608
deny	-10.608
tosupport	-10.6081
Wolfowitz	-10.6084
aperson	-10.6084
▁Hill	-10.6086
teenage	-10.6087
infant	-10.6088
medication	-10.6088
consensus	-10.6088
ChongWaDae	-10.6088
ShinzoAbe	-10.6088
distribution	-10.6088
economies	-10.6088
impeachment	-10.6088
HamidKarzai	-10.6088
entrance	-10.6088
Windows	-10.6088
religion	-10.6088
tabloid	-10.6088
beauty	-10.6088
thedeathpenalty	-10.6088
Wild	-10.6088
cloning	-10.6088
▁Each	-10.6088
burden	-10.6088
onsuspicionof	-10.6089
PressAssociation	-10.6089
scheme	-10.6089
Cleveland	-10.6089
inHongKong	-10.6089
Stern	-10.609
replacement	-10.6091
Indias	-10.6091
▁Every	-10.6091
CO	-10.6092
depict	-10.6092
reducing	-10.6092
Sgt	-10.6093
▁Pakistans	-10.6093
theIslamic	-10.6093
victoryin	-10.6093
terminal	-10.6094
vice	-10.6094
displaced	-10.6095
ultimately	-10.6095
til	-10.6095
producers	-10.6096
appearstobe	-10.6097
earlierthisweek	-10.6098
membership	-10.6099
Uganda	-10.61
theIraqwar	-10.61
distributed	-10.6102
KoreaTimes	-10.6104
economist	-10.6106
permission	-10.6107
theground	-10.6109
fake	-10.6112
suggestion	-10.6113
ofmorethan	-10.6115
suggesting	-10.6115
▁Col	-10.6115
replaced	-10.6116
hundreds	-10.6121
otherwise	-10.6122
concessions	-10.6123
theory	-10.6123
escape	-10.6125
monthold	-10.6126
sup	-10.6127
directed	-10.6128
Cap	-10.6131
personally	-10.614
thepresidents	-10.6141
arrests	-10.6142
ix	-10.6143
exit	-10.6148
overthenext	-10.6148
▁TheTaliban	-10.6149
thewarinIraq	-10.6152
awards	-10.6154
adds	-10.6154
knownasthe	-10.6156
yesterdaythat	-10.6161
recognized	-10.6161
connected	-10.6161
thePhilippines	-10.6162
▁Ten	-10.6162
Darfur	-10.6166
▁Pennsylvania	-10.6176
vowed	-10.6177
risks	-10.618
waitingfor	-10.6182
▁Policesaid	-10.6184
Bal	-10.6184
authorized	-10.6187
Pra	-10.619
twothirds	-10.619
▁Someofthe	-10.619
Gates	-10.6191
Ram	-10.6192
Cre	-10.6194
▁miles	-10.6196
▁Car	-10.6197
posts	-10.6198
wouldbea	-10.6198
ered	-10.62
aired	-10.6201
hisgirlfriend	-10.6206
Gul	-10.6207
▁Michael	-10.6207
hor	-10.6207
PM	-10.6211
onOctober	-10.6212
▁theformer	-10.6212
Mondays	-10.6215
▁Yet	-10.6217
relocation	-10.622
bottle	-10.6221
fur	-10.6221
clock	-10.6225
onSeptember	-10.6226
clubs	-10.6227
prisoner	-10.6234
Chris	-10.6235
petition	-10.6235
iscurrently	-10.6235
knocked	-10.624
generate	-10.6243
detect	-10.6244
tome	-10.6246
yong	-10.6246
thisseason	-10.6246
onJanuary	-10.6246
sixth	-10.6247
describe	-10.6247
forallegedly	-10.6251
▁Hehad	-10.6254
launching	-10.6255
interestrate	-10.6257
sagainst	-10.6258
goingon	-10.626
searched	-10.6262
zero	-10.6265
andkilled	-10.6265
theirlives	-10.6273
partin	-10.6274
levelsof	-10.6275
ncy	-10.6276
Burmas	-10.6285
morethanpeople	-10.6286
withdrawalof	-10.6286
despitethe	-10.6288
ABC	-10.6291
tolead	-10.6293
▁England	-10.6296
somethingthat	-10.63
divide	-10.6301
thatitwould	-10.6305
afederal	-10.6307
Kid	-10.6308
slipped	-10.6308
sudden	-10.6309
realize	-10.6309
Nigeria	-10.631
quiet	-10.6312
▁Italy	-10.6314
scomments	-10.6314
thatcan	-10.6315
method	-10.6316
occasion	-10.6318
occur	-10.6318
mortar	-10.6318
Commerce	-10.632
representatives	-10.632
Gonzales	-10.632
luxury	-10.632
celebrities	-10.632
ballisticmissile	-10.632
mandatory	-10.632
destination	-10.632
amendment	-10.632
CoastGuard	-10.6321
inrecentmonths	-10.6321
RealMadrid	-10.6321
instant	-10.6321
Transportation	-10.6321
DefenseMinister	-10.6322
Carlos	-10.6322
▁Critics	-10.6323
toease	-10.6323
Abe	-10.6324
womenandchildren	-10.6325
heartdisease	-10.6326
Vice	-10.6326
Nazi	-10.6327
meanwhile	-10.6328
steep	-10.6329
fault	-10.6332
wasthefirst	-10.6332
melt	-10.6335
comparedto	-10.6337
thick	-10.6337
whenyou	-10.6339
▁OnSunday	-10.634
enteredthe	-10.6341
▁claiming	-10.6341
▁Iraqs	-10.6344
putthe	-10.6345
Miami	-10.6345
hasagreedto	-10.6345
youll	-10.6346
destruction	-10.6348
contains	-10.6349
engineering	-10.635
lash	-10.6354
noticed	-10.6355
todoso	-10.6355
Maria	-10.6356
toreceive	-10.6357
whenI	-10.6358
workingon	-10.6358
Israelis	-10.6359
casesof	-10.6361
twoday	-10.6364
advised	-10.6365
badly	-10.6369
senators	-10.6371
arounda	-10.6373
inone	-10.6375
themedia	-10.6375
astatementfrom	-10.6376
objects	-10.6376
fat	-10.6378
Real	-10.6379
lands	-10.6382
turnedout	-10.6385
characters	-10.6386
tle	-10.6388
▁Asenior	-10.6389
fishing	-10.6389
▁Co	-10.6392
managedto	-10.6395
pressconference	-10.6398
scrap	-10.6402
aclose	-10.6404
extremists	-10.6406
peoplehavedied	-10.6407
usingthe	-10.6408
andhe	-10.6409
partsofthe	-10.641
involvementin	-10.6413
possibly	-10.6414
saidhis	-10.6414
theisland	-10.6416
▁andits	-10.6417
abetter	-10.6418
unk	-10.6423
rocks	-10.6423
thattime	-10.6424
gray	-10.6425
Talibanspokesman	-10.6425
videotape	-10.6427
totally	-10.6428
herfather	-10.6429
admittedto	-10.6429
tolook	-10.6431
edhis	-10.6432
mann	-10.6436
▁whenthe	-10.6437
alistof	-10.6437
consequences	-10.6439
hassaidhe	-10.644
tosetup	-10.6442
collect	-10.6443
forthem	-10.6445
ack	-10.6448
nominations	-10.6448
lur	-10.645
halfof	-10.6453
werekilledand	-10.6454
Manhattan	-10.6456
makinga	-10.6457
Shah	-10.6459
authoritieshave	-10.646
attract	-10.6461
▁Hesays	-10.6466
adifferent	-10.6467
workingwith	-10.6467
rumors	-10.6467
ifshe	-10.6468
tolaunch	-10.647
afteran	-10.6471
afinal	-10.6475
factors	-10.6477
Gulf	-10.6477
anniversaryof	-10.6479
confirmedthe	-10.648
Bhuttos	-10.648
▁IraqCNN	-10.6484
mansaid	-10.6484
recommend	-10.6487
birthday	-10.6487
andfour	-10.6488
andwounding	-10.6489
promote	-10.6489
GazaCity	-10.6491
She	-10.6492
wave	-10.6495
thenews	-10.6501
Republic	-10.6505
▁all	-10.6506
ero	-10.6506
withno	-10.6507
Bro	-10.6507
register	-10.651
aki	-10.6512
iff	-10.6512
tissue	-10.6513
lot	-10.6513
strategic	-10.6514
gather	-10.6514
▁Idont	-10.6514
thewhole	-10.6517
entire	-10.652
bone	-10.652
▁Thestatement	-10.6522
snake	-10.6526
Sur	-10.6529
laugh	-10.6532
amessage	-10.6532
holes	-10.6533
grade	-10.6535
discussing	-10.6535
Yoo	-10.6538
latt	-10.6539
exile	-10.654
iron	-10.6541
boyfriend	-10.6542
seeks	-10.6543
todays	-10.6544
establish	-10.6546
andre	-10.6546
apercent	-10.6549
inoffice	-10.6551
mayor	-10.6553
llbe	-10.6553
▁Iwantto	-10.6557
Mount	-10.6558
Phoenix	-10.6558
Blagojevich	-10.6558
volume	-10.6558
Harvard	-10.6558
temporarily	-10.6558
Blue	-10.6558
Roddick	-10.6558
diplomacy	-10.6558
denuclearization	-10.6559
pursuing	-10.6559
Houston	-10.6559
interrogation	-10.6559
penalties	-10.6559
stranded	-10.6559
decrease	-10.6559
atthesametime	-10.6559
Vermont	-10.6559
truce	-10.6559
DistrictCourt	-10.6559
embrace	-10.6559
attentionto	-10.6559
Jeff	-10.6559
tornado	-10.656
baseball	-10.6561
▁Chung	-10.6562
tiger	-10.6562
peacekeeping	-10.6562
defect	-10.6563
Square	-10.6563
excited	-10.6564
elsewhere	-10.6564
arally	-10.6564
wildlife	-10.6564
quo	-10.6565
itsmilitary	-10.6565
policeofficer	-10.6565
Life	-10.6566
planets	-10.6566
pardon	-10.6566
drunk	-10.6566
reiterated	-10.6568
elderly	-10.6569
takea	-10.657
▁OnWednesday	-10.657
myself	-10.657
Music	-10.657
todiscussthe	-10.6571
frequently	-10.6571
pil	-10.6571
▁Ka	-10.6572
confirmation	-10.6572
rust	-10.6574
gotten	-10.6575
toomuch	-10.6576
theresa	-10.6576
transform	-10.6576
remember	-10.6578
thereisa	-10.6578
closer	-10.658
improvement	-10.6581
▁butthat	-10.6582
Nov	-10.6582
▁Mc	-10.6582
vent	-10.6582
longest	-10.6583
Gang	-10.6583
cher	-10.6583
ford	-10.6585
aresolution	-10.6586
miss	-10.6587
cannotbe	-10.659
PresidentElect	-10.659
tofree	-10.6591
▁Thereisno	-10.6591
attracted	-10.6593
fate	-10.6598
assert	-10.66
whatwe	-10.66
thegirl	-10.6603
releasedby	-10.6603
breakthrough	-10.6605
inthetownof	-10.6606
atits	-10.6607
atrisk	-10.6609
engine	-10.6609
wereableto	-10.661
founded	-10.6611
Yangon	-10.6612
thesummit	-10.6613
BBC	-10.6614
taste	-10.6615
saytheyhave	-10.6615
overcome	-10.6616
crowded	-10.6617
resolve	-10.6617
longtime	-10.6618
hedidnot	-10.662
moveto	-10.6621
onFebruary	-10.6622
scar	-10.6623
filledwith	-10.6625
riding	-10.6626
▁Obamas	-10.6628
withNorthKorea	-10.6629
illionsofdollars	-10.6629
sley	-10.6632
atomic	-10.6633
GeneralBanKimoon	-10.6634
injail	-10.6634
bargain	-10.6634
theFed	-10.6634
andeconomic	-10.6635
employed	-10.6637
nearlypercent	-10.6639
▁Theprosecution	-10.664
LE	-10.664
Kevin	-10.6643
willremain	-10.6644
approve	-10.6644
everywhere	-10.6646
flooded	-10.6646
uptothe	-10.6653
theongoing	-10.6656
aidworkers	-10.6656
thevictims	-10.6657
unfair	-10.6657
andtheU	-10.6658
hunting	-10.666
load	-10.6661
ique	-10.6664
publication	-10.6665
pressing	-10.6669
cry	-10.6672
wontbe	-10.6674
ison	-10.6676
sufferingfrom	-10.6677
lifting	-10.6677
Medical	-10.6678
tickets	-10.6679
bel	-10.6682
▁Spain	-10.6687
toldhim	-10.669
abarrel	-10.6691
mega	-10.6693
toresolvethe	-10.6693
isaccusedof	-10.6693
relative	-10.6694
attheU	-10.6695
Fire	-10.6697
shouldnotbe	-10.6699
neighbor	-10.6699
studio	-10.67
andpolitical	-10.6702
tomb	-10.6703
discount	-10.6703
interviews	-10.6709
onNovember	-10.6709
shareholders	-10.6711
Islamicmilitants	-10.6714
attemptedto	-10.6714
theFBI	-10.6717
inThailand	-10.6718
▁OnTuesday	-10.6719
toreporters	-10.6722
chanceof	-10.6724
Ministryof	-10.6726
relatively	-10.6727
Tuesdaymorning	-10.6727
▁Sharif	-10.6727
bay	-10.6729
trips	-10.673
wewere	-10.6731
sailors	-10.6734
ownedby	-10.6736
hima	-10.6741
setoff	-10.6742
itt	-10.6745
evenmore	-10.6747
parts	-10.6747
prepare	-10.6756
delays	-10.6759
andSouthKorea	-10.676
keeps	-10.6763
eri	-10.6764
automakers	-10.6767
Roma	-10.677
mix	-10.6771
principles	-10.6771
xi	-10.6774
closure	-10.6776
▁butnot	-10.6779
havemade	-10.6782
manufacturers	-10.6783
theboy	-10.6783
receiving	-10.6786
understanding	-10.6787
▁most	-10.6788
rapid	-10.6789
theycould	-10.6789
crack	-10.6789
priority	-10.6792
insists	-10.6792
remark	-10.6792
ahalf	-10.6793
Laur	-10.6795
busy	-10.6796
▁percentto	-10.6798
Ahmad	-10.68
KimJongil	-10.6801
theKoreanWar	-10.6801
Christopher	-10.6802
script	-10.6802
infrastructure	-10.6802
Kibaki	-10.6802
Military	-10.6802
association	-10.6802
component	-10.6802
universities	-10.6802
enhance	-10.6802
NobelPeacePrize	-10.6802
Power	-10.6802
whenitcomesto	-10.6802
DickCheney	-10.6802
featuring	-10.6803
Alliance	-10.6803
▁Such	-10.6804
goalkeeper	-10.6804
RobertMugabe	-10.6804
Henry	-10.6805
Anderson	-10.6805
gender	-10.6805
▁Why	-10.6805
permit	-10.6806
Ronaldo	-10.6806
maynotbe	-10.6807
songs	-10.6807
cafe	-10.6808
alMaliki	-10.6808
aJapanese	-10.6809
▁wasarrested	-10.681
▁directorofthe	-10.681
chen	-10.6814
download	-10.6814
celebrated	-10.6817
Tu	-10.6817
thebeginningof	-10.6822
SouthAfrican	-10.6822
▁Ro	-10.6826
▁Americans	-10.6826
Chun	-10.6827
shocked	-10.6828
Major	-10.6832
Mag	-10.6833
flags	-10.6834
northeast	-10.6838
stated	-10.684
fortheDemocratic	-10.6842
▁TheKorean	-10.6842
guided	-10.6842
couldleadto	-10.6843
▁delegates	-10.6843
thearmy	-10.6845
aretryingto	-10.6848
withhim	-10.6855
NS	-10.6855
specifically	-10.6859
tanker	-10.6864
lists	-10.6867
appearedto	-10.6869
shook	-10.6869
Love	-10.6872
laying	-10.6872
▁TheMinistryof	-10.6872
tougher	-10.6872
wn	-10.6874
▁Ho	-10.6874
whois	-10.6875
NA	-10.6879
grace	-10.6882
announcedthat	-10.6883
tte	-10.6883
ofmillion	-10.6885
USmilitary	-10.6886
withdraw	-10.6887
havesaid	-10.6889
▁whom	-10.6889
procedure	-10.689
▁NorthKoreas	-10.689
posting	-10.6892
ofwater	-10.6893
usethe	-10.6894
talkabout	-10.6894
Bel	-10.6895
withsome	-10.6899
ofPresident	-10.6901
onwhether	-10.6904
tre	-10.6904
colored	-10.6906
topU	-10.6908
paint	-10.6912
ough	-10.6915
maintain	-10.6915
Super	-10.6917
▁statemedia	-10.6918
▁Thethree	-10.6918
Yemen	-10.6921
rot	-10.6922
DP	-10.6924
▁Thecourt	-10.6924
orother	-10.6928
gy	-10.6932
hisnew	-10.6933
▁Weve	-10.6937
▁possibly	-10.6938
Olmert	-10.694
inPennsylvania	-10.694
theanimals	-10.6942
▁James	-10.6943
citing	-10.6947
ifwe	-10.6947
foreignministry	-10.6947
abus	-10.6947
runby	-10.6949
Cooper	-10.6952
▁whichhasbeen	-10.6956
dontknow	-10.6959
procedures	-10.6963
astate	-10.6964
Plan	-10.6966
sized	-10.6967
Chen	-10.6974
▁Williams	-10.6974
sawthe	-10.6974
herdaughter	-10.6975
appearedin	-10.6976
willbeableto	-10.6977
ken	-10.6979
getthe	-10.6983
singing	-10.6984
regarding	-10.6984
saysits	-10.6985
slip	-10.699
▁thats	-10.6992
southeastern	-10.6995
inNorthKorea	-10.6996
ral	-10.6997
easing	-10.6997
▁Pakistan	-10.6998
toproduce	-10.6999
wo	-10.7
▁Virginia	-10.7001
mob	-10.7002
whatwas	-10.7003
abovethe	-10.7006
flash	-10.7006
buyers	-10.7012
editor	-10.7014
introduce	-10.7014
toincrease	-10.7022
Portuguese	-10.7023
▁theofficial	-10.7025
thelocal	-10.7026
resign	-10.7026
anarea	-10.7026
supposed	-10.7029
▁Thecouple	-10.7029
survive	-10.703
sixyears	-10.7031
complain	-10.7032
rel	-10.7034
tering	-10.7035
▁Itsaid	-10.7037
attitude	-10.7043
nextto	-10.7043
▁envoy	-10.7043
Prince	-10.7044
andthey	-10.7044
helps	-10.7044
▁Theplane	-10.7049
Gal	-10.705
toturn	-10.705
Energy	-10.705
▁Chris	-10.7051
Spaniard	-10.7052
cocaine	-10.7052
category	-10.7052
Stadium	-10.7052
StockExchange	-10.7052
consumption	-10.7052
genocide	-10.7052
▁Following	-10.7052
Wilson	-10.7052
secretaryofstate	-10.7053
Street	-10.7053
balloon	-10.7053
curfew	-10.7054
BeijingOlympics	-10.7055
AttorneyGeneral	-10.7055
RI	-10.7056
theannouncement	-10.7056
endorsement	-10.7056
convinced	-10.7057
issuedastatement	-10.7057
unique	-10.7058
civilwar	-10.706
twoweeksago	-10.7061
faster	-10.7061
yards	-10.7065
hecould	-10.7066
passage	-10.7067
Er	-10.7067
withtheU	-10.7068
intherace	-10.7071
thepope	-10.7072
wider	-10.7074
bomber	-10.7077
thrown	-10.7079
checks	-10.7082
featured	-10.7083
isexpectedtobe	-10.7084
Iraqiforces	-10.7085
▁Microsoft	-10.7085
▁andthen	-10.7086
analystssay	-10.7087
thecampaign	-10.7088
▁giving	-10.7089
foundthe	-10.709
▁Itwasnot	-10.7093
peoplehavebeen	-10.7096
manypeople	-10.7097
outlook	-10.7097
abouthow	-10.7098
commanders	-10.7099
checkpoint	-10.7099
Alex	-10.71
atthestartof	-10.7104
backon	-10.7105
theair	-10.7106
hailed	-10.7108
Change	-10.7111
SouthKoreaand	-10.7112
UStroops	-10.7113
morethanyears	-10.7114
ria	-10.7114
eightpeople	-10.7118
outstanding	-10.7124
nucleararms	-10.7126
mu	-10.7126
forupto	-10.7126
itas	-10.7127
willbegin	-10.7127
broad	-10.7127
asks	-10.7129
tofinish	-10.713
criminals	-10.713
wounds	-10.7144
noted	-10.7144
thefateof	-10.7147
theallegations	-10.715
airplane	-10.7151
Musharrafs	-10.7152
hiding	-10.716
aroadsidebomb	-10.7167
EN	-10.7167
uranium	-10.7168
havinga	-10.7169
pointing	-10.7169
swing	-10.717
▁Navy	-10.717
meantto	-10.7171
shouldnot	-10.7174
shark	-10.7175
aminute	-10.7178
represented	-10.7178
shoe	-10.7178
thequeen	-10.7178
Poland	-10.7188
▁adayafter	-10.7188
herfamily	-10.7195
totakethe	-10.7197
High	-10.7203
uncovered	-10.7203
sm	-10.7207
▁Ayearold	-10.7208
rivers	-10.7209
closest	-10.7212
worry	-10.7214
▁Lo	-10.7215
thefuture	-10.7216
ingits	-10.7216
▁Maryland	-10.722
securityand	-10.7222
ook	-10.7222
ofpeople	-10.7224
dump	-10.7226
toexpand	-10.7231
saiditwill	-10.7231
united	-10.7232
cats	-10.7236
Mil	-10.7236
possibility	-10.7238
theissueof	-10.7238
Kang	-10.7242
▁Pyongyang	-10.7243
mediareported	-10.7248
moments	-10.725
camein	-10.7254
Germanys	-10.7256
activist	-10.7256
thefifth	-10.7262
poli	-10.7263
adopt	-10.7265
economists	-10.7267
takepartin	-10.7268
manyofthe	-10.7268
▁Hamas	-10.7271
familiar	-10.7272
sson	-10.7274
therecent	-10.7275
agon	-10.7275
ech	-10.7276
▁Idontthink	-10.728
declarationof	-10.7283
becauseshe	-10.7284
andAfghanistan	-10.7286
ustrialaverage	-10.7288
theenvironment	-10.7288
speculationthat	-10.7289
trillion	-10.729
anIraqi	-10.7291
refuse	-10.7293
hasaccused	-10.7293
comfort	-10.7295
Fayed	-10.7295
toaccept	-10.7296
wentinto	-10.7296
intercept	-10.7306
evacuation	-10.7306
inthewakeof	-10.7307
repeat	-10.7307
HIV	-10.7308
minimum	-10.7309
temple	-10.7309
slatest	-10.7309
midfielder	-10.7309
yield	-10.7309
iPhone	-10.7309
Interpol	-10.7309
engagement	-10.7309
Bureau	-10.7309
ambulance	-10.7309
analysis	-10.7309
Kandahar	-10.7309
battery	-10.7309
enemies	-10.7309
registration	-10.7309
bacteria	-10.7309
occupied	-10.7309
opportunities	-10.7309
Lahore	-10.7309
landscape	-10.7309
burial	-10.7309
MedicalCenter	-10.731
outrage	-10.731
assoonaspossible	-10.731
AcademyAward	-10.7311
afraid	-10.7311
portray	-10.7314
Oct	-10.7314
pilgrims	-10.7315
ouch	-10.7315
▁saidthat	-10.7315
brick	-10.7315
highranking	-10.7316
coverage	-10.7318
proceedings	-10.7321
honest	-10.7321
uring	-10.7322
▁Thatis	-10.7322
unacceptable	-10.7325
sorry	-10.7326
adding	-10.7327
higherthan	-10.733
afford	-10.733
diamond	-10.7331
eager	-10.7331
finger	-10.7333
struggled	-10.7337
joke	-10.7339
theresultof	-10.7341
principle	-10.7341
▁agovernment	-10.7343
smother	-10.7345
▁feet	-10.7346
contacted	-10.7346
liter	-10.7348
FA	-10.7348
hop	-10.7349
inaseriesof	-10.735
totry	-10.7351
workon	-10.7352
▁William	-10.7356
northeastern	-10.7356
theAPs	-10.7357
▁TheBush	-10.7357
childrens	-10.7359
sectionof	-10.736
twopeople	-10.7361
Moon	-10.7361
lending	-10.7363
icon	-10.7363
fromChina	-10.7363
Richardson	-10.7364
Ken	-10.7364
beforethey	-10.7364
Old	-10.7365
couldface	-10.7366
thevirus	-10.7368
publisher	-10.737
inAfrica	-10.737
therewasa	-10.7371
▁weare	-10.7371
enforce	-10.7375
tokeepthe	-10.7381
Si	-10.7381
▁militarysaid	-10.7381
knowing	-10.7382
tookover	-10.7382
▁no	-10.7389
tocall	-10.739
oversee	-10.739
Mill	-10.739
Iwant	-10.7398
Sundayin	-10.7398
havebeenkilledin	-10.7398
generated	-10.74
memberof	-10.7404
sentencedto	-10.7407
whatis	-10.7407
topercent	-10.7409
RussianPresident	-10.741
borderwith	-10.741
toopen	-10.7411
therewillbe	-10.7411
slaves	-10.7411
electBarackObama	-10.7412
GMT	-10.7414
aunt	-10.7414
vy	-10.7421
hasnow	-10.7422
movements	-10.7424
dying	-10.7425
foreignpolicy	-10.7426
▁Thestudy	-10.7429
statue	-10.7436
Spains	-10.7436
▁Theattack	-10.7436
haveno	-10.7436
lasted	-10.7439
▁Last	-10.744
▁whichhe	-10.7441
obtained	-10.7444
skills	-10.7446
loaded	-10.7447
▁Foreign	-10.7447
speaker	-10.7447
type	-10.7449
▁Theministry	-10.745
aftershe	-10.7452
▁Women	-10.7452
Iraqand	-10.7457
sideofthe	-10.7459
Ban	-10.746
allied	-10.7461
hisdeath	-10.7472
zar	-10.7476
mistakes	-10.7477
videogame	-10.7477
▁Tokyo	-10.7477
plus	-10.7478
blamedfor	-10.748
transactions	-10.748
interviewed	-10.7482
oh	-10.7484
Two	-10.7485
Presidential	-10.749
checked	-10.749
thestrike	-10.7493
ically	-10.7495
ofwhat	-10.7496
quarterfinal	-10.7496
manage	-10.7497
surrounded	-10.7498
girlfriend	-10.75
ingwith	-10.7504
crossing	-10.7508
argument	-10.7509
ownerof	-10.7516
writers	-10.7516
limits	-10.7519
kilometersmiles	-10.7521
▁Cho	-10.7522
▁Shesaid	-10.7524
residential	-10.7525
insurgent	-10.7528
remove	-10.7529
entering	-10.753
Dar	-10.7532
ofviolence	-10.7533
output	-10.7536
policespokesman	-10.7541
theGerman	-10.7542
elements	-10.7543
reasurySecretary	-10.7545
diseases	-10.7547
adayafter	-10.7548
thatleft	-10.7548
reviewing	-10.7554
lineup	-10.7556
essential	-10.756
flame	-10.7561
Football	-10.7562
secondlargest	-10.7564
fect	-10.7564
doubled	-10.7565
▁CNNThe	-10.7566
Marines	-10.7566
inspection	-10.7568
MehdiArmy	-10.757
insist	-10.757
competitive	-10.7571
motive	-10.7572
toknow	-10.7572
hisbrother	-10.7572
emerging	-10.7572
sufficient	-10.7572
Belgium	-10.7572
sacrifice	-10.7572
Craig	-10.7572
complicated	-10.7572
congress	-10.7572
enormous	-10.7572
Oregon	-10.7572
Sept	-10.7572
judicial	-10.7572
▁Twenty	-10.7572
declaring	-10.7572
FilmFestival	-10.7572
optimistic	-10.7572
exceed	-10.7572
assured	-10.7572
associatedwith	-10.7572
gui	-10.7573
▁Eight	-10.7573
▁Recent	-10.7574
ardari	-10.7574
provision	-10.7575
slowdown	-10.7576
financialmarkets	-10.7576
underhousearrest	-10.7576
midnight	-10.7578
▁Security	-10.7578
CDC	-10.758
upperhouse	-10.758
solid	-10.7581
Arabic	-10.7582
▁Infact	-10.7582
typically	-10.7583
reasonable	-10.7584
disputes	-10.7584
signing	-10.7589
Serbian	-10.7591
ared	-10.7592
pursued	-10.7597
▁Chavez	-10.7598
terroristattacks	-10.7599
reverse	-10.76
sformer	-10.7601
guys	-10.7603
explained	-10.7604
belt	-10.7604
sectors	-10.7604
acid	-10.7605
diedof	-10.7605
tocarryout	-10.7607
▁Afghan	-10.7607
sannouncement	-10.7612
automaker	-10.7612
ians	-10.7612
▁Iraq	-10.7613
theyve	-10.7615
suspend	-10.7616
Miller	-10.7618
amountsof	-10.7618
condemn	-10.7618
Work	-10.762
willget	-10.7621
anywhere	-10.7621
exitpolls	-10.7623
▁Thewoman	-10.7624
hasbegun	-10.7625
sort	-10.7627
Lev	-10.7628
Yo	-10.7631
Gold	-10.7633
GeorgeWBush	-10.7637
theairport	-10.7637
▁thecountrys	-10.764
therewereno	-10.764
adecision	-10.7643
Mart	-10.7648
traveled	-10.7649
stressed	-10.7651
rib	-10.7654
thePalestinians	-10.7654
▁Theparty	-10.7655
inboth	-10.766
separated	-10.766
youth	-10.7663
rated	-10.7663
Universityin	-10.7664
explain	-10.767
holy	-10.7677
wouldnt	-10.7677
Taiwans	-10.7678
Fort	-10.7679
oneofits	-10.768
shin	-10.7681
pal	-10.7683
bottles	-10.7687
Mel	-10.7687
distress	-10.7688
controlofthe	-10.7689
raw	-10.769
▁Olmert	-10.7692
smile	-10.7693
Columbia	-10.7697
Wen	-10.7699
policestation	-10.7699
havenotbeen	-10.77
attending	-10.7705
isjust	-10.7708
BS	-10.7713
willcome	-10.7716
willhold	-10.7716
andNorthKorea	-10.7719
anymore	-10.772
Es	-10.7723
titled	-10.7723
togoto	-10.7724
NG	-10.7725
officialtoldCNN	-10.7727
acute	-10.7729
inpublic	-10.773
priceof	-10.7731
thebrain	-10.7733
onDecember	-10.7736
filmmaker	-10.7736
Eric	-10.7741
blasted	-10.7742
threepeople	-10.7744
teeth	-10.7744
▁Ar	-10.7749
▁Themilitary	-10.775
tochoose	-10.7751
resultin	-10.7752
tea	-10.7755
worries	-10.7758
CI	-10.7767
hanging	-10.7769
thisisa	-10.777
▁Michigan	-10.7771
trail	-10.7772
▁Britain	-10.7774
theRepublican	-10.7774
leadover	-10.7775
picturesof	-10.7779
ontheissue	-10.7782
openly	-10.7785
endangered	-10.7786
expensive	-10.7786
ID	-10.7787
forus	-10.7788
ofPakistan	-10.779
womenwho	-10.7791
theoverall	-10.7792
ayearoldgirl	-10.7798
wouldcontinue	-10.7798
onAugust	-10.7799
Dong	-10.78
afriend	-10.7801
▁La	-10.7802
tohavea	-10.7803
▁State	-10.7808
inorder	-10.7811
spur	-10.7811
OlympicGames	-10.7811
totackle	-10.7813
amba	-10.7814
oppositionto	-10.7815
cow	-10.7816
alongtime	-10.7817
mountains	-10.7818
couldtake	-10.782
conclude	-10.7822
ok	-10.7824
select	-10.7824
venture	-10.783
leadto	-10.7832
▁Brownsaid	-10.7832
toworkwith	-10.7834
▁Wen	-10.7834
Centerfor	-10.7836
havehad	-10.7837
Kerry	-10.7837
▁Singapore	-10.7841
indicate	-10.7841
toensure	-10.7842
UEFA	-10.7842
Special	-10.7842
carbondioxide	-10.7842
Burmese	-10.7842
Kaesong	-10.7842
Giuliani	-10.7842
Conference	-10.7842
Minnesota	-10.7842
cautious	-10.7842
intervention	-10.7842
postponed	-10.7842
Alabama	-10.7842
Beirut	-10.7842
awahiri	-10.7842
mutual	-10.7842
widow	-10.7842
Kentucky	-10.7842
resistance	-10.7842
▁ISLAMABAD	-10.7842
industries	-10.7842
principal	-10.7842
telescope	-10.7842
romantic	-10.7842
competing	-10.7842
offthecoastof	-10.7842
Hudson	-10.7842
▁Stocks	-10.7842
inrecentdays	-10.7842
ACMilan	-10.7842
IBM	-10.7843
HouseSpeaker	-10.7843
Lewis	-10.7843
excessive	-10.7843
sect	-10.7843
Delta	-10.7844
Castro	-10.7844
watchdog	-10.7844
Davis	-10.7844
shipping	-10.7845
▁Lets	-10.7845
▁forexample	-10.7845
stillbe	-10.7846
branch	-10.7847
semifinal	-10.7847
Christians	-10.7848
fiveyear	-10.7849
lucky	-10.785
surveyed	-10.7851
loose	-10.7851
theneedfor	-10.7851
▁apparently	-10.7851
heldby	-10.7853
Hillary	-10.7854
radar	-10.7855
threatens	-10.7856
achieved	-10.7856
tomeetwith	-10.7857
inlinewith	-10.7858
▁Ri	-10.7858
ening	-10.7858
Citigroup	-10.7858
inthethminute	-10.7858
militaryjunta	-10.7858
▁Withthe	-10.7859
▁butI	-10.786
arranged	-10.7861
personality	-10.7861
Marc	-10.7861
vine	-10.7861
severaltimes	-10.7864
subway	-10.7865
stein	-10.787
sremarks	-10.787
partnership	-10.7872
NorthAmerican	-10.7873
regularly	-10.7873
geo	-10.7877
sexually	-10.788
classroom	-10.7881
yearsafter	-10.7882
OL	-10.7882
iest	-10.7884
▁ThePresident	-10.7886
recordof	-10.7892
▁sending	-10.7897
voiced	-10.7898
My	-10.79
shouldnt	-10.79
thatbegan	-10.7901
beforebeing	-10.7902
lean	-10.7903
localtime	-10.791
figureout	-10.7911
UL	-10.7912
hadtaken	-10.7913
forour	-10.7917
todealwith	-10.7918
publicist	-10.7926
downto	-10.7933
postedon	-10.7936
praised	-10.7945
ashis	-10.7949
circle	-10.7949
inhuasaid	-10.795
interim	-10.7955
bless	-10.7957
▁wewill	-10.7959
Live	-10.796
Ac	-10.7963
atstake	-10.7963
deadlock	-10.7966
prohibit	-10.7966
dismiss	-10.7971
wouldliketo	-10.7971
thecrisis	-10.7971
fromher	-10.7973
explosions	-10.7975
▁Itwillbe	-10.7977
Sky	-10.7984
Line	-10.7984
Italys	-10.7986
harder	-10.7987
enjoyed	-10.7987
▁Canada	-10.7987
isconsidering	-10.7989
backup	-10.7992
On	-10.7993
ubb	-10.7999
▁En	-10.7999
▁Thestorm	-10.8
▁Dont	-10.8
managers	-10.8004
▁TheBritish	-10.8006
seal	-10.8007
forsome	-10.8007
loved	-10.8008
audit	-10.801
abandon	-10.8012
▁knownas	-10.8012
retain	-10.8013
foundguilty	-10.8013
imagine	-10.8013
stakein	-10.8014
bul	-10.8015
professorof	-10.8015
Human	-10.8015
arein	-10.8015
definitely	-10.8017
Yi	-10.8018
removing	-10.802
plain	-10.8021
weigh	-10.8025
wouldallow	-10.8026
overthepast	-10.8029
goahead	-10.8031
progressin	-10.8035
takenby	-10.8036
anaccident	-10.8038
butthe	-10.8039
ified	-10.804
formerpresident	-10.8044
examine	-10.8044
▁Sha	-10.8044
lax	-10.8044
AA	-10.8046
forming	-10.8046
worried	-10.8052
bon	-10.8052
theIsraeli	-10.8053
▁Han	-10.8055
isconsidered	-10.8055
mothers	-10.8055
uniform	-10.8055
saidThursdaythat	-10.8057
affair	-10.8058
lover	-10.8058
aidto	-10.8059
executions	-10.806
youknow	-10.8061
Hwang	-10.8064
MySpace	-10.807
Kl	-10.8071
nice	-10.8071
shoulder	-10.8072
thenumber	-10.8072
installed	-10.8074
managed	-10.8074
ump	-10.8074
▁HongKong	-10.8074
Tar	-10.8079
wasan	-10.8081
theNetherlands	-10.8082
sthatwere	-10.8084
AT	-10.8085
regionof	-10.8088
theBBC	-10.8089
Beijings	-10.809
viewed	-10.8092
riots	-10.8093
▁Pro	-10.8093
journal	-10.8096
truth	-10.81
intheNorth	-10.8101
cub	-10.8101
WestBank	-10.8102
topursue	-10.8105
Cambodia	-10.8109
▁Yahoo	-10.8109
paintings	-10.8114
tooka	-10.8118
liquid	-10.8118
bil	-10.8119
depend	-10.8119
Communist	-10.8119
Mohammad	-10.8119
chamber	-10.8119
dismantle	-10.812
Rodriguez	-10.812
Peace	-10.812
Saddam	-10.812
bolster	-10.812
HomelandSecurity	-10.812
ColdWar	-10.812
encouraging	-10.812
rhetoric	-10.812
ParkGeunhye	-10.812
desperate	-10.812
▁PARIS	-10.812
Pittsburgh	-10.812
incumbent	-10.812
probation	-10.812
triumph	-10.812
Argentine	-10.812
GeneralMotors	-10.812
SaoPaulo	-10.812
primarily	-10.812
revised	-10.812
elevator	-10.812
rangingfrom	-10.812
Buddhist	-10.812
Operation	-10.8121
racial	-10.8121
Panama	-10.8121
PrinceCharles	-10.8121
billionaire	-10.8121
reputation	-10.8121
freezing	-10.8121
PeoplesParty	-10.8121
Division	-10.8121
poison	-10.8122
Danish	-10.8122
anchor	-10.8122
Ahmed	-10.8122
Terry	-10.8122
objective	-10.8123
Koreanpeninsula	-10.8123
Haiti	-10.8123
mountainous	-10.8124
oke	-10.8124
borders	-10.8124
resultedin	-10.8124
methods	-10.8125
favorable	-10.8126
admit	-10.8126
twodozen	-10.8127
barred	-10.8128
talksbetween	-10.8129
militias	-10.813
▁ofcourse	-10.8131
disruption	-10.8132
Film	-10.8132
typesof	-10.8132
saidata	-10.8133
butnot	-10.8136
thequestion	-10.8137
inmid	-10.8137
elite	-10.8139
Auto	-10.814
passion	-10.8142
recovering	-10.8144
dolphin	-10.8145
supports	-10.8147
concludedthat	-10.8147
rage	-10.8149
mentof	-10.8149
elder	-10.8151
intendsto	-10.8152
thePakistani	-10.8152
ontopof	-10.8153
Winter	-10.8154
realized	-10.8154
▁followedby	-10.8156
peacefully	-10.8159
reportsfrom	-10.816
Cam	-10.8161
critically	-10.8162
Wednesdaymorning	-10.8163
Sir	-10.8164
▁Theworld	-10.8166
thesocalled	-10.8167
communistChina	-10.8168
officialsfrom	-10.8172
airstrikes	-10.8173
maynot	-10.8179
rebelgroup	-10.818
saidthatthe	-10.818
lf	-10.8182
uma	-10.8183
thanked	-10.8184
oppose	-10.8187
communicate	-10.8189
▁executive	-10.8191
▁Brazil	-10.8193
▁Chinahas	-10.8196
Nick	-10.82
▁Top	-10.8201
phase	-10.8202
notes	-10.8204
Jin	-10.8205
II	-10.8206
joy	-10.8207
recruit	-10.8209
performing	-10.8209
theconstitution	-10.821
IAEA	-10.8212
theshuttle	-10.8212
backin	-10.8215
LG	-10.8217
therefore	-10.8219
aff	-10.8221
Rev	-10.8225
Ill	-10.8226
thatsome	-10.8228
werein	-10.8232
Boy	-10.8233
challenged	-10.8233
tooffer	-10.8233
undergoing	-10.8233
aiming	-10.8234
whatI	-10.8235
handover	-10.8235
therestof	-10.8237
andtheother	-10.8241
▁near	-10.8244
opponent	-10.8246
golf	-10.8246
rallied	-10.8248
soldiersand	-10.8249
middle	-10.8249
allbut	-10.8251
azi	-10.8253
▁whichbegan	-10.8257
suburb	-10.8257
ES	-10.826
Em	-10.8261
disorder	-10.8263
prevented	-10.8264
▁Thisyear	-10.8264
▁allowing	-10.8265
oftwo	-10.8267
morepeople	-10.8267
▁following	-10.8274
ola	-10.8274
apeaceful	-10.8274
▁Thepoll	-10.8276
havefound	-10.8276
▁theministrysaid	-10.8278
disputeover	-10.828
aro	-10.8284
▁thechief	-10.8285
Washingtons	-10.8289
bullet	-10.829
blasts	-10.8291
Andre	-10.8294
holdinga	-10.8297
snap	-10.8298
Il	-10.8299
institution	-10.8299
tale	-10.8302
topersuade	-10.8303
Indonesias	-10.8305
troopsfromIraq	-10.8309
artists	-10.8311
▁Ithas	-10.8319
impacton	-10.8321
eBay	-10.8321
▁Shehas	-10.8324
thequake	-10.8324
toset	-10.8324
Hilton	-10.8325
volunteer	-10.8326
theDow	-10.8327
▁El	-10.8329
airstrike	-10.833
Palm	-10.833
aclear	-10.8335
andPalestinian	-10.8335
IN	-10.8339
▁Deputy	-10.834
afresh	-10.8343
isseeking	-10.8348
theblast	-10.835
fold	-10.8351
reflects	-10.8351
fourmonths	-10.8351
laser	-10.8352
application	-10.8353
▁Ibelieve	-10.8354
youngpeople	-10.8356
hissecond	-10.8356
areasof	-10.8361
governorof	-10.8362
stemcells	-10.8364
thefederal	-10.8366
▁atleast	-10.8367
McCann	-10.8368
ahigh	-10.8369
passes	-10.8369
greeted	-10.8373
humanrightsgroup	-10.8373
tired	-10.8375
havealready	-10.8376
appearing	-10.8382
neara	-10.8382
ranch	-10.8383
particular	-10.8385
counted	-10.8385
atch	-10.8386
Children	-10.8386
theplanet	-10.8386
meetingswith	-10.8389
NorthKoreans	-10.8393
lap	-10.8394
▁three	-10.8395
arelikelyto	-10.8396
thatincluded	-10.8399
areworking	-10.8404
robbery	-10.8405
Thompson	-10.8406
Schwarzenegger	-10.8406
Amnesty	-10.8406
Connecticut	-10.8406
Gazprom	-10.8406
GeologicalSurvey	-10.8406
Toyota	-10.8406
moneylaundering	-10.8406
academic	-10.8406
episode	-10.8406
borrow	-10.8406
▁Atthesametime	-10.8406
SuperBowl	-10.8406
legislature	-10.8406
ransom	-10.8406
Heathrow	-10.8406
hostile	-10.8406
examination	-10.8406
sustained	-10.8406
kidney	-10.8406
shortlybefore	-10.8406
Kelly	-10.8406
APEC	-10.8406
Geneva	-10.8406
Odinga	-10.8407
landslides	-10.8407
shortages	-10.8407
WestVirginia	-10.8407
Mountain	-10.8407
assoonas	-10.8408
convene	-10.8408
Bra	-10.8408
▁Inaninterview	-10.8409
Greenpeace	-10.8409
▁sayingthat	-10.841
Der	-10.8411
buzz	-10.8411
MS	-10.8412
DavidBeckham	-10.8412
AustralianOpen	-10.8413
thetruth	-10.8413
extinction	-10.8414
backedby	-10.8414
northofBaghdad	-10.8416
toprove	-10.8416
aspossible	-10.8417
falls	-10.8418
NewYorksenator	-10.8419
▁manyofthem	-10.842
anearly	-10.8421
tocheck	-10.8426
hardline	-10.8427
ignored	-10.8428
rampage	-10.8429
temperature	-10.843
broader	-10.8432
Thursdaynight	-10.8433
wealthy	-10.8434
barriers	-10.8437
thefinancial	-10.8437
laterthisyear	-10.8438
oreven	-10.8439
oot	-10.8439
▁Despitethe	-10.844
mood	-10.8442
▁theDow	-10.8443
rarely	-10.8447
severely	-10.8448
secured	-10.8451
evil	-10.8451
partly	-10.8454
southwestern	-10.8457
forthose	-10.8458
wasborn	-10.8462
leap	-10.8462
Angel	-10.8464
defender	-10.8465
beforea	-10.8466
lon	-10.8467
smashed	-10.8468
andBarackObama	-10.8468
expanding	-10.8469
fixed	-10.847
amongthose	-10.8472
angle	-10.8473
ornot	-10.8476
theheart	-10.8476
▁accordingtotheU	-10.8478
▁accordingtoThe	-10.848
Walter	-10.8482
jobless	-10.8484
dialoguewith	-10.8485
hn	-10.8487
thathewould	-10.8487
abusing	-10.8489
fleeing	-10.849
DowJones	-10.8491
theoriginal	-10.8493
ada	-10.8498
Games	-10.8498
▁TheFBI	-10.8502
theyneed	-10.8503
restricted	-10.8506
inwhichhe	-10.8511
operator	-10.8511
theinformation	-10.8512
asteroid	-10.8513
bot	-10.8514
inMoscow	-10.8515
shooter	-10.8515
theAfghan	-10.8516
riticalcondition	-10.8518
ose	-10.8518
theexplosion	-10.8528
toresolve	-10.8529
rosecutorsOffice	-10.853
guerrillas	-10.8534
anongoing	-10.8534
publish	-10.8536
▁Kang	-10.8537
hasleft	-10.8542
▁USPresident	-10.8544
▁Assistant	-10.8545
continent	-10.8545
verygood	-10.8545
broadcasting	-10.8546
andall	-10.8546
withother	-10.8546
itcan	-10.8547
tiesto	-10.8549
avote	-10.855
▁Any	-10.8554
Mid	-10.8561
andthatthe	-10.8562
aboutpercentof	-10.8564
heated	-10.8565
▁billionin	-10.8567
theriskof	-10.8567
aswe	-10.8569
forthis	-10.857
Antarctic	-10.8577
Basra	-10.8582
comingto	-10.8583
▁Tim	-10.8583
ible	-10.8584
▁Massachusetts	-10.8585
Ten	-10.8588
outdoor	-10.8589
reconstruction	-10.8591
isunder	-10.8592
puts	-10.8594
showedthe	-10.8595
▁ForeignMinister	-10.8596
causeofdeath	-10.8597
▁Ofthe	-10.8599
▁bringing	-10.8602
fromIraq	-10.8606
▁Nevada	-10.8613
hits	-10.8614
mines	-10.8614
rushed	-10.8614
prefer	-10.8617
Allen	-10.8618
makesit	-10.8619
onhow	-10.8621
▁Russiaand	-10.8621
willface	-10.8622
▁Themain	-10.8622
Ren	-10.8623
hired	-10.8624
▁Abbas	-10.8624
thelowest	-10.8628
photographers	-10.8628
hoursbefore	-10.863
▁sayinghe	-10.8631
theoutcome	-10.8632
Blair	-10.8633
dad	-10.8635
creatinga	-10.8636
removedfrom	-10.8636
northernIraq	-10.8636
▁ex	-10.8637
hasdenied	-10.8643
Financial	-10.8647
themosque	-10.8647
suicidebomber	-10.8648
theaters	-10.8651
havent	-10.8652
medics	-10.8652
fourdays	-10.8653
inspired	-10.8653
guest	-10.8654
lobby	-10.8654
tospeak	-10.8655
stones	-10.8656
span	-10.8658
justone	-10.8662
foranother	-10.8665
asurprise	-10.8668
esh	-10.8668
womenand	-10.8669
▁toldThe	-10.8671
stepped	-10.8673
onNorthKoreas	-10.8676
saiditis	-10.8677
▁Senate	-10.8679
theverdict	-10.8679
arrivedat	-10.8681
useful	-10.8686
overwhelming	-10.8688
typical	-10.8688
thattheywere	-10.869
thebombing	-10.8691
owns	-10.8692
pushfor	-10.8694
atthis	-10.8697
degrees	-10.8697
PresidentBushs	-10.8697
Second	-10.8699
Cruise	-10.87
bribe	-10.87
KEB	-10.87
Winehouse	-10.87
observation	-10.87
welfare	-10.87
statistics	-10.87
Yeltsin	-10.87
▁TOKYO	-10.87
accurate	-10.87
asylum	-10.87
expelled	-10.87
awareness	-10.87
Company	-10.87
Atlantis	-10.87
PopeBenedict	-10.87
safehaven	-10.87
Sudanese	-10.87
Taiwanese	-10.87
manyof	-10.87
shouted	-10.87
motorcycle	-10.87
Denmark	-10.87
hidden	-10.8701
Dallas	-10.8701
Sevilla	-10.8701
guidelines	-10.8701
Nobel	-10.8701
Little	-10.8702
pledgeddelegates	-10.8702
thefourth	-10.8702
firsttime	-10.8703
mice	-10.8703
peoplehave	-10.8704
portionof	-10.8704
thechurch	-10.8704
fastest	-10.8705
Ethiopian	-10.8706
SeanMcCormack	-10.8707
aboutpercent	-10.8708
disclose	-10.8708
warcrimes	-10.8709
stepdown	-10.8709
skull	-10.8709
yourself	-10.871
▁Sofar	-10.871
adventure	-10.8711
JohnEdwards	-10.8711
navy	-10.8711
heng	-10.8712
exception	-10.8712
▁Simpson	-10.8713
fearsof	-10.8714
entirely	-10.8715
lengthy	-10.8717
orchestra	-10.8717
maintaining	-10.8718
smooth	-10.8718
goodnews	-10.8719
teaching	-10.8721
inthestate	-10.8721
Libyan	-10.8722
Syrian	-10.8723
moretime	-10.8724
USA	-10.8725
▁Agroupof	-10.8727
boxes	-10.8727
thestates	-10.8727
objection	-10.8727
backinto	-10.873
doping	-10.8731
▁Itisnot	-10.8731
torestore	-10.8731
Pitt	-10.8732
actively	-10.8733
▁theNational	-10.8734
pages	-10.8735
sweeping	-10.8738
haul	-10.8739
string	-10.874
campaigns	-10.8741
eggs	-10.8742
expanded	-10.8743
defenseminister	-10.8743
theresolution	-10.8743
intent	-10.8748
talent	-10.8749
Congo	-10.8751
revolution	-10.8751
risein	-10.8752
lookslike	-10.8754
asummit	-10.8755
▁Indonesia	-10.8756
withdrawn	-10.8756
troopsto	-10.8757
Wednesdaythat	-10.8758
parade	-10.8758
omb	-10.8759
dispatched	-10.8759
bypercent	-10.8761
militaryservice	-10.8763
nod	-10.8767
toserve	-10.8767
suburban	-10.8771
Ag	-10.8772
satellites	-10.8774
airforce	-10.8776
thechild	-10.8781
afourth	-10.8781
insupportof	-10.8782
aj	-10.8782
ajudge	-10.8785
▁wherethey	-10.8787
ika	-10.8787
believedto	-10.8788
brothers	-10.8788
Phil	-10.8793
except	-10.8796
theteam	-10.8797
▁Ithinkthat	-10.8797
supportfrom	-10.8798
sul	-10.8798
photographer	-10.8801
thinks	-10.8805
climbed	-10.8806
inning	-10.8808
bee	-10.8808
halfthe	-10.881
▁Thelast	-10.8811
warrants	-10.8812
honored	-10.8814
customer	-10.882
theresultsof	-10.8821
shame	-10.8822
tocombat	-10.8824
prospect	-10.8825
ailing	-10.8826
fourpeople	-10.8827
▁whowon	-10.8828
alsohave	-10.8829
isnota	-10.8829
▁directorof	-10.883
afoot	-10.883
▁Asa	-10.8832
compromise	-10.8835
thesupportof	-10.8835
Federation	-10.8835
etter	-10.8836
none	-10.8841
McC	-10.8842
carmaker	-10.8844
NI	-10.8849
civicgroups	-10.8849
vicepresidentof	-10.8851
ofwhom	-10.8855
▁Itwasa	-10.8855
▁toldreporters	-10.8857
andinjured	-10.8858
intheeastern	-10.886
convert	-10.8861
District	-10.8862
Flight	-10.8865
offa	-10.8869
borne	-10.8872
thetrip	-10.8873
▁PresidentRoh	-10.8873
tta	-10.8875
▁Nine	-10.8876
bert	-10.8877
Koreangovernment	-10.8877
theirway	-10.8878
peoplefrom	-10.8884
anIsraeli	-10.8884
toseethe	-10.8886
contenders	-10.8889
supportforthe	-10.8891
enberg	-10.8893
bombers	-10.8893
employ	-10.8895
▁United	-10.8896
▁SouthKoreaand	-10.8896
suicideattack	-10.8898
Torre	-10.8898
rep	-10.8899
wouldmake	-10.8901
fees	-10.8904
profile	-10.8906
UnitedStates	-10.8914
greatest	-10.8919
unnamed	-10.8922
battles	-10.8923
kilo	-10.8923
SecretaryGeneral	-10.8924
setback	-10.8924
thattheU	-10.8924
aboutwhat	-10.8925
isvery	-10.8926
hosts	-10.8928
tone	-10.8929
daughters	-10.8931
eries	-10.8933
aproblem	-10.8934
withoutthe	-10.8936
Karzai	-10.8938
cando	-10.8942
chargesof	-10.8944
weaponso	-10.8946
inparliament	-10.8946
deposit	-10.8954
aboutp	-10.8955
determine	-10.8956
towatch	-10.8958
fairly	-10.8959
againsta	-10.8967
morelikely	-10.8969
effects	-10.897
hopethat	-10.8977
thesun	-10.8978
▁Iwill	-10.898
considers	-10.8984
havekilled	-10.8984
committees	-10.8988
traded	-10.8993
bust	-10.8998
cameout	-10.9
Abdullah	-10.9002
equity	-10.9002
Sharapova	-10.9003
crocodile	-10.9003
volatile	-10.9003
Conservative	-10.9003
Madonna	-10.9003
prostitution	-10.9003
adequate	-10.9003
agriculture	-10.9003
spectacular	-10.9003
voluntary	-10.9003
celebrating	-10.9003
financing	-10.9003
participation	-10.9003
HumanRightsWatch	-10.9003
▁SEOUL	-10.9003
fmassdestruction	-10.9003
credible	-10.9003
swineflu	-10.9003
Broadway	-10.9003
Record	-10.9003
Summer	-10.9003
NortheastAsia	-10.9003
animated	-10.9003
captors	-10.9003
mayorof	-10.9003
inrecentweeks	-10.9003
Estonia	-10.9003
Wolf	-10.9003
toddler	-10.9003
Campbell	-10.9003
AFP	-10.9003
NewYear	-10.9003
▁Ofcourse	-10.9004
abolish	-10.9004
issuing	-10.9004
AIG	-10.9004
column	-10.9004
Palace	-10.9004
Joint	-10.9005
alittlebit	-10.9005
factories	-10.9005
ugAdministration	-10.9005
nuclearwatchdog	-10.9006
eruption	-10.9006
madeitclear	-10.9006
Stalin	-10.9006
runningmate	-10.9006
breakfast	-10.9006
fruit	-10.9007
duties	-10.9008
▁Open	-10.9008
vicepresidential	-10.9009
contractors	-10.9011
StateUniversity	-10.9012
overhaul	-10.9014
bedroom	-10.9014
HN	-10.9014
upby	-10.9016
arangeof	-10.9016
atthetimeofthe	-10.9016
coordinated	-10.9017
contribute	-10.9018
willbecome	-10.9018
carefully	-10.9018
exam	-10.902
exciting	-10.9021
Game	-10.9021
weeksago	-10.9027
politicalparties	-10.9027
Rove	-10.903
restored	-10.903
appeartobe	-10.9031
tumbled	-10.9031
andmake	-10.9035
rightwing	-10.9035
thesameperiod	-10.9036
kov	-10.9037
mostfamous	-10.9038
southeast	-10.9044
nucleartalks	-10.9044
cab	-10.9044
traders	-10.9044
kilometer	-10.9045
involve	-10.9046
consideration	-10.9048
statetelevision	-10.9048
maintains	-10.9049
nerve	-10.9052
Jong	-10.9052
thechildren	-10.9053
inMyanmar	-10.9054
begun	-10.9054
ears	-10.9057
magic	-10.9058
willlikely	-10.9063
offormer	-10.9064
machines	-10.9065
policeman	-10.9066
gaining	-10.9066
theirchildren	-10.9066
fileda	-10.9067
testified	-10.9068
mylife	-10.9068
WorldBank	-10.9071
terKoreansummit	-10.9072
theArmy	-10.9073
collected	-10.9083
exact	-10.9083
disclosed	-10.9085
manner	-10.9085
needstobe	-10.9086
pri	-10.9086
abillion	-10.909
hosting	-10.9093
lace	-10.9093
▁Thenext	-10.9094
spi	-10.9095
izz	-10.9097
inmany	-10.9097
hislife	-10.9099
anyway	-10.9101
retailers	-10.9102
thereal	-10.9104
Hal	-10.9105
People	-10.9106
tocelebrate	-10.9109
pants	-10.911
aweekago	-10.9112
animmediate	-10.9112
Luc	-10.9113
▁only	-10.9116
toenter	-10.9117
tune	-10.912
connect	-10.9121
policehave	-10.9128
ormore	-10.9131
reactionto	-10.9132
walls	-10.9132
Kate	-10.9134
otherthan	-10.9135
saidshewas	-10.9135
belowthe	-10.9135
sued	-10.9135
FC	-10.9137
inanattemptto	-10.9138
tears	-10.9139
ners	-10.914
conservatives	-10.9144
blew	-10.9145
unity	-10.9148
tomakethe	-10.9149
proudof	-10.9149
roar	-10.9153
thecostof	-10.9154
bars	-10.9155
squ	-10.9158
downon	-10.9159
toachieve	-10.9161
disrupt	-10.9162
rant	-10.9162
Rio	-10.9163
▁Congress	-10.9164
och	-10.9167
howhe	-10.9167
tosign	-10.9168
claimsthat	-10.917
NorthAmerica	-10.917
infact	-10.9171
households	-10.9172
ocean	-10.9174
argued	-10.9174
acontroversial	-10.9174
rang	-10.9176
sixpeople	-10.9179
stopping	-10.9181
formonths	-10.9183
thepresenceof	-10.9183
obligations	-10.9183
coal	-10.9184
hisoffice	-10.9184
promises	-10.9189
whodied	-10.919
professors	-10.919
thatWashington	-10.9193
Ky	-10.9196
agged	-10.9196
rim	-10.9202
thegeneral	-10.9204
thestreetsof	-10.9207
isso	-10.9208
wasnamed	-10.9208
fee	-10.9211
separatist	-10.9212
imi	-10.9213
▁Among	-10.9213
nightclub	-10.9215
tothepublic	-10.9215
medal	-10.9215
includingthe	-10.9217
plate	-10.9217
Sundaymorning	-10.9218
▁Thefire	-10.9219
versionofthe	-10.9222
tag	-10.9222
inner	-10.9224
newsof	-10.9225
thekillings	-10.9226
scandals	-10.9232
format	-10.9233
tosuspend	-10.9233
transferred	-10.9233
Lim	-10.9234
inIndonesia	-10.9234
▁accordingtoan	-10.9235
killedtwo	-10.9238
intheSouth	-10.9241
meets	-10.9241
Board	-10.9242
▁Beckham	-10.9245
▁forcing	-10.9246
▁First	-10.9246
theWorldBank	-10.9251
stationed	-10.9253
inSt	-10.9253
muscle	-10.9254
dispatch	-10.9254
owe	-10.9259
Sang	-10.926
refuge	-10.9261
referenceto	-10.9261
twoofthe	-10.9262
Judge	-10.9263
ideal	-10.9264
toendthe	-10.9265
incourt	-10.9267
Mrs	-10.9267
AG	-10.9268
aq	-10.9268
powered	-10.9272
brush	-10.9274
mini	-10.9276
woo	-10.9278
faction	-10.928
hid	-10.9282
extraordinary	-10.9282
wasforcedto	-10.9285
toattack	-10.9285
demonstrate	-10.9288
defeated	-10.9293
adjust	-10.9294
suffereda	-10.9295
militaryaction	-10.9296
violate	-10.9296
duetothe	-10.9297
businessman	-10.9303
NationalSecurity	-10.9305
ova	-10.9306
wasun	-10.9307
spots	-10.9308
Liberal	-10.9309
▁Thefilm	-10.9311
Academy	-10.9313
reviewof	-10.9313
Safety	-10.9313
cycle	-10.9315
Herald	-10.9315
Gordon	-10.9315
UNICEF	-10.9315
Construction	-10.9315
Pichushkin	-10.9315
Project	-10.9315
prestigious	-10.9315
ceremonies	-10.9315
imminent	-10.9315
ambitious	-10.9315
beautiful	-10.9315
tragic	-10.9315
▁Rescuers	-10.9315
Coalition	-10.9315
neutral	-10.9315
practical	-10.9315
theCzechRepublic	-10.9315
CheongWaDae	-10.9315
Mogadishu	-10.9315
agricultural	-10.9315
incursion	-10.9315
smuggling	-10.9315
advocate	-10.9315
dragged	-10.9315
nuclearambitions	-10.9315
proliferation	-10.9315
RogerFederer	-10.9315
NancyPelosi	-10.9315
Barbara	-10.9316
explanation	-10.9316
chiefofstaff	-10.9316
protein	-10.9316
regardlessof	-10.9316
▁Political	-10.9316
HighSchool	-10.9316
Montana	-10.9316
piracy	-10.9316
Pusan	-10.9316
Charts	-10.9316
▁whoare	-10.9317
zy	-10.9317
andhisfamily	-10.9318
giventhe	-10.9318
tumor	-10.9318
denial	-10.9319
sevenyears	-10.9319
MDC	-10.9319
taskforce	-10.9319
website	-10.9321
armedwith	-10.9321
productive	-10.9321
JohnKerry	-10.9321
emphasized	-10.9321
alSadr	-10.9321
consultation	-10.9323
yl	-10.9325
Right	-10.9326
bury	-10.9326
chart	-10.9327
▁Atthetime	-10.9328
thephone	-10.9329
breed	-10.933
▁presidentof	-10.9331
mess	-10.9331
adapt	-10.9332
milesaway	-10.9332
fingerprint	-10.9332
Norway	-10.9333
becamethefirst	-10.9333
dramatic	-10.9334
infavorof	-10.9335
sweet	-10.9337
▁alsoknownas	-10.9338
NationalPark	-10.934
▁Oh	-10.934
▁ChristopherHill	-10.9342
Omar	-10.9342
demonstrated	-10.9343
hotelroom	-10.9346
handedover	-10.9347
becausewe	-10.9348
breathing	-10.9348
▁whichincludes	-10.9349
forget	-10.9351
▁Thatwas	-10.9351
tomaintain	-10.9353
Sundayafternoon	-10.9354
▁Hillsaid	-10.9354
southwest	-10.9355
havebecome	-10.9356
Environmental	-10.9358
rebuild	-10.9359
verywell	-10.9364
anybody	-10.9365
topush	-10.9365
donations	-10.9367
commenton	-10.9369
notyet	-10.9372
Palestinianstate	-10.938
settled	-10.938
isthelatest	-10.938
fortune	-10.9389
▁meters	-10.939
Gay	-10.939
stops	-10.9393
commit	-10.9393
aspartofthe	-10.9394
deck	-10.9394
▁Thevideo	-10.9395
thejunta	-10.9395
inabidto	-10.9396
withthem	-10.9396
reacted	-10.9396
breakup	-10.9397
praise	-10.9398
user	-10.9399
slump	-10.9399
tanks	-10.9401
▁Ifwe	-10.9401
battled	-10.9401
threehours	-10.9401
votefor	-10.9402
gift	-10.9403
desk	-10.9403
carryingout	-10.9404
willplay	-10.9404
economyand	-10.9404
ranks	-10.9405
wehad	-10.9407
damageto	-10.9407
Mun	-10.9407
swap	-10.9409
eras	-10.941
totell	-10.9412
toy	-10.9412
wak	-10.9413
▁Thereisa	-10.9413
theideaof	-10.9416
workforce	-10.9416
hmoudAhmadinejad	-10.9417
greet	-10.9417
inthemorning	-10.9417
surroundedby	-10.942
agun	-10.9422
arealready	-10.9424
rick	-10.9424
stronghold	-10.9425
restore	-10.9425
holders	-10.9427
inmates	-10.9427
alo	-10.9429
pride	-10.943
ontrack	-10.9431
resignation	-10.9431
Play	-10.9433
whohavebeen	-10.9433
dealing	-10.9434
toconduct	-10.9436
willalsobe	-10.9437
moneyto	-10.9438
hewouldnot	-10.944
istaking	-10.9444
dumped	-10.9445
unpopular	-10.9446
aneffort	-10.9448
intospace	-10.9449
hundred	-10.9449
taxi	-10.945
preventing	-10.9453
agroup	-10.9455
Ryan	-10.9455
▁Rowling	-10.9456
accounting	-10.9458
wasgiven	-10.9461
hab	-10.9462
overits	-10.9462
needtobe	-10.9464
thatheis	-10.9465
wound	-10.9468
▁thereare	-10.9468
thefunds	-10.9469
tojointhe	-10.947
theAustralian	-10.947
▁Tom	-10.9471
drill	-10.9473
threaten	-10.9473
incountries	-10.9474
Israelimilitary	-10.9475
pension	-10.9477
scenes	-10.948
tube	-10.9483
coat	-10.9484
acrime	-10.9486
theone	-10.9486
peacetalks	-10.9487
mates	-10.9488
theproject	-10.949
confront	-10.9491
Simon	-10.9493
soften	-10.9497
depart	-10.9497
▁Theboy	-10.9501
twodecades	-10.9502
dem	-10.9506
App	-10.9506
accidents	-10.9508
uz	-10.951
farfrom	-10.9512
Northern	-10.9519
deadlinefor	-10.9519
Consumer	-10.952
screening	-10.952
▁Manyofthe	-10.9523
thefutureof	-10.9524
returntothe	-10.9524
asset	-10.9528
wash	-10.9529
againsthim	-10.9529
topic	-10.9529
Tam	-10.953
▁Of	-10.9535
toconsider	-10.9539
hate	-10.9539
sixweeks	-10.954
toassist	-10.9541
▁Richard	-10.9543
lastminute	-10.9543
firstquarter	-10.9549
daysago	-10.9549
pipe	-10.955
yang	-10.955
thedeadliest	-10.9557
▁Gates	-10.9557
persons	-10.9557
inRussia	-10.9558
pleased	-10.9558
informationon	-10.9558
▁NorthCarolina	-10.956
sfamily	-10.9563
wasexpectedto	-10.9565
willdo	-10.9565
thepotential	-10.9571
▁whowere	-10.9573
ington	-10.9579
refugee	-10.958
sides	-10.9581
friendsand	-10.9581
toask	-10.9581
inarow	-10.9581
inthecityof	-10.9582
seventh	-10.9583
ofthecountry	-10.9586
thegirls	-10.9587
deploy	-10.9588
revision	-10.9588
thanever	-10.9592
toremain	-10.9593
crown	-10.9594
tofly	-10.9597
thelackof	-10.9603
saidTuesdaythat	-10.9603
same	-10.9604
acommon	-10.9608
▁accusing	-10.9609
links	-10.961
▁Therewereno	-10.9611
wassentencedto	-10.9614
thatitwill	-10.9617
inLebanon	-10.9618
isgetting	-10.9619
AD	-10.9619
HO	-10.962
fed	-10.9621
▁TheDow	-10.9622
saidtheyhad	-10.9624
carryout	-10.9625
thesameday	-10.9626
Cole	-10.9627
withtwo	-10.9628
drinks	-10.9629
extinct	-10.9629
aplace	-10.9629
opposite	-10.963
whichthey	-10.9632
havelong	-10.9635
edged	-10.9635
swornin	-10.9637
chicken	-10.9638
Discovery	-10.9638
Mohamed	-10.9638
oxygen	-10.9638
FIFA	-10.9638
haksinShinawatra	-10.9638
supplier	-10.9638
plentyof	-10.9638
treasure	-10.9638
Belgian	-10.9638
chapter	-10.9638
pregnancy	-10.9638
Margaret	-10.9638
NawazSharif	-10.9638
Norwegian	-10.9638
Romney	-10.9638
Stewart	-10.9638
instrument	-10.9638
patience	-10.9638
avarietyof	-10.9638
Rawalpindi	-10.9638
survival	-10.9638
judgment	-10.9638
Endeavour	-10.9638
theUnitedKingdom	-10.9638
Toronto	-10.9638
Tripoli	-10.9638
gonna	-10.9638
USFK	-10.9638
inexile	-10.9638
visual	-10.9639
dot	-10.964
ofthecountrys	-10.964
Graham	-10.964
vigil	-10.9641
WalMart	-10.9641
random	-10.9641
merger	-10.9641
strucka	-10.9641
height	-10.9642
Treasury	-10.9644
achievement	-10.9644
minority	-10.9644
cameadayafter	-10.9644
posing	-10.9645
cofounder	-10.9645
waysto	-10.9645
filing	-10.9645
attorneygeneral	-10.9646
▁Asaresult	-10.9646
difficulties	-10.9646
hasgiven	-10.9648
▁PervezMusharraf	-10.9649
▁OnSaturday	-10.965
Carol	-10.965
▁jobs	-10.9651
wooden	-10.9651
becauseI	-10.9652
chargeof	-10.9652
▁Yes	-10.9652
atage	-10.9654
▁whereshe	-10.9654
Falluja	-10.9656
Maine	-10.9656
onEarth	-10.9656
pact	-10.9656
badnews	-10.9657
branches	-10.9658
timetable	-10.9661
photographs	-10.9661
venues	-10.9663
lt	-10.9663
uel	-10.9665
directors	-10.9666
lastmonths	-10.9671
settingup	-10.9672
monitors	-10.9673
Citi	-10.9673
comesas	-10.9673
jin	-10.9676
shouldhave	-10.9678
andwill	-10.968
▁SaudiArabia	-10.9686
imagesof	-10.9686
investigatingthe	-10.9692
mainopposition	-10.9693
othernations	-10.9694
breath	-10.9695
herown	-10.9695
Nor	-10.9696
opt	-10.9697
respondto	-10.9698
tojoin	-10.97
negotiationswith	-10.97
halted	-10.9701
leadersofthe	-10.9701
hadpreviously	-10.9702
operative	-10.9702
suicidebombers	-10.9703
expectedtobe	-10.9704
itsmain	-10.9705
overturned	-10.9707
youare	-10.971
hometown	-10.9711
AffairsandTrade	-10.9712
arguments	-10.9715
deserve	-10.9716
CountySheriff	-10.9718
hesaw	-10.9721
forquestioning	-10.9721
inseveral	-10.9721
ballots	-10.9721
insidea	-10.9721
mandate	-10.9723
fromtheirhomes	-10.9726
thebodyof	-10.9728
▁Hilton	-10.9729
ight	-10.9729
hecan	-10.973
tocreatea	-10.9734
Bull	-10.9736
▁presidentofthe	-10.9736
thegreatest	-10.9738
believedtohave	-10.9739
dissidents	-10.9744
meansthat	-10.9746
subjectto	-10.9747
Whit	-10.9751
grim	-10.9751
centralbank	-10.9752
least	-10.9752
tothem	-10.9754
blocks	-10.9755
issueof	-10.9756
reli	-10.9757
surveys	-10.9757
hisjob	-10.9758
toannounce	-10.9762
toinclude	-10.9763
covers	-10.9767
attacksagainst	-10.9767
Ido	-10.9768
thathad	-10.9769
aworld	-10.977
Char	-10.977
lowerthan	-10.9775
MiddleEast	-10.9775
talkshow	-10.9775
painful	-10.9777
Forest	-10.9778
threechildren	-10.9778
bans	-10.9778
brave	-10.9782
defending	-10.9783
mentioned	-10.9789
ella	-10.9789
loyalto	-10.979
thatincludes	-10.979
toanother	-10.979
abrief	-10.9795
▁millionpeople	-10.9796
wasableto	-10.9797
varie	-10.9797
thepresumptive	-10.9798
Chang	-10.9799
firstround	-10.9801
▁Ko	-10.9807
layoffs	-10.9807
▁butalso	-10.9808
hosted	-10.9809
banon	-10.9813
hasgone	-10.9813
nobody	-10.9815
isalready	-10.9815
section	-10.9816
ofNewYork	-10.9816
thechange	-10.9817
loyal	-10.9817
leadersof	-10.9819
involvement	-10.9825
ofthree	-10.9825
virtual	-10.9825
alackof	-10.9826
expressedconcern	-10.9833
hascalledfor	-10.9834
ofJapan	-10.9837
carcrash	-10.9841
Mumbai	-10.9843
payment	-10.9845
minuteslater	-10.9847
eased	-10.9847
apoint	-10.9848
toreturn	-10.9851
▁Ata	-10.9852
ification	-10.9854
theword	-10.9856
photosof	-10.9857
werekilledin	-10.9857
spell	-10.986
anadditional	-10.9861
availableto	-10.9861
wal	-10.9864
violenceand	-10.9867
butalso	-10.9873
hasshown	-10.9876
theaverage	-10.9878
treating	-10.9879
kid	-10.9879
▁Others	-10.9881
SP	-10.9885
roots	-10.9889
yand	-10.9892
theupcoming	-10.9894
involves	-10.9895
NewYorkTimes	-10.9897
CC	-10.9898
steam	-10.99
afemale	-10.9906
rug	-10.9907
joinedthe	-10.9907
Tra	-10.9908
shake	-10.9909
blamedon	-10.9909
captives	-10.9913
whenshewas	-10.9915
thesixparty	-10.9915
hercampaign	-10.9916
alow	-10.9919
becauseits	-10.9922
isbelievedtobe	-10.9922
Sung	-10.9924
costof	-10.9924
▁Cheney	-10.9925
nominees	-10.9925
totheNorth	-10.9926
tostand	-10.9927
sponsored	-10.9928
hassaidit	-10.9929
concernsthat	-10.9929
arunoff	-10.9932
lenders	-10.9933
Fo	-10.9934
▁wehave	-10.9936
whathappened	-10.9938
horn	-10.9938
deals	-10.9938
basedonthe	-10.994
funded	-10.9942
researcher	-10.9942
theclub	-10.9944
criticizing	-10.9945
everythingfrom	-10.9945
AND	-10.9946
investments	-10.9946
dozen	-10.9949
weknow	-10.9949
▁comparedwith	-10.995
muchofthe	-10.9951
interpret	-10.9952
nny	-10.9954
disarmament	-10.9956
theCIA	-10.9956
tribal	-10.9957
sheriffs	-10.9957
ensaid	-10.9959
twist	-10.996
talkson	-10.9962
Shia	-10.9965
frame	-10.9966
Yang	-10.9967
precaution	-10.9967
Michel	-10.9968
theItalian	-10.9969
Management	-10.997
Nicole	-10.9971
Francis	-10.9971
prescription	-10.9971
AngelaMerkel	-10.9971
Okinawa	-10.9971
fordays	-10.9971
Brian	-10.9971
Mercedes	-10.9971
Mitchell	-10.9971
Policy	-10.9971
epidemic	-10.9971
recognition	-10.9971
Agriculture	-10.9971
Medvedev	-10.9971
Samarra	-10.9971
gunshotwound	-10.9971
pleadedguilty	-10.9971
tribunal	-10.9971
Kurdistan	-10.9971
corporation	-10.9971
devastated	-10.9971
refusingto	-10.9971
AmericanIdol	-10.9971
Chirac	-10.9971
Erdogan	-10.9971
fossil	-10.9971
restructuring	-10.9971
sprawling	-10.9971
HumanRights	-10.9971
pornography	-10.9971
Ankara	-10.9971
typhoon	-10.9971
ceiling	-10.9971
ueenElizabethII	-10.9971
harbor	-10.9971
ich	-10.9971
prolonged	-10.9971
ArabEmirates	-10.9971
shouting	-10.9972
stimuluspackage	-10.9972
legislators	-10.9972
optimism	-10.9972
willingnessto	-10.9972
WorkersParty	-10.9972
shattered	-10.9972
lookingforwardto	-10.9972
warehouse	-10.9972
▁Atotalof	-10.9972
tentative	-10.9973
swim	-10.9973
▁Maybe	-10.9973
retirement	-10.9973
Sarah	-10.9974
silent	-10.9974
severalhundred	-10.9975
Illinoissenator	-10.9975
Death	-10.9975
Leader	-10.9976
royalfamily	-10.9976
surroundingthe	-10.9977
Julia	-10.9977
transitionteam	-10.9978
counties	-10.9978
boxoffice	-10.9978
soared	-10.9978
aideto	-10.9979
ATT	-10.9979
theleaderof	-10.9979
▁Who	-10.998
armedforces	-10.9981
▁Iknow	-10.9981
hightech	-10.9982
Yong	-10.9982
▁butshe	-10.9986
enti	-10.9986
Jae	-10.9986
Coast	-10.9987
adoption	-10.9987
nuclearstandoff	-10.9988
▁Thejudge	-10.9989
bride	-10.9991
operatingsystem	-10.9992
extend	-10.9993
verify	-10.9994
▁Thosewho	-10.9994
seriesof	-10.9995
ourown	-10.9995
ahospital	-10.9996
oma	-10.9997
inSanFrancisco	-11.0001
slowly	-11.0002
trainstation	-11.0002
golden	-11.0003
Pen	-11.0003
Morgan	-11.0004
▁spokesmanforthe	-11.0006
themajorityof	-11.0007
ajob	-11.0007
tohalt	-11.0007
Pol	-11.0008
damages	-11.0008
▁toldthe	-11.0009
▁Theplan	-11.0009
sinceit	-11.0011
Thursdaymorning	-11.0012
intheWestBank	-11.0012
▁Po	-11.0013
buck	-11.0014
toban	-11.0015
retreat	-11.0016
anopen	-11.0018
cleanup	-11.0018
menandwomen	-11.0018
weretaken	-11.0021
McCains	-11.0021
ANA	-11.0024
Powell	-11.0025
followedby	-11.0025
northeastof	-11.0026
traveledto	-11.0027
tighten	-11.0028
traditionally	-11.0028
thathasbeen	-11.0028
thebanks	-11.0029
ello	-11.0031
▁TheAmerican	-11.0032
homesand	-11.0038
reportthat	-11.0038
routes	-11.0042
Guard	-11.0043
butwas	-11.0045
▁theyhave	-11.0045
acy	-11.0047
factions	-11.0048
feeding	-11.0051
▁Thecase	-11.0051
▁OnFriday	-11.0052
▁Federal	-11.0053
paidfor	-11.0054
worriedabout	-11.0054
independencefrom	-11.0058
Hir	-11.0059
privately	-11.0062
vin	-11.0063
pla	-11.0063
gger	-11.0063
iang	-11.0064
thecoalition	-11.0064
inthose	-11.0064
tolet	-11.0065
inthewestern	-11.0067
wasoneof	-11.0067
Kan	-11.0068
milesnorthof	-11.0071
prime	-11.0071
OM	-11.0072
Earlierthismonth	-11.0073
▁Without	-11.0074
▁percentand	-11.0077
aftertheir	-11.0078
▁makingit	-11.0078
apermanent	-11.0079
Kims	-11.0079
thathadbeen	-11.0082
Ivebeen	-11.0084
interesting	-11.0086
outpost	-11.0087
runoff	-11.0088
knock	-11.0088
wasdiscovered	-11.0089
Holl	-11.009
customs	-11.0093
stockprice	-11.0094
shortof	-11.0094
havealso	-11.0095
tostudy	-11.0095
asaresultof	-11.0101
tear	-11.0101
formany	-11.0101
clients	-11.0103
inIran	-11.0105
restrictionson	-11.0106
trails	-11.0106
theirjobs	-11.0107
shehas	-11.0107
sincethen	-11.0109
saidonWednesday	-11.0112
exposed	-11.0114
saidonMonday	-11.0114
▁JapanCNN	-11.0115
inOhio	-11.0119
▁Men	-11.0123
areinvestigating	-11.0127
listen	-11.0127
todeclare	-11.0128
fallen	-11.0134
Juan	-11.0136
electronics	-11.0136
symbolof	-11.0138
thirdround	-11.0138
declare	-11.0139
Raj	-11.014
▁Fire	-11.014
tofill	-11.014
▁German	-11.0144
thereactor	-11.0144
answered	-11.0145
amulti	-11.0146
Services	-11.0147
pastor	-11.0147
todrive	-11.0147
togain	-11.0149
centre	-11.0149
TO	-11.015
▁butno	-11.0154
▁Video	-11.0158
handled	-11.016
criticizedthe	-11.016
companythat	-11.0162
whichwas	-11.0162
toldAP	-11.0167
forthefirst	-11.0167
goalis	-11.0168
engines	-11.0171
wasinjured	-11.0171
bre	-11.0172
Jane	-11.0174
schoolsand	-11.0177
newsreports	-11.0181
thathavebeen	-11.0185
▁includingone	-11.0186
ambush	-11.0186
Microsofts	-11.0187
theJoongAngIlbo	-11.0189
youwant	-11.019
theOlympictorch	-11.0191
toextend	-11.0192
thesearch	-11.0196
Ak	-11.02
junta	-11.0202
Eastern	-11.0204
ifying	-11.0207
forthenext	-11.0208
aco	-11.0209
troopsinIraq	-11.021
Wall	-11.0212
athreatto	-11.0212
affectedby	-11.0213
weaken	-11.0214
▁Theteam	-11.0217
aka	-11.0222
Anne	-11.0223
themfrom	-11.0223
Tri	-11.0224
thedate	-11.0229
postedonthe	-11.0229
wascarrying	-11.0231
anyofthe	-11.0231
weretryingto	-11.0233
explor	-11.0233
Thursdaythat	-11.0236
Alan	-11.0237
creation	-11.0237
NK	-11.0239
Ve	-11.0239
underpressure	-11.0239
absence	-11.0239
stabilize	-11.024
TheUnitedNations	-11.0246
▁Butsome	-11.025
mir	-11.0251
Yoon	-11.0251
becauseofhis	-11.0256
duck	-11.0256
presidentelect	-11.0258
withoutany	-11.0259
ababy	-11.0262
todefend	-11.0262
washeld	-11.0263
unveil	-11.0265
themoon	-11.0266
violating	-11.0268
sie	-11.0268
▁European	-11.0269
▁senior	-11.027
perform	-11.0272
mediate	-11.0275
firstlady	-11.0275
fare	-11.0275
supportersof	-11.0276
youget	-11.0282
saidonTuesday	-11.0284
saidithad	-11.0284
▁Morethanpeople	-11.0286
dawn	-11.0288
musicians	-11.0288
productionof	-11.0288
barrel	-11.0288
tosurvive	-11.0292
releaseof	-11.0295
seeded	-11.0297
Nowak	-11.0298
presentation	-11.0299
TheNewYorkTimes	-11.0301
requestfor	-11.0301
▁Or	-11.0302
races	-11.0302
▁TheUN	-11.0304
hide	-11.0308
takeplace	-11.0309
Officer	-11.031
unidentified	-11.0312
threedaysof	-11.0312
exhaust	-11.0313
teargas	-11.0314
Philip	-11.0315
Channel	-11.0316
administrator	-11.0316
expedition	-11.0316
Benedict	-11.0316
Fossett	-11.0316
Nasdaq	-11.0316
stunning	-11.0316
Rescue	-11.0316
belongedto	-11.0316
pyramid	-11.0316
Thanksgiving	-11.0316
dedicated	-11.0316
obstacle	-11.0316
physician	-11.0316
purported	-11.0316
Saakashvili	-11.0316
embryo	-11.0316
intensified	-11.0316
knife	-11.0316
Typhoon	-11.0316
invitation	-11.0316
Croatia	-11.0316
Mercury	-11.0316
Orlando	-11.0316
constitute	-11.0316
diabetes	-11.0316
laboratory	-11.0316
Istanbul	-11.0316
KCNA	-11.0316
revenge	-11.0316
Hubble	-11.0316
assassinated	-11.0316
Swedish	-11.0316
Cannes	-11.0316
declining	-11.0316
Franco	-11.0316
convey	-11.0317
legacy	-11.0317
damaging	-11.0317
biologist	-11.0317
retrieve	-11.0317
chanted	-11.0317
Ireland	-11.0318
Spring	-11.0318
activat	-11.0318
dependingon	-11.0318
waving	-11.0318
resolvingthe	-11.0318
Johnston	-11.0318
grandfather	-11.0318
attheir	-11.0319
prayers	-11.0319
grandmother	-11.0319
counterterrorism	-11.0319
transmission	-11.032
anearlier	-11.032
maritime	-11.032
admir	-11.032
facetoface	-11.032
Julie	-11.032
determination	-11.0322
truly	-11.0322
▁Theblast	-11.0323
palm	-11.0323
racing	-11.0323
counterfeiting	-11.0324
indeed	-11.0325
intheSenate	-11.0325
riotpolice	-11.0325
garden	-11.0325
communistcountry	-11.0326
officialsare	-11.0327
thedollar	-11.0328
bees	-11.0328
hishead	-11.033
couldhelp	-11.033
saidMondaythat	-11.0332
▁hasdied	-11.0333
mainland	-11.0334
clip	-11.0334
involvementinthe	-11.0335
naval	-11.0335
Austrian	-11.0336
Bre	-11.0338
inEnglish	-11.0338
takentohospital	-11.0339
▁FranceCNN	-11.034
▁anIraqi	-11.0341
sack	-11.0341
Ross	-11.0342
▁Analystssay	-11.0342
▁FormerPresident	-11.0342
likethis	-11.0343
thesedays	-11.0343
▁Reports	-11.0344
themwith	-11.0344
▁acres	-11.0345
steer	-11.0345
abreakthrough	-11.0346
▁Beijing	-11.0347
shortterm	-11.0348
expression	-11.0349
controlledby	-11.0349
toCNN	-11.035
afterhewas	-11.0351
Brad	-11.0353
proposals	-11.0354
GeorgeBush	-11.0355
outsidea	-11.0356
ij	-11.0356
thecrew	-11.0359
consent	-11.036
hasyetto	-11.0361
extending	-11.0361
Capt	-11.0361
stuck	-11.0362
purchased	-11.0363
toparticipatein	-11.0368
amile	-11.037
werekidnapped	-11.037
Linda	-11.0373
acomputer	-11.0375
▁thisis	-11.0377
Wang	-11.0377
▁Thecountrys	-11.038
reasonfor	-11.038
applications	-11.0381
Lam	-11.0382
NASAs	-11.0382
asses	-11.0383
howit	-11.0385
antibiotics	-11.0385
forthepast	-11.0386
rains	-11.0386
themountain	-11.0387
tract	-11.0388
anonymous	-11.0392
Susan	-11.0394
thus	-11.0394
justices	-11.0395
▁High	-11.0395
policemen	-11.0395
theheadof	-11.0396
smart	-11.0397
takingplace	-11.0398
lineof	-11.04
byNorthKorea	-11.0405
harmed	-11.0407
inthesouth	-11.0407
cious	-11.0408
tosettle	-11.0409
IOC	-11.0411
▁whoalso	-11.0412
chancesof	-11.0412
aspokesmanforthe	-11.0413
premiere	-11.0414
suburbof	-11.0415
surrender	-11.0415
forhelp	-11.0416
Id	-11.0418
quest	-11.0419
Stan	-11.0421
inAmerica	-11.0422
somebody	-11.0425
▁Lt	-11.0426
spin	-11.0427
oneofhis	-11.0428
headline	-11.0431
tomarkthe	-11.0432
▁Iwould	-11.0437
bearing	-11.0439
republic	-11.0443
aninterviewwith	-11.0445
generalelections	-11.0446
lope	-11.0447
militarybase	-11.0447
organs	-11.0448
todate	-11.0449
inBasra	-11.046
ninth	-11.0461
alsohad	-11.0461
els	-11.0464
anuclearweapon	-11.0466
fivedays	-11.0469
therehavebeen	-11.047
vest	-11.0471
toboost	-11.0473
disrupted	-11.0474
Ivan	-11.0476
beforehe	-11.0477
▁NorthKorean	-11.0479
intheattack	-11.048
▁Itwasthefirst	-11.048
gust	-11.048
▁Your	-11.0481
tributeto	-11.0481
bird	-11.0482
championship	-11.0484
lav	-11.0488
slowed	-11.0488
renew	-11.0495
therebels	-11.0495
nail	-11.0495
supportedby	-11.0497
buthe	-11.05
▁theagencysaid	-11.0502
Gre	-11.0503
arguedthat	-11.0505
button	-11.0509
someofthem	-11.0509
iness	-11.0512
defend	-11.0513
NewYorkMe	-11.0514
magazines	-11.0516
analleged	-11.0519
comesafter	-11.052
controlover	-11.0524
eep	-11.0525
celebrate	-11.0528
gene	-11.0529
supportto	-11.053
sidentialnominee	-11.053
monitor	-11.053
couldsee	-11.0532
Tae	-11.0533
herson	-11.0534
thatshewas	-11.0535
Cat	-11.0536
Rat	-11.0537
Del	-11.0538
regulators	-11.0539
wouldhelp	-11.0539
filming	-11.0539
thatthereis	-11.054
imported	-11.0541
calledoff	-11.0544
tracking	-11.0547
▁FederalReserve	-11.0552
surged	-11.0553
becamea	-11.0553
theIAEA	-11.0555
foratleast	-11.0555
saidtherewere	-11.0557
orbiting	-11.0557
strengthen	-11.0558
thenorthern	-11.0559
▁Oneof	-11.056
saidonThursday	-11.056
Ear	-11.0565
laptop	-11.0567
wereevacuated	-11.0568
thegovernmentof	-11.0568
reviewed	-11.0569
amanwho	-11.057
openedfire	-11.0571
donors	-11.0571
becauseofa	-11.0575
justover	-11.0575
remind	-11.0576
mode	-11.0577
vet	-11.058
estimatesthat	-11.058
preserve	-11.0582
linksto	-11.0583
▁shetold	-11.0584
witnessed	-11.0584
▁percentfrom	-11.0587
symptoms	-11.0587
healthofficials	-11.0588
pieces	-11.0593
Facebook	-11.0597
eastcoast	-11.0597
hewanted	-11.0598
strange	-11.0598
▁Theagreement	-11.0599
thepresidency	-11.0603
▁Apple	-11.0605
NC	-11.0608
clips	-11.0609
BarackObamais	-11.061
gunfire	-11.061
saysithas	-11.0612
fines	-11.0613
hourslater	-11.0614
▁Theruling	-11.0615
▁Oil	-11.0615
agrowing	-11.0615
thevictim	-11.0616
torescue	-11.0617
▁Theannouncement	-11.0618
knowthat	-11.0618
toreport	-11.0623
inthecountrys	-11.0626
unification	-11.0627
Sar	-11.0633
▁Althoughthe	-11.0634
hunger	-11.0636
bath	-11.0636
halfofthe	-11.0639
▁Russian	-11.0641
securitysources	-11.0642
inmind	-11.0642
orso	-11.0643
▁Thaksin	-11.0649
▁perhaps	-11.0649
clu	-11.0649
hasbecomea	-11.065
colleague	-11.065
Dave	-11.0653
thelivesof	-11.0654
expand	-11.0654
ridge	-11.0656
Lin	-11.0656
Denver	-11.0658
bang	-11.066
abouttheir	-11.066
wewant	-11.066
yo	-11.0661
exclusive	-11.0661
obvious	-11.0661
indicatedthat	-11.0661
hon	-11.0662
consistent	-11.0662
haveseen	-11.0663
awaveof	-11.0663
stamp	-11.0664
Down	-11.0665
asuicidebomber	-11.0666
addict	-11.0667
▁Malaysia	-11.0667
pond	-11.0667
Lohan	-11.0669
memorial	-11.067
abad	-11.0671
Convention	-11.0671
wreck	-11.0671
scenario	-11.0672
amemberof	-11.0672
consist	-11.0673
Donald	-11.0673
conglomerate	-11.0673
archaeologist	-11.0673
Arctic	-11.0673
hormone	-11.0673
facilitat	-11.0673
propaganda	-11.0673
Baquba	-11.0673
cholesterol	-11.0673
TourdeFrance	-11.0673
WeatherService	-11.0673
collision	-11.0673
phenomenon	-11.0673
▁Currently	-11.0673
BancoDeltaAsia	-11.0673
Nebraska	-11.0673
OpinionResearch	-11.0673
Professor	-11.0673
ammunition	-11.0673
decisive	-11.0673
sophisticated	-11.0673
implications	-11.0673
Czech	-11.0673
Enterprise	-11.0673
summoned	-11.0673
Hitler	-11.0673
peacekeepers	-11.0673
Manila	-11.0673
Irish	-11.0673
conceal	-11.0673
pistol	-11.0673
PrincessDiana	-11.0674
Douglas	-11.0674
▁CommunistChina	-11.0674
complywith	-11.0674
MemorialDay	-11.0674
Hawk	-11.0674
HighCourt	-11.0674
blind	-11.0674
fatalities	-11.0674
▁Thetwosides	-11.0675
Sheikh	-11.0675
AlGore	-11.0675
astronomers	-11.0675
accountedfor	-11.0675
SpaceCenter	-11.0675
▁Fortune	-11.0675
approximately	-11.0675
roadmap	-11.0675
theoldest	-11.0676
creative	-11.0676
soldierswere	-11.0676
ferry	-11.0677
ankle	-11.0677
trafficking	-11.0677
framework	-11.0678
mild	-11.0678
JohnHoward	-11.0678
Albanian	-11.0678
creatures	-11.0678
menwho	-11.0679
inspections	-11.0679
tookpartin	-11.0679
Brit	-11.068
creditcrisis	-11.068
Network	-11.0681
ownership	-11.0681
Colombias	-11.0682
clues	-11.0684
tofollow	-11.0684
Greenland	-11.0684
transit	-11.0686
inthefaceof	-11.0686
scoring	-11.0686
thiscountry	-11.0688
Cambodian	-11.0688
clashedwith	-11.069
Nigerian	-11.0691
allofus	-11.0691
comfortwomen	-11.0692
shotdead	-11.0692
▁dollar	-11.0694
▁Using	-11.0694
▁Thebill	-11.0696
lee	-11.0697
thesouthern	-11.0699
wartime	-11.0701
thestockmarket	-11.0704
ethical	-11.0707
atthecenterof	-11.0708
hisdaughter	-11.0709
lastFriday	-11.071
cure	-11.0711
hadalready	-11.0712
minds	-11.0713
▁Ford	-11.0716
Wie	-11.0717
thecollapseof	-11.0719
sank	-11.0719
aseControl	-11.072
opento	-11.0722
cle	-11.0722
▁Buthesaid	-11.0723
thepresidentof	-11.0723
theendofthe	-11.0732
▁Officialssay	-11.0733
leftwing	-11.0735
habit	-11.0735
▁Leesaid	-11.0736
discover	-11.0737
uprising	-11.0738
Age	-11.0739
undercontrol	-11.0739
aroundp	-11.0743
Flo	-11.0743
naming	-11.0746
NL	-11.0746
bread	-11.0747
strengthening	-11.0747
▁WallStreet	-11.0748
glaciers	-11.0749
describes	-11.075
annually	-11.075
nationslargest	-11.075
RohMoohyuns	-11.0751
encouraged	-11.0751
undergo	-11.0752
Cu	-11.0753
aggression	-11.0753
anattempt	-11.0755
educational	-11.0755
possibilitythat	-11.0756
wasfounddead	-11.0757
edgeof	-11.0757
tile	-11.0757
veryimportant	-11.0758
Med	-11.0759
Ul	-11.076
toCongress	-11.076
toomany	-11.0761
onIraq	-11.0763
afterward	-11.0764
werereleased	-11.0765
forhours	-11.0767
toimpose	-11.0769
addressing	-11.0777
Great	-11.0778
forDis	-11.0779
afterminutes	-11.078
GE	-11.0785
Jr	-11.0788
purposes	-11.0788
theshooting	-11.0789
jointly	-11.0797
weeksof	-11.0799
tocurb	-11.0799
disappear	-11.0799
tosucceed	-11.0801
hadtobe	-11.0807
▁Headded	-11.0807
criticismof	-11.0807
rov	-11.0808
togiveup	-11.0811
▁hes	-11.0814
pressurefrom	-11.0814
tomakesure	-11.0815
▁upfrom	-11.0816
searching	-11.0818
▁plus	-11.0818
Mideast	-11.0818
Spe	-11.0819
haveyetto	-11.082
▁Syria	-11.0827
availablefor	-11.0831
economyis	-11.0833
resembl	-11.0834
consult	-11.0834
becomethefirst	-11.0835
atthesite	-11.0835
thesuspect	-11.0836
wentoff	-11.0836
oftheworld	-11.0836
awayto	-11.0837
financialsystem	-11.0837
interviewwith	-11.0838
isdueto	-11.0838
▁Theheadofthe	-11.0845
inandaround	-11.0846
tobecomea	-11.0847
▁quoting	-11.0849
commitments	-11.0849
obtainedby	-11.0851
prior	-11.0851
tohit	-11.0854
▁hewas	-11.0858
attheairport	-11.0861
Max	-11.0862
theworldsbiggest	-11.0863
outsideof	-11.0863
acker	-11.0871
aRussian	-11.0874
▁shesays	-11.0878
lighting	-11.0879
settle	-11.0881
aboutthis	-11.0882
tips	-11.0883
exchanges	-11.0883
▁alocal	-11.0883
finishing	-11.0887
Oh	-11.0889
restraint	-11.089
tobuilda	-11.089
sayit	-11.0894
allover	-11.0894
fellto	-11.0895
thatledto	-11.0898
Philippines	-11.09
inRome	-11.09
▁Colorado	-11.0901
▁Weneed	-11.0902
apieceof	-11.0903
▁Public	-11.0904
cheaper	-11.0904
headedby	-11.0907
earlyMonday	-11.0907
survivor	-11.0907
inspace	-11.0909
wellknown	-11.0911
yearoldson	-11.0914
thebaby	-11.0914
impose	-11.0919
Ahmadinejad	-11.0923
inSpain	-11.0924
apressconference	-11.0926
Jud	-11.0927
participatein	-11.0928
comesfrom	-11.0929
asignof	-11.093
herdeath	-11.0935
Yan	-11.0935
nett	-11.0935
tocommit	-11.0936
prompt	-11.0937
theSupremeCourt	-11.0939
thekillingof	-11.0941
tner	-11.0945
Chineseofficials	-11.0947
▁trillionwon	-11.0949
sattorney	-11.0957
VirginiaTech	-11.0959
inSouthAfrica	-11.096
travelto	-11.0961
mel	-11.0961
DI	-11.0963
ananti	-11.0964
BI	-11.0965
canhelp	-11.0965
dual	-11.0967
probeinto	-11.0968
aregoing	-11.0968
holidays	-11.0969
forecasters	-11.0971
▁Spears	-11.0976
replace	-11.0978
hasannounced	-11.0979
CatholicChurch	-11.0979
farmore	-11.0979
Az	-11.0985
client	-11.0985
atnight	-11.0993
thatcanbe	-11.0994
planfor	-11.0995
celebrations	-11.0998
hemade	-11.0999
Electronic	-11.1
wreckage	-11.1001
anendtothe	-11.1004
ontheroad	-11.1006
threeother	-11.1006
▁Federer	-11.1006
trans	-11.1007
unsuccessful	-11.1008
locked	-11.1008
checking	-11.1009
prints	-11.1009
thegovernor	-11.1012
▁Per	-11.1012
sofficesaid	-11.1014
hasasked	-11.1016
soft	-11.1022
overtheir	-11.1023
askedfor	-11.1024
assume	-11.1024
crossed	-11.1024
Kh	-11.1025
wereamongthe	-11.1027
stepping	-11.1027
tire	-11.103
chill	-11.1034
gasprices	-11.1034
deliberate	-11.1034
vow	-11.1034
greenhousegas	-11.1035
possess	-11.1036
custodyof	-11.1036
careful	-11.1037
mourn	-11.1038
negotiation	-11.1039
▁Until	-11.1039
vitamin	-11.104
politically	-11.1041
generals	-11.1041
meals	-11.1042
supporter	-11.1042
bench	-11.1043
Ocean	-11.1043
Potter	-11.1043
Rumsfeld	-11.1043
eligible	-11.1044
Jerry	-11.1044
nervous	-11.1044
Fujimori	-11.1044
▁Protesters	-11.1044
artificial	-11.1044
lieutenant	-11.1044
ourselves	-11.1044
securing	-11.1044
shelves	-11.1044
▁Thirty	-11.1044
Glasgow	-11.1044
Murphy	-11.1044
RafaelNadal	-11.1044
artillery	-11.1044
blockbuster	-11.1044
lecture	-11.1044
predominantly	-11.1044
satisfied	-11.1044
Guatemala	-11.1044
McDonalds	-11.1044
Starbucks	-11.1044
rehabilitation	-11.1044
Arthur	-11.1044
BearStearns	-11.1044
embezzlement	-11.1044
rcantileExchange	-11.1044
Arnold	-11.1044
territories	-11.1044
Kerviel	-11.1044
MittRomney	-11.1044
fishermen	-11.1044
mirror	-11.1044
mystery	-11.1044
GoldenGlobe	-11.1044
MarineCorps	-11.1044
andPrevention	-11.1044
pioneer	-11.1044
MorganTsvangirai	-11.1044
System	-11.1044
sibling	-11.1044
enrouteto	-11.1044
studied	-11.1044
theSovietUnion	-11.1044
Russell	-11.1044
ChiefExecutive	-11.1044
transparent	-11.1044
amazing	-11.1044
distinct	-11.1044
KT	-11.1044
guitar	-11.1044
theKoreaHerald	-11.1044
throat	-11.1044
ForeignOffice	-11.1045
BlueHouse	-11.1045
editorial	-11.1045
shortageof	-11.1045
ParisHilton	-11.1045
automobile	-11.1045
indictment	-11.1045
attheageof	-11.1045
wereexpected	-11.1045
MiddleEastern	-11.1045
LaborParty	-11.1045
sensation	-11.1045
reserves	-11.1046
decree	-11.1046
nleaderKimJongil	-11.1046
Tourism	-11.1047
thwart	-11.1047
focusingon	-11.1047
capability	-11.1048
fourtimes	-11.1048
weakness	-11.1048
Protection	-11.1048
consumed	-11.1048
unanimously	-11.1048
Golden	-11.1049
extract	-11.1049
Internetusers	-11.1049
Workers	-11.105
▁Theincident	-11.105
sixnationtalks	-11.1051
openingceremony	-11.1051
flick	-11.1051
secretive	-11.1052
phoneinterview	-11.1054
Talk	-11.1055
invade	-11.1055
mediator	-11.1056
segment	-11.1057
Yonhapnewsagency	-11.1057
Book	-11.1059
disarmamenttalks	-11.1059
overwhelmingly	-11.1059
SouthAmerica	-11.1059
toact	-11.1062
Hel	-11.1062
milestone	-11.1063
professorat	-11.1064
cartoon	-11.1066
andpossibly	-11.1066
seemedto	-11.1066
couldnotbe	-11.1067
mostrecent	-11.1068
verdict	-11.107
Brig	-11.1072
whathecalled	-11.1075
Father	-11.1075
gointo	-11.1079
grewup	-11.108
inU	-11.1082
roundoftalks	-11.1083
▁Smith	-11.1083
Sports	-11.1083
Road	-11.1083
announcedTuesday	-11.1085
andWashington	-11.1087
Intel	-11.1091
Sim	-11.1093
thepopulation	-11.1093
lender	-11.1094
pie	-11.1094
Jay	-11.1095
theeffectsof	-11.1096
theterritory	-11.1098
ablack	-11.1098
waterand	-11.1098
amass	-11.1105
finds	-11.1106
donothave	-11.1106
wasannounced	-11.1112
economiccrisis	-11.1112
climbing	-11.1114
inyour	-11.1114
relyon	-11.1114
seenasa	-11.1114
helm	-11.1115
▁Mugabe	-11.112
thecouples	-11.112
wasamong	-11.112
colon	-11.1122
aver	-11.1122
uppoints	-11.1124
semi	-11.1124
specialist	-11.1125
Head	-11.1128
turnedup	-11.1128
trash	-11.1129
crying	-11.1131
divers	-11.1132
Lisa	-11.1134
theydont	-11.1135
▁Idontknow	-11.1135
outbreakof	-11.1135
andmost	-11.1136
isunderway	-11.1138
dug	-11.1139
byPresident	-11.114
thbirthday	-11.1141
setof	-11.1141
▁Daniel	-11.1143
▁Russias	-11.1144
hisname	-11.1144
talkto	-11.1145
ortwo	-11.1147
▁theres	-11.1149
Top	-11.1149
▁theheadof	-11.1149
▁Aman	-11.115
legend	-11.1151
acriminal	-11.1151
transferredto	-11.1151
wad	-11.1151
criticizedfor	-11.1157
hearings	-11.1159
roleas	-11.116
donor	-11.1161
anaverageof	-11.1163
willgive	-11.1164
gig	-11.1164
someonewho	-11.117
▁saidS	-11.117
waythrough	-11.117
▁Forthe	-11.1173
sayingthey	-11.1175
curr	-11.1176
wings	-11.1178
persuad	-11.1179
itter	-11.118
electrical	-11.1181
Holy	-11.1185
outbreak	-11.1186
▁GMT	-11.1191
secondplace	-11.1192
areal	-11.1194
thegunman	-11.1194
sacked	-11.1196
withmorethan	-11.1196
insoutheastern	-11.1198
Express	-11.1199
scientistshave	-11.12
Antarctica	-11.1201
workingfor	-11.1202
aquick	-11.1204
secondround	-11.1205
destroying	-11.1205
mond	-11.1209
itout	-11.121
CE	-11.1211
▁hadbeen	-11.1212
boo	-11.1212
▁theMinistryof	-11.1213
▁made	-11.1214
tap	-11.1216
corruptionand	-11.1218
blo	-11.1218
surf	-11.1225
dish	-11.1226
thoughttohave	-11.123
protested	-11.1233
abook	-11.1235
Heart	-11.1235
suicideattacks	-11.1236
itscitizens	-11.1237
tolose	-11.1237
askingfor	-11.1237
Shan	-11.1245
burns	-11.1246
getmore	-11.1246
solving	-11.1247
birdflu	-11.1247
somewhere	-11.125
crush	-11.125
hasurged	-11.1251
wasplaced	-11.1251
likethat	-11.1251
clashesbetween	-11.1251
▁called	-11.1252
▁McCainsaid	-11.1252
aboutminutes	-11.1255
fail	-11.1255
endedin	-11.1255
pole	-11.1258
thseed	-11.126
aimsto	-11.1262
dorm	-11.1265
▁comparedto	-11.1265
poses	-11.1269
laid	-11.127
Rod	-11.1272
afifth	-11.1273
endup	-11.1273
accountfor	-11.1274
wasdueto	-11.1276
despitea	-11.1279
▁kilometers	-11.128
thewrong	-11.1281
queen	-11.1281
ullah	-11.1281
aftershock	-11.1282
faithful	-11.1282
theircountry	-11.1288
hadearlier	-11.129
Anti	-11.1295
CNNAn	-11.1295
andlater	-11.1296
▁George	-11.1297
farms	-11.1298
didntknow	-11.1298
thatfollowed	-11.1302
herparents	-11.1302
thebodiesof	-11.1304
emails	-11.1305
Mus	-11.1305
twowomen	-11.1308
▁NewJersey	-11.1308
tactics	-11.1309
tense	-11.1309
substitute	-11.1312
thoseof	-11.1312
▁ratherthan	-11.1313
haskilled	-11.1314
Arm	-11.1316
awhite	-11.132
attendedthe	-11.1324
▁Bushand	-11.1326
Wu	-11.1326
triggeredby	-11.1333
Indians	-11.1336
hascaused	-11.1338
strained	-11.1342
luck	-11.1343
sheets	-11.1343
sayingthat	-11.1344
unprecedented	-11.1345
tendto	-11.135
salesof	-11.135
tocontain	-11.1354
willsee	-11.1355
toconvince	-11.1355
orderedthe	-11.1361
▁Shes	-11.1365
▁andnow	-11.1365
curb	-11.1366
intheUK	-11.1368
signedby	-11.137
apersonal	-11.137
ensofthousandsof	-11.1371
sayshes	-11.1372
toidentify	-11.1372
dive	-11.1373
diedafter	-11.1375
genes	-11.1377
pets	-11.1378
Sy	-11.1379
sweep	-11.1379
barrier	-11.1386
▁maybe	-11.1386
Met	-11.1388
Americantroops	-11.1388
theyfound	-11.1389
followers	-11.139
asuspect	-11.1391
shipments	-11.1391
battlewith	-11.1393
▁CNNs	-11.1395
jets	-11.1398
terrorismand	-11.14
Turn	-11.1401
spic	-11.1403
intervene	-11.1405
toensurethat	-11.1407
bump	-11.1409
apowerful	-11.141
didnthave	-11.1411
▁Jackson	-11.1411
▁Theresult	-11.1411
pattern	-11.1414
elaborate	-11.1414
slot	-11.1415
claimedthat	-11.1415
swift	-11.1416
ultimate	-11.1416
monarch	-11.1418
APA	-11.1418
slum	-11.1419
dri	-11.1419
plunge	-11.142
reserve	-11.142
cartoons	-11.1421
forests	-11.1422
cream	-11.1426
Elizabeth	-11.1428
Tsvangirai	-11.1428
Ibrahim	-11.1428
Economist	-11.1428
securities	-11.1428
telecom	-11.1428
impressive	-11.1428
polarbear	-11.1428
slushfund	-11.1428
contradict	-11.1428
dignity	-11.1428
Entertainment	-11.1428
Holocaust	-11.1428
Pavarotti	-11.1428
batteries	-11.1428
evaluation	-11.1428
hydro	-11.1428
relevant	-11.1428
brilliant	-11.1428
challenging	-11.1428
homicide	-11.1428
marathon	-11.1428
theuniverse	-11.1428
Kuznetsov	-11.1428
pocket	-11.1428
shuttingdown	-11.1428
victories	-11.1428
▁Residents	-11.1428
samesexmarriage	-11.1428
transcript	-11.1428
Kazakhstan	-11.1428
consortium	-11.1428
psychology	-11.1428
HurricaneKatrina	-11.1428
franchise	-11.1428
Congressional	-11.1428
isolation	-11.1428
imprisoned	-11.1428
spokesperson	-11.1428
GuantanamoBay	-11.1428
MikeHuckabee	-11.1429
crater	-11.1429
▁Early	-11.1429
accessible	-11.1429
sketch	-11.1429
rugged	-11.1429
grabbed	-11.1429
talkedabout	-11.1429
happiness	-11.1429
tennis	-11.1429
drought	-11.1429
approvalrating	-11.1429
Incheon	-11.1429
IndianaJones	-11.1429
Sichuanprovince	-11.143
examining	-11.143
biological	-11.143
AfricanUnion	-11.143
iko	-11.143
harmful	-11.1431
inadditionto	-11.1431
imposing	-11.1431
cousin	-11.1431
attractive	-11.1431
sexualassault	-11.1431
ficti	-11.1432
commun	-11.1432
couldget	-11.1432
Busan	-11.1433
hadnotbeen	-11.1433
modest	-11.1434
wives	-11.1434
humor	-11.1435
Jiang	-11.1435
SuperTuesday	-11.1435
BritishAirways	-11.1436
citizenship	-11.1437
aboycott	-11.1438
replacing	-11.1438
isgoingtobe	-11.144
obviously	-11.1441
▁ithas	-11.1443
patterns	-11.1443
comesamid	-11.1443
tender	-11.1444
▁TheBBCreports	-11.1444
countsof	-11.1444
youths	-11.1445
theresult	-11.1446
atatime	-11.1447
crop	-11.1448
largescale	-11.1448
▁Webelieve	-11.1449
▁Dozensof	-11.1449
MexicoCity	-11.1449
foodprices	-11.1449
▁Therehavebeen	-11.145
militarycoup	-11.145
understood	-11.1451
aftershocks	-11.1452
hinted	-11.1452
hasdied	-11.1453
Boul	-11.1453
Knut	-11.1453
smell	-11.1454
ameetingwith	-11.1454
moreimportant	-11.1455
Hope	-11.1456
willtakeplace	-11.1456
▁Nowak	-11.1457
PoliceChief	-11.1458
defined	-11.1459
bishop	-11.146
fornearly	-11.146
manufacturer	-11.1464
drain	-11.1465
tel	-11.1465
tospend	-11.1468
brew	-11.147
hasdecidedto	-11.1471
weighed	-11.1472
Madoff	-11.1474
▁Opposition	-11.1474
anendto	-11.1475
Lance	-11.1475
Well	-11.1478
fasterthan	-11.148
nuclearpower	-11.1482
comeout	-11.1482
aredemanding	-11.1484
Jobs	-11.1484
onfire	-11.1485
morethanpoints	-11.1486
weakened	-11.1491
▁Attorney	-11.1493
wildfire	-11.1493
nam	-11.1493
hail	-11.1495
lookinginto	-11.1496
▁Amid	-11.1497
tours	-11.1498
jar	-11.1498
thelevelof	-11.1498
totravelto	-11.1499
expressedhis	-11.15
establishing	-11.15
acrowdof	-11.1501
anapology	-11.1503
aFrench	-11.1503
Parker	-11.1503
terrorattacks	-11.1504
sel	-11.1506
hiscountrys	-11.1507
slammedinto	-11.1508
inthemiddleof	-11.1508
▁Officialssaid	-11.1509
rak	-11.151
formerU	-11.1511
infrontofthe	-11.1514
immigrants	-11.1515
calledit	-11.1516
flowers	-11.1521
massage	-11.1522
challenger	-11.1523
representation	-11.1523
container	-11.1524
mag	-11.1524
liver	-11.1525
fightingbetween	-11.1526
thefightagainst	-11.1527
aseparate	-11.1529
numberone	-11.153
comparedwith	-11.1531
giveup	-11.1532
friendship	-11.1532
Dick	-11.1533
wastoo	-11.1533
angered	-11.1537
scoresof	-11.1537
bothcountries	-11.1538
▁LA	-11.1541
sofdollarsin	-11.1541
recordhigh	-11.1541
revive	-11.1542
declinein	-11.1542
RohMoohyunand	-11.1542
Hart	-11.1544
itcouldbe	-11.1547
mming	-11.1548
anex	-11.1548
tops	-11.1548
Roy	-11.1549
Ihad	-11.155
▁Analysts	-11.1552
intoIraq	-11.1555
offtheir	-11.1557
themeasure	-11.1558
diverse	-11.1558
Sean	-11.1558
Petro	-11.1558
prostitutes	-11.1558
implemented	-11.156
▁Treasury	-11.1562
folks	-11.157
isbelievedtohave	-11.1571
beaches	-11.1572
Mondayafternoon	-11.1573
sleeping	-11.1573
agiant	-11.1575
Sher	-11.1577
asharp	-11.1578
inMumbai	-11.1578
▁TheJapanese	-11.1579
goodfor	-11.1582
▁Everyone	-11.1585
rude	-11.1585
tribes	-11.1587
anannual	-11.1588
waslaunched	-11.1589
atripto	-11.159
describing	-11.159
bestknown	-11.1592
comeunder	-11.1593
studios	-11.1593
Gene	-11.1597
murders	-11.1598
hiscareer	-11.1598
fromJapan	-11.1601
chan	-11.1601
itisnot	-11.1603
carsand	-11.1608
couldcause	-11.1608
retire	-11.1613
werekilledinthe	-11.1615
thecityof	-11.1615
▁saida	-11.1617
▁respectively	-11.1618
inIowa	-11.162
knownfor	-11.1622
foundinthe	-11.1624
somepeople	-11.1624
tomakeit	-11.1625
callson	-11.1626
incentives	-11.1628
healthand	-11.1632
sentences	-11.1634
choices	-11.1636
regardingthe	-11.1636
thezoo	-11.1636
warming	-11.164
allegation	-11.1641
byphone	-11.1643
inMiami	-11.1644
todecide	-11.1646
ashore	-11.1649
parking	-11.1649
murdered	-11.165
sincehe	-11.1652
attheendofthe	-11.1655
ivo	-11.1655
Choi	-11.1656
tostopthe	-11.1656
▁economy	-11.1658
totalkabout	-11.166
sessions	-11.1661
▁raising	-11.1662
mining	-11.1662
istheonly	-11.1664
moon	-11.1665
illa	-11.1666
datefor	-11.1668
totheground	-11.1669
ua	-11.1669
Institutefor	-11.167
childrenare	-11.1672
conditionsfor	-11.1673
▁andhis	-11.1676
headingto	-11.1677
▁Themovie	-11.1677
▁thereis	-11.1678
difficulty	-11.168
printed	-11.1681
alsohas	-11.1686
aboardthe	-11.1687
opinionpolls	-11.1687
▁whodied	-11.169
acomplete	-11.1693
deathof	-11.1693
ire	-11.1696
recommendations	-11.1697
Pl	-11.1697
filling	-11.1698
appearances	-11.17
advis	-11.1705
ien	-11.1706
outgoing	-11.171
beyondthe	-11.171
▁Chief	-11.1712
andget	-11.1713
militantsand	-11.1713
officialstoldCNN	-11.1713
complained	-11.1717
forObama	-11.1717
doesnthave	-11.1718
▁Theexplosion	-11.1719
▁Duringhis	-11.172
affects	-11.1722
Karachi	-11.1725
tensionsbetween	-11.1731
approveda	-11.1732
fivepeople	-11.1732
theperson	-11.1732
policesay	-11.1735
feat	-11.1735
thebus	-11.1735
▁Therewasno	-11.1737
astep	-11.1742
Pakistanis	-11.1745
alsocalledfor	-11.1746
DE	-11.1747
Dur	-11.1747
anj	-11.1748
thepeninsula	-11.1748
assigned	-11.175
hasincreased	-11.1751
inItaly	-11.1752
inLasVegas	-11.1753
guarantees	-11.1754
Shu	-11.1755
wereun	-11.1758
▁Thedeal	-11.1765
aminor	-11.1768
crossedthe	-11.1769
thesixth	-11.1771
agreementwith	-11.1773
Environment	-11.1774
toquit	-11.1779
▁TheSeoul	-11.178
hadgone	-11.178
imbabwean	-11.178
aspir	-11.1785
systemis	-11.1789
Penn	-11.1791
ignore	-11.1797
firststep	-11.18
emerge	-11.1801
listento	-11.1802
Gro	-11.1802
thatthese	-11.1806
▁announced	-11.1806
advisers	-11.1807
Animal	-11.1808
thereclusive	-11.181
tons	-11.1812
aneconomic	-11.1812
TVshow	-11.1813
Bond	-11.1813
contend	-11.1815
▁OnThursday	-11.1818
▁Themeeting	-11.1818
thatithad	-11.1819
dressedin	-11.1819
creature	-11.1822
combination	-11.1823
qualified	-11.1826
interior	-11.1826
migrants	-11.1826
automatic	-11.1826
Memorial	-11.1827
colonial	-11.1828
municipal	-11.1828
surviving	-11.1828
acquitted	-11.1828
Campaign	-11.1828
assurance	-11.1828
simultaneous	-11.1828
RhodeIsland	-11.1828
inthemidstof	-11.1828
mammoth	-11.1828
terrible	-11.1828
voluntarily	-11.1828
CristianoRonaldo	-11.1828
HwangWoosuk	-11.1828
SuperiorCourt	-11.1828
stunned	-11.1828
Business	-11.1828
Gibbons	-11.1828
heavilyfortified	-11.1828
paparazzi	-11.1828
powder	-11.1828
vacuum	-11.1828
vegetable	-11.1828
Anthony	-11.1828
McCartney	-11.1828
Melbourne	-11.1828
accelerate	-11.1828
contingent	-11.1828
sentencing	-11.1828
BritneySpears	-11.1828
Grammy	-11.1828
Temple	-11.1828
intensity	-11.1828
radiation	-11.1828
tremendous	-11.1828
▁Unfortunately	-11.1828
ArmedForcesof	-11.1828
GordonJohndroe	-11.1828
efficiency	-11.1828
gravity	-11.1828
Phillips	-11.1828
choosing	-11.1828
imprisonment	-11.1828
oriented	-11.1828
resumptionof	-11.1828
irregularities	-11.1828
Computer	-11.1828
atrocities	-11.1828
kimchi	-11.1828
Nature	-11.1828
NorthernIreland	-11.1828
subprimemortgage	-11.1828
BenBernanke	-11.1828
Cardinal	-11.1828
memories	-11.1828
parkinglot	-11.1829
versus	-11.1829
ethanol	-11.1829
directing	-11.1829
shoppers	-11.1829
SARS	-11.1829
premature	-11.1829
Morning	-11.1829
notorious	-11.1829
engaging	-11.1829
histeam	-11.1829
Electoral	-11.1829
regardedas	-11.183
opposing	-11.183
worsening	-11.183
▁Oilprices	-11.183
passionate	-11.183
SamsungGroup	-11.183
Nancy	-11.183
textbooks	-11.183
afreetrade	-11.1831
ElectionDay	-11.1831
tattoo	-11.1831
irresponsible	-11.1831
committedsuicide	-11.1831
characterized	-11.1831
topreventthe	-11.1832
foster	-11.1832
tohide	-11.1832
investor	-11.1832
aviation	-11.1833
changesin	-11.1833
Universal	-11.1833
romance	-11.1834
Rafa	-11.1834
frontier	-11.1834
taught	-11.1834
plotting	-11.1834
Polish	-11.1836
hammer	-11.1836
entitled	-11.1836
Matsu	-11.1836
duringWorldWarII	-11.1836
rulingparty	-11.1836
beloved	-11.1837
bytelephone	-11.1837
Brook	-11.1838
Princess	-11.1838
Barry	-11.1838
WashingtonPost	-11.1838
▁Sincethen	-11.1838
valid	-11.1838
NationalGuard	-11.1839
raft	-11.1839
laterthismonth	-11.1841
tally	-11.1842
excuse	-11.1842
▁Butthey	-11.1842
commut	-11.1842
lotsof	-11.1843
inMexico	-11.1843
willprovide	-11.1843
percentage	-11.1844
inthesecond	-11.1844
HuJintao	-11.1846
Ferr	-11.1846
▁referringto	-11.1847
exhibition	-11.1848
nuclearcrisis	-11.1848
brown	-11.1848
▁thecompany	-11.1852
willstart	-11.1853
Week	-11.1853
Market	-11.1854
booked	-11.1854
thermal	-11.1854
kel	-11.1854
whereit	-11.1855
fearsthat	-11.1858
acknowledgedthat	-11.1858
suits	-11.186
enza	-11.186
nuclearfuel	-11.1861
▁Neither	-11.1862
tostrengthen	-11.1862
Bali	-11.1863
mechanical	-11.1863
negotiated	-11.1863
accusing	-11.1864
reference	-11.1864
sexoffender	-11.1865
werent	-11.1865
listening	-11.1866
Jung	-11.1867
underwent	-11.1867
Federer	-11.1869
Easter	-11.1871
toevacuate	-11.1872
cake	-11.1872
▁Wemust	-11.1872
notenough	-11.1873
▁TheKorea	-11.1873
Fridaynight	-11.1874
uncertain	-11.1878
amajorityof	-11.1879
▁wholives	-11.1881
stressedthat	-11.1882
immediatelyclear	-11.1883
carbombs	-11.1884
Six	-11.1884
inevery	-11.1888
dayslater	-11.1888
afterlosing	-11.1889
sealed	-11.1891
mad	-11.1893
Singh	-11.1897
cigarettes	-11.1897
stayin	-11.1899
Nav	-11.1901
aterrorist	-11.1902
ministryofficial	-11.1904
thespreadof	-11.1905
tofix	-11.1907
inSingapore	-11.1909
midday	-11.1911
fullof	-11.192
longrange	-11.192
theyll	-11.1921
dozens	-11.1923
seemsto	-11.1923
Gh	-11.1925
waselected	-11.1925
hind	-11.1927
isfacing	-11.1928
toappear	-11.193
adraft	-11.1934
twoorthree	-11.1938
sectarian	-11.1938
untilit	-11.1942
seemto	-11.1946
theembassy	-11.1949
Mah	-11.1951
measured	-11.1951
Centers	-11.1954
ssecond	-11.1955
rolled	-11.1956
produces	-11.1959
asprimeminister	-11.1961
sounded	-11.1963
haspassed	-11.1963
Dam	-11.1966
tools	-11.1967
villa	-11.1971
thearrestof	-11.1971
apologized	-11.1973
bak	-11.1974
aconstitutional	-11.1976
▁Wewere	-11.1976
ETA	-11.1977
lastweekend	-11.1978
gangs	-11.1978
indefinitely	-11.1979
voter	-11.1982
Chos	-11.1983
reportreleased	-11.1984
waschargedwith	-11.1985
Net	-11.1985
experiments	-11.1986
withdrawing	-11.1987
theamountof	-11.1993
Hills	-11.1997
drift	-11.1999
achieve	-11.2001
There	-11.2001
theWorld	-11.2002
gna	-11.2006
knowwhat	-11.2008
triesto	-11.2009
tobeheld	-11.2013
hun	-11.2014
madefrom	-11.2015
happens	-11.2018
priest	-11.202
anexplosion	-11.2021
udge	-11.2024
wouldgive	-11.2027
fordecades	-11.2027
rist	-11.2028
thepriceof	-11.2029
▁whichhad	-11.2031
Ball	-11.2032
▁Ihope	-11.2033
adealwith	-11.2037
Four	-11.2038
dong	-11.2039
monthof	-11.2041
totravel	-11.2041
Associationof	-11.2045
ayearearlier	-11.2045
tomonitor	-11.2046
hedid	-11.2048
tempt	-11.2051
concernedthat	-11.2053
yearoldboy	-11.206
peopledead	-11.206
uraniumenrich	-11.2061
inthecentral	-11.2061
nuclearnegotiat	-11.2064
terroristattack	-11.2064
numberofpeople	-11.2065
threateningto	-11.2068
counting	-11.2072
abel	-11.2077
internet	-11.2078
hiswork	-11.2079
partyleader	-11.2081
intheprocessof	-11.2084
contracted	-11.2088
slim	-11.209
▁Theprotesters	-11.2092
operators	-11.2092
feelings	-11.2096
grounds	-11.2096
thefull	-11.21
Adam	-11.2102
tellyou	-11.2105
anextra	-11.2107
lowered	-11.2107
highlighted	-11.2108
▁Beforethe	-11.2109
starring	-11.211
thecontroversial	-11.2111
reak	-11.2111
▁mostofthem	-11.2112
Britishtroops	-11.2116
sixother	-11.2117
inappropriate	-11.2118
remarkable	-11.2119
RC	-11.2119
expense	-11.2122
returnhome	-11.2125
bodyguards	-11.2125
atSt	-11.2128
districtof	-11.2129
forfailingto	-11.2137
corn	-11.2139
Sarkozys	-11.214
abused	-11.2144
apositive	-11.2144
etti	-11.2146
analystssaid	-11.2147
areawhere	-11.2148
ssuchasthe	-11.2157
exploit	-11.2158
inCongress	-11.2159
slammed	-11.2159
veterans	-11.2161
toforce	-11.2161
spendingon	-11.2162
militantgroup	-11.2173
predecessor	-11.2176
theColombian	-11.2176
toahospital	-11.2177
scores	-11.2177
▁Petraeus	-11.2177
detain	-11.2178
UC	-11.2179
agreedon	-11.219
learn	-11.2191
werewoundedinthe	-11.2194
Kosovos	-11.2196
shelters	-11.2196
nonprofit	-11.2197
endorse	-11.2197
atleastthree	-11.2199
leadershave	-11.22
propose	-11.2201
awaiting	-11.2206
offenders	-11.2207
boot	-11.2208
comingfrom	-11.2209
firsthalf	-11.2214
amedical	-11.222
meetwith	-11.2221
observe	-11.2222
iano	-11.2223
lecommunications	-11.2227
confess	-11.223
Midwest	-11.2233
ayearoldboy	-11.2234
scare	-11.2234
partymembers	-11.2235
Ghazni	-11.2235
Peninsula	-11.2236
▁Yang	-11.2238
Talibanfighters	-11.2238
stripped	-11.2242
Sichuan	-11.2243
Mad	-11.2244
Premier	-11.2245
herlife	-11.2245
Maradona	-11.2245
inaccordancewith	-11.2245
ChungDongyoung	-11.2245
DanaPerino	-11.2245
▁sweetcrudefor	-11.2245
Schneider	-11.2245
earliest	-11.2245
genuine	-11.2245
fiscal	-11.2245
Conservation	-11.2245
Jeffrey	-11.2245
Liberation	-11.2245
junior	-11.2245
prosperity	-11.2245
Brussels	-11.2245
Woolmer	-11.2245
concentration	-11.2245
flexible	-11.2245
populated	-11.2245
Chaudhry	-11.2245
Harvey	-11.2245
MwaiKibaki	-11.2245
bizarre	-11.2245
seizure	-11.2245
psychologist	-11.2245
socialnetworking	-11.2245
▁Lawmakers	-11.2245
takenintocustody	-11.2245
companion	-11.2245
signature	-11.2245
Maoist	-11.2245
Collins	-11.2245
Laurean	-11.2245
BMW	-11.2245
gadget	-11.2245
squeeze	-11.2245
programming	-11.2245
ethics	-11.2245
Interfax	-11.2245
UFO	-11.2245
▁DavidPetraeus	-11.2245
Shipman	-11.2245
GeneralAssembly	-11.2245
relaxed	-11.2245
aroundtheglobe	-11.2245
Industrial	-11.2245
DefenseForces	-11.2245
Phillies	-11.2245
Buddhistmonks	-11.2245
▁Membersof	-11.2246
merely	-11.2246
bonuses	-11.2246
Honda	-11.2246
frog	-11.2246
tropicalstorm	-11.2246
confidential	-11.2246
poised	-11.2246
LaborDepartment	-11.2247
Garden	-11.2247
Bruni	-11.2247
plug	-11.2247
[...]
