<pad>	0
<s>	0
</s>	0
<unk>	0
▁.	-3.05992
▁	-3.1848
의	-4.18001
이	-4.21184
▁,	-4.27176
는	-4.40261
을	-4.63797
가	-4.66121
에	-4.77124
은	-4.79504
를	-4.97559
에서	-5.06731
한	-5.23576
로	-5.28846
인	-5.39599
과	-5.45339
다	-5.45524
고	-5.48585
했다	-5.52464
와	-5.53665
으로	-5.69937
도	-5.74347
일	-6.02857
하는	-6.13345
해	-6.14978
지	-6.22605
에대한	-6.26855
▁그는	-6.37026
전	-6.41448
자	-6.41666
며	-6.47392
된	-6.49653
나	-6.51271
스	-6.51551
시	-6.58344
주	-6.59211
하고	-6.59801
어	-6.61322
고말했다	-6.63277
들이	-6.63414
리	-6.64672
사	-6.65507
에게	-6.65526
만	-6.66937
기	-6.68532
수	-6.6875
에대해	-6.70472
라	-6.71582
아	-6.71627
중	-6.72591
미	-6.72816
대	-6.76309
들은	-6.76974
그	-6.7814
s	-6.79956
고전했다	-6.80415
▁그러나	-6.81169
비	-6.81302
하고있다	-6.81981
고밝혔다	-6.83955
미국	-6.84644
▁한편	-6.84781
하	-6.85169
서	-6.8551
내	-6.95714
됐다	-6.96643
년	-6.97964
바	-6.989
부	-6.99424
들	-6.99469
성	-7.03555
마	-7.06353
등	-7.06829
▁이	-7.07877
적	-7.08653
세	-7.09565
안	-7.11138
에는	-7.11702
드	-7.11755
명	-7.12711
더	-7.12748
오	-7.13136
후	-7.13308
하며	-7.14882
까지	-7.16857
치	-7.20517
소	-7.21953
원	-7.23005
두	-7.23858
이번	-7.24438
밝혔다	-7.24647
트	-7.25238
타	-7.25404
할	-7.25406
상	-7.25432
보	-7.26844
했으며	-7.26921
개	-7.27932
한다	-7.28191
적인	-7.29251
게	-7.29459
정	-7.29565
약	-7.29568
이다	-7.31343
진	-7.32216
선	-7.331
신	-7.33354
파	-7.33806
및	-7.33998
들을	-7.34764
면	-7.34773
대변인은	-7.35079
제	-7.36038
다른	-7.36454
니	-7.36738
하기위해	-7.37079
당	-7.37497
일현지시간	-7.37622
차	-7.38967
말	-7.39541
여	-7.4023
던	-7.40417
카	-7.40934
었다	-7.40982
이후	-7.42101
명의	-7.43232
피	-7.43546
우	-7.43608
이라크	-7.43843
조	-7.45315
했던	-7.45417
구	-7.45753
에있는	-7.45812
모	-7.45936
고있다	-7.46001
노	-7.46539
디	-7.46642
무	-7.47624
에서는	-7.48865
많은	-7.48952
중국	-7.49904
장	-7.51133
고덧붙였다	-7.51332
레	-7.51829
반	-7.53028
실	-7.53253
야	-7.53798
간	-7.54769
유	-7.55975
코	-7.56147
보다	-7.56489
자신의	-7.56679
재	-7.56869
군	-7.58588
영화	-7.58741
▁미국	-7.58906
크	-7.59005
명이	-7.59422
위	-7.60594
하다	-7.60807
새로운	-7.61142
하게	-7.6144
한국	-7.61745
물	-7.62842
발	-7.63066
호	-7.63391
산	-7.63465
동	-7.63681
모든	-7.63841
용	-7.64658
티	-7.65851
국가	-7.67459
영국	-7.67666
르	-7.67724
A	-7.68507
단	-7.68602
으며	-7.69584
알	-7.70061
e	-7.70788
지역	-7.71479
뒤	-7.71688
그의	-7.71777
불	-7.73027
지만	-7.73655
감	-7.74148
을위해	-7.75197
습니다	-7.75219
살	-7.75253
화	-7.75296
러	-7.75526
되는	-7.75574
기위해	-7.76264
프	-7.76445
북한	-7.76555
이나	-7.76762
했습니다	-7.77173
조사	-7.78248
배	-7.7863
적으로	-7.79208
계획	-7.79305
모두	-7.79893
정부	-7.79921
연	-7.80054
총	-7.80448
분	-7.80984
m	-7.81018
에따르면	-7.81231
포	-7.81455
히	-7.82261
루	-7.8269
있는	-7.83871
들의	-7.84897
경제	-7.85301
저	-7.85611
사용	-7.85677
입니다	-7.85744
강	-7.85759
하고있는	-7.86224
경	-7.86303
월	-7.86607
려	-7.87513
방	-7.87513
TV	-7.87538
관	-7.87748
고주장했다	-7.88289
W	-7.88543
키	-7.88576
그는	-7.88917
하면서	-7.89
in	-7.89091
즈	-7.89258
난	-7.89285
토	-7.89954
공	-7.90015
라고	-7.9016
식	-7.90695
고보도했다	-7.90945
이같은	-7.91207
최근	-7.91236
국	-7.91938
버	-7.927
초	-7.93
▁이번	-7.93591
들에게	-7.9369
린	-7.9403
하여	-7.94167
부터	-7.94192
질	-7.94201
당시	-7.94438
일본	-7.94952
일부	-7.94978
경찰	-7.95397
시간	-7.96316
관련	-7.96902
세계	-7.98047
지원	-7.98242
면서	-7.98281
현재	-7.98303
▁그리고	-7.98517
되었다	-7.98818
거	-7.99678
양	-7.9969
공격	-8.00337
계	-8.00584
채	-8.00735
발표	-8.0108
에의해	-8.0112
C	-8.01216
를통해	-8.01327
연구	-8.0135
길	-8.01526
미국의	-8.01885
체	-8.01933
을통해	-8.02545
고있는	-8.02917
였다	-8.03196
심	-8.0326
▁?	-8.03363
E	-8.03469
전했다	-8.03861
법	-8.04144
S	-8.05469
터	-8.05737
했다고	-8.05867
프랑스	-8.06087
권	-8.06236
미군	-8.06341
라는	-8.06847
들과	-8.07108
했다고밝혔다	-8.07207
km	-8.07428
이란	-8.07437
데	-8.08441
네	-8.0918
브	-8.09895
a	-8.10197
큰	-8.10219
를위해	-8.10261
다시	-8.10263
문	-8.10382
본	-8.10638
에위치한	-8.10656
돼	-8.11108
건	-8.11234
형	-8.11454
국제	-8.1186
판매	-8.12028
d	-8.12035
말했다	-8.12309
했지만	-8.12318
할수있는	-8.12863
파키스탄	-8.12874
협상	-8.12915
고설명했다	-8.13017
점	-8.1316
가장	-8.13229
결정	-8.13371
친	-8.13507
매	-8.14686
로부터	-8.14828
▁경찰은	-8.14844
직	-8.15235
입	-8.15503
F	-8.15724
러시아	-8.15768
때	-8.16071
했고	-8.16455
정부가	-8.16547
소속	-8.16703
속	-8.16852
베	-8.17063
이미	-8.17306
증가	-8.17864
회	-8.17911
B	-8.17956
병	-8.18054
는데	-8.18626
to	-8.18731
문제	-8.18762
날	-8.18766
경기	-8.19078
탄	-8.19107
또한	-8.19211
y	-8.19219
하는데	-8.19568
그가	-8.20311
대통령	-8.20741
여성	-8.20887
열	-8.21015
t	-8.21032
프로그램	-8.22042
예	-8.22051
이며	-8.22107
이스라엘	-8.22174
온	-8.22263
종	-8.22419
비난	-8.22769
새	-8.23404
할예정이다	-8.23588
통	-8.23638
편	-8.23753
는일	-8.2387
된다	-8.23989
각	-8.2416
보도했다	-8.24172
번	-8.24578
계속	-8.24667
H	-8.24986
er	-8.24996
요	-8.25195
r	-8.25211
CNN	-8.25317
천	-8.25412
후보	-8.25519
을위한	-8.25548
확인	-8.25594
금	-8.25611
주요	-8.25696
이상	-8.25784
시작	-8.25991
되	-8.25996
될	-8.26851
of	-8.27432
D	-8.27521
개발	-8.27678
▁또한	-8.2783
어떤	-8.28263
도시	-8.28294
란	-8.28496
c	-8.2865
것을	-8.28853
은행	-8.28949
합니다	-8.29064
처럼	-8.29231
했었다	-8.29313
교	-8.29346
위협	-8.29804
청	-8.29851
팀	-8.30165
급	-8.30306
첫	-8.30515
변	-8.30633
ing	-8.30758
했으나	-8.30884
i	-8.30984
그리고	-8.31322
방문	-8.31372
했다고말했다	-8.31677
우리	-8.32001
T	-8.32167
ed	-8.32301
할수있다	-8.32319
공개	-8.32567
N	-8.32904
G	-8.33119
생각	-8.33157
같은	-8.33188
방송	-8.33252
에따라	-8.33302
추	-8.33402
아프간	-8.33908
정보	-8.34348
영	-8.3443
p	-8.34603
페	-8.34681
유럽	-8.3482
는것을	-8.35094
u	-8.35094
하지않았다	-8.35501
이일현지시간	-8.35544
거나	-8.35546
발생한	-8.35575
라고말했다	-8.35707
에도	-8.36046
판	-8.36128
최고	-8.36135
정부는	-8.36908
것이다	-8.37182
커	-8.37441
관계자는	-8.37487
활동	-8.37576
이날	-8.37713
인근	-8.37726
울	-8.37842
했다고전했다	-8.37959
할것이라고	-8.38131
유엔	-8.38321
M	-8.38362
반대	-8.38387
것으로	-8.38826
매우	-8.38876
하기위한	-8.38933
이들	-8.38988
생	-8.39044
기록	-8.39188
사망	-8.39275
동안	-8.39299
대학	-8.3932
전쟁	-8.39322
기술	-8.39341
▁중국	-8.39456
아직	-8.39852
투	-8.39939
P	-8.39962
인도	-8.40243
선거	-8.40349
사람들이	-8.4035
또	-8.40388
다고말했다	-8.40456
al	-8.40492
달	-8.40619
▁원문독해설명인쇄	-8.40807
외	-8.40961
행	-8.41102
차량	-8.41398
l	-8.41475
설	-8.41873
임	-8.41953
학	-8.42571
에관한	-8.4261
메	-8.42612
re	-8.42744
나는	-8.42796
O	-8.42879
생산	-8.43023
학교	-8.43231
시장	-8.43291
보고	-8.43742
가일현지시간	-8.43835
현	-8.43855
인터넷	-8.43977
개의	-8.44085
달러	-8.44338
회사	-8.44403
민	-8.44769
없이	-8.44803
▁원문기사보기	-8.44806
에서열린	-8.45105
정책	-8.45449
I	-8.45477
테	-8.45627
건물	-8.4594
되어	-8.45979
발견	-8.4604
와함께	-8.46067
테러	-8.46299
L	-8.46307
자신이	-8.46359
잘	-8.46403
당국은	-8.46601
때문에	-8.46617
▁현재	-8.46626
▁하지만	-8.46707
작	-8.46821
▁영국	-8.46907
조직	-8.46951
앞으로	-8.47175
남	-8.47243
▁그	-8.47265
해왔다	-8.47391
애	-8.47417
▁년	-8.47672
관리	-8.47831
이었다	-8.47914
article	-8.48279
든	-8.48395
회의	-8.48398
과함께	-8.48427
f	-8.48584
들어	-8.48711
명을	-8.4879
투표	-8.48923
▁미	-8.48961
츠	-8.49068
기때문에	-8.49233
취	-8.49296
처	-8.49458
n	-8.49568
the	-8.49742
핵	-8.50171
집	-8.50199
하도록	-8.50204
사고	-8.50383
으로부터	-8.50428
보호	-8.50657
로인해	-8.50866
회담	-8.50948
석	-8.51011
요구	-8.51026
폭발	-8.51085
노력	-8.51115
경찰이	-8.51558
박	-8.51586
우리는	-8.51625
를위한	-8.51632
처음	-8.51647
역	-8.51683
막	-8.51807
팔레스타인	-8.52103
표	-8.52203
가운데	-8.52257
았다	-8.52564
하면	-8.52902
됐으며	-8.53103
스타	-8.53218
중단	-8.53222
줄	-8.53354
o	-8.53359
월일	-8.53392
컴퓨터	-8.53512
것	-8.53856
수도	-8.53973
w	-8.54015
론	-8.54054
북한이	-8.54472
다며	-8.54535
는년	-8.54639
공항	-8.54666
도록	-8.54874
경찰은	-8.54875
사람들은	-8.55176
시위	-8.55219
감독	-8.55272
올	-8.55346
좋은	-8.55381
밀	-8.55758
합의	-8.56187
여행	-8.56306
자동차	-8.56341
▁이는	-8.56381
민주당	-8.56524
JOINS	-8.5655
살해	-8.56679
미국이	-8.5684
고지적했다	-8.56874
on	-8.57206
이를	-8.57246
맥	-8.57279
머	-8.57304
퍼	-8.57521
감소	-8.57526
은일	-8.57676
골	-8.57682
주장	-8.57708
독일	-8.57796
운	-8.57961
패	-8.58138
R	-8.58245
국민	-8.58263
암	-8.58387
정치	-8.5849
추가	-8.58496
하자	-8.58514
팔	-8.58668
이슬람	-8.58809
관계	-8.58917
호텔	-8.58935
진행	-8.58989
안전	-8.59174
색	-8.59299
말했습니다	-8.59451
뉴스	-8.5975
an	-8.59778
씨는	-8.59915
중인	-8.5994
올해	-8.60097
담	-8.60129
돌	-8.60242
지않았다	-8.60594
비행기	-8.60605
슨	-8.60663
이라고	-8.60672
증	-8.60673
남부	-8.60735
총리	-8.61225
해결	-8.61554
호주	-8.61679
우주	-8.61741
갈	-8.61897
사건	-8.6197
건설	-8.62148
지난월	-8.6219
g	-8.62447
금지	-8.62581
탈레반	-8.62793
여러	-8.62926
샤	-8.63212
거래	-8.63322
위원회	-8.63411
기를	-8.63413
금융	-8.63497
선수	-8.63567
병원	-8.63744
할경우	-8.63771
정부의	-8.63806
태	-8.63814
였던	-8.63826
고있습니다	-8.63981
하는것	-8.64107
에의하면	-8.64174
빈	-8.6448
에너지	-8.64482
환경	-8.64535
and	-8.64545
명은	-8.64545
것이라고	-8.64629
지지	-8.64782
할것이라고밝혔다	-8.64885
엘	-8.64901
보안	-8.65025
되고있다	-8.65038
걸	-8.65084
석방	-8.6511
의한	-8.65208
해야한다	-8.65212
거의	-8.65561
ar	-8.657
산업	-8.65883
독	-8.6591
▁그녀는	-8.65951
뉴욕	-8.66026
은일현지시간	-8.66071
박사는	-8.66121
력	-8.66212
인정	-8.66241
너	-8.66313
번째	-8.66318
백	-8.66565
의회	-8.66595
아이	-8.66604
요청	-8.66665
범죄	-8.66727
졌다	-8.66929
하고있으며	-8.67153
또다른	-8.67205
예정	-8.67306
▁일본	-8.6731
사회	-8.67381
교육	-8.67419
시켰다	-8.67591
쉬	-8.67827
쳐	-8.67959
했다며	-8.6807
사업	-8.68237
간의	-8.68252
연방	-8.68309
류	-8.68329
오늘	-8.68338
혐의로	-8.68528
년간	-8.6876
존	-8.68855
한후	-8.6898
기업	-8.69062
워	-8.69117
는것이	-8.69199
출	-8.69479
떨어진	-8.69494
올림픽	-8.69574
연기	-8.69594
있다	-8.69632
유지	-8.69817
더욱	-8.69872
수사	-8.69998
비행	-8.70099
상승	-8.70132
마지막	-8.70297
하락	-8.70651
긴	-8.70695
역시	-8.70868
으나	-8.70889
지난	-8.70969
엔	-8.70982
쿠	-8.70986
백악관	-8.71004
미얀마	-8.71323
체포	-8.71421
음	-8.71435
언급	-8.71469
한뒤	-8.71473
강화	-8.71485
공급	-8.71488
케	-8.71491
하기	-8.71506
이라는	-8.71549
함	-8.71618
격	-8.71776
경우	-8.71844
협력	-8.72029
그를	-8.72046
승리	-8.72102
오바마	-8.72221
보도	-8.72239
대통령이	-8.72349
상태	-8.72374
많이	-8.72432
주택	-8.72529
한바있다	-8.72584
이런	-8.72865
▁그들은	-8.73172
지역에서	-8.73194
터키	-8.73293
지난주	-8.73382
잡	-8.73473
가족	-8.73492
손	-8.73727
스는	-8.73798
어떻게	-8.73855
반군	-8.73934
장관은	-8.73941
에서도	-8.73949
의원	-8.73973
섬	-8.74058
전체	-8.74108
것은	-8.74131
절	-8.7443
▁한국	-8.74529
가지	-8.74663
조지	-8.75001
발생	-8.75054
이전	-8.75191
처음으로	-8.7525
하는것은	-8.7534
▁com	-8.75352
납치	-8.75395
이탈리아	-8.75606
이러한	-8.75669
대표	-8.75848
창	-8.76063
게임	-8.76088
안보	-8.76111
치료	-8.76142
빌	-8.76246
서울	-8.76369
이자	-8.76395
단체	-8.76567
바로	-8.76609
삼	-8.76725
기관	-8.76742
건강	-8.7697
변화	-8.77053
별	-8.77434
J	-8.77658
할것이라	-8.77757
더많은	-8.77902
복	-8.77934
현지	-8.77947
기위한	-8.78462
먼	-8.7847
K	-8.78521
직접	-8.78629
다고밝혔다	-8.78837
하던	-8.78944
사망했다	-8.79004
공동	-8.7914
품	-8.79313
통신	-8.7932
티베트	-8.79346
어린이	-8.79522
운영	-8.79594
철수	-8.79637
기자	-8.79659
악	-8.79729
시설	-8.7975
작전	-8.79795
목	-8.79908
친구	-8.79998
지도자	-8.80189
슈	-8.80215
부족	-8.80251
대선	-8.80316
층	-8.80342
스페인	-8.80393
지난해	-8.80408
▁부시대통령은	-8.8068
대규모	-8.80842
높은	-8.80938
정치적	-8.80982
정도	-8.81008
논의	-8.81193
서비스	-8.81362
석유	-8.81464
결과	-8.81513
내용	-8.81592
공식	-8.81647
▁최근	-8.8183
장관	-8.81869
작업	-8.81978
으	-8.82044
로서	-8.82089
행사	-8.82118
져	-8.82253
김	-8.82318
렌	-8.82414
음악	-8.82645
망	-8.82659
는것은	-8.8274
왔다	-8.82755
연합	-8.82854
b	-8.82886
마을	-8.82937
곧	-8.82988
이어	-8.83026
제품	-8.83195
폐쇄	-8.8323
구조	-8.83332
중국의	-8.83441
하지만	-8.8346
북한의	-8.83687
le	-8.83715
동물	-8.83721
고일현지시간	-8.83722
북	-8.83759
게된다	-8.83761
는일현지시간	-8.83932
해외	-8.8398
대로	-8.84046
자신들의	-8.84111
운동	-8.84193
할때	-8.84259
자금	-8.84494
발표했다	-8.84699
책	-8.84911
알카에다	-8.85072
제작	-8.85253
억	-8.85393
폴	-8.85437
신문	-8.85456
지구	-8.85514
래	-8.85596
겨	-8.85615
릴	-8.8566
남자	-8.85724
귀	-8.85736
사진	-8.85787
개인	-8.8594
탈	-8.8594
회복	-8.86236
공화당	-8.86371
볼	-8.86582
대통령은	-8.86669
폭	-8.86673
중요한	-8.8678
for	-8.86789
사망한	-8.86792
예상	-8.86828
승인	-8.86947
쇼	-8.87069
도로	-8.87113
광	-8.87169
군사	-8.87285
하거나	-8.873
AP	-8.87361
스트	-8.87389
그룹	-8.87488
결국	-8.87525
아시아	-8.8764
총리는	-8.87754
버스	-8.87825
향	-8.87835
▁이라크	-8.87994
또는	-8.88185
처리	-8.88249
억달러	-8.88392
씨	-8.8844
만명	-8.88512
년동안	-8.88767
일간	-8.89178
온라인	-8.8921
결	-8.89415
라고밝혔다	-8.89455
항공	-8.8948
경고	-8.89528
LA	-8.89572
판결	-8.89593
성장	-8.89652
되고	-8.89723
성공	-8.89732
우리가	-8.89772
북부	-8.89873
학생	-8.89927
경쟁	-8.89931
쓰	-8.89938
우려	-8.90002
정당	-8.9012
전투	-8.90278
위기	-8.90283
▁이들은	-8.90295
업체	-8.90405
이용	-8.90502
합	-8.90539
주의	-8.90569
k	-8.90585
벨	-8.90703
작은	-8.9075
자유	-8.90786
불법	-8.90927
생활	-8.9097
에도불구하고	-8.9098
평화	-8.91264
지않	-8.91393
통제	-8.91456
폐	-8.91597
경선	-8.91603
기구	-8.91632
글	-8.91634
▁북한	-8.91773
다고	-8.92007
하고있습니다	-8.92243
헤	-8.92386
행동	-8.9247
것이라고말했다	-8.92628
st	-8.92676
하겠다고	-8.92727
h	-8.92834
훈련	-8.92854
발사	-8.92873
EU	-8.92893
마리	-8.92959
준	-8.93117
민간인	-8.93157
몇	-8.93221
수입	-8.93448
en	-8.93576
▁S	-8.93893
하는것이	-8.94004
준비	-8.94119
라며	-8.94292
대부분	-8.9438
배우	-8.94469
제안	-8.94633
심각한	-8.94709
은년	-8.94907
조치	-8.94981
죽	-8.94994
승	-8.95123
기자회견에서	-8.95146
개월	-8.95166
허	-8.95347
아프리카	-8.95681
고발표했다	-8.95746
여자	-8.95797
센터	-8.95834
했	-8.95896
검사	-8.96018
독립	-8.96273
누	-8.96345
런던	-8.96353
기대	-8.96407
평가	-8.96414
할것이다	-8.96461
이라고말했다	-8.96502
우승	-8.96651
결혼	-8.96655
미사일	-8.96704
v	-8.96706
최종	-8.96802
년전	-8.96879
▁이와관련	-8.96959
함께	-8.96968
내가	-8.97002
맞	-8.97222
하마스	-8.97412
둘	-8.97554
것이	-8.97654
으로인해	-8.97755
자들은	-8.97847
을받았다	-8.97875
국내	-8.97948
슬	-8.97981
재개	-8.98008
평	-8.98143
재판	-8.98159
아프가니스탄	-8.98223
사람	-8.98256
상원의원	-8.98384
힘	-8.98392
이라	-8.98514
투자	-8.98516
충돌	-8.98632
게됐다	-8.98816
▁그의	-8.98835
출신	-8.98955
와의	-8.98972
벌	-8.99078
부인	-8.99148
시킬	-8.99197
무기	-8.99345
것으로알려졌다	-8.99347
칸	-8.9945
대신	-8.99518
일을	-8.99614
순	-8.99667
장은	-8.99716
국경	-8.9973
없는	-8.99749
다음	-8.99879
거리	-9.00002
만명의	-9.00062
대회	-9.00066
맨	-9.00068
변호사	-9.00115
최소	-9.0014
할것이라고말했다	-9.00198
상황	-9.00356
주민	-9.00508
하루	-9.00557
이야기	-9.00628
의원은	-9.00644
범	-9.00704
수출	-9.00714
문제가	-9.00755
진압	-9.00903
이제	-9.00974
당국이	-9.01188
부상	-9.01202
전세계	-9.01247
혐의	-9.01381
피해	-9.01591
화재	-9.01654
의미	-9.01751
하려	-9.01865
is	-9.01929
직원	-9.01972
외국	-9.02151
측은	-9.02187
주도	-9.02248
나라	-9.02372
수단	-9.02431
U	-9.02459
사실	-9.0258
차례	-9.02821
통과	-9.02901
지불	-9.03103
시켜	-9.03168
시키	-9.0324
지금	-9.03248
블	-9.03329
캐	-9.03461
문화	-9.03503
▁그는또	-9.0351
경기에서	-9.03586
왕	-9.03728
그들의	-9.03765
담당	-9.03967
▁이들	-9.04204
전달	-9.04333
해서	-9.04542
폭력	-9.04565
or	-9.04571
설명	-9.04607
it	-9.04613
▁일부	-9.04804
지방	-9.04859
개최	-9.04925
▁러시아	-9.05015
지않은	-9.05038
할수있도록	-9.05086
칼	-9.0511
안에	-9.05278
술	-9.05345
남성	-9.05488
이수지	-9.05525
붕괴	-9.05577
언론	-9.05715
숙	-9.05763
것이라고밝혔다	-9.06089
이었던	-9.06183
조치를취	-9.06297
광고	-9.06313
폭탄	-9.06454
한이후	-9.06686
살인	-9.06694
는이번	-9.06778
극	-9.06788
모델	-9.06843
위성	-9.06866
어제	-9.07039
알리	-9.07083
피해자	-9.07133
인질	-9.07137
곳	-9.07163
열린	-9.07219
고있으며	-9.07233
각각	-9.07336
es	-9.07343
최대	-9.07413
외국인	-9.07445
연료	-9.07448
에서발생한	-9.07491
견	-9.07515
레이	-9.07727
지난년	-9.07909
의사	-9.08093
만큼	-9.08222
사람이	-9.08389
이밝혔다	-9.08489
▁북한은	-9.08551
지는	-9.08721
이라며	-9.08727
노동	-9.08734
실시	-9.08804
평균	-9.08812
수상	-9.08919
참	-9.08929
돈	-9.08971
아직까지	-9.08985
자살	-9.09016
▁프랑스	-9.09093
제한	-9.09256
스키	-9.09351
캘리포니아	-9.09356
바그다드	-9.09422
방법	-9.09487
내려	-9.09682
하게된다	-9.09857
전망	-9.09864
수가	-9.09961
에비해	-9.09986
입장	-9.10053
이있는	-9.10064
식량	-9.10216
▁파키스탄	-9.10245
시아파	-9.10384
만달러	-9.10492
할수있	-9.10569
감시	-9.10702
링	-9.10902
상황을	-9.10928
무장단체	-9.10952
교수는	-9.10995
규정	-9.11047
튼	-9.11153
최	-9.11153
필	-9.1116
앤	-9.1117
년월	-9.11233
협회	-9.11299
었으며	-9.11349
교회	-9.1136
만명이	-9.11407
미국은	-9.11424
지못했다	-9.11528
다고전했다	-9.1154
없	-9.11555
하려는	-9.11674
거부	-9.11896
클린턴	-9.11904
상황이	-9.11921
항공사	-9.12014
너무	-9.12052
자들이	-9.12052
개국	-9.1208
그들이	-9.12115
사람들	-9.12308
사임	-9.1251
집단	-9.12645
지난달	-9.12657
한다고밝혔다	-9.12715
프리	-9.12901
행위	-9.12973
출전	-9.12985
실험	-9.13102
측	-9.13117
근	-9.13144
과같은	-9.13164
찬	-9.13185
발전	-9.13228
될예정이다	-9.13229
수준	-9.13245
이곳	-9.13255
하였다	-9.13383
을포함	-9.13482
가격	-9.13542
환	-9.13639
폭탄테러	-9.13654
세의	-9.13722
설치	-9.13852
개혁	-9.13934
년까지	-9.13967
몰	-9.13993
레바논	-9.14178
위험	-9.14216
인간	-9.14236
업	-9.14346
▁우리는	-9.14387
고용	-9.145
자인	-9.14649
ri	-9.14896
The	-9.14938
그들은	-9.15162
고문	-9.15167
고강조했다	-9.15222
이번주	-9.15273
크게	-9.15311
해안	-9.15325
시스템	-9.15343
대만	-9.15496
었고	-9.15634
동영상	-9.15701
바이러스	-9.15781
자신	-9.15927
더이상	-9.16043
정상	-9.16094
있었다	-9.1625
시도	-9.16338
로마	-9.16455
충	-9.16481
수있는	-9.16537
앞	-9.16604
▁명의	-9.1663
국회	-9.16726
사이에	-9.16732
▁반면	-9.16741
아주	-9.16794
국영	-9.16998
▁이날	-9.17004
계약	-9.17027
사랑	-9.17055
콜롬비아	-9.17085
량	-9.17112
대화	-9.17115
철	-9.17123
첫번째	-9.1721
지금까지	-9.17322
특별	-9.17454
중앙	-9.17466
을방문	-9.1748
at	-9.17626
하는것을	-9.17629
센	-9.1767
나무	-9.17753
림	-9.17759
내용을	-9.17786
계획을	-9.17799
경기를	-9.17821
이상의	-9.17822
제시	-9.17846
제공	-9.17853
▁오바마는	-9.17889
태국	-9.18051
대선후보	-9.18219
무역	-9.18231
하고있다고	-9.18271
감염	-9.18341
부대	-9.18388
워싱턴	-9.18478
필요한	-9.186
비디오	-9.18609
열차	-9.18648
총선	-9.18848
용의자	-9.18875
미국과	-9.18888
인구	-9.1891
서부	-9.18976
한국의	-9.1906
동부	-9.19105
고위	-9.19155
참여	-9.19239
비용	-9.19245
▁당시	-9.19389
그런	-9.19404
고있었다	-9.19515
한국인	-9.1956
대부분의	-9.19585
관심	-9.19676
을받	-9.19703
됐던	-9.19762
송	-9.19801
와같은	-9.1983
시민	-9.19859
시즌	-9.19922
두번째	-9.19958
한다고말했다	-9.20021
동료	-9.2017
접	-9.20192
임명	-9.20223
야당	-9.2024
는또	-9.20386
축	-9.20387
한것	-9.20411
의견	-9.2046
내부	-9.20518
의료	-9.20571
전시	-9.20603
▁조지	-9.20674
되지않았다	-9.2071
이라고밝혔다	-9.20735
신고	-9.20962
▁인도	-9.20989
주변	-9.21153
것으로보인다	-9.21158
항	-9.21168
안정	-9.2137
명과	-9.21422
정상회담	-9.21434
joins	-9.21477
▁AP	-9.21483
자료	-9.21562
지못	-9.21573
구속	-9.21667
이있다	-9.21707
지난일	-9.21785
립	-9.21831
인권	-9.21883
영어	-9.21883
구매	-9.21897
밝혔습니다	-9.2191
법안	-9.22066
와의인터뷰에서	-9.22076
턴	-9.22092
수많은	-9.22103
을때	-9.22196
이동	-9.22255
대가	-9.22375
멕시코	-9.22622
것이라	-9.22728
매년	-9.22735
활동을	-9.22789
여전히	-9.22812
받	-9.22862
갖	-9.22879
긴급	-9.2291
이라크전	-9.23016
관광객	-9.2302
프로	-9.23034
상원	-9.23064
눈	-9.23082
미국인	-9.23092
착	-9.23124
년에	-9.23136
가밝혔다	-9.23277
딸	-9.23287
제거	-9.23562
노조	-9.23612
▁CNN	-9.23629
선택	-9.23687
밤	-9.23688
이라크에서	-9.23806
자가	-9.23808
놓	-9.23857
었던	-9.23923
강한	-9.23944
개선	-9.24016
분쟁	-9.24042
잠	-9.24063
만이	-9.24085
내리	-9.241
공연	-9.24173
세력	-9.24174
이지만	-9.24218
위로	-9.24222
시기	-9.24268
움직임	-9.24326
말을	-9.24368
선정	-9.24381
권을	-9.24434
나머지	-9.24456
구성	-9.24477
냈다	-9.24581
순간	-9.24622
접근	-9.24731
혼란	-9.24799
벤	-9.24895
연설	-9.24904
장을	-9.24952
떠	-9.24973
민주주의	-9.25034
파업	-9.25081
일반	-9.25135
대통령의	-9.25158
북한은	-9.25191
목표	-9.25216
전화	-9.25221
었습니다	-9.25233
는것	-9.25299
일정	-9.25314
며그러나	-9.25412
기로	-9.25414
렸다	-9.25445
엄	-9.25578
뜻	-9.25631
등의	-9.25645
소재	-9.25674
가능한	-9.25817
지역에	-9.25828
액	-9.25846
되었습니다	-9.26031
노동자	-9.26083
과의	-9.26146
킨	-9.26208
자체	-9.26386
한것은	-9.26413
전에	-9.26464
가있는	-9.2651
관계자들은	-9.26563
뇌	-9.26612
외교	-9.26626
부시	-9.26674
갔다	-9.2669
척	-9.26703
기소	-9.26865
시위대	-9.26896
록	-9.2692
회장은	-9.26993
장이	-9.27025
아내	-9.27109
소식	-9.27368
인상	-9.27385
약속	-9.27425
맡	-9.27456
낸	-9.27458
칭	-9.27715
바라	-9.2773
낮	-9.27829
수술	-9.27837
정신	-9.27883
하고있다고밝혔다	-9.27901
인수	-9.27958
다양한	-9.28086
보유	-9.28145
연결	-9.28193
한다는	-9.28199
희생자	-9.28235
쿠바	-9.28323
비판	-9.28467
기지	-9.28665
사람들에게	-9.28683
사이	-9.2877
수십	-9.28834
강력한	-9.28845
성명에서	-9.28858
가있다	-9.2891
락	-9.28959
핵무기	-9.28975
못	-9.28977
단계	-9.28994
밝혀	-9.29159
성명	-9.29166
사태	-9.29205
전기	-9.29254
시대	-9.2934
받았다	-9.29353
한다면	-9.29487
질문	-9.2957
지명	-9.29627
열리는	-9.29786
시리아	-9.298
un	-9.29804
사이트	-9.29873
가자지구	-9.29874
나왔다	-9.29911
당선	-9.29938
미국에서	-9.29952
전국	-9.29973
병력	-9.29999
어떠한	-9.30047
데이	-9.30058
서로	-9.30071
아들	-9.30132
se	-9.30141
로인한	-9.30161
풀	-9.30173
시행	-9.30186
리는	-9.30244
른	-9.30304
월에	-9.30314
전문가들은	-9.3037
베이	-9.30372
특히	-9.30398
틀	-9.30519
배치	-9.3059
단지	-9.30685
올리	-9.30735
황	-9.30742
확보	-9.3078
유권자	-9.30788
사는	-9.30806
할것을	-9.3096
이집트	-9.31
앞서	-9.31106
공장	-9.31131
ur	-9.3119
ic	-9.31273
하나	-9.31297
적어도	-9.31338
되면서	-9.31517
관광	-9.31526
뉴	-9.31601
잔	-9.31607
▁이에앞서	-9.31713
느	-9.31846
다면	-9.31849
대사관	-9.31945
있을	-9.31999
중동	-9.32128
에대해서는	-9.32166
매케인	-9.32187
스미스	-9.32301
을계속	-9.32345
비밀	-9.32473
올라	-9.32526
상대	-9.32526
세기	-9.32603
트럭	-9.32666
받은	-9.32686
과거	-9.32762
출연	-9.32768
나가	-9.32867
하고있다며	-9.32871
포드	-9.32891
포인트	-9.32897
환자	-9.32904
부모	-9.32953
기도했다	-9.32996
곡	-9.33016
역할을	-9.33028
자회담	-9.33084
임시	-9.33118
자녀	-9.33193
을보	-9.33261
플로리다	-9.333
완전히	-9.33304
압박	-9.33308
작품	-9.33416
il	-9.33584
아기	-9.33595
근무	-9.33682
캐나다	-9.33744
가스	-9.33768
환영	-9.33796
해주	-9.33851
푸	-9.33864
파괴	-9.3404
성을	-9.34148
예정이다	-9.34151
답	-9.3417
대통령선거	-9.34198
들도	-9.34266
변호사는	-9.34285
에앞서	-9.34368
과학	-9.34425
인도네시아	-9.34461
홍콩	-9.34465
에따른	-9.34488
선출	-9.34498
방안	-9.34508
한다고	-9.34636
흑인	-9.3464
년만에	-9.34642
사인	-9.3465
기사	-9.34674
헬기	-9.34682
델	-9.34689
참석	-9.34718
목적	-9.34772
추락	-9.34968
회장	-9.35101
as	-9.35141
연구소	-9.35168
랜드	-9.35208
박물관	-9.35292
시험	-9.35301
인지	-9.35348
선박	-9.35413
윈	-9.35564
리아	-9.35649
el	-9.35715
당한	-9.35718
ion	-9.35787
무장세력	-9.35798
률	-9.35852
▁호주	-9.35865
역사	-9.35926
휴대폰	-9.35967
연장	-9.36193
가장큰	-9.3621
사무실	-9.36268
▁독일	-9.36285
야한다	-9.36323
기가	-9.36401
전문	-9.36454
는미국	-9.36545
교통	-9.36582
했을때	-9.36687
제도	-9.36693
하지않	-9.36825
바다	-9.36829
있으며	-9.36897
여론조사	-9.3693
MS	-9.36967
이일	-9.37065
앙	-9.37083
기간동안	-9.3712
수치	-9.3719
끝	-9.37201
여객기	-9.37209
해제	-9.37278
감독은	-9.37291
주장했다	-9.37292
비난했다	-9.37292
▁또	-9.37338
암살	-9.37412
돈을	-9.37584
▁다른	-9.37615
에달하는	-9.37714
문제를	-9.37715
하고있다고말했다	-9.37721
ra	-9.37734
지를	-9.37759
따	-9.37778
▁아	-9.37851
것입니다	-9.37855
책임	-9.37858
항공기	-9.37899
위반	-9.37901
는지	-9.37944
대응	-9.37971
과관련	-9.38
을중단	-9.38059
시간동안	-9.38102
교수	-9.38153
인물	-9.38233
이란이	-9.38252
주민들이	-9.38357
허가	-9.38385
고주장	-9.38409
령	-9.38483
수천명의	-9.38517
남편	-9.38535
사르코지	-9.38557
발생했다	-9.38595
동결	-9.3864
스포츠	-9.38717
걱정	-9.38717
cnn	-9.38724
법률	-9.3875
명령	-9.3877
음식	-9.38828
분석	-9.38901
존재	-9.38998
대중	-9.39052
수색	-9.39086
시키는	-9.39482
내년	-9.39484
ro	-9.39517
적이	-9.39543
의주요	-9.39579
완	-9.39659
되어있다	-9.39711
일이	-9.39749
힐	-9.39766
선언	-9.39827
실패	-9.39928
였습니다	-9.39989
지않고	-9.40086
지진	-9.40115
수익	-9.40153
월요일	-9.40204
사퇴	-9.40224
보고서	-9.40236
언	-9.40244
웹사이트	-9.40251
정부와	-9.40267
봉	-9.40274
그녀의	-9.4037
장소	-9.40476
발표한	-9.40484
▁The	-9.40498
오바마는	-9.40533
은이번	-9.4065
휴	-9.40711
전문가	-9.40734
us	-9.40784
헌법	-9.40792
과정에서	-9.40826
마련	-9.40855
바있다	-9.40869
율	-9.40882
고양이	-9.40898
랜	-9.40915
추진	-9.40934
케냐	-9.40942
해지	-9.41066
파리	-9.41078
집회	-9.411
희망	-9.41105
내각	-9.41109
톤	-9.41135
검찰	-9.41136
하지않는다	-9.41188
미군이	-9.41199
th	-9.41226
아니	-9.41235
한혐의로	-9.41247
V	-9.41339
수용	-9.41347
일본의	-9.41355
성명을통해	-9.41371
유명	-9.41402
리스	-9.41462
허용	-9.41527
자들	-9.41578
오바마가	-9.41598
집계	-9.41666
데이비드	-9.41692
션	-9.41743
팬	-9.41755
ation	-9.41856
▁미국은	-9.41892
기도	-9.41943
ch	-9.42023
을받은	-9.42079
을포함한	-9.42083
몸	-9.42125
렸	-9.42146
쳤다	-9.4215
한나라당	-9.42228
긴장	-9.42257
UN	-9.42258
계속해서	-9.42422
를방문	-9.42445
악화	-9.42488
정말	-9.42497
대의	-9.42524
하기로	-9.42586
기준	-9.42593
촬영	-9.42608
발언	-9.42612
농	-9.4263
성폭행	-9.42894
머리	-9.42901
베이징	-9.42964
도착	-9.42969
으로서	-9.43061
여명의	-9.43173
자신을	-9.43217
가능성	-9.43223
분기	-9.43258
주간	-9.43292
▁지난주	-9.43316
을찾	-9.43329
제조	-9.43343
고래	-9.43369
지역의	-9.43389
법원은	-9.43419
해군	-9.43455
밝히	-9.43478
사람들의	-9.4349
나와	-9.43582
카운티	-9.43582
풍	-9.43583
작가	-9.43595
와관련	-9.43638
부상자	-9.43685
수감자	-9.43736
최초의	-9.4385
착륙	-9.43858
회사인	-9.43958
플	-9.4398
브라질	-9.43982
소비자	-9.43988
등록	-9.44005
붙	-9.44035
보다더	-9.44111
제기	-9.4417
대사	-9.44347
할수없다	-9.44381
핵프로그램	-9.44462
의장	-9.44465
되며	-9.44475
콜	-9.44486
이지역	-9.44502
적용	-9.44614
소비	-9.44641
전혀	-9.44721
야후	-9.44864
보내	-9.44932
료	-9.44935
표현	-9.44961
새로	-9.4514
힌	-9.45382
것이며	-9.45457
는지난년	-9.45568
입장을	-9.45623
ol	-9.45639
짐	-9.45724
하고있었다	-9.45741
증거	-9.4593
솔	-9.45939
해야	-9.4604
보건	-9.46058
확인했다	-9.46058
중에	-9.46171
에관해	-9.46236
높	-9.4639
군인	-9.46482
기억	-9.46571
매일	-9.46575
나토	-9.46594
있었던	-9.46613
하원	-9.46661
카메라	-9.46681
사우디	-9.46687
브라운	-9.46697
아파트	-9.46745
이전에	-9.46758
운행	-9.46761
정보를	-9.46839
끝에	-9.46854
항의	-9.46919
원인	-9.46921
장치	-9.46931
신청	-9.46933
나온	-9.46938
최고의	-9.46959
궁	-9.47065
것같다	-9.47065
홀	-9.47087
을벌	-9.4714
있어	-9.47175
우리의	-9.47183
소지	-9.47204
직후	-9.47218
US	-9.47299
대형	-9.47339
후보가	-9.47344
후에	-9.47395
것이라며	-9.47429
오랫동안	-9.47449
복귀	-9.47472
일오후	-9.47493
▁이러한	-9.47516
베이징올림픽	-9.47589
가정	-9.47676
의경우	-9.47848
짐바브웨	-9.47861
자주	-9.47931
는또한	-9.48033
수있다	-9.48154
랄	-9.48208
열린우리당	-9.48209
뿐만아니라	-9.48216
확신	-9.48221
확실히	-9.48228
판단	-9.4828
주로	-9.48287
▁정부는	-9.48346
접촉	-9.48361
반응	-9.48435
씩	-9.48539
고객	-9.48597
지않는다	-9.48637
마이클	-9.48692
례	-9.48741
연설에서	-9.48816
으면	-9.48851
보장	-9.48866
판사는	-9.48897
종교	-9.4893
잉글랜드	-9.48977
그렇게	-9.48982
전력	-9.49022
마르	-9.49071
일오전	-9.49162
논쟁	-9.49173
수있도록	-9.49295
나오	-9.49306
음을	-9.49459
보이	-9.49543
는현재	-9.49545
병원에서	-9.49573
되면	-9.49608
나이	-9.49653
지배	-9.49667
▁미국의	-9.49722
년대	-9.49731
고속도로	-9.49779
개봉	-9.49837
었다고말했다	-9.49854
법원	-9.50011
위원회는	-9.50034
의심	-9.50071
명이사망했다	-9.50092
오는일	-9.50339
사람들을	-9.5038
있습니다	-9.50433
주지사	-9.50441
사원	-9.50463
로버트	-9.50472
를포함	-9.50522
되고있는	-9.50532
멜	-9.50538
세르비아	-9.5054
촉구	-9.50572
름	-9.50588
확대	-9.50751
수감	-9.50754
비치	-9.50757
사과	-9.50798
압	-9.50825
이행	-9.50841
차이	-9.50878
높이	-9.50935
할수없	-9.50949
혀	-9.51075
NASA	-9.51085
협의	-9.51165
을공격	-9.51231
경제적	-9.5124
조정	-9.51278
실제	-9.51288
스러운	-9.51316
될것이라고	-9.5132
지도	-9.51399
대변인	-9.51458
조종사	-9.51485
년월일	-9.51535
를이용	-9.51696
검토	-9.51769
마약	-9.51862
위원장은	-9.51896
지난달일	-9.51903
과관련된	-9.52037
에도착	-9.52076
컵	-9.52112
IAEA	-9.52119
우크라이나	-9.52119
쥐	-9.5212
함으로써	-9.52131
스스로	-9.52144
쉽게	-9.52151
홍보	-9.52165
경험	-9.52219
베르	-9.52298
곳에서	-9.523
앞에서	-9.52376
▁A	-9.52512
세대	-9.52536
밖에	-9.52555
주민들은	-9.52563
be	-9.52564
바이	-9.52571
병력을	-9.52582
점을	-9.52608
지난월일	-9.52614
같이	-9.52615
그에게	-9.52622
원조	-9.52697
해온	-9.52722
랑	-9.52745
공격을	-9.52759
하지못했다	-9.52789
조치를	-9.52883
수백	-9.52887
수니파	-9.5292
만약	-9.52964
집권	-9.53025
의일부	-9.53052
하겠다는	-9.53071
지휘	-9.53094
될경우	-9.53315
셀	-9.53342
참가	-9.53348
유로	-9.53393
런	-9.53428
다리	-9.53456
성인	-9.53474
끼	-9.53487
될수있다	-9.53541
강제	-9.53633
을제공	-9.53643
예측	-9.5365
아무런	-9.5373
CIA	-9.53733
대표는	-9.53788
매장	-9.53796
했는데	-9.53818
많은사람들이	-9.53903
발견된	-9.53936
이름	-9.54009
칠	-9.54017
인식	-9.54125
먹	-9.54174
아버지	-9.54202
에참석	-9.54235
킹	-9.5428
치료를받	-9.54392
소송	-9.54401
혼	-9.54426
덧붙였다	-9.5452
크리스마스	-9.54533
▁영한사전약어표한영사전약어표	-9.54539
떨어져	-9.54594
▁당국은	-9.54604
둔	-9.54648
엄마	-9.54654
재정	-9.54658
이유	-9.54668
제출	-9.54701
주재	-9.5472
도중	-9.54755
염	-9.54782
조건	-9.54794
분노	-9.54826
수행	-9.54858
젊은	-9.5487
속에	-9.54936
버락오바마	-9.5499
에이어	-9.54995
있	-9.54999
▁온몸으로말하는기상캐스터	-9.55048
남한	-9.55054
해야할	-9.55089
혈	-9.55141
항상	-9.5516
이해	-9.55177
나타나	-9.55211
돼있다	-9.55253
축구	-9.55264
제임스	-9.5527
시간이	-9.55316
시카고	-9.55338
관리들은	-9.55379
속에서	-9.55523
지않는	-9.5555
라고전했다	-9.55565
를보	-9.55599
상황에서	-9.55623
선거운동	-9.55672
스터	-9.55705
있던	-9.55812
만들	-9.55823
문제로	-9.55878
지출	-9.5589
전략	-9.55953
을사용	-9.56004
세금	-9.56116
힐러리	-9.56188
국립	-9.56199
▁뉴욕	-9.56233
한다며	-9.56233
육	-9.56258
통합	-9.56273
월드컵	-9.5629
위치	-9.56499
대피	-9.56505
최소한	-9.56528
전자	-9.56543
국방부	-9.56666
사전	-9.56674
퍼센트	-9.56713
카드	-9.56735
현대	-9.56737
가능	-9.56847
이곳에서	-9.56888
민주당의	-9.56896
텍사스	-9.56954
http	-9.57018
경기장	-9.57032
정권	-9.57057
등을	-9.5708
▁오바마	-9.5713
소식통은	-9.57204
지급	-9.57312
었지만	-9.57458
만나	-9.57467
지연	-9.57492
시간을	-9.57494
시장은	-9.57527
오르	-9.57588
주둔	-9.57652
빅	-9.57859
출신의	-9.57859
지난년간	-9.57864
▁이스라엘	-9.57885
부시대통령은	-9.5795
교체	-9.57979
자연	-9.57994
라이	-9.58062
우주비행사	-9.58095
사건이	-9.58102
거대한	-9.58189
아래	-9.58264
피트	-9.58271
투어	-9.5843
집에서	-9.58448
오는	-9.5849
싱	-9.58519
개를	-9.58538
전통	-9.58551
철회	-9.5857
경찰과	-9.58609
ent	-9.58619
예산	-9.58659
졌으며	-9.58695
클럽	-9.58706
▁catcodeTotalID	-9.58706
▁asp	-9.58708
et	-9.58712
한반도	-9.58777
의무	-9.5878
됐지만	-9.58789
늘	-9.5882
를받았다	-9.58862
▁이밖에	-9.58863
ly	-9.58864
규제	-9.58867
평양	-9.58872
굴	-9.58927
소리	-9.58987
목요일	-9.59014
지나	-9.59047
두명의	-9.59082
관계자	-9.59121
었	-9.59127
확산	-9.59133
그리스	-9.59133
는사실을	-9.59152
연속	-9.59205
경매	-9.59305
남북	-9.59336
드는	-9.59374
여명이	-9.59465
대를	-9.59472
실시된	-9.59493
소년	-9.59535
정확한	-9.59562
만든	-9.59567
경찰에	-9.59604
지난해월	-9.59676
잡지	-9.59697
약물	-9.59809
명으로	-9.59873
기전	-9.59874
중이다	-9.59884
하기도했다	-9.59919
스가	-9.59922
입국	-9.59947
인기	-9.59955
을가진	-9.59989
수요일	-9.60005
문서	-9.6009
화요일	-9.60116
라도	-9.60128
을앞두고	-9.602
클	-9.60359
구입	-9.6036
회원	-9.60378
심리	-9.60403
lo	-9.60404
지시	-9.60432
동시에	-9.60476
얼	-9.60489
마무리	-9.60519
de	-9.60666
부부	-9.60763
위에	-9.60824
을얻	-9.60893
길이	-9.60947
부시대통령이	-9.60996
자신들이	-9.61011
시작됐다	-9.61035
실제로	-9.61045
최악의	-9.61051
라고설명했다	-9.61067
▁유럽	-9.61076
치안	-9.61081
통치	-9.6109
에의한	-9.61297
공식적으로	-9.61317
대출	-9.61379
대기	-9.61382
프로젝트	-9.61384
▁클린턴은	-9.61461
초기	-9.61464
움	-9.61466
자격	-9.61544
은현재	-9.61574
력을	-9.61616
라디오	-9.61632
최신	-9.6165
수는	-9.61679
을포기	-9.61727
명이숨졌다	-9.61793
아랍	-9.61807
사의	-9.61867
의말을인용	-9.61946
실종	-9.62017
욕	-9.62027
생존자	-9.62165
꿈	-9.62169
쯤	-9.6217
FARC	-9.6217
이아닌	-9.62179
여름	-9.62214
에서열리는	-9.62237
드라마	-9.62282
반면	-9.62282
하라는	-9.62462
땅	-9.62496
정책을	-9.62502
집중	-9.62522
내린	-9.62523
되지않	-9.62589
공사	-9.6261
영국군	-9.62618
있지만	-9.6271
▁이같은	-9.62775
마치	-9.62809
성적	-9.62846
마일	-9.62904
책임을	-9.62946
여기	-9.63008
도쿄	-9.63052
FTA	-9.63055
뿐아니라	-9.63061
ers	-9.63063
후세인	-9.63112
현장	-9.63138
공습	-9.63205
고려	-9.63225
ad	-9.63245
에반대	-9.63269
FBI	-9.63317
요원	-9.63373
들로부터	-9.63434
마크	-9.6345
우주선	-9.63485
법적	-9.63508
흐	-9.63578
무장	-9.63605
수정	-9.63656
될것이라고말했다	-9.63692
대체	-9.63699
죄	-9.63741
아침	-9.63798
사령관	-9.63831
방식	-9.63857
최초	-9.63914
를받	-9.63922
감축	-9.6407
즉시	-9.64073
해졌다	-9.64329
레스	-9.64347
은지난년	-9.64359
주식	-9.64422
▁유엔	-9.64423
시장에서	-9.64425
▁검찰은	-9.64432
▁월	-9.64573
질병	-9.64612
능력	-9.64759
롭	-9.64777
토론	-9.64804
활용	-9.6482
헌	-9.64826
셔	-9.64827
임무	-9.64866
그러나	-9.64897
고있다고	-9.64957
보이는	-9.64988
분야	-9.65008
▁존	-9.65134
요청했다	-9.65154
아직도	-9.65159
떨어졌다	-9.65159
회의에서	-9.65213
하지않은	-9.65278
하라고	-9.6537
추가로	-9.65431
본부	-9.65449
웨	-9.65458
알아	-9.6559
것으로밝혀졌다	-9.65622
취소	-9.65678
증가했다	-9.65693
자는	-9.65738
한번	-9.658
예방	-9.65827
그녀가	-9.65828
는것이다	-9.65831
의견을	-9.65897
억원	-9.65915
여행객	-9.66038
이발생	-9.66042
사망자	-9.6605
시작된	-9.6606
대학의	-9.66109
장기	-9.6613
법정	-9.66186
처벌	-9.66231
무시	-9.66237
이란의	-9.66262
시킨	-9.66272
▁올해	-9.66297
심한	-9.66314
파티	-9.66323
지원을	-9.66327
다음주	-9.66351
그린	-9.66419
침	-9.66546
화성	-9.66552
ac	-9.66681
조사를	-9.66688
심장	-9.66719
주는	-9.66763
먼저	-9.66768
동물원	-9.66814
문제는	-9.66823
출마	-9.66823
일어나	-9.66869
가격이	-9.66914
을이용	-9.67031
에출연	-9.67063
있고	-9.67114
애플	-9.67143
수를	-9.67171
시신	-9.67186
시위를	-9.67197
메시지	-9.67231
행위를	-9.67296
마음	-9.6737
숨	-9.67374
고한다	-9.67436
희	-9.67476
까	-9.67487
았던	-9.67487
으로인한	-9.67491
한때	-9.675
드리	-9.67504
알려	-9.67534
소프트웨어	-9.67558
콘	-9.67573
유일한	-9.67586
기독교	-9.67601
▁이에	-9.67616
설명했다	-9.67649
하는동안	-9.67676
확정	-9.67694
메이	-9.67695
ne	-9.67745
해당	-9.67777
사람은	-9.67781
손실	-9.67799
에서일현지시간	-9.67847
사기	-9.67855
웃	-9.67904
트리	-9.67911
동맹	-9.68008
불안	-9.68037
고비난했다	-9.68129
이주	-9.6816
이들은	-9.68164
보수	-9.68323
강도	-9.68353
그래	-9.68385
검색	-9.68416
왜	-9.68457
포함	-9.68474
할리우드	-9.68522
시리즈	-9.68526
CBS	-9.68536
아르헨티나	-9.68536
억달러의	-9.68566
귀국	-9.68666
구체적인	-9.68675
지속	-9.68675
변경	-9.68689
교도소	-9.68775
진입	-9.68779
신뢰	-9.68788
문을	-9.68795
주지사는	-9.68822
자기	-9.68848
잘못	-9.68867
웨이	-9.68888
의식	-9.68909
여성이	-9.68936
싸	-9.6894
피터	-9.68949
세를	-9.68954
웹사이트에	-9.69003
▁스페인	-9.69026
자국	-9.69098
은또	-9.69175
▁중국은	-9.69215
사형	-9.69259
곤	-9.69289
마다	-9.69309
할지	-9.69342
덮	-9.69351
ter	-9.69378
사상자	-9.694
차기	-9.69468
젠	-9.69479
군부	-9.69511
할계획이다	-9.6956
표를	-9.69582
▁이탈리아	-9.69616
묻	-9.6966
오랜	-9.69663
몬	-9.69674
파견	-9.69689
관계를	-9.69698
니다	-9.69705
인사	-9.69738
공격으로	-9.69785
인들은	-9.69813
또다시	-9.69852
대처	-9.69856
않	-9.6996
관할	-9.69962
임을	-9.70045
▁이전	-9.7011
자금을	-9.70262
해고	-9.70284
임신	-9.70301
딘	-9.70359
기에	-9.70365
장비	-9.70386
될것이라	-9.70416
CEO	-9.70431
지구온난화	-9.70433
NBC	-9.70444
로봇	-9.70484
받아	-9.70495
믿	-9.70505
넘	-9.70523
빨리	-9.70539
기록을	-9.70568
자리	-9.70607
였으며	-9.7062
취임	-9.70631
숨졌다	-9.70654
위원	-9.70673
AC	-9.707
을발견했다	-9.70705
그녀는	-9.70748
가발생	-9.70826
서를	-9.70879
좋아	-9.70929
ist	-9.71009
슨은	-9.71049
추방	-9.71081
중하나	-9.71124
갑	-9.71195
학생들이	-9.71262
뜨	-9.71293
짓	-9.7135
기시작했다	-9.71351
좀더	-9.71367
리버풀	-9.71397
부동산	-9.71405
하기로결정했다	-9.71461
주한미군	-9.71466
음반	-9.71539
사상	-9.71602
지하	-9.71605
말한다	-9.71649
축제	-9.71701
철도	-9.71717
공공	-9.71765
월드	-9.71777
로켓	-9.71796
부문	-9.71808
하락했다	-9.7182
▁지난해	-9.71831
람	-9.71841
이혼	-9.71841
파악	-9.71895
에참가	-9.719
기념	-9.71914
부르	-9.71982
위를	-9.72023
이유로	-9.72031
의학	-9.72055
결과를	-9.72061
상품	-9.72069
보인다	-9.7208
필리핀	-9.72088
트는	-9.72159
부패	-9.72226
치는	-9.72294
근처	-9.72322
물을	-9.72323
현장에서	-9.72345
햄	-9.72364
함에따라	-9.72429
에이즈	-9.7245
보면	-9.72479
좋	-9.72499
자산	-9.72517
법을	-9.72661
스테	-9.7278
을시작	-9.72784
규	-9.7285
는아직	-9.72888
스톤	-9.72889
ve	-9.72934
깨	-9.72968
임기	-9.72982
Y	-9.73015
하던중	-9.73078
시키고	-9.73095
몇몇	-9.73121
을맞	-9.73134
에있던	-9.73136
였	-9.73165
출발	-9.7322
옷	-9.73312
▁내블로그에저장	-9.73344
뼈	-9.73344
선두	-9.73362
추적	-9.73443
십	-9.73486
필요	-9.73494
충분한	-9.73516
외부	-9.73546
릭	-9.73695
교사	-9.7375
가량	-9.73868
족	-9.74027
했는지	-9.74033
년부터	-9.74038
보트	-9.74088
얼마나	-9.7411
다음달	-9.74146
바르	-9.74156
승리를	-9.74205
소니	-9.74227
에사는	-9.74253
행성	-9.74274
특	-9.74286
에선	-9.74296
조각	-9.74355
장난감	-9.74357
와관련된	-9.74362
체포된	-9.74395
감사	-9.74431
얼굴	-9.74465
일간의	-9.74522
장애	-9.74581
이것이	-9.74587
상의	-9.74619
토니	-9.74648
억류	-9.74665
벽	-9.74771
됐	-9.74817
익	-9.74939
받아들이	-9.75007
ce	-9.75091
스턴	-9.75094
영향	-9.75129
겠다고	-9.75185
인하	-9.75201
부정	-9.75239
대부분은	-9.75297
는이날	-9.75299
냐	-9.75307
자를	-9.75308
다이아몬드	-9.75333
PPP	-9.75334
번의	-9.7536
겠지만	-9.75367
kg	-9.75376
리비아	-9.75381
것이라고전했다	-9.75455
외교관	-9.75469
는최근	-9.75495
이필요하다	-9.75496
내에	-9.75622
것처럼	-9.75634
한것으로	-9.7566
ry	-9.75693
병사	-9.75697
다음날	-9.75785
명단	-9.75837
를포함한	-9.75936
에이르는	-9.75982
ive	-9.76024
유명한	-9.76062
대변인이	-9.76067
외에	-9.76107
만달러약억원	-9.76108
겼다	-9.76113
▁그러나그는	-9.76125
파병	-9.76142
간에	-9.76176
ate	-9.7619
오바마의	-9.76321
빙	-9.76367
아이들	-9.76376
체포됐다	-9.76422
점령	-9.76427
마이크	-9.76433
우리나라	-9.76435
고있다고말했다	-9.76465
여자친구	-9.76472
유치	-9.76496
어느	-9.76521
하지않고	-9.76531
입양	-9.76574
변화를	-9.76727
am	-9.76746
첼시	-9.76755
프라	-9.76777
영토	-9.76804
자로	-9.76859
정치적인	-9.76866
구호	-9.76893
대다수	-9.76896
▁전문가들은	-9.76904
진술	-9.76921
하기전	-9.76955
소유	-9.7696
축하	-9.77003
우선	-9.77029
논	-9.7705
서는	-9.77082
이라크의	-9.77134
됐고	-9.77156
대통령과	-9.77239
사실이	-9.77257
영상	-9.77279
닝	-9.77305
프라이머리	-9.77355
조금	-9.77355
시상식	-9.77359
DNA	-9.77375
펜	-9.77397
치를	-9.77412
운항	-9.77415
밴드	-9.77441
결혼식	-9.77446
려는	-9.77449
절차	-9.77459
을향해	-9.77527
중요	-9.77529
협상을	-9.77532
개월간	-9.77586
사실을	-9.77588
작성	-9.77594
없습니다	-9.77627
▁저는	-9.77639
▁정부	-9.77652
할수도있다	-9.7771
기자는	-9.77743
▁영화	-9.77758
전대통령	-9.77796
압력	-9.77802
소식을	-9.77816
시절	-9.77817
드러	-9.77825
홍수	-9.77841
되어있는	-9.77857
보고서는	-9.77917
고있지만	-9.77923
하고있	-9.77946
Re	-9.77989
로스	-9.7807
년의	-9.78081
경찰관	-9.78132
되었다고	-9.78145
가진	-9.78198
이래	-9.78218
▁인도네시아	-9.78318
망명	-9.78324
폭풍	-9.78351
허리케인	-9.78388
콘서트	-9.78395
이웃	-9.78476
대표팀	-9.78497
소환	-9.78537
미국무부	-9.78584
를사용	-9.78607
를제공	-9.78608
북쪽	-9.7867
하지않는	-9.78685
소설	-9.78735
기자회견	-9.78753
을기록	-9.78781
기금	-9.78809
언급했다	-9.78845
증언	-9.78851
은미국	-9.78886
라인	-9.78906
이에대해	-9.78955
넘어	-9.78981
제재	-9.78984
방해	-9.79011
이번사건	-9.79035
패배	-9.79059
통화	-9.79176
선물	-9.79186
버그	-9.79287
넣	-9.79318
닐	-9.79322
과의인터뷰에서	-9.79327
값	-9.79368
부근	-9.79401
무대	-9.79436
죠	-9.79437
사이의	-9.79558
대부분이	-9.79574
현상	-9.79666
됐다고	-9.79704
해야한다고	-9.79715
일어난	-9.79753
리드	-9.79776
물이	-9.79784
미군의	-9.79801
내전	-9.79821
교전	-9.79876
포트	-9.79886
학자	-9.80011
에만	-9.80102
벌이	-9.80115
방법으로	-9.80141
아이들이	-9.80196
는지난월	-9.80214
식품	-9.80215
가능성이	-9.80273
국가들	-9.80342
캠프	-9.80394
생존	-9.80467
행동을	-9.80483
수요	-9.80495
타이	-9.80506
동원	-9.80507
태풍	-9.80517
웰	-9.80583
하려고	-9.80585
묘사	-9.80585
상원의원은	-9.80602
작업을	-9.80621
기간	-9.80622
재산	-9.8068
특별한	-9.80712
택	-9.80718
할것이며	-9.80742
코트	-9.80871
보상	-9.80958
조작	-9.80979
신임	-9.80995
심문	-9.81015
형성	-9.81029
가있었다	-9.81048
려고	-9.81076
베네수엘라	-9.81085
휘	-9.81085
지점	-9.81093
방지	-9.811
을경우	-9.81112
달라	-9.81282
듯	-9.81285
팀이	-9.81311
달러약만원	-9.81355
장에서	-9.8145
부시대통령	-9.81463
행복	-9.81473
오는월	-9.81498
기는	-9.8154
인류	-9.81606
연락	-9.81623
케이	-9.81638
버락오바마상원의원	-9.81639
혁명	-9.81663
지지자	-9.81703
좌	-9.81711
힐러리클린턴	-9.81714
북한에	-9.81767
추측	-9.81775
체계	-9.81777
언론은	-9.81813
sto	-9.8185
연합군	-9.81885
대비	-9.81886
민간	-9.81905
▁또다른	-9.81941
중국이	-9.81968
하게됐다	-9.81975
을상대로	-9.81983
가수	-9.82003
시키기위해	-9.82043
밖으로	-9.82061
수로	-9.82072
la	-9.82105
인들이	-9.82207
관계자가밝혔다	-9.82253
구제	-9.82264
현실	-9.82368
을벌였다	-9.82414
검	-9.82415
전면	-9.825
투입	-9.82532
어머니	-9.82539
폭행	-9.82551
께	-9.82607
흉	-9.82629
헤즈볼라	-9.82629
가됐다	-9.82676
상을	-9.82716
그동안	-9.82728
실적	-9.82738
출시	-9.82769
소말리아	-9.82772
듣	-9.82799
곳으로	-9.82835
오른	-9.82886
부분	-9.82982
린다	-9.83088
학살	-9.83104
야할	-9.83136
업무	-9.83141
해변	-9.83298
휴전	-9.83391
일요일	-9.83411
▁그는또한	-9.83412
몰아	-9.83433
방향	-9.83441
터키군	-9.83457
방법을	-9.83464
날씨	-9.83473
대책	-9.83654
잇	-9.83703
몽	-9.83716
경기침체	-9.83731
허락	-9.83739
노래	-9.83765
운송	-9.83774
에도착했다	-9.83777
되지않은	-9.83782
할수없는	-9.83787
위험한	-9.83798
적절한	-9.8383
기본	-9.8384
복구	-9.83883
실행	-9.8394
찰스	-9.83946
작년	-9.83992
약간	-9.84012
갔	-9.84029
공군	-9.8403
사살	-9.84034
특정	-9.84066
이들의	-9.84095
의원이	-9.84112
부담	-9.84138
물질	-9.84146
무샤라프	-9.84151
프레	-9.84168
한것으로알려졌다	-9.84211
기회	-9.84235
사가	-9.84238
▁특히	-9.84251
설립	-9.84272
수도있다	-9.84378
숨진	-9.84393
무샤라프대통령	-9.84411
따르	-9.84577
내에서	-9.84598
될것이다	-9.84602
빛	-9.84643
국경지역	-9.84662
을거	-9.84726
밝혀졌다	-9.84737
국장은	-9.84742
수백명의	-9.84752
협정	-9.84788
모하메드	-9.84808
털	-9.84812
해리왕자	-9.84817
사례	-9.84831
모스크바	-9.84834
기후변화	-9.84872
범인	-9.84896
루이스	-9.84899
텔	-9.849
담배	-9.84939
보관	-9.84958
프로그램을	-9.85048
자리에서	-9.8505
항소	-9.8507
▁만약	-9.85078
일밤	-9.85097
PC	-9.85119
▁지난월	-9.85171
모습을	-9.8525
하고있지만	-9.85327
지적	-9.854
▁한국의	-9.854
이있	-9.85412
난민	-9.85471
이사회	-9.8549
명이상의	-9.85494
▁세의	-9.85523
op	-9.85528
대답	-9.85538
자와	-9.85539
복제	-9.85548
기타	-9.85553
사장	-9.8556
에서가장	-9.85582
밖에서	-9.85665
스와	-9.85704
이야기를	-9.85725
가구	-9.85779
가져	-9.85798
얼마	-9.85804
당국	-9.85809
보통	-9.85814
증명	-9.85884
아일랜드	-9.85894
토요일	-9.85897
교환	-9.85905
포기	-9.85908
이있었다	-9.85912
매들린	-9.85921
가까이	-9.85958
ant	-9.86017
한결과	-9.86024
군은	-9.8613
대학교	-9.8623
어지	-9.86244
주에서	-9.86264
사용하는	-9.86278
진실	-9.86317
대사는	-9.86325
밝혔	-9.86327
낮은	-9.86337
공유	-9.86377
지수는	-9.86406
공원	-9.86463
을지원	-9.86467
달성	-9.86524
징	-9.86535
모습	-9.8655
생명	-9.86581
인터뷰에서	-9.86587
만화	-9.86611
인터뷰	-9.86636
목격	-9.86637
▁그것은	-9.86668
ity	-9.86768
하는등	-9.86773
협상이	-9.86954
어려운	-9.8705
갑자기	-9.87058
를얻	-9.87084
저지	-9.87174
필드	-9.87293
대상	-9.87295
스티브	-9.87323
그림	-9.87365
상점	-9.87376
증시	-9.87379
고통	-9.87412
겪	-9.87459
을요구	-9.87473
학대	-9.87476
재단	-9.87534
업계	-9.87537
ment	-9.87556
빠	-9.87568
국적	-9.87597
보낸	-9.87609
폭력사태	-9.87621
을시도	-9.87624
났	-9.87638
파산	-9.87661
지않아	-9.87774
명이부상했다	-9.87785
탑승	-9.8781
을살해	-9.87835
폐지	-9.87873
그리	-9.87889
세우	-9.87898
라이트	-9.87933
가일	-9.87947
분리	-9.87961
이름을	-9.87976
세상	-9.88012
을내	-9.8802
응	-9.88033
사실상	-9.88114
이라크에	-9.88116
늦	-9.88117
▁국제	-9.88123
한미	-9.88128
것인지	-9.88147
캠페인	-9.88163
이렇게	-9.88185
뽑	-9.88186
북한을	-9.88369
▁마	-9.88394
권력	-9.88428
현재까지	-9.88504
▁태국	-9.88532
▁터키	-9.88533
성과	-9.88571
네덜란드	-9.8858
여러차례	-9.88655
내렸다	-9.88679
센트	-9.88711
기회를	-9.88716
외교부	-9.88868
▁K	-9.88895
을겪	-9.88906
일자리	-9.88922
▁이란	-9.88931
지지를	-9.89015
판사	-9.89016
업자	-9.89078
수집	-9.89138
해진	-9.89235
노출	-9.89304
광장	-9.89331
치러진	-9.89394
여왕	-9.89468
개방	-9.89471
지도부	-9.89565
▁포인트	-9.8958
를찾	-9.8961
원제	-9.89612
건의	-9.89619
소녀	-9.89654
out	-9.89654
능	-9.89676
통신은	-9.89698
외교적	-9.89711
강조	-9.89718
수석	-9.89768
BBC	-9.89809
유럽연합	-9.89809
im	-9.89844
당신	-9.89857
심슨	-9.89874
도입	-9.89922
회원국	-9.89949
자리를	-9.9
합동	-9.90033
목적으로	-9.90044
여명	-9.90061
을것이다	-9.90065
이라크북부	-9.90079
지난년월	-9.90116
침해	-9.90136
디아	-9.90239
했다고주장했다	-9.90297
완화	-9.90343
▁경찰	-9.90363
만달러의	-9.90363
웨스트	-9.90366
여론조사결과	-9.9044
그것은	-9.90447
덕	-9.90475
회담을	-9.90485
소개	-9.90487
제를	-9.9049
오스트리아	-9.90498
고말한다	-9.90498
일현지시각	-9.90498
설득	-9.90506
마감	-9.90512
과정	-9.90515
기때문이다	-9.90528
우스	-9.90538
밝힌	-9.90538
민병대	-9.90574
입원	-9.90576
사고로	-9.90594
니콜	-9.90597
하늘	-9.90644
느끼	-9.90666
진행된	-9.9067
도전	-9.90671
▁부시는	-9.90672
북핵	-9.90676
관리는	-9.907
강요	-9.90701
실시한	-9.90718
아동	-9.90725
희생자들	-9.90769
여론조사에서	-9.90802
▁지난년	-9.90854
▁달러	-9.9086
나쁜	-9.90884
보고서에서	-9.90921
남은	-9.90938
선거에서	-9.90938
습	-9.90981
힘든	-9.90988
이년	-9.91109
집행	-9.91113
북미	-9.91127
오후	-9.91169
야생	-9.91189
앨범	-9.91194
납	-9.91331
원유	-9.91395
나타났다	-9.91402
한국정부	-9.91413
것으로보	-9.91432
차드	-9.91468
등장	-9.915
을통과	-9.91504
고있다며	-9.91561
닉	-9.91583
법안을	-9.91665
케네디	-9.91674
노스캐롤라이나	-9.91675
움직이	-9.91675
여부	-9.91687
사장은	-9.91743
킬	-9.91743
가능성을	-9.91752
와그의	-9.91774
실망	-9.91789
영업	-9.91833
매각	-9.91835
군의	-9.91856
원자로	-9.91903
요리	-9.91932
깊은	-9.91979
포르투갈	-9.92055
중에는	-9.92073
에서일	-9.92136
조사결과	-9.92171
때까지	-9.92222
청와대	-9.92246
청소년	-9.9227
어린	-9.92346
시점	-9.92357
없다	-9.92362
장면	-9.92367
스의	-9.92443
순찰	-9.92547
주말	-9.92579
회담에서	-9.92627
뛰어	-9.92644
▁김	-9.92645
후보는	-9.92654
구역	-9.9267
가년	-9.92719
발표된	-9.92733
파타	-9.92752
당신이	-9.92755
cm	-9.92841
X	-9.92842
▁지난달	-9.92853
코소보	-9.92854
빠르게	-9.92865
예루살렘	-9.92865
이달초	-9.92892
성이	-9.92912
올해초	-9.92926
테러리스트	-9.92941
만달러를	-9.92982
만한	-9.9299
폭동	-9.93035
사항	-9.93035
을지지	-9.93046
음모	-9.93064
던중	-9.93075
행정부	-9.9308
고전	-9.93081
이유는	-9.931
연설을	-9.93118
세트	-9.93212
이와같은	-9.93226
다음달일	-9.93287
장인	-9.933
이없	-9.93301
명이사망	-9.93327
내무부	-9.93331
절대	-9.93332
기존	-9.93364
시아	-9.93376
목록	-9.93387
over	-9.93479
도있다	-9.93515
레이스	-9.93547
GM	-9.93555
▁세	-9.93555
가치	-9.93606
들었다	-9.93613
을주	-9.93614
다고주장했다	-9.93645
브로	-9.9366
작동	-9.93685
국장	-9.93785
의혹	-9.93799
그것이	-9.93805
이사	-9.9382
회사의	-9.93836
객	-9.93852
총격	-9.93867
북측	-9.93874
이더	-9.9391
전투기	-9.9393
량이	-9.93947
끝나	-9.94022
지대	-9.94029
멘	-9.94042
돌아	-9.94045
봉쇄	-9.94073
이아니라	-9.94073
덴마크	-9.94076
이스라엘군	-9.94077
푸틴	-9.9409
헬	-9.94093
계획이	-9.94152
론스타	-9.94164
스코	-9.94237
취재	-9.94292
시청	-9.94358
베리	-9.94362
추정	-9.94395
관계가	-9.94423
▁신화통신은	-9.94466
브리	-9.94562
속도	-9.9473
들과함께	-9.94798
▁카	-9.94805
할것이라는	-9.94845
영국에서	-9.94853
자들의	-9.94885
국가의	-9.94927
분위기	-9.94932
롤	-9.94947
손상	-9.94968
책을	-9.94977
te	-9.9498
하원의원	-9.95023
모습이	-9.95034
co	-9.9506
신도	-9.95078
한채	-9.95079
얻은	-9.95096
의사를	-9.95154
▁인터넷	-9.95155
ofthe	-9.9518
광산	-9.95187
장식	-9.95198
블랙	-9.95275
홈	-9.95278
네트워크	-9.9529
국제사회	-9.95298
검거	-9.95328
끌	-9.9534
중명은	-9.95346
경고했다	-9.95358
부시미대통령은	-9.95367
표시	-9.9545
브라	-9.95484
con	-9.95487
경보	-9.95528
분열	-9.95535
할것으로보인다	-9.95559
저녁	-9.95585
비자	-9.95604
기분	-9.95611
수영	-9.95627
에걸쳐	-9.9564
전세계적으로	-9.95649
고위관리	-9.95742
불만	-9.9576
을인용	-9.95779
세계에서가장	-9.95795
발병	-9.95807
받는	-9.95859
진화	-9.95938
세계랭킹위	-9.9596
개입	-9.95964
여부를	-9.9599
전직	-9.96031
으로써	-9.96051
탑	-9.96115
잠시	-9.96134
적이고	-9.96153
었으나	-9.96178
충격	-9.9618
수천	-9.96196
은또한	-9.96227
공포	-9.9631
중심	-9.96396
팅	-9.9649
멸	-9.96494
혜택	-9.96515
를타고	-9.96516
옥	-9.9654
습격	-9.96542
멋진	-9.96543
지금은	-9.96553
국방장관	-9.96554
희생	-9.96556
올랐다	-9.96557
▁이것은	-9.96559
분명히	-9.9656
지도자인	-9.96602
신경	-9.9661
아무도	-9.96612
가이끄는	-9.96646
개정	-9.96655
은지난월	-9.96679
전개	-9.96705
오염	-9.96739
이끌	-9.9676
▁미군은	-9.96772
의문	-9.96794
과학자	-9.96823
아마	-9.9683
당했다	-9.9685
봤다	-9.96873
수없다	-9.96883
분석가	-9.969
▁퍼센트	-9.96907
잔해	-9.96964
운동가	-9.97059
자들에게	-9.97206
경영	-9.97236
빠른	-9.97244
화학	-9.97251
▁브라질	-9.97358
크리스	-9.97378
여당	-9.97409
키스	-9.97421
이메일	-9.9746
라고말	-9.97492
이라크군	-9.97506
사무총장은	-9.97533
동성애자	-9.97565
의회가	-9.97638
등이	-9.97644
과관련해	-9.97661
대통령후보	-9.97663
고있던	-9.97691
시각	-9.97701
덴	-9.97726
보낼	-9.97753
IOC	-9.97773
크라이슬러	-9.97774
UEFA	-9.97774
읽	-9.97774
with	-9.97774
반드시	-9.97777
세포	-9.9779
많	-9.9781
있었으며	-9.97851
공간	-9.97855
해산	-9.97879
골프	-9.97947
국회의원	-9.97998
이없는	-9.98042
배경	-9.9812
진영	-9.98139
해야하는	-9.98164
유리	-9.98199
올린	-9.98237
inthe	-9.98245
가없다	-9.98291
에드	-9.9844
리오	-9.98456
비상	-9.98536
규모	-9.98578
리콜	-9.98686
sof	-9.98691
들에대한	-9.9874
것이라고주장했다	-9.98783
네팔	-9.98785
스티븐	-9.98827
줄어들	-9.98838
대법원	-9.9884
목격자	-9.9884
그레	-9.98874
학생들	-9.9888
방화	-9.98915
어스	-9.98929
주석	-9.98958
ut	-9.98995
유전자	-9.99015
집에	-9.99015
관찰	-9.99037
빈라덴	-9.99039
떼	-9.9904
탈출	-9.99054
지가	-9.99084
총리가	-9.99129
보좌관	-9.99161
보여주	-9.99272
이틀	-9.99276
방영	-9.99307
되는것	-9.99314
지정	-9.99397
의회는	-9.99413
명예	-9.99445
할것이라며	-9.99459
구출	-9.99476
펜실베이니아	-9.9949
에반대하는	-9.99532
일동안	-9.99555
누가	-9.99573
이라고전했다	-9.99604
인권단체	-9.99663
tion	-9.99691
▁그가	-9.99714
버리	-9.99744
결정을	-9.99751
그들을	-9.99786
는사실	-9.99857
라고주장했다	-9.99862
해양	-9.9992
지난주말	-9.99924
아카데미	-9.99928
승객	-9.99969
강조했다	-9.99984
요소	-10.0001
말레이시아	-10.0001
형제	-10.0001
드라	-10.0003
위조	-10.0007
북핵문제	-10.0007
기능	-10.0009
도와	-10.0012
과학자들이	-10.0013
사건을	-10.0014
아이를	-10.0017
빙하	-10.0022
을갖	-10.0022
발언을	-10.0025
캘리포니아주	-10.0027
타운	-10.0032
해리포터	-10.0032
렛	-10.0032
벗	-10.0032
챔피언스리그	-10.0032
봄	-10.0032
활주로	-10.0033
숫자	-10.0035
마틴	-10.0042
가입	-10.0042
칠레	-10.0042
곳에	-10.0045
탐	-10.0045
운전	-10.0062
찬성	-10.0063
주최	-10.0073
대변인이밝혔	-10.0077
아부	-10.0079
구글	-10.0089
시티	-10.0092
방침	-10.0092
부근에서	-10.0101
확	-10.0103
확실한	-10.0104
▁서울	-10.0106
즐	-10.0115
탐사	-10.0117
게될	-10.0117
▁미군	-10.0119
핵심	-10.0121
이라크내	-10.0122
과학자들은	-10.0124
되자	-10.0124
공정	-10.0124
해적	-10.0131
멀	-10.0136
sh	-10.014
마리의	-10.0141
의회에서	-10.0141
통계	-10.0143
마리가	-10.0149
여성은	-10.015
에대해서도	-10.015
의장은	-10.0151
는이미	-10.0151
여행을	-10.0153
마지막으로	-10.0157
춘	-10.0158
카르	-10.0158
주전	-10.0158
중국과	-10.0162
NATO	-10.0162
FRB	-10.0162
투쟁	-10.0163
케이블	-10.0164
하라	-10.0164
연맹	-10.0165
떨어지	-10.0165
달리	-10.0167
남아공	-10.0171
됐었다	-10.0172
년간의	-10.0173
다고설명했다	-10.0173
겨울	-10.0174
을거부	-10.0176
만들어진	-10.018
점차	-10.018
의회의	-10.0181
을것이라고말했다	-10.0182
철군	-10.0185
현금	-10.0187
군대	-10.0187
보석	-10.0194
군중	-10.0195
겠다는	-10.0196
ex	-10.0197
논란	-10.0199
클레	-10.02
중간	-10.0203
납치된	-10.0214
국왕	-10.0217
주인	-10.0219
주제	-10.0219
코스	-10.0222
이상이	-10.0225
향후	-10.0225
전사	-10.0228
중국에서	-10.0229
국제공항	-10.0232
신원	-10.0232
후원	-10.0235
비아	-10.0239
시내	-10.0244
단속	-10.025
로써	-10.0252
것에대해	-10.0258
부시대통령의	-10.0259
유가	-10.026
국민들	-10.0267
니는	-10.0268
폐기	-10.0269
스위스	-10.027
스타인	-10.0275
In	-10.0275
오늘아침	-10.0275
오는월일	-10.0275
년에는	-10.0277
에참여하	-10.0283
공화당의	-10.0283
치르	-10.0289
의전	-10.0289
결선투표	-10.0289
유세	-10.029
민주당대선후보	-10.0293
바르셀로나	-10.0294
알래스카	-10.0294
사담후세인	-10.0294
동티모르	-10.0294
쓰나미	-10.0294
고등학교	-10.0294
리조트	-10.0295
일리노이주	-10.0297
시드니	-10.0298
만족	-10.0299
없다고말했다	-10.03
두바이	-10.0311
이라크주둔미군	-10.0312
페루	-10.0315
모두가	-10.0325
▁홍콩	-10.0325
인명	-10.0334
선고	-10.0334
체제	-10.0341
테러공격	-10.0343
고소	-10.0346
ho	-10.0349
흡연	-10.0351
토론회	-10.0357
얘기	-10.0357
만원	-10.0358
입증	-10.0359
부인했다	-10.0363
을갖고있다	-10.0363
영화제	-10.0364
요금	-10.0368
폭탄테러로	-10.037
신체	-10.0373
켈	-10.0375
남성이	-10.0376
줬다	-10.0377
해주는	-10.0379
하고자	-10.0385
게될것이다	-10.0385
오후시	-10.0388
이곳에	-10.039
기시작	-10.039
국민들은	-10.0391
all	-10.0394
세이	-10.04
고대	-10.0401
민주화	-10.0404
실종된	-10.0407
체결	-10.0407
미래	-10.0411
며그	-10.0412
비가	-10.0421
경찰의	-10.0424
대가로	-10.0424
들로	-10.0425
훼손	-10.0426
는올해	-10.0427
가택연금	-10.0427
휴대전화	-10.0427
에걸친	-10.0428
이것은	-10.0428
협박	-10.0429
의원들은	-10.0429
경기부양책	-10.043
버지니아	-10.043
쪽	-10.0433
정도로	-10.0435
일반적으로	-10.0437
방어	-10.044
트로	-10.0441
소를	-10.0443
사회적	-10.0446
화산	-10.0453
아나	-10.0453
측정	-10.0455
을찾아	-10.0458
경호원	-10.0467
이스라엘의	-10.047
심의	-10.0473
승무원	-10.0473
은최근	-10.0476
부여	-10.0482
없어	-10.0484
▁부시	-10.0485
유출	-10.0486
에나섰다	-10.049
결의안	-10.0493
권리	-10.0495
째	-10.0496
고있	-10.0501
부과	-10.0506
농장	-10.0507
쳤	-10.0509
을가졌다	-10.051
지지자들	-10.0517
은이날	-10.0518
명이상이	-10.0521
았	-10.0524
역사적인	-10.0524
회동	-10.0525
할예정	-10.0526
신문은	-10.0528
기자가	-10.0529
적은	-10.053
대의원	-10.0532
무선	-10.0536
열리	-10.0537
일은	-10.054
에오른	-10.0544
났다	-10.0546
고말합니다	-10.0547
당신은	-10.0547
스타일	-10.0548
뉴질랜드	-10.0549
인생	-10.0552
국인	-10.0552
조약	-10.0554
동의	-10.0555
낼	-10.0557
이들이	-10.0559
셰	-10.0562
라스베이거스	-10.0562
컬	-10.0562
전당대회	-10.0563
충분히	-10.0564
다니엘	-10.0564
ABC	-10.0566
는점을	-10.0566
짜리	-10.0567
존슨	-10.0572
저장된	-10.0577
역할	-10.0577
학생들은	-10.0581
태양	-10.0582
하다고	-10.0584
은퇴	-10.0584
▁민주당	-10.0585
내내	-10.0587
만난	-10.0588
아이들을	-10.0589
사망했다고	-10.059
했다고설명했다	-10.0591
순방	-10.0593
여권	-10.0607
은이미	-10.0608
오하이오주	-10.0611
증권	-10.0615
중재	-10.0621
찍	-10.0624
제안을	-10.0628
이들을	-10.0629
미국내	-10.0632
벌인	-10.0632
부통령	-10.0634
x	-10.0643
화면	-10.0646
를가진	-10.0646
에달	-10.0648
사와	-10.0664
영화를	-10.0666
만들어	-10.0667
그들	-10.0668
무리	-10.067
리스트	-10.0677
면담	-10.068
sc	-10.0682
▁알	-10.0688
놀	-10.0688
을지	-10.0688
전날	-10.0692
금요일	-10.0694
쓴	-10.0699
꼭	-10.0699
나타	-10.0699
오래	-10.0701
테스트	-10.0706
가아닌	-10.0706
논평	-10.0708
여러분	-10.0712
me	-10.0713
분명	-10.0714
의아들	-10.0716
선언했다	-10.0717
하기시작했다	-10.0718
디자인	-10.0723
▁노대통령은	-10.0725
었다고전했다	-10.0725
ies	-10.0726
퇴	-10.0733
주문	-10.0734
후보를	-10.0736
요구했다	-10.0737
이익	-10.0738
상승했다	-10.0739
아마도	-10.0742
ts	-10.0743
합병	-10.0744
▁N	-10.0744
이라크정부	-10.0747
내용은	-10.0748
가격을	-10.0748
ill	-10.0749
외곽	-10.0749
남북한	-10.0752
금융위기	-10.0753
클라	-10.0756
Ma	-10.0758
민주	-10.0758
자살폭탄테러	-10.076
업체인	-10.0763
경찰서	-10.0764
구금	-10.0765
빠져	-10.0765
성관계	-10.0765
세번째	-10.0765
젤	-10.0767
여진	-10.0768
다니	-10.0774
부서	-10.0778
사람의	-10.078
외무장관	-10.0784
잉	-10.0785
총재	-10.0785
권리를	-10.0793
▁한국은	-10.0796
이미지	-10.0798
을보내	-10.0806
수리	-10.0808
연대	-10.0809
민족	-10.081
롱	-10.0827
거주	-10.0832
유대인	-10.0833
되었고	-10.0836
샌프란시스코	-10.0836
휘발유	-10.0837
WHO	-10.0838
est	-10.0843
천주교	-10.0843
작용	-10.0843
곳을	-10.0843
시위대가	-10.0844
와다른	-10.0845
없다며	-10.0846
을받아	-10.085
하지못하	-10.0851
에출전	-10.0853
소식통	-10.0856
법원이	-10.0858
다이애나	-10.0859
진전	-10.086
량을	-10.0861
삶	-10.0869
신발	-10.087
교황	-10.0876
Korea	-10.0878
안에서	-10.0879
선전	-10.088
억만달러	-10.088
규모의	-10.0887
되었던	-10.0889
운영하는	-10.0894
편지	-10.0895
서신	-10.0902
하는것이다	-10.0903
윌리엄	-10.0907
육군	-10.0908
부를	-10.0915
해야한다고말했다	-10.0919
하지않고있다	-10.0919
최초로	-10.092
대북	-10.0921
차를	-10.0922
분간	-10.0922
직원들	-10.0923
찾아	-10.093
스토	-10.0931
하이	-10.0931
에거주하는	-10.0932
할가능성	-10.0933
카불	-10.0933
마시	-10.0934
상태가	-10.0934
었다며	-10.0936
노예	-10.0939
에있어	-10.0943
생물	-10.0943
mo	-10.0944
보다는	-10.0945
제대로	-10.0949
운전자	-10.0949
없다고밝혔다	-10.095
산불	-10.0956
명이사망하고	-10.0958
가장많은	-10.096
존중	-10.096
오브	-10.096
지도자들은	-10.0965
에서명	-10.0965
이같이	-10.0966
오전시	-10.0969
사태가	-10.0973
으면서	-10.0974
웹	-10.0978
획득	-10.0978
샌	-10.0978
행진	-10.0979
쓸	-10.0979
공화국	-10.0979
채널	-10.098
세워	-10.0981
패션	-10.0981
흥분	-10.0981
대단한	-10.0982
여성들	-10.0985
국민들에게	-10.0986
경영진	-10.0986
상당한	-10.0988
레드	-10.0989
주년	-10.099
군이	-10.0994
밝히지않았다	-10.0995
선발	-10.1002
▁매케인은	-10.1005
미의회	-10.1005
년이후	-10.1005
우드	-10.1012
지않다	-10.1014
저장	-10.1015
상징	-10.1015
해결책	-10.1019
비용이	-10.102
급등	-10.1021
이아니다	-10.1022
되었	-10.1022
▁그는이	-10.1023
알려진	-10.1026
가르	-10.1027
권한	-10.1053
에있다	-10.1055
영국인	-10.1057
씨가	-10.1058
영국의	-10.1058
기계	-10.1059
폴리	-10.1062
▁그는이어	-10.1063
나를	-10.1065
일까지	-10.1065
소요	-10.1066
것이라는	-10.1069
동반	-10.1069
지면서	-10.1073
된후	-10.1075
보여	-10.1076
언제	-10.1076
의수도	-10.108
볼수있다	-10.1082
됐으나	-10.1087
텍사스주	-10.1089
새끼	-10.109
꺾	-10.1092
윌	-10.1092
뛰	-10.1097
sa	-10.1104
리그	-10.1105
톰	-10.1105
한달	-10.1109
유죄	-10.1109
로이동	-10.111
지않고있다	-10.1112
▁Korea	-10.1113
전반	-10.1115
낙	-10.1115
중가장	-10.112
책임자	-10.112
챔피언	-10.1121
곰	-10.1121
중명이	-10.1122
폴란드	-10.1122
밥	-10.1122
쌀	-10.1122
닷컴	-10.1122
에어버스	-10.1123
얼음	-10.1124
송환	-10.1124
사찰단	-10.1125
외환은행	-10.1126
화장실	-10.1126
해줄	-10.1129
수용소	-10.1132
측근	-10.1132
초대	-10.1132
사우디아라비아	-10.1133
발굴	-10.1134
것으로드러났다	-10.1134
할만한	-10.1134
시장의	-10.1137
하에	-10.1138
을마련	-10.1139
하와이	-10.114
네스	-10.1143
서명	-10.1147
한것에대해	-10.115
의이름을	-10.1152
로비	-10.1156
생활을	-10.1157
경제가	-10.1158
가아니라	-10.1163
사라	-10.1163
를인용	-10.1168
부장관	-10.1172
러시아의	-10.1178
연구원	-10.118
공약	-10.1185
흑	-10.1185
이기때문에	-10.1186
▁US	-10.1191
▁오	-10.1192
식당	-10.12
▁두	-10.1206
죽은	-10.1207
명이사망했으며	-10.1207
가족들	-10.1208
소장	-10.1213
예전	-10.1218
▁년월	-10.1221
이계속	-10.1223
소득	-10.1227
편집	-10.1228
정지	-10.1228
북극	-10.1228
되기	-10.1231
는지난해	-10.1231
사진을	-10.1232
폭격	-10.1232
다르푸르	-10.1233
저항	-10.1237
인질들	-10.1242
▁라고	-10.1244
전선	-10.1246
ck	-10.1246
대한	-10.1247
밀란	-10.1254
기반	-10.1254
모르	-10.1254
켄	-10.1255
회사가	-10.1255
를공격	-10.1257
닥	-10.1257
맥주	-10.1258
슬리	-10.1258
폰	-10.126
ge	-10.1261
묵	-10.1266
태어난	-10.1267
맛	-10.1267
qu	-10.1267
패트릭	-10.1267
바람	-10.1269
대륙	-10.1269
부토	-10.1271
길바란다	-10.1273
오픈	-10.1281
고있다고밝혔다	-10.1281
정확히	-10.1282
화물	-10.1285
츠는	-10.1287
여론	-10.1287
ta	-10.1292
차지	-10.1292
아무	-10.1293
총선에서	-10.1295
나의	-10.1297
재건	-10.1298
손을	-10.1307
홍	-10.1308
겐	-10.1308
일주일	-10.1309
조차	-10.1312
하지않을것이라	-10.1316
비용을	-10.1318
양국	-10.1321
중국은	-10.1322
았으며	-10.1323
기전에	-10.1323
후반	-10.1326
가질	-10.1327
조합	-10.1329
일본이	-10.133
집을	-10.1334
폭발물	-10.1335
비슷한	-10.1336
살된	-10.1336
는지난달	-10.134
무가베	-10.1345
복용	-10.1347
특사	-10.1351
커피	-10.1354
하기로했다	-10.1358
개가	-10.1368
순위	-10.1373
틸	-10.1375
상태로	-10.1375
만에	-10.1376
혔다	-10.1382
경계	-10.1386
트레	-10.1395
그러한	-10.1396
벌금	-10.1396
럼	-10.1397
찾	-10.1398
사건은	-10.1403
길을	-10.1405
요인	-10.1405
하기때문에	-10.1408
정부에	-10.1409
콘돌리자라이스미국무장관	-10.1414
레스토랑	-10.1414
가장중요한	-10.1416
칼리	-10.1418
삭제	-10.1419
마이크로소프트	-10.1421
끝난	-10.1421
각국	-10.1424
ood	-10.1426
강경	-10.1431
근로자	-10.1433
지역을	-10.1435
ti	-10.1444
중독	-10.1449
은그	-10.145
▁과학자들은	-10.1451
화해	-10.1452
할것을촉구했다	-10.1454
▁필리핀	-10.1456
이루어졌다	-10.1459
ha	-10.1465
년이상	-10.1466
가방	-10.1466
죽음	-10.1466
들에의해	-10.1469
존스	-10.1472
상으로	-10.1474
국민들의	-10.1474
를기록했다	-10.1479
노대통령은	-10.148
남쪽	-10.1481
국무부	-10.1481
는다른	-10.1484
대회에서	-10.1486
발언은	-10.1487
클리	-10.1489
고싶어	-10.1491
검색어가	-10.1491
세계에서	-10.1493
혹은	-10.15
니아	-10.1501
위원장	-10.1507
오하이오	-10.1509
부는	-10.1519
게되었다	-10.1523
나서	-10.1524
중심부	-10.1537
낳	-10.1545
을수있다	-10.1546
윤	-10.155
고생각	-10.1551
릿	-10.1563
원숭이	-10.1563
두려워	-10.1563
파트너	-10.1566
장의	-10.1567
협약	-10.1569
즉각적인	-10.1569
있었고	-10.157
이없다	-10.1571
자원	-10.1576
탄핵	-10.1578
뿌리	-10.1579
공중	-10.158
세력이	-10.1584
이스라엘이	-10.1585
스티	-10.159
폭락	-10.1595
테러조직	-10.1597
밝혀지지않았다	-10.1602
강력히	-10.1607
PA	-10.1609
되었으며	-10.1612
부토전총리	-10.1612
차량을	-10.1613
아니다	-10.1615
언어	-10.162
브레	-10.1623
서방	-10.1625
지역으로	-10.1629
박사	-10.1632
대화를	-10.1633
일본인	-10.1645
존매케인	-10.1649
재난	-10.1653
관계자들이	-10.1658
국제사회의	-10.166
공모	-10.1664
검사는	-10.1681
격차	-10.1681
피해를	-10.1682
는지난주	-10.1686
사건과관련	-10.1691
과다른	-10.1692
경비	-10.1693
많다	-10.1695
자신은	-10.1696
age	-10.1698
중요하다	-10.1702
도움을	-10.1704
달려	-10.1705
Japan	-10.1714
요르단	-10.1714
이재민	-10.1715
힘을	-10.1715
호랑이	-10.1715
농업	-10.1717
떠나	-10.1719
더라도	-10.172
활약	-10.172
대결	-10.1721
라스	-10.1721
건축	-10.1722
신부	-10.1722
정치인	-10.1727
에동의	-10.1731
근육	-10.1747
을이유로	-10.175
크레	-10.1751
용기	-10.1752
완전한	-10.1752
노동당	-10.1754
년부터년까지	-10.1754
증상	-10.1755
구축	-10.1755
MD	-10.1757
해임	-10.1757
중부	-10.1768
가될	-10.1769
연구결과	-10.1769
삼성	-10.177
시민들이	-10.178
시에	-10.1783
축소	-10.1783
동기	-10.1786
엔진	-10.179
할것	-10.1791
골드	-10.1793
된다면	-10.1793
그러	-10.1794
오바마후보	-10.1794
명에게	-10.1795
차단	-10.1797
플로리다주	-10.1797
은아직	-10.18
베이징에서	-10.1802
사이에서	-10.1808
CD	-10.1811
렉	-10.1813
한상태	-10.1817
향상	-10.1818
아이의	-10.1824
고발	-10.1825
소장은	-10.1828
는그가	-10.1829
자료를	-10.1829
도움	-10.183
월초	-10.1832
다고덧붙였다	-10.1833
진정	-10.1834
직업	-10.1835
달라이라마	-10.1835
의대	-10.1838
실수	-10.1839
▁아프간	-10.1847
장관이	-10.1849
계획은	-10.185
up	-10.1852
들어가	-10.1854
성격	-10.1857
주민들에게	-10.1859
커플	-10.1859
레알마드리드	-10.1861
우리에게	-10.1863
들중	-10.1863
사고가발생	-10.1864
인구가	-10.1864
스코틀랜드	-10.1864
딩	-10.1867
방법이	-10.1868
디지털	-10.1868
▁그래서	-10.1869
영웅	-10.1871
총장은	-10.1872
를상대로	-10.1873
계좌	-10.1873
남자친구	-10.1874
바스라	-10.1877
하지않았	-10.1877
원칙	-10.1879
사막	-10.188
급증	-10.188
태평양	-10.1881
do	-10.1882
고언급했다	-10.1888
pro	-10.189
예수	-10.189
다섯	-10.1891
싸움	-10.1894
일자리를	-10.1894
공개적으로	-10.1895
상하이	-10.1896
측에	-10.1896
백인	-10.1898
감금	-10.1898
자문	-10.1902
됐다며	-10.1904
한것이다	-10.1904
중대한	-10.1905
ca	-10.1905
나토군	-10.1906
볼수있	-10.1912
영화배우	-10.1913
혐의를	-10.1915
를만들	-10.192
세금을	-10.1921
▁나는	-10.1923
훌륭한	-10.1928
일찍	-10.1933
팀은	-10.1933
▁코	-10.1934
만났다	-10.1936
맨유	-10.1937
▁짐바브웨	-10.194
부채	-10.1942
선수들	-10.1945
만날	-10.1946
고싶다	-10.1946
의첫	-10.1946
을금지	-10.1949
레바논군	-10.1953
업체들	-10.1957
을먹	-10.1961
강하게	-10.1968
연안	-10.1972
파키스탄의	-10.1978
을만나	-10.1986
정부를	-10.199
이든	-10.1994
몸을	-10.1995
파크	-10.1997
련	-10.1997
을막기위해	-10.2
AS	-10.2001
시속	-10.2001
잭슨	-10.2002
는성명에서	-10.2003
를발견했다	-10.2004
촉	-10.2006
노스	-10.201
국민들이	-10.2012
▁북한이	-10.2013
의원인	-10.2014
일간지	-10.2017
ma	-10.2017
캔	-10.2019
의죽음	-10.2021
가있	-10.2023
당의	-10.2024
핀	-10.2024
국제원자력기구	-10.2025
리히터규모	-10.2025
엄청난	-10.2025
한글뉴스	-10.2025
우주왕복선	-10.2025
권력을	-10.2027
크루즈	-10.2028
게된	-10.2029
취임식	-10.2031
노력을	-10.2032
자동차업계	-10.2032
을따라	-10.2033
네이	-10.2034
산림	-10.2038
봉사	-10.2038
원하는	-10.204
공식적인	-10.2041
환호	-10.2042
▁노무현대통령은	-10.2045
his	-10.2048
결승전	-10.2049
수송	-10.205
틴	-10.2052
명이숨지고	-10.2056
시스템을	-10.2056
것으로나타났다	-10.2058
이론	-10.206
국가안보	-10.2061
힐러리클린턴상원의원	-10.2061
연주	-10.2062
man	-10.2067
클린턴은	-10.2068
테러범	-10.2069
지도자들	-10.2072
했기때문에	-10.2074
투표를	-10.2075
제의	-10.2077
안전한	-10.2081
구조작업	-10.2081
것이아니라	-10.2082
하기시작	-10.2082
미국과의	-10.2083
타임	-10.2083
온몸으로말하는기상캐스터	-10.2084
베트남	-10.2088
한가운데	-10.2091
리차드	-10.2091
놀라	-10.2093
발견됐다	-10.2096
협	-10.2105
감정	-10.2113
탈레반반군	-10.2114
대에	-10.2115
았으나	-10.2116
켜	-10.2117
야한다고말했다	-10.212
를조사	-10.2121
요구를	-10.2124
을발표	-10.2126
▁세계	-10.2127
비교	-10.2128
폭탄이	-10.2132
가능성이있다	-10.2136
자신에게	-10.2141
IC	-10.2144
북동부	-10.2144
는자신의	-10.2147
모리	-10.2153
전문가들이	-10.2155
▁즉	-10.2159
리처드	-10.216
그와	-10.2169
날아	-10.217
며그는	-10.2171
어디	-10.2172
았지만	-10.2174
수있	-10.2177
즉각	-10.2177
쇼핑	-10.2179
세계은행	-10.2179
웅	-10.2181
었다고밝혔다	-10.2182
res	-10.2182
잊	-10.2183
캄보디아	-10.2183
다우존스	-10.2183
치열한	-10.2184
응급	-10.2185
화이트	-10.2188
페이지	-10.2188
남극	-10.219
지하철	-10.219
의원들	-10.219
에진출	-10.2191
벨기에	-10.2192
보고서에따르면	-10.2192
▁팔레스타인	-10.2195
월중순	-10.2196
조기	-10.2199
긍정적인	-10.22
이란은	-10.22
여학생	-10.2202
지휘관	-10.2204
소형	-10.2206
폭파	-10.2208
득점	-10.2209
조성	-10.2212
황금	-10.2214
거절	-10.2215
결코	-10.2217
계획이다	-10.222
경력	-10.2226
사이클론	-10.2232
진다	-10.2237
을떠나	-10.2239
핵시설	-10.224
옆	-10.2247
위원회의	-10.2249
에포함	-10.2252
테이프	-10.2259
인민	-10.226
생각을	-10.226
시켰	-10.2262
이브	-10.2264
임금	-10.2267
남아있	-10.2268
제조업체	-10.2269
에맞	-10.2274
걸어	-10.2274
모여	-10.2279
을기록했다	-10.2281
인종	-10.2285
에게는	-10.2292
쿠데타	-10.2293
재무장관	-10.2293
섰다	-10.2296
보냈다	-10.2302
메리	-10.2304
과정을	-10.2306
적십자	-10.2306
탕	-10.2308
지로	-10.2308
▁테러	-10.2308
클린턴이	-10.231
혹	-10.2313
호세	-10.2315
세계적인	-10.2329
자세한	-10.2332
평화적	-10.2332
테리	-10.2333
입법	-10.2335
대표단	-10.2337
버마	-10.2337
균형	-10.2339
하나의	-10.234
심각	-10.2341
뱀	-10.2344
밍	-10.2345
Z	-10.2345
은신처	-10.2345
최고경영자	-10.2345
문제에대해	-10.2346
폭탄테러가발생	-10.2347
유튜브	-10.2347
돕	-10.2348
일부터	-10.2348
▁오늘	-10.2349
국가가	-10.2349
사법	-10.2354
브랜드	-10.2359
지상	-10.236
질환	-10.2364
유엔안보리	-10.2365
는지난일	-10.2365
구호단체	-10.2366
진출	-10.2369
총격전	-10.237
있다고밝혔다	-10.237
에성공	-10.237
됩니다	-10.2371
반발	-10.2373
분의	-10.2373
녀	-10.2373
고있어	-10.2379
경선에서	-10.2382
초청	-10.2383
장면을	-10.2384
에서약	-10.2386
을벌이고있다	-10.2386
을비롯한	-10.2388
id	-10.2388
빠지	-10.2388
▁폴	-10.239
는약	-10.2393
위대한	-10.2393
기상	-10.2395
할예정이라	-10.2396
역사적	-10.2402
시민들	-10.2402
악어	-10.2403
서울에서	-10.2403
▁레바논	-10.2404
▁더	-10.2405
파손	-10.2406
폭우	-10.2407
제안했다	-10.241
어로	-10.2415
효과	-10.2416
그대로	-10.2419
예술	-10.2419
을추진	-10.2421
원문기사보기	-10.2421
법원에	-10.2422
내용이	-10.2425
공항에서	-10.2425
증세	-10.2426
화가	-10.2427
에합의	-10.2428
수사를	-10.2434
이민	-10.2435
불과	-10.2436
분만에	-10.2436
동영상을	-10.2438
Iraq	-10.2441
측이	-10.2442
공연을	-10.2443
의주	-10.2452
후보로	-10.2452
야하는	-10.2457
신호	-10.2461
할수있게	-10.2462
이로인해	-10.2473
가되	-10.2477
국방	-10.2479
출판	-10.248
장으로	-10.2481
인들의	-10.2483
바그다드에서	-10.2483
을발견	-10.2485
푸틴대통령	-10.2486
었다고	-10.249
미디어	-10.249
반영	-10.2491
르는	-10.2491
이뤄	-10.2494
미국에	-10.2494
극복	-10.2499
컨	-10.2506
종이	-10.2507
를계속	-10.2507
오히려	-10.2508
PKK	-10.2508
왼쪽	-10.2508
오사마빈라덴	-10.2509
아무것도	-10.2509
헌법재판소	-10.2509
아이폰	-10.2511
멸종	-10.2511
보여준다	-10.2512
추가파병	-10.2512
화재가발생	-10.2515
주인공	-10.2515
미국측	-10.2516
압둘라	-10.252
편의	-10.2522
에필요한	-10.2522
저지른	-10.2522
위안부	-10.2523
각료	-10.2523
▁이에대해	-10.2524
이후처음으로	-10.2526
법무장관	-10.2528
을받고있다	-10.2531
골을	-10.2532
승부	-10.2537
기부	-10.2542
곳이	-10.2545
청구	-10.2548
▁말레이시아	-10.2549
우려하고있다	-10.2553
대치	-10.2554
될때까지	-10.2558
이번사태	-10.2558
부산	-10.256
앞에	-10.2562
그녀	-10.2563
하고싶다	-10.2563
아프간에서	-10.2566
하지못한	-10.2566
베컴은	-10.2571
플레이	-10.2573
을수있	-10.2574
총기	-10.2575
한국에서	-10.2575
일치	-10.258
대립	-10.2585
나이지리아	-10.2587
을것이라고	-10.2587
해상	-10.2588
거리를	-10.2589
를차지	-10.259
공개된	-10.259
청문회	-10.2591
할것으로	-10.2592
▁조	-10.2594
을시작했다	-10.2596
금액	-10.2596
가까운	-10.2601
고주장하고있다	-10.2601
sp	-10.2609
상상	-10.2609
현장에	-10.261
될것	-10.2611
달린	-10.2611
BA	-10.2614
미국방부	-10.2619
이되	-10.262
의석	-10.262
야만	-10.2621
ard	-10.2626
친구들	-10.2627
잘못된	-10.2627
에서발견된	-10.2632
협조	-10.2633
젊은이들	-10.2633
유산	-10.2637
정부관계자는	-10.2641
서비스를	-10.2643
왔	-10.2644
가죽	-10.2647
있다고	-10.2651
싱가포르	-10.2651
종결	-10.2655
즈는	-10.2656
기후	-10.2657
세로	-10.2662
실시되는	-10.2665
미국인들이	-10.2667
로브	-10.2668
전총리	-10.2671
테러단체	-10.2672
개월동안	-10.2673
천연가스	-10.2673
인플레이션	-10.2675
콤	-10.2675
에대해서	-10.2675
쌍둥이	-10.2675
스캔들	-10.2676
무장괴한	-10.2676
섭취	-10.2677
사냥	-10.2677
이뤄졌다	-10.2677
나올	-10.2677
침몰	-10.2677
▁이런가운데	-10.2677
테니스	-10.2677
가격은	-10.2678
돌고래	-10.2679
탄압	-10.268
채택	-10.268
정의	-10.2682
를향해	-10.2683
해도	-10.2686
중앙은행	-10.2686
비상사태	-10.2687
무력	-10.2687
섹스	-10.2687
만개의	-10.2687
피고인	-10.269
전복	-10.2691
법무부	-10.2697
를따라	-10.2699
폭설	-10.2699
반복	-10.2699
지내	-10.27
콩고	-10.2701
의존	-10.2702
신문사	-10.2702
보존	-10.2702
함을	-10.2703
이명박	-10.2708
있다며	-10.2709
지고	-10.2709
sin	-10.2709
고있다고전했다	-10.2711
기자들	-10.2713
ance	-10.2714
점이	-10.2719
발생하는	-10.2722
스카	-10.2723
능력을	-10.2723
물품	-10.2729
ess	-10.2733
받을	-10.2735
tothe	-10.2737
조치가	-10.2738
돼지	-10.2739
명이사망하고명이부상했다	-10.2741
구간	-10.2741
장교	-10.2742
날개	-10.2743
보복	-10.2754
게재	-10.2756
갖고있	-10.2757
을수행	-10.276
는이유로	-10.276
지지자들은	-10.2763
직장	-10.2764
거대	-10.2769
이루어지	-10.277
보고있다	-10.2775
▁영국의	-10.2775
사생활	-10.2776
미해군	-10.2777
증거를	-10.2777
을비난했다	-10.2778
시위가	-10.2779
공기	-10.2779
발전소	-10.2781
왕자	-10.2782
개장	-10.2784
피해를입은	-10.2785
공을	-10.2785
상금	-10.2786
모든것을	-10.2791
시장에	-10.2793
량의	-10.2794
우려를	-10.2794
환자들	-10.2795
규모가	-10.2809
국무장관	-10.281
상원의원이	-10.281
벌어진	-10.2812
상어	-10.2814
하는사람들	-10.2819
그것	-10.2819
호수	-10.2819
부부는	-10.282
경제를	-10.2825
에맞서	-10.2827
다루	-10.2828
영국런던	-10.2829
드로	-10.2829
개시	-10.2829
가옥	-10.2831
밴	-10.2832
▁T	-10.2834
고경고했다	-10.2835
지난해월일	-10.2842
역사상	-10.2843
의일환으로	-10.2843
의사망	-10.2844
쌍	-10.2844
골키퍼	-10.2845
숲	-10.2845
만배럴	-10.2845
톱	-10.2845
사우스캐롤라이나	-10.2845
프리미어리그	-10.2845
곤잘레스	-10.2845
맨체스터유나이티드	-10.2845
▁단어장	-10.2845
토마스	-10.2845
내년월	-10.2845
전문가들	-10.2847
방문객	-10.2848
포럼	-10.2849
핵무기개발	-10.285
을고려	-10.285
할수	-10.2851
생긴	-10.2852
결과가	-10.2853
▁코리아타임즈는	-10.2856
몇가지	-10.2859
다시한번	-10.2867
일현지시간열린	-10.2869
▁북한의	-10.2871
성화봉송	-10.2873
의주장	-10.2874
불어	-10.2875
부위	-10.2876
타격	-10.2878
그외	-10.288
경찰서장은	-10.2885
개막	-10.2885
will	-10.2886
시체	-10.2886
머리를	-10.2887
지분	-10.2887
사령관은	-10.2888
진행자	-10.289
수립	-10.289
▁많은	-10.2893
▁캐나다	-10.2895
용의자가	-10.2897
할것으로예상	-10.2899
한것이	-10.2899
을선택	-10.29
체코	-10.2901
he	-10.2903
주가	-10.2905
는가운데	-10.2912
하는과정에서	-10.2912
었는지	-10.2913
고답했다	-10.292
억달러를	-10.2922
해리	-10.2923
리가	-10.2925
한것을	-10.2929
국으로	-10.293
미터	-10.293
한사람	-10.2934
떨	-10.2935
을방문한	-10.2936
해야한다는	-10.294
놓은	-10.2943
내놓	-10.2944
검은	-10.2946
을보였다	-10.295
에대비	-10.296
▁이제	-10.2964
사람을	-10.2966
태도	-10.2973
주일	-10.2974
출입	-10.2974
▁G	-10.2974
의공격	-10.2975
보였다	-10.2986
예비	-10.2986
것이었다	-10.2992
▁아프가니스탄	-10.2992
준비를	-10.2995
놓고	-10.2995
리치	-10.2996
종종	-10.2996
여성의	-10.2996
한혐의를받고있다	-10.2999
국제적	-10.3001
근로자들	-10.3001
올려	-10.3002
스럽	-10.3002
는것을알	-10.3003
롬	-10.3003
가계속	-10.3004
잭	-10.3007
베를린	-10.301
하워드	-10.301
듀	-10.3011
문제의	-10.3011
마카오	-10.3013
소방관	-10.3015
테러를	-10.3015
감행	-10.3016
디즈니	-10.3016
HIV	-10.3017
National	-10.3017
턱	-10.3017
남아있다	-10.3017
립니다	-10.3019
초반	-10.3019
돌아오	-10.302
국제우주정거장	-10.302
늦게	-10.3021
무사히	-10.3021
등급	-10.3022
가자	-10.3024
에큰	-10.3024
는사실이	-10.3026
문제를해결	-10.3026
양의	-10.3027
활	-10.3029
다르	-10.3035
출산	-10.3036
처분	-10.3038
지키	-10.304
son	-10.3041
동생	-10.3042
호가	-10.3044
명이사망한	-10.3048
써	-10.3053
수상자	-10.3053
권고	-10.3054
대학생	-10.3055
비교적	-10.3062
범행	-10.3062
연구소의	-10.3065
타이틀	-10.3065
해안에서	-10.3071
시기에	-10.3074
글로	-10.3074
거래를	-10.3078
을수없	-10.3078
버린	-10.3078
혐의로기소	-10.3078
기자들에게	-10.3079
승리했다	-10.3086
을포함해	-10.3091
모임	-10.3093
북한과	-10.3094
하다며	-10.3099
경제성장	-10.31
야기	-10.3101
있다고말했다	-10.3103
모자	-10.3104
했다고일현지시간	-10.3106
진정한	-10.3106
our	-10.3108
자택	-10.311
포경	-10.311
걷	-10.3112
에탑승	-10.3114
주주	-10.3117
방송국	-10.3121
근거	-10.3125
바꾸	-10.3128
아르	-10.3128
마비	-10.3129
더스	-10.3131
장례식	-10.3132
선을	-10.3133
유혈사태	-10.3134
기술을	-10.3137
가게	-10.3138
과격	-10.3143
To	-10.3143
을돕	-10.3145
것으로예상된다	-10.3148
남동부	-10.3149
성향의	-10.3149
을더	-10.3151
집으로	-10.3151
판정	-10.3151
천백	-10.3152
를지원	-10.3156
될수있	-10.3157
녹	-10.3158
은이라크	-10.3158
니스	-10.3161
러스	-10.3164
소매	-10.317
군사적	-10.3174
교착상태	-10.3175
외무부	-10.3176
는동안	-10.3177
를갖고	-10.3177
라는이름	-10.3179
균	-10.3179
모양	-10.318
얀	-10.3182
소위	-10.3183
던지	-10.3185
진보	-10.3185
첨	-10.3186
넷	-10.3189
겸	-10.3191
자유무역협정	-10.3192
탱크	-10.3192
퀸	-10.3192
쿠웨이트	-10.3192
비타민	-10.3193
코끼리	-10.3193
선관위	-10.3193
와인하우스	-10.3193
교섭	-10.3193
들리	-10.3194
방콕	-10.3194
무엇보다	-10.3195
연쇄	-10.3195
겠습니다	-10.3195
검증	-10.3196
검문소	-10.3198
타임즈	-10.3198
곳이다	-10.3202
하지않을경우	-10.3202
조명	-10.3204
차가	-10.3205
고말하	-10.3206
주목	-10.3209
나에게	-10.3211
관리들이	-10.3215
지켜	-10.3215
지도자들이	-10.3218
블레어총리	-10.3219
확장	-10.3219
▁오늘아침	-10.3221
꾸	-10.3221
정상화	-10.3227
바지	-10.3231
텐	-10.3232
겠다	-10.3233
되기전	-10.3236
시분	-10.3237
자랑	-10.3237
주위	-10.324
는것으로	-10.3244
본선	-10.3248
이필요	-10.3254
▁백악관	-10.3257
지못한	-10.326
그후	-10.3261
무사	-10.3263
단체가	-10.3264
이스	-10.3264
시장이	-10.3269
진단	-10.3273
에어	-10.3279
추산	-10.328
이유를	-10.3281
보기	-10.3288
당선자	-10.3289
오늘밤	-10.3291
기위해서는	-10.3291
반대로	-10.3298
어진	-10.3298
한국은	-10.3301
치고	-10.3302
을요구했다	-10.3302
지난일현지시간	-10.3303
레인	-10.3303
조직원	-10.3305
온도	-10.3307
계속되는	-10.331
을목표로	-10.3315
가득	-10.3319
세가	-10.3319
받아들여	-10.332
z	-10.332
왔으며	-10.3324
정치인들	-10.3328
에관여	-10.3328
스럽게	-10.3329
모인	-10.333
어려움	-10.3331
서류	-10.3333
해질	-10.3337
노대통령의	-10.3339
세계최대	-10.3341
없으며	-10.3342
어서	-10.3344
▁케냐	-10.3346
조항	-10.3349
마리아	-10.335
해보	-10.335
부상을입었다	-10.3351
지켜보	-10.3355
을수있는	-10.3359
남아있는	-10.336
군사작전	-10.3364
원문기사	-10.337
휴가	-10.3371
페르베즈무샤라프파키스탄대통령	-10.3371
식료품	-10.3371
꽃	-10.3371
외교통상부	-10.3371
상당히	-10.3371
횡령	-10.3371
멸종위기	-10.3373
방송은	-10.3374
예멘	-10.3375
월요일에	-10.3375
NBA	-10.3375
야생동물	-10.3377
저항세력	-10.3378
되거나	-10.3378
경호	-10.3379
지인	-10.338
성향	-10.3381
에합의했다	-10.3382
지붕	-10.3382
차관은	-10.3384
할것이	-10.3385
는그	-10.3387
코리아	-10.3388
곳은	-10.339
카라	-10.3391
치명적인	-10.3392
이륙	-10.3393
병원에입원	-10.3394
올랐	-10.3395
전망이	-10.3395
성공적으로	-10.3398
것으로추정된다	-10.3399
검찰은	-10.3401
의뜻을	-10.3402
있었지만	-10.3403
모습을보였다	-10.3404
국가로	-10.3404
에르	-10.3413
플라	-10.3417
당국의	-10.3417
수백만	-10.3419
재검토	-10.342
를이용해	-10.3423
하지않으면	-10.3425
개편	-10.3428
처방	-10.3435
트라	-10.3435
소규모	-10.3435
시민단체	-10.3436
의새로운	-10.3439
방식으로	-10.3439
원으로	-10.3441
다른사람들	-10.3443
중이던	-10.3444
유럽의	-10.3444
이뤄지	-10.3446
해병대	-10.3446
을실시	-10.3447
눈이	-10.3447
비판했다	-10.3447
피랍	-10.3447
토지	-10.345
igh	-10.346
아니면	-10.3462
력이	-10.3464
이달	-10.3474
보고서를	-10.3476
일부는	-10.3477
화를	-10.3477
ng	-10.3481
하기위해서는	-10.3485
하기로합의했다	-10.3491
차량이	-10.3492
방글라데시	-10.3496
전역	-10.3498
주의자	-10.35
당신의	-10.35
감독이	-10.3501
묘	-10.3501
이후로	-10.3502
미군과	-10.3505
예비선거	-10.3508
을다시	-10.351
공산당	-10.3513
알라	-10.3519
피부	-10.3526
나갈	-10.3529
추세	-10.353
보안군	-10.3532
을갖고	-10.3534
전환	-10.3535
중동평화	-10.3535
은지난해	-10.3536
램	-10.3538
라면	-10.3538
지는않	-10.3541
일정을	-10.3541
뉴욕에서	-10.3541
중국산	-10.3545
고밝힌	-10.3545
며칠	-10.3546
are	-10.3549
묶	-10.3552
덜	-10.3553
캐릭터	-10.3553
테일러	-10.3553
민감한	-10.3553
탐험	-10.3553
파나마	-10.3554
챔피언십	-10.3554
사형집행	-10.3554
손님	-10.3554
인정했다	-10.3554
과반수	-10.3555
이번테러	-10.3555
무슬림	-10.3556
주식시장	-10.3556
김대중전대통령	-10.3556
▁멕시코	-10.3557
에서승리	-10.3557
녹음	-10.3558
고말하며	-10.3558
은물론	-10.3559
찰	-10.3561
을나타냈다	-10.3561
ds	-10.3565
일본정부	-10.3565
되지않는다	-10.3568
했음	-10.3569
라마	-10.357
짧은	-10.3572
▁이로써	-10.3573
안전하게	-10.3574
산타	-10.3576
에있어서	-10.3578
명중	-10.358
탑승객	-10.3581
연행	-10.3582
늘어나	-10.3583
별다른	-10.3584
쉽	-10.3586
는없었다	-10.3586
할것입니다	-10.3586
기간중	-10.3591
켓	-10.3593
나타내	-10.3595
근처에서	-10.3598
특수	-10.3601
변화가	-10.3603
이라크전쟁	-10.3603
▁B	-10.3605
탁신	-10.3605
가족들은	-10.3606
파도	-10.3609
에올랐다	-10.3611
결승	-10.3611
윌리엄스	-10.3614
해야한다고주장했다	-10.3615
▁맥	-10.3619
할계획	-10.3622
범위	-10.3622
신용	-10.3624
당초	-10.3624
AI	-10.3625
고보고했다	-10.3628
상영	-10.3628
우려가	-10.363
관영	-10.3632
금리	-10.3633
제작한	-10.3635
j	-10.3635
▁지금까지	-10.3636
의안전	-10.3637
모양의	-10.3638
ay	-10.364
여성들이	-10.3641
사고를	-10.3642
방송사	-10.3644
을완화	-10.3647
시사	-10.3648
회사는	-10.3649
딕	-10.3649
결론	-10.3653
넓	-10.3653
에성공했다	-10.3655
위는	-10.3659
형사	-10.3661
선원	-10.3666
사건에대한	-10.3668
것으로추정	-10.3668
할수있을것이라	-10.3671
상호	-10.3674
들에대해	-10.3675
▁공화당	-10.3676
끝내	-10.3677
착용	-10.3678
동맹국	-10.3678
만여	-10.368
포장	-10.3687
사망자수가	-10.3696
촉구했다	-10.3696
이중	-10.3698
▁결국	-10.37
위를차지	-10.3701
웬	-10.3702
불만을	-10.3702
고있는가운데	-10.3704
이지역에서	-10.3705
수업	-10.3706
무장대원	-10.3709
출동	-10.3709
FA	-10.3709
회담은	-10.3713
준다	-10.3716
오래된	-10.3718
이이끄는	-10.3719
Al	-10.372
에서발생했다	-10.3723
추구	-10.3726
하고있어	-10.3729
무게	-10.373
NorthKorea	-10.3733
컴	-10.3735
엠	-10.3738
선거관리위원회	-10.3738
쓰레기	-10.3738
브리핑	-10.3739
특징	-10.3739
누구	-10.3739
더많이	-10.374
팀의	-10.3741
빈곤	-10.3741
와같이	-10.3742
크기	-10.3745
▁원문기사보기미국	-10.3749
오리	-10.375
분석가들은	-10.3756
ab	-10.3757
다수	-10.3758
가장높은	-10.3759
사체	-10.376
자극	-10.3762
할예정이라고밝혔다	-10.3762
플레이어	-10.3763
케이트	-10.3775
노무현대통령이	-10.3776
부부가	-10.3782
차베스대통령	-10.3784
할수있다고	-10.3785
법안이	-10.3786
이양	-10.3789
할때까지	-10.3792
를찾아	-10.3792
침대	-10.3793
이미지를	-10.3795
대선에서	-10.3796
커스	-10.3797
과그의	-10.3797
its	-10.3798
불을	-10.3798
보험	-10.3798
유도	-10.38
경기가	-10.3804
나누	-10.3804
뉴욕시	-10.3805
파키스탄군	-10.3805
탄생	-10.3806
고자	-10.3811
승리로	-10.3811
목격자들	-10.3814
hi	-10.3814
워터	-10.3816
으로돌아가	-10.3817
독도	-10.3818
미군은	-10.3821
ia	-10.3821
일본에서	-10.3822
사용자	-10.3827
지수	-10.3828
적발	-10.3829
를먹	-10.3829
음성	-10.3836
아이들은	-10.3839
금융시장	-10.3839
단체는	-10.3841
시설을	-10.3841
필요성	-10.3842
주변에	-10.3842
목사	-10.3843
화된	-10.3849
원래	-10.3849
피해가	-10.3852
단체인	-10.3855
의료진	-10.3856
무기를	-10.3857
몇명	-10.386
하기전에	-10.386
의지도자	-10.3861
결함	-10.3868
갖추	-10.3873
상업	-10.3873
▁M	-10.3874
▁월일	-10.3876
을되찾	-10.3878
SouthKorea	-10.3879
경찰청	-10.389
Korean	-10.389
할예정이라고	-10.389
시위를벌였다	-10.3891
용의자들	-10.3892
단어	-10.3893
헨	-10.3896
▁일본은	-10.3897
표면	-10.3898
자의	-10.3902
아베총리	-10.3902
war	-10.3905
부분이	-10.3906
bo	-10.3908
술을	-10.391
김정일	-10.3911
관계자들	-10.3915
연루	-10.3917
본사	-10.3917
깊이	-10.3917
물가	-10.3918
첸	-10.3918
흘	-10.3921
자카르타	-10.3922
Bo	-10.3924
랭	-10.3926
픽	-10.3926
애완견	-10.3927
킬로미터	-10.3927
이었으며	-10.3927
빼	-10.3927
다큐멘터리	-10.3927
쿠르드	-10.3928
앤드류	-10.3928
다국적군	-10.3928
어렵다	-10.3929
완료	-10.3929
회담이	-10.3934
원들이	-10.3935
친척	-10.3936
의약품	-10.3937
고보도	-10.394
점검	-10.3942
펠	-10.3946
발행	-10.3947
상자	-10.3947
을선고	-10.3948
iv	-10.3951
밝혀진	-10.3952
헨리	-10.3956
도청	-10.3956
표명	-10.3959
퇴임	-10.3961
이름이	-10.3961
버렸다	-10.3962
쏟아	-10.3962
줄기세포	-10.3964
형식	-10.3965
FC	-10.3965
백신	-10.3966
장면이	-10.3967
대변인인	-10.3967
하겠다고밝혔	-10.3969
을이용해	-10.3972
실종자	-10.3975
두번째로	-10.3976
나갔다	-10.3977
복잡한	-10.3977
므로	-10.398
종료	-10.3981
다니는	-10.3987
개인적인	-10.3988
가넘는	-10.3998
ec	-10.3999
ure	-10.3999
아기를	-10.4001
를보였다	-10.4002
올라가	-10.4003
팬들은	-10.4003
수면	-10.4006
수천명이	-10.4006
▁지난	-10.401
하게될	-10.4012
에참석한	-10.4012
경험이	-10.4016
중이었다	-10.4017
는그의	-10.4021
베컴	-10.4026
도주	-10.4026
에서벗어나	-10.4028
많아	-10.4029
사면	-10.403
▁미얀마	-10.4036
원은	-10.4037
은성명에서	-10.4041
해소	-10.4041
SP	-10.4042
지못하고있다	-10.4045
정부군	-10.4045
것은아니다	-10.4052
을지지하는	-10.4052
나치	-10.4053
자본	-10.4054
익명의	-10.4062
직전	-10.4063
아프가니스탄에서	-10.4064
미국을	-10.4064
상에서	-10.4065
테러용의자	-10.4067
포로	-10.4067
주민들	-10.4068
행정	-10.4069
미국인들은	-10.407
법원에서	-10.4072
룰	-10.4075
파운드	-10.4077
IT	-10.4077
에대한공격	-10.4077
오바마당선인	-10.4081
소탕	-10.4084
스웨덴	-10.4085
무료	-10.4089
전까지	-10.409
시킬수있	-10.4091
맹	-10.4092
기적	-10.4093
노인	-10.4094
번째로	-10.4095
장에	-10.4097
지역사회	-10.4098
pe	-10.4099
일어났다	-10.4101
을강타	-10.4102
을수도있다	-10.4103
MA	-10.4104
하락세	-10.4105
입은	-10.411
테러리스트들	-10.411
에이르	-10.4116
피해를입	-10.4116
국민의	-10.4117
마이애미	-10.4117
엘리	-10.4118
쓰촨성	-10.4119
밟	-10.4119
갤	-10.4119
에콰도르	-10.4119
플라스틱	-10.4119
침략	-10.412
실업률	-10.412
MBC	-10.4122
소련	-10.4122
일련의	-10.4123
음주운전	-10.4123
징계	-10.4125
급락	-10.4127
사이클	-10.4129
확실	-10.4131
반군이	-10.4131
▁P	-10.4137
인명피해	-10.4137
하는사람	-10.4137
지는않았다	-10.4138
하루에	-10.4144
NK	-10.4145
전쟁을	-10.4145
징역	-10.4146
당국에	-10.4146
신분	-10.4148
풀어	-10.4148
지방법원	-10.415
조건으로	-10.4153
어깨	-10.4153
당황	-10.4153
가치가	-10.4154
택시	-10.4154
동쪽	-10.4154
일어났	-10.4155
왔던	-10.4155
늘리	-10.416
게임을	-10.4162
브라이언	-10.4163
임무를	-10.4166
목표는	-10.4168
최근의	-10.4169
무어	-10.4172
가족이	-10.4172
코미디	-10.4174
지여부	-10.4179
들에	-10.4187
복역	-10.4188
자신과	-10.4193
총재는	-10.4193
을이루	-10.4202
주장하는	-10.4202
사건의	-10.4203
위기를	-10.4205
ak	-10.4211
▁EU	-10.4213
페리	-10.4217
백악관에서	-10.422
라드	-10.4221
전반분	-10.4221
알려져있다	-10.4225
약속했다	-10.4225
선호	-10.4226
제보	-10.423
수록	-10.423
상승세	-10.423
운동을	-10.4231
의사들은	-10.4231
이뤄진	-10.4231
전해드	-10.4231
특파원	-10.4235
끊	-10.4235
발포	-10.4237
부시미대통령	-10.4237
만남	-10.424
이식	-10.4245
할예정이며	-10.4245
에있을	-10.4246
성당	-10.4248
샤리프	-10.425
그것을	-10.4251
한여성	-10.4257
다리를	-10.426
될것으로보인다	-10.426
빨	-10.4263
상황은	-10.4264
선임	-10.4266
제정	-10.4267
한편	-10.4271
회수	-10.4278
배출	-10.428
화장	-10.4282
사건으로	-10.4283
go	-10.4284
회의를	-10.4284
월일까지	-10.4287
것과	-10.4288
이담긴	-10.4288
스리랑카	-10.4289
위안	-10.4299
에오르	-10.4299
쪽으로	-10.43
정보부	-10.4301
에머물	-10.4304
▁일본의	-10.4307
확산되	-10.4307
▁워싱턴	-10.4308
음악을	-10.431
은지난주	-10.4312
롯	-10.4313
경제학자	-10.4314
이산화탄소	-10.4315
있게	-10.4315
월스트리트	-10.4315
넨	-10.4315
짝	-10.4315
게릴라	-10.4315
오토바이	-10.4315
노르웨이	-10.4315
뮤지컬	-10.4315
배터리	-10.4315
가동	-10.4316
성직자	-10.4317
놀라운	-10.4317
자선단체	-10.4321
감옥	-10.4322
표결	-10.4324
상당의	-10.4326
신규	-10.4328
지목	-10.4331
년만에처음으로	-10.4332
구름	-10.4332
슈퍼	-10.4335
투표에서	-10.4337
정권이	-10.4337
자동차회사	-10.434
양국의	-10.4342
이번사건은	-10.4344
때문	-10.4344
차례에걸쳐	-10.4344
번역	-10.4344
강행	-10.4345
에직면	-10.4345
아지	-10.4345
onthe	-10.4348
카페	-10.4349
▁그는년	-10.4349
차별	-10.4355
멀리	-10.4355
공판	-10.4355
여객기가	-10.4355
명을포함	-10.4356
뤄	-10.4363
▁m	-10.4365
기위해노력	-10.4366
았습니다	-10.4369
년과년	-10.4371
두고	-10.4375
을잡	-10.4376
없을것이라	-10.4378
동일한	-10.4381
분야에서	-10.4383
플레	-10.4386
폭탄을	-10.4391
다르다	-10.4391
약화	-10.4395
먹이	-10.4397
에도달	-10.4399
수색작업	-10.4399
무죄	-10.44
딸이	-10.4401
야당인	-10.4406
아프간정부	-10.4406
키우	-10.4407
전부	-10.4408
디스	-10.4409
있기때문에	-10.4414
물에	-10.4415
한국인인질	-10.4416
한명의	-10.4416
하고있던	-10.4417
이상을	-10.4421
좌절	-10.4421
보조	-10.4421
복무	-10.4427
매체	-10.4434
차관	-10.4434
병원에	-10.4437
기업의	-10.4437
라이스	-10.4439
침입	-10.4442
며이는	-10.4446
를비롯	-10.445
에게서	-10.4451
소수	-10.4451
할것인지	-10.4451
화합	-10.4455
하지않다	-10.4455
자택에서	-10.4456
어야	-10.4456
신중	-10.4457
영양	-10.4457
핑	-10.4457
태도를	-10.4459
부시의	-10.4462
아버지가	-10.4465
드레스	-10.4466
이가장	-10.4466
절차를	-10.4466
기때문이라	-10.4466
을받을	-10.4468
도움이되	-10.4469
넬	-10.4472
닌	-10.4475
po	-10.4475
교통사고	-10.4475
에살고있는	-10.4476
는사람	-10.4477
꺼	-10.4478
을막	-10.4479
장군	-10.448
게될것이라고	-10.448
탁	-10.4481
영향을받	-10.4481
전역에	-10.4481
의집	-10.4482
기울	-10.4486
배심원	-10.4486
점에서	-10.4489
품목	-10.4489
리버	-10.4493
유전	-10.4494
메시지를	-10.4496
이에대한	-10.4505
폭스	-10.4506
런던에서	-10.4507
열릴	-10.4508
구제금융	-10.451
거리에	-10.4512
팀을	-10.4514
St	-10.4514
맞추	-10.4515
혜	-10.4515
왈	-10.4515
피닉스	-10.4515
멤버	-10.4515
IMF	-10.4515
숀	-10.4515
파바로티	-10.4515
휩쓸	-10.4515
버지니아공대	-10.4515
FDA	-10.4515
보이콧	-10.4515
서식지	-10.4516
심장마비	-10.4516
암컷	-10.4516
데이비스	-10.4516
에해당하는	-10.4516
임무를수행	-10.4516
아이디어	-10.4516
여섯	-10.4517
way	-10.4517
혐의가	-10.4518
구멍	-10.4518
보급	-10.4519
어린이들	-10.452
기자회견을통해	-10.4522
ail	-10.4523
목소리	-10.4524
왕실	-10.4524
흔들	-10.4526
강풍	-10.4526
불참	-10.4528
다는것을	-10.4528
포착	-10.453
상대방	-10.453
대서양	-10.453
계속된	-10.4531
사고가	-10.4532
이됐다	-10.4536
보스턴	-10.4536
ice	-10.4539
new	-10.4541
로드	-10.4545
고리	-10.4546
크리스티	-10.4547
조절	-10.4547
지지자들이	-10.4548
직접적인	-10.4552
직원들이	-10.4553
회원국들	-10.4557
▁노대통령	-10.4557
접속	-10.4558
키는	-10.4559
레이저	-10.456
상담	-10.4562
배제	-10.4565
관측	-10.4568
간부	-10.4569
물체	-10.457
이많	-10.4571
세계적	-10.4579
성화	-10.4579
민주당은	-10.4585
는것을의미한다	-10.4585
Le	-10.4585
크로	-10.4585
테러로	-10.4592
제차	-10.4594
고급	-10.4597
여러가지	-10.46
여야	-10.4601
을재개	-10.4601
▁개의	-10.4601
명도	-10.4602
day	-10.4606
정도의	-10.4608
있음을	-10.461
된다고	-10.461
외무장관은	-10.4613
케인	-10.4618
소집	-10.462
연방정부	-10.4625
헬기가	-10.4631
이었다고말했다	-10.4632
하지못했	-10.4633
에합류	-10.4633
아이들의	-10.4635
데이터	-10.4635
모금	-10.4637
입수	-10.4638
▁이란은	-10.464
해준	-10.4642
파르	-10.4647
고생각한다	-10.4649
fi	-10.465
발표됐다	-10.4653
감바	-10.4654
를받아	-10.4654
시킨다	-10.4654
하지않겠다	-10.4655
방법은	-10.4661
알고있다	-10.4663
공학	-10.4663
▁이런	-10.4667
을놓고	-10.4668
코리아타임즈	-10.467
반전	-10.467
도심	-10.4671
유권자들이	-10.4671
뉴햄프셔	-10.4676
로우	-10.4676
정착	-10.4677
을들고	-10.4678
부장관은	-10.468
알렸다	-10.468
검찰이	-10.4681
몇시간	-10.4685
불리	-10.4686
된것	-10.4686
김위원장	-10.469
▁그러나이	-10.4691
Tr	-10.4692
자라	-10.4692
심장질환	-10.4694
nuclear	-10.4697
을방문했다	-10.4698
낼수있	-10.4699
종식	-10.4706
서양	-10.4707
빚	-10.4713
최저	-10.4714
남자가	-10.4717
디자이너	-10.4719
이슬라마바드	-10.4719
펄	-10.4719
아테네	-10.4719
찰스왕세자	-10.472
마돈나	-10.472
브라운은	-10.472
설문조사	-10.472
블로그	-10.4721
명이숨지고명이다쳤다	-10.4721
비틀즈	-10.4721
낙태	-10.4722
필요하다	-10.4724
귀환	-10.4725
ial	-10.4726
객실	-10.473
국립공원	-10.473
진행중인	-10.4732
오스카	-10.4732
전국적으로	-10.4733
디스크	-10.4735
여자아이	-10.4735
▁대부분의	-10.4737
고고학자	-10.4739
정체	-10.4741
격렬한	-10.4742
미항공우주국	-10.4745
상태를	-10.4746
옮겨	-10.4746
을갖고있	-10.4746
양곤	-10.4747
가리	-10.4752
를구	-10.4753
아이가	-10.4753
명이사망했다고	-10.4754
전통적인	-10.4759
Mo	-10.476
되어야한다	-10.4763
이나라	-10.4763
어야한다	-10.4768
가족들이	-10.477
di	-10.477
경찰대변인은	-10.4771
사용한	-10.4775
접수	-10.4776
차로	-10.4776
거리에서	-10.4777
▁C	-10.4778
공격이	-10.478
침체	-10.4782
▁로버트	-10.4789
부리	-10.4791
을받고	-10.4793
높다	-10.4794
상태이다	-10.4796
은그가	-10.4796
저스	-10.4798
해야한다며	-10.4798
가난	-10.4799
노대통령	-10.4799
ang	-10.48
의발언	-10.4802
알고있	-10.4808
su	-10.4808
만일	-10.4815
화재로	-10.4815
방위	-10.4816
연구원은	-10.4817
해방	-10.4818
pos	-10.4822
돌려	-10.4823
AR	-10.4827
창문	-10.4827
대통령당선	-10.4828
나오는	-10.4829
다윈	-10.4831
총리의	-10.4831
대피했다	-10.4832
▁이후	-10.4834
리사	-10.4837
휴일	-10.4838
▁BBC	-10.4844
밑	-10.4845
고향	-10.4845
살고있는	-10.4847
미니	-10.485
도시인	-10.4852
점점	-10.4854
참사	-10.4856
은지난일	-10.4858
서는안된다	-10.486
장착	-10.4866
자신들	-10.4867
▁년전	-10.4868
매춘	-10.4871
올렸다	-10.4873
당해	-10.488
바닥	-10.488
둥	-10.4881
한국이	-10.4883
을지키	-10.4884
에착륙	-10.4886
일부지역	-10.4886
의마지막	-10.4887
후보자	-10.4892
곳의	-10.4901
냉	-10.4901
촌	-10.4901
군인들이	-10.4903
성장률	-10.4903
럴	-10.4903
지진으로	-10.4905
는등	-10.4906
병사들	-10.4907
폭발로	-10.4909
양국간	-10.491
숨지	-10.4911
앉	-10.4911
살아있	-10.4912
▁매	-10.4912
즉	-10.4913
상사	-10.4915
될것이며	-10.4916
렐	-10.4917
술집	-10.4917
합의를	-10.4919
지않을것이라	-10.492
하마스가	-10.492
포터	-10.4922
우주정거장	-10.4924
님	-10.4925
해줄것을	-10.4925
상태에서	-10.4926
President	-10.4927
안은	-10.4927
넌	-10.4928
큐	-10.4928
필라델피아	-10.4928
룸	-10.4928
나스닥	-10.4928
피라미드	-10.4928
포르노	-10.4928
유엔안전보장이사회	-10.4928
베나지르부토전총리	-10.4928
남아프리카공화국	-10.4928
거짓	-10.4928
개월만에	-10.4929
절도	-10.4929
뱅크	-10.4929
공룡	-10.493
터널	-10.493
벽돌	-10.4932
탈락	-10.4932
신용위기	-10.4932
화요일에	-10.4933
글로벌	-10.4936
열렸다	-10.4937
정전	-10.4938
중남미	-10.4938
마을에서	-10.4939
전반적인	-10.4939
▁라이스장관은	-10.494
공개됐다	-10.4942
제로	-10.4943
고진술했다	-10.4944
자신감	-10.4944
하더라도	-10.4944
미얀마군정	-10.4946
방에서	-10.4946
보안관은	-10.4952
앞두고	-10.4954
을허용	-10.4955
범인이	-10.4957
제외	-10.4957
북한에대한	-10.4958
사망했으며	-10.4959
성근	-10.4962
연금	-10.4963
관람	-10.4964
칼라	-10.4964
것이고	-10.4965
▁중국정부는	-10.4967
완벽한	-10.4968
존경	-10.4972
기다리	-10.4975
구류	-10.4975
부상으로	-10.4976
을통한	-10.4978
▁그녀의	-10.4978
남자아이	-10.498
전용	-10.4983
관계당국	-10.4985
반정부	-10.4987
세운	-10.4989
재직	-10.499
제이	-10.4993
주권	-10.4999
계산	-10.5001
위를차지했다	-10.5007
코너	-10.5016
좋다	-10.5018
에서부터	-10.502
몇주	-10.5021
수백만달러	-10.5022
상처	-10.5024
투명	-10.5025
괴	-10.5028
경쟁력	-10.5028
월말	-10.503
선수가	-10.503
ke	-10.5033
실무	-10.5038
를앞두고	-10.5039
정리	-10.5041
명의사람들이	-10.5041
로운	-10.5045
는지난	-10.5046
지식	-10.5047
남성은	-10.5049
기차	-10.505
국영방송	-10.5053
은없었다	-10.5054
스피어스	-10.5054
을비롯	-10.5062
고립	-10.5063
증시는	-10.5064
휴가를	-10.5065
정부기관	-10.5066
um	-10.5067
남부지역	-10.5076
에겐	-10.5079
ph	-10.508
명중명이	-10.5083
지난밤	-10.5084
얻	-10.5088
의가족	-10.5088
실은	-10.5091
모스	-10.5096
NS	-10.5097
인형	-10.51
▁데이비드	-10.51
은없다	-10.5101
이란과	-10.5101
갈라	-10.5101
공무원	-10.5101
하트	-10.5101
기원	-10.5103
목숨을잃	-10.5103
고조	-10.5105
▁미국과	-10.5105
군인들	-10.5106
지않았	-10.5111
중한	-10.5112
의회에	-10.5113
Co	-10.5113
상을수상	-10.5117
피어	-10.5117
부상을입	-10.5117
질수있다	-10.5118
출생	-10.5121
했으며그	-10.5125
것보다	-10.5127
을줄	-10.5128
바위	-10.513
앨	-10.5133
게됩니다	-10.5134
남편이	-10.5135
지진이	-10.5136
미시시피	-10.5136
관중	-10.5139
봤	-10.5139
엘리자베스	-10.514
슐	-10.514
China	-10.514
OPEC	-10.514
가벼운	-10.514
우울증	-10.514
visit	-10.514
자유롭게	-10.5141
데일리	-10.5141
적합한	-10.5142
알사드르	-10.5143
막대한	-10.5144
삭감	-10.5144
기획	-10.5145
벌써	-10.5145
흘러	-10.5146
조치는	-10.5147
고주장한다	-10.5148
떠날	-10.515
웹사이트를통해	-10.515
건너	-10.5153
보다많은	-10.5153
징후	-10.5156
사무소	-10.5158
비행기를	-10.516
이스라엘과팔레스타인	-10.5162
법정에서	-10.5163
을유지하	-10.5166
밀려	-10.5168
관할경찰	-10.517
잠재적	-10.5171
공군기지	-10.5173
CDC	-10.5175
애리조나	-10.5175
크리스토퍼	-10.5176
스크	-10.5177
인력	-10.5179
한국은행	-10.5181
관객	-10.5182
도시에서	-10.5183
건물이	-10.5185
이스라엘과	-10.5187
소탕작전	-10.5189
크라	-10.5192
남용	-10.5197
시오	-10.5198
아리	-10.5198
내일	-10.5204
단식	-10.5204
발생해	-10.5207
중지	-10.5208
▁유	-10.5208
수석대표	-10.5209
미치	-10.5209
주의자들	-10.521
미리	-10.5212
우리를	-10.5212
를내	-10.5213
얼마전	-10.5214
열정	-10.5214
sfor	-10.5215
mon	-10.5216
장성	-10.5218
연간	-10.522
▁경제	-10.5224
대우	-10.5225
사태를	-10.5226
국이	-10.5227
호소	-10.5227
라고지적했다	-10.5227
클로	-10.5231
의결정	-10.5232
보증	-10.5232
할당시	-10.5235
기권	-10.5237
항구	-10.5238
할것으로예상된다	-10.5239
학교에서	-10.5242
지지율	-10.5243
외국인들	-10.5243
도없다	-10.5244
기술자	-10.5245
Con	-10.5249
네바다주	-10.5264
김씨	-10.5264
대량	-10.5266
▁새로운	-10.5266
산책	-10.5273
오후시분	-10.5275
에출석	-10.5276
는지난해월	-10.5278
라운드	-10.528
가필요하다	-10.5283
국방성	-10.5284
이득	-10.5295
가족과	-10.5301
사실은	-10.5301
지자	-10.5309
상관없	-10.5309
살의	-10.5311
한남자	-10.5311
생산량	-10.5311
알려졌다	-10.5313
같	-10.5313
는것으로나타났다	-10.5315
라이언	-10.5316
▁아시아	-10.5317
sthe	-10.5318
일전	-10.5318
종합	-10.532
핵실험	-10.532
유사한	-10.5322
가능성은	-10.5326
▁힐러리	-10.5327
세계최고	-10.5328
부시대통령과	-10.5328
에응	-10.5331
만으로	-10.5332
각자	-10.5333
침공	-10.5333
빌라	-10.5333
최소명이사망했다	-10.5334
의사가	-10.5336
종교적	-10.5336
▁콜롬비아	-10.5337
환경보호	-10.534
마라톤	-10.534
들사이에서	-10.5341
비행기가	-10.5342
집권당	-10.5344
음식을	-10.5346
럭	-10.5347
통상	-10.5347
퀴	-10.5348
따라	-10.535
쾌	-10.5353
마드리드	-10.5354
을위협	-10.5354
훈	-10.5355
아메리카	-10.5356
자수	-10.5356
프레스	-10.5356
De	-10.5358
뉴올리언스	-10.5358
조승희	-10.5358
알렉산더	-10.5358
개발도상국	-10.5358
활성화	-10.5358
▁따라서	-10.5358
신용카드	-10.5359
▁물론	-10.5359
보내는	-10.5359
좋아하는	-10.536
징역년	-10.5364
국은	-10.5364
비스	-10.5365
블리	-10.5366
을얻었다	-10.5366
정신적	-10.5366
American	-10.5367
창출	-10.5367
줄리아니	-10.5368
목표를	-10.5369
현재의	-10.5374
괴한	-10.5374
For	-10.5375
에달한다	-10.5377
ie	-10.5377
겼	-10.5377
심하게	-10.5378
노력하고있다	-10.5379
사람에게	-10.538
코프	-10.5383
스트레스	-10.5386
대통령직	-10.5388
뿐	-10.5389
유럽에서	-10.539
졸업	-10.539
고무	-10.5391
유인	-10.5392
다룬	-10.5395
나르	-10.5397
두가지	-10.5398
완성	-10.5398
매케인이	-10.54
물고기	-10.5402
부족하다	-10.5403
마리를	-10.5407
갈등	-10.5408
는년월	-10.541
회전	-10.541
부정적인	-10.5411
기밀	-10.5412
고주장하며	-10.5413
자유를	-10.5417
할필요가있다	-10.5417
사망자가	-10.5417
국가들이	-10.5418
dis	-10.542
소식은	-10.5422
나이트	-10.5423
내정	-10.5426
생각한다며	-10.5429
위원회가	-10.5434
자리에	-10.5441
우승을	-10.5446
촬영한	-10.5446
▁마이클	-10.5449
타르	-10.5451
ba	-10.5457
승객들	-10.546
결승전에서	-10.5461
남서부	-10.5464
고기	-10.5464
끈	-10.5466
▁비록	-10.547
기각	-10.5471
된것은	-10.5471
월까지	-10.5472
달러화	-10.5475
는이라크	-10.5478
단은	-10.5482
에도전	-10.5484
의독립	-10.5484
더큰	-10.5484
월일에	-10.5485
달아	-10.5487
음주	-10.549
것으로전망	-10.5496
를만들어	-10.5496
고유가	-10.5499
관여	-10.5499
유통	-10.5504
전역에서	-10.5504
완전	-10.5512
에도착한	-10.5515
오를	-10.552
받는다	-10.5526
튜	-10.5528
한반면	-10.5529
야한다고	-10.5538
지수가	-10.5539
최대의	-10.554
을것이라	-10.5544
는것도	-10.5545
이법안	-10.5546
발표했습니다	-10.5547
티스	-10.5548
문제에	-10.5548
의새	-10.5549
에들어가	-10.555
일본은	-10.5551
영향을미치	-10.5552
페일린	-10.5555
전원	-10.5556
는중국	-10.5559
영향력	-10.556
야당지도자	-10.5563
끄	-10.5565
월가	-10.557
우라늄농축	-10.557
미사일방어	-10.557
벨리	-10.5572
였지만	-10.5578
겁	-10.5579
아메리칸	-10.5579
닷	-10.558
DVD	-10.558
토크쇼	-10.558
빅토리아	-10.558
아름다운	-10.558
콰	-10.558
아닙니다	-10.558
노트북	-10.558
엄격한	-10.558
불가리아	-10.558
뉴델리	-10.558
해안경비대	-10.558
난민촌	-10.5581
무너지	-10.5581
take	-10.5581
외무성	-10.5582
포함되어있	-10.5583
우간다	-10.5586
볼수있는	-10.5586
뉴욕타임즈	-10.5588
자회담에서	-10.559
페더러는	-10.5591
환율	-10.5591
연례	-10.5592
IS	-10.5593
전미	-10.5593
ee	-10.5595
운전사	-10.5597
한국에	-10.5602
살해된	-10.5603
멈추	-10.5604
팬들이	-10.5604
▁제	-10.5605
를착용	-10.5606
탈북자	-10.5608
말라	-10.5609
눈을	-10.5612
해준다	-10.5614
주고	-10.5615
올메르트총리	-10.5617
이슬람교도	-10.5617
리언	-10.5617
에배치	-10.5617
약간의	-10.5618
보이지않	-10.5619
등으로	-10.562
총격사건	-10.562
개월전	-10.5621
초래	-10.5621
소행성	-10.5624
에집중	-10.5626
실현	-10.5627
자들과	-10.5627
유기	-10.5631
눈에	-10.5632
주동안	-10.5632
스런	-10.5633
직원이	-10.5634
증강	-10.5636
우주여행	-10.5636
심각하게	-10.5637
의제	-10.5637
중이며	-10.564
내려진	-10.5642
에입	-10.5643
삶을	-10.5643
방송의	-10.5643
라디오방송	-10.5647
▁NASA	-10.5649
예약	-10.5651
점수	-10.5651
헤어	-10.5652
가짜	-10.5653
피해를입었다	-10.5655
생겼	-10.5656
벌이는	-10.5657
유니	-10.5659
정원	-10.5659
조사에서	-10.566
키로	-10.5661
에대응	-10.5662
이너무	-10.5664
였고	-10.5665
초안	-10.567
가상	-10.5674
파월	-10.5677
은행의	-10.5679
의절반	-10.5679
핵문제	-10.5679
강전에서	-10.568
이라크내무부	-10.5681
전에서	-10.5682
며우리는	-10.5684
흔적	-10.5689
인간의	-10.5689
통일부	-10.569
자사	-10.5692
장군은	-10.5692
만을	-10.5692
이라크바그다드	-10.5694
국민투표	-10.5696
배이상	-10.5697
by	-10.5697
모르는	-10.5698
학생이	-10.57
남부에서	-10.5701
차전	-10.5703
를확보	-10.5703
부품	-10.5703
민주당이	-10.5713
예술가	-10.5717
냐는질문에	-10.572
통보	-10.5721
명이넘는	-10.5722
결정은	-10.5723
옮	-10.5724
졸	-10.5735
줄리	-10.5735
예배	-10.5735
top	-10.5735
실수를	-10.574
회사들	-10.5742
나달은	-10.5743
금리를	-10.5743
국의	-10.5744
대학에서	-10.5747
변호	-10.5747
조지아	-10.5747
벌어졌다	-10.5749
사고당시	-10.575
논의를	-10.5751
has	-10.5753
모습을보	-10.5753
AT	-10.5754
할수있게됐다	-10.5754
에대해논의	-10.5755
언론에	-10.5756
안된	-10.5756
을납치	-10.5759
이끝나	-10.5759
아닌	-10.5761
유해	-10.5761
하게만들	-10.5763
하는지	-10.5766
맞는	-10.5767
암호	-10.5767
임대	-10.5767
매케인은	-10.5768
있었다고말했다	-10.5768
기전까지	-10.5768
게되면	-10.5769
자르	-10.5773
시키는데	-10.5775
샤라포바	-10.578
있다고전했다	-10.5783
장과	-10.5784
수있었다	-10.5785
고밝힌바있다	-10.5786
미국정부는	-10.5788
아바스수반	-10.579
▁하마스	-10.5791
시드	-10.5791
부시미국대통령	-10.5791
느냐	-10.5794
VS	-10.5795
될수도있다	-10.5796
렸으며	-10.5796
남측	-10.5797
왔습니다	-10.5797
이라크인	-10.5798
그곳에서	-10.5799
를유지하	-10.5801
Com	-10.5801
를체포했다	-10.5803
지역인	-10.5805
노무현대통령	-10.5805
애완동물	-10.5807
오클라호마	-10.5807
이루어진	-10.5807
커다란	-10.5807
빼앗	-10.5807
농민들	-10.5808
윌리엄왕자	-10.5808
옐친	-10.5808
도요타	-10.5808
독일의	-10.581
는년전	-10.581
인터뷰를통해	-10.5811
의아버지	-10.5811
플래	-10.5811
한남성이	-10.5812
시험발사	-10.5812
지진이발생	-10.5813
손에	-10.5815
ell	-10.5816
무덤	-10.5818
생성	-10.582
돌아다니	-10.5821
취급	-10.5827
친환경	-10.5828
벌여	-10.5829
을보이고있다	-10.583
일부가	-10.5831
기간을	-10.5833
국제유가가	-10.5835
너무나	-10.5836
았고	-10.5837
제회	-10.5839
사과를	-10.584
몸에	-10.584
오바마의원	-10.5842
건강한	-10.5843
동성애	-10.5845
지난일요일	-10.5846
단행	-10.5848
모술	-10.585
연구진은	-10.5852
심지어	-10.5852
이라고주장했다	-10.5853
둔화	-10.5856
보잉	-10.5857
상당수	-10.5857
호텔에서	-10.5857
된이후	-10.5858
외교정책	-10.586
를줄이	-10.586
의방문	-10.5861
선포	-10.5861
정계	-10.5862
pp	-10.5863
적십자사	-10.5864
널리	-10.5864
외환	-10.5864
not	-10.5866
생일	-10.5867
조선	-10.5869
재판에서	-10.587
ip	-10.5876
지난년동안	-10.5876
살리	-10.5876
가자신의	-10.5877
▁국회	-10.5878
▁어제	-10.5879
설정	-10.5882
안되는	-10.5887
메일	-10.5888
발간	-10.5889
정밀	-10.589
에빠진	-10.5893
정기	-10.5893
▁유엔은	-10.5894
압수	-10.5896
중이라고	-10.5897
샌디에이고	-10.5898
을대상으로	-10.59
만달러약만원	-10.5901
전시회	-10.5903
수준으로	-10.5908
레오	-10.5909
인사들	-10.591
심판	-10.5912
이번주말	-10.5913
질문을	-10.5914
대원들	-10.5917
한다고덧붙였다	-10.5917
오전시분	-10.5919
여러번	-10.5922
듯한	-10.5924
거리는	-10.5924
즐기	-10.5929
▁한국정부는	-10.5929
mm	-10.5931
▁한나라당	-10.5932
원정	-10.5933
반박	-10.5934
증진	-10.5934
의다른	-10.5937
군사력	-10.594
서쪽	-10.5945
옆에	-10.5947
▁이에따라	-10.5949
중심가	-10.5953
돌아가	-10.5954
▁보고서는	-10.5956
소동	-10.5958
레이더	-10.5958
부지	-10.5959
할것을요구했다	-10.5961
의역할	-10.5962
관계자가	-10.5963
계속되고있다	-10.5964
것들	-10.5964
로알려진	-10.5966
지시했다	-10.5966
해체	-10.5967
군과	-10.5969
결과는	-10.5974
소문	-10.5976
조장	-10.598
을가지고있	-10.5982
산소	-10.5984
필립	-10.5985
선수들이	-10.5987
인디애나	-10.5989
부가	-10.5993
여부는	-10.5996
그중	-10.5998
크리스토퍼힐	-10.6001
문구	-10.6002
원주민	-10.6002
▁소말리아	-10.6007
하지말라	-10.601
워싱턴에서	-10.6011
렵	-10.6013
미국경제	-10.6015
댄	-10.6018
중하나인	-10.6019
먹는	-10.6024
대테러	-10.6025
블루	-10.6025
를만나	-10.6025
잠재	-10.6027
더미	-10.6027
에있었던	-10.6028
좌석	-10.6028
죄로	-10.6028
탈레반이	-10.6032
불편	-10.6032
재고	-10.6035
옛	-10.6037
government	-10.6039
왕세자	-10.6039
니콜라사르코지프랑스대통령	-10.604
랩	-10.604
파파라치	-10.604
선수로	-10.604
Center	-10.604
옳	-10.604
칩	-10.604
광범위한	-10.604
스타벅스	-10.604
찌	-10.604
마이스페이스	-10.604
ETA	-10.604
알바니아	-10.604
화려한	-10.604
에드워드	-10.604
▁예를들어	-10.604
테러지원국	-10.604
을갖춘	-10.6041
를준비	-10.6041
사라졌다	-10.6043
차원에서	-10.6043
자전거	-10.6044
브레이크	-10.6045
시키고있다	-10.6045
맥캔	-10.6045
에가담	-10.6046
붉은	-10.6046
코커스	-10.6046
활발	-10.6046
정부청사	-10.6047
어느정도	-10.6047
매력	-10.6048
에개입	-10.6049
표준	-10.605
케빈	-10.6051
받고있는	-10.6052
답변	-10.6054
지않도록	-10.6054
탄광	-10.6056
추격	-10.6056
노선	-10.6056
▁캘리포니아	-10.6058
거리로	-10.6058
도구	-10.6059
경주	-10.6063
누르	-10.6067
금을	-10.6068
인구의	-10.607
양보	-10.6071
프레드	-10.6073
모래	-10.6073
남학생	-10.6074
ag	-10.6079
개인적으로	-10.608
외무부는	-10.6081
수비	-10.6085
흔	-10.6086
를강타	-10.609
복원	-10.609
냈	-10.6095
부검	-10.6101
der	-10.6103
시키기위한	-10.6103
보건부	-10.6103
경비원	-10.6104
▁대부분	-10.6105
ary	-10.6107
무엇을	-10.6108
거리가	-10.6109
에서발견됐다	-10.611
했을당시	-10.6111
안내	-10.6111
번시드의	-10.6112
해달라고	-10.6113
비극	-10.6113
단독	-10.6117
Po	-10.6118
간다	-10.6119
상은	-10.6119
을즐기	-10.612
데스	-10.612
성분	-10.6121
위에서	-10.6124
합의문	-10.6126
작업이	-10.6127
부모들	-10.6129
교외	-10.6129
강제로	-10.6133
생각한다	-10.6134
출국	-10.6138
앞으로도	-10.6142
가아니다	-10.6143
알려지지않았다	-10.6144
▁우리가	-10.6145
기로했다	-10.6148
응답	-10.6151
학교에	-10.6152
카터	-10.6152
기도한다	-10.6153
음료	-10.6155
받으며	-10.6159
석방됐다	-10.6159
도있었다	-10.6161
누군가가	-10.6163
▁그들이	-10.6164
수도인	-10.6164
는자신이	-10.617
는보도	-10.6175
를설립	-10.6175
요구하는	-10.6177
홍수로	-10.6178
럽	-10.618
외에도	-10.6181
흥	-10.6182
밝	-10.6186
미스	-10.6189
방안을	-10.619
로일	-10.6191
뉴욕증시	-10.6191
▁남북한	-10.6195
산하	-10.6195
의지지율	-10.6196
제프	-10.6197
인근에서	-10.6198
북서부	-10.6201
매수	-10.6202
보는	-10.6203
두개의	-10.6203
구조대	-10.6203
된다고말했다	-10.6207
하려던	-10.6207
을보냈다	-10.6207
여성들은	-10.6208
약만	-10.6209
는영국	-10.6211
업적	-10.6213
경기에출전	-10.6215
from	-10.6215
▁런던	-10.6217
제국	-10.6217
에의존	-10.622
총상을입	-10.6223
유물	-10.6223
기다리고있	-10.6223
tr	-10.6224
듣고	-10.623
을타고	-10.6233
모집	-10.6234
버지니아주	-10.6236
공화당대선후보	-10.624
비서실장	-10.624
열대	-10.6242
위험성	-10.6242
이라고지적했다	-10.6242
오바마대통령	-10.6242
한이래	-10.6242
자에게	-10.6247
은월일	-10.6249
콜로라도	-10.625
만들었다	-10.6254
것같	-10.6256
상위	-10.6258
차량폭탄테러	-10.6258
줄수있	-10.6258
날이	-10.6259
에서열린기자회견에서	-10.6261
대회를	-10.6265
가능성이높다	-10.6269
높아지	-10.627
될예정	-10.6272
뭄바이	-10.6272
Pro	-10.6273
갱	-10.6273
벌금을	-10.6275
될수있는	-10.6275
붙잡	-10.6276
해석	-10.6277
▁새	-10.6278
신속히	-10.6278
쏘	-10.6278
춤	-10.6278
에힘입어	-10.6278
성추행	-10.6278
와더불어	-10.6278
투르드프랑스	-10.6278
규칙	-10.6278
윈도우	-10.6278
됨에따라	-10.6278
카를로스	-10.6278
앨런	-10.6279
세속주의	-10.6279
데뷔	-10.6279
치러지는	-10.628
왜곡	-10.628
빌딩	-10.628
이라크주둔	-10.628
AIG	-10.6281
쿠르드반군	-10.6281
포셋	-10.6282
블라고예비치주지사	-10.6284
크기의	-10.6284
습관	-10.6286
내려졌다	-10.6286
행렬	-10.6286
대리인	-10.6288
염려	-10.6289
번호	-10.629
로보	-10.629
자동차산업	-10.6292
바니	-10.6292
사망자수는	-10.6294
알바	-10.6295
정회장	-10.6295
청소	-10.6296
경기에	-10.6298
제압	-10.6298
최저치	-10.6301
궤도	-10.6301
톰슨	-10.6305
연출	-10.6307
출신인	-10.6308
설계	-10.6308
시간만에	-10.6309
자치	-10.6309
재활용	-10.6309
를시작했다	-10.631
양쪽	-10.6313
볼때	-10.6316
애도	-10.6316
유괴	-10.6317
였다며	-10.6318
사무총장	-10.6318
탈레반측	-10.6319
면접	-10.6319
USA	-10.6319
미성년자	-10.6322
이있어	-10.6323
off	-10.6325
주었다	-10.6325
▁익명의	-10.6326
호소했다	-10.6327
▁박	-10.633
종의	-10.633
전문가인	-10.6331
에대항	-10.6332
건강이	-10.6332
예상된다	-10.6334
추문	-10.6335
도살	-10.6338
화상	-10.6338
AD	-10.634
부총리	-10.6344
극장	-10.6346
와관련해	-10.6348
기와	-10.6348
▁네팔	-10.635
▁U	-10.6353
현상이	-10.6354
지난화요일	-10.6355
억제	-10.6356
유사	-10.6356
광고를	-10.6357
관심이	-10.6358
통일	-10.6359
인사를	-10.636
방향으로	-10.6361
제공하는	-10.6362
를선택	-10.6363
forthe	-10.6365
피난	-10.6366
까지도	-10.6366
석방된	-10.6371
살고있다	-10.6374
에서만	-10.6378
송금	-10.6379
을만들	-10.6386
사람들과	-10.6387
ob	-10.6389
영화제작	-10.639
장려	-10.6393
누군가	-10.6394
장벽	-10.64
총통	-10.6401
에참여한	-10.6403
불가능하다	-10.6405
선수들은	-10.6409
북부지역	-10.6415
없었다	-10.6416
▁우리	-10.6416
소식이	-10.6418
논란이	-10.6419
는내용의	-10.642
이명박대통령	-10.6422
살아남	-10.6425
최선을다	-10.6427
발견했다	-10.6428
▁유럽연합	-10.6429
검색어	-10.6429
떨어졌	-10.6434
를생산	-10.6435
재정적	-10.644
통신사	-10.6441
감독의	-10.6442
이트	-10.6444
첫날	-10.6444
만명을	-10.6444
알카에다의	-10.645
는것에	-10.6452
질것이라	-10.6452
현지시간	-10.6455
게될것이라	-10.6457
뒤에	-10.6458
발매	-10.6458
세인	-10.6459
쉽지않	-10.646
제목	-10.646
출신으로	-10.646
ty	-10.646
무장한	-10.6462
를마련	-10.6463
tobe	-10.6464
형태	-10.6466
에드워즈	-10.6467
언급하며	-10.6468
영변	-10.6468
직원들은	-10.6472
진행되는	-10.6473
당원	-10.6474
기사를	-10.6475
할머니	-10.6477
제작자	-10.6481
고등법원	-10.6483
룩	-10.6484
중심지	-10.6493
스카이	-10.6502
적극	-10.6505
낭	-10.6509
는매우	-10.651
제가	-10.6511
병원으로이송	-10.6511
를포기	-10.6512
명이다쳤다	-10.6513
부시행정부	-10.6514
명령을	-10.6518
쇠	-10.6519
단체들	-10.6519
눌	-10.6522
울포위츠	-10.6522
샬	-10.6522
요르단강서안	-10.6522
에맞춰	-10.6522
BDA	-10.6522
FIFA	-10.6522
World	-10.6522
헐	-10.6522
IBM	-10.6522
셨	-10.6522
기숙사	-10.6522
인종차별	-10.6522
명백한	-10.6522
혐의로체포	-10.6523
주유소	-10.6523
확률	-10.6523
결의안을	-10.6524
래리	-10.6524
영향을주	-10.6524
시티그룹	-10.6524
따를	-10.6525
외교관계	-10.6525
티벳	-10.6526
급습	-10.6527
던져	-10.6528
뉴욕타임스	-10.6528
검찰측	-10.6528
후반분	-10.6529
MDC	-10.653
를이끌	-10.653
인데	-10.653
▁목격자들은	-10.6531
연령	-10.6537
했다고발표했다	-10.6537
앞섰다	-10.6539
규정을	-10.6541
은지난달	-10.6542
국가들은	-10.6543
러시아가	-10.6543
중국에	-10.6543
접전	-10.6545
문제에대한	-10.6545
칼로	-10.655
감시단	-10.6551
스파이	-10.6552
재배치	-10.6555
증거가	-10.6557
불안정	-10.6559
만파운드	-10.656
▁무샤라프대통령은	-10.6562
한쪽	-10.6566
스파	-10.6566
을당했다	-10.6567
골을넣	-10.6569
윌슨	-10.6572
지아	-10.6572
이제는	-10.6573
있었으나	-10.6573
의어머니	-10.6574
추모	-10.6578
▁바그다드	-10.6579
위의	-10.6579
을가지고있다	-10.658
ide	-10.6584
혼자	-10.6586
모아	-10.6586
아서	-10.6589
은자신의	-10.659
바닥에	-10.6593
핵무기를	-10.6594
의사진	-10.6597
지도자가	-10.6599
고말한	-10.6603
시판	-10.6604
선거결과	-10.6604
에서있었던	-10.6607
사라지	-10.6607
해저	-10.6608
하다고말했다	-10.6609
강간	-10.6609
약품	-10.661
받지못	-10.6612
문제들	-10.6615
로이송	-10.6617
변호사가	-10.6617
▁Korean	-10.6623
출장	-10.6624
당국자	-10.6626
여사는	-10.6628
정보를제공	-10.6628
한국전쟁	-10.6629
먼지	-10.6631
치러질	-10.6634
부통령후보	-10.6636
는월	-10.6636
켰다	-10.6637
구단	-10.6639
거듭	-10.664
만은	-10.6641
시인	-10.6647
LG	-10.6651
ther	-10.6653
사업을	-10.6653
검사를	-10.6656
중개	-10.6656
지못해	-10.6656
국제유가	-10.6657
이사는	-10.6657
과의관계	-10.6657
자이자	-10.6658
전달했다	-10.6665
차량에	-10.6668
전체가	-10.6672
하고있고	-10.6673
모터	-10.6674
본다	-10.6674
학생들에게	-10.6677
에실패	-10.6684
부시미대통령이	-10.6694
잡아	-10.6694
는미	-10.6697
병력이	-10.6698
를가졌다	-10.6699
포인트하락	-10.67
사건에대해	-10.6703
책임자인	-10.6704
혔	-10.6709
▁익명을요구한	-10.6712
은후	-10.6713
게했다	-10.6715
내며	-10.6715
첼	-10.6717
독일인	-10.6719
담당자는	-10.6719
돌아온	-10.6721
고통을	-10.6722
을찾는	-10.6723
가더	-10.6724
한사람이	-10.6724
분동안	-10.6726
딸을	-10.6727
반등	-10.6728
할수있었다	-10.6728
다른지역	-10.6729
com	-10.673
병사명	-10.673
학위	-10.6731
감소했다	-10.6735
의원의	-10.6741
상황이다	-10.6741
를설치	-10.6744
암시	-10.6745
평화와	-10.6746
time	-10.6747
생물학자	-10.675
사항을	-10.675
nt	-10.6751
돌리	-10.6751
보도에따르면	-10.6753
을체포했다	-10.6756
후임	-10.6762
냈으며	-10.6764
수밖에없다	-10.6766
은영국	-10.6766
자마자	-10.6767
두명	-10.6768
빗	-10.6771
비핵화	-10.6771
하지는않	-10.6771
물러나	-10.6771
유람선	-10.6772
스탈린	-10.6772
억만장자	-10.6772
마흐디민병대	-10.6772
톨	-10.6772
바티칸	-10.6772
아랍에미리트	-10.6772
모니터	-10.6772
느껴	-10.6772
카지노	-10.6772
이슈	-10.6773
금리인하	-10.6773
는월일	-10.6774
언덕	-10.6774
으므로	-10.6774
요즘	-10.6774
만년전	-10.6775
동남아시아	-10.6775
Day	-10.6776
APEC	-10.6777
정기적으로	-10.6777
아스날	-10.6777
첩보	-10.6777
무렵	-10.6778
수컷	-10.6778
no	-10.6779
적극적으로	-10.6781
복합	-10.6781
권고했다	-10.6781
없애	-10.6782
끝날	-10.6782
카라치	-10.6783
공산주의	-10.6786
보고서가	-10.6787
정보기관	-10.6788
부장은	-10.6791
텐트	-10.6791
지지를얻	-10.6792
연극	-10.6792
영화에서	-10.6794
다른사람	-10.6795
헤이	-10.6798
회담을가졌다	-10.6798
만능	-10.68
원들은	-10.68
시키려	-10.6801
이전했다	-10.6806
판매량	-10.6806
절반	-10.6807
치러	-10.681
도로를	-10.681
바바라	-10.6811
클라크	-10.6812
사망자수	-10.6813
지질	-10.6813
가끔	-10.6815
의공격으로	-10.6817
법적으로	-10.682
밀리	-10.6821
분류	-10.6821
룬	-10.6822
거짓말을	-10.6824
돌아왔다	-10.6829
안으로	-10.683
아들이	-10.6831
공직	-10.6832
min	-10.6833
심사	-10.6834
종류의	-10.6836
부대를	-10.6838
▁년에	-10.6842
갈수있	-10.6849
가나	-10.685
스크린	-10.6853
필수	-10.6853
을일으킨	-10.6853
한일	-10.6855
를비롯한	-10.6855
유력한	-10.6858
돌아와	-10.6858
미연방	-10.6861
과의회담	-10.6864
증가하고있다	-10.6866
시위자들은	-10.6867
아는	-10.6867
지원금	-10.6871
알지못	-10.6871
물건	-10.6872
양국은	-10.6876
국제적인	-10.6876
연구를	-10.6877
에그	-10.6878
해야만	-10.6878
금속	-10.6882
측변호사	-10.6883
평화적인	-10.6885
mb	-10.6888
가이번	-10.6888
교도소에서	-10.689
문제해결	-10.689
고평가했다	-10.6891
연임	-10.6892
노대통령이	-10.6896
에모여	-10.6896
성명을발표했다	-10.6897
지고있다	-10.6898
ting	-10.69
보드	-10.6901
▁앞서	-10.6903
선거를	-10.6904
업자들	-10.6904
제인	-10.6906
피랍된	-10.6906
의모든	-10.6909
재무부	-10.6911
적대	-10.6914
이발생했다	-10.6917
히트	-10.6917
Te	-10.6918
야합니다	-10.692
▁베트남	-10.6924
늘어	-10.6934
유입	-10.6934
이없었다	-10.6934
프랑스오픈	-10.6934
역사상가장	-10.6936
동영상에서	-10.6941
가없는	-10.6941
백만	-10.6943
고생각한다고말했다	-10.6943
마음을	-10.6943
에가까운	-10.6945
관은	-10.6948
▁대만	-10.6952
오른쪽	-10.6953
맺	-10.6953
공주	-10.6958
ick	-10.6958
조지부시대통령	-10.6961
킨스	-10.6962
를받은	-10.6963
점거	-10.6965
페이스	-10.6965
으로이동	-10.6966
받고있다	-10.6966
실패했다	-10.6968
회의에참석	-10.697
연기를	-10.697
에대한우려	-10.6973
러드	-10.6973
이번조사	-10.6974
가치를	-10.6977
▁백악관은	-10.6978
미첼	-10.6979
▁천재소녀의부활	-10.6979
▁연구진은	-10.698
김치	-10.6982
뿐이라	-10.6983
장치를	-10.6984
관객들	-10.6987
받고	-10.6988
기쁘다	-10.6992
에릭	-10.6992
단체의	-10.6994
전격	-10.6995
plan	-10.6999
팬들	-10.7
멈	-10.7
업무를	-10.7002
투자자	-10.7002
되어있	-10.7003
은지난해월	-10.7006
동료들	-10.7006
빌리	-10.7011
주민들의	-10.7011
보좌관은	-10.7012
꼬	-10.7012
삭	-10.7014
덤	-10.7016
low	-10.7017
는성명을통해	-10.7017
자동	-10.7018
힐튼	-10.702
세계최초	-10.7022
평화유지군	-10.7022
중단됐다	-10.7023
있지않	-10.7026
알코올	-10.7028
뒷	-10.7028
겔	-10.7028
피츠버그	-10.7028
세계보건기구	-10.7028
쉐	-10.7028
디트로이트	-10.7028
WTO	-10.7028
프랭크	-10.7028
가즈프롬	-10.7028
박격포	-10.7028
라호르	-10.7028
오딩가	-10.7028
따뜻하	-10.7029
간단한	-10.7029
나이트클럽	-10.7029
코카인	-10.7029
테러와의전쟁	-10.7029
에주둔중인	-10.703
섹시	-10.703
떠오르	-10.7031
주지사가	-10.7033
Ex	-10.7034
관계를맺	-10.7035
덴버	-10.7037
결합	-10.7038
수사관들은	-10.7039
▁양	-10.7039
는물론	-10.7039
지속적으로	-10.704
견해	-10.7041
No	-10.7042
사안	-10.7046
있었다며	-10.7046
이슬람교	-10.705
우리모두	-10.705
이처럼	-10.705
되고있습니다	-10.7052
을저지	-10.7053
연구원들은	-10.7053
체류	-10.7053
one	-10.7055
좌파	-10.7055
도포함	-10.7058
아빠	-10.7063
투표율	-10.7064
처형	-10.7064
평화협상	-10.7064
주거	-10.7065
시위자들	-10.7066
다이애나비	-10.7067
매입	-10.7068
각종	-10.7069
재배	-10.707
페트	-10.7072
슬로	-10.7072
타고	-10.7073
배급	-10.7074
던졌다	-10.7075
▁베이징	-10.7078
방출	-10.7078
조지아주	-10.7078
을발표했다	-10.7079
를요구	-10.708
수락	-10.7081
토리	-10.7081
복을입	-10.7081
유행	-10.7082
주시	-10.7085
총기난사사건	-10.7086
들어간	-10.7086
미라	-10.7087
번이나	-10.7088
루시	-10.7089
▁어떤	-10.7093
응원	-10.7094
에서가진	-10.7096
결심	-10.7097
수없는	-10.7098
과같이	-10.71
에관련된	-10.7101
발리	-10.7102
고있다고비난했다	-10.7103
대기업	-10.7104
소송을	-10.7105
알렉스	-10.7108
파이	-10.7108
이었다며	-10.711
고있고	-10.7112
줄이	-10.7116
세명의	-10.712
혐의를받고있다	-10.712
파편	-10.7122
정상회의	-10.7122
유럽과	-10.7124
차질	-10.7127
행동이	-10.713
효과를	-10.7133
소유주	-10.7133
됐을	-10.7135
동굴	-10.7138
확신한다	-10.7139
희망을	-10.7141
별로	-10.7144
수있게	-10.7146
사설	-10.7149
신장	-10.715
대변	-10.7152
게리	-10.7152
▁사르코지는	-10.7153
는입장을밝혔다	-10.7153
가자지구에서	-10.7155
공세	-10.7155
국가에서	-10.7157
보이며	-10.716
오늘날	-10.7165
결정적인	-10.7167
tic	-10.7169
을공개했다	-10.717
일이다	-10.7173
서부지역	-10.7174
ver	-10.7174
na	-10.7177
시민권	-10.7182
저는	-10.7182
조사관	-10.7184
하지않아	-10.7186
스케	-10.7187
게이츠	-10.7187
수배	-10.7192
지방에서	-10.7192
시인했다	-10.7194
AU	-10.7199
킴	-10.7201
피신	-10.7202
며그들은	-10.7204
됐는지	-10.7208
을펼치	-10.7211
져야한다	-10.7218
영장	-10.7219
정상회담에서	-10.722
대법원은	-10.7221
시키는것	-10.7222
사적인	-10.7222
기한	-10.7226
라이브	-10.7227
정보국	-10.723
속으로	-10.7232
가혹	-10.7233
결혼을	-10.7235
주연	-10.7238
할수있다고말했다	-10.7238
지못하는	-10.724
ome	-10.7244
가미국	-10.7248
은올해	-10.7248
옹호	-10.7251
컴퓨터를	-10.7251
탄소	-10.7254
질서	-10.7255
한사실	-10.7255
기힘들	-10.7255
아미	-10.726
될지	-10.7263
을까	-10.7267
때문이라	-10.7272
문제를논의	-10.7272
차세계대전	-10.7273
하지않을	-10.7275
점으로	-10.7277
월일부터	-10.728
부토의	-10.728
가족은	-10.7281
머물	-10.7281
유발	-10.7283
투자가	-10.7286
을잃은	-10.7287
광부	-10.7287
고밝혔지만	-10.7288
펼친	-10.7289
시애틀	-10.7291
talks	-10.7291
팜	-10.7291
조만간	-10.7291
자세히	-10.7292
일제히	-10.7292
는모든	-10.7292
북극곰	-10.7292
돈세탁	-10.7292
에불과하다	-10.7293
에나설	-10.7293
포획	-10.7293
조국	-10.7293
압력을가	-10.7294
알파예드	-10.7296
선거캠페인	-10.7297
일어나는	-10.7298
개념	-10.7298
시계	-10.7302
되던	-10.7302
제차세계대전	-10.7303
을선언	-10.7303
소화	-10.7303
이송	-10.7306
처음이다	-10.7307
가고있다	-10.7307
사이버	-10.731
생명체	-10.7312
은약	-10.7313
위축	-10.7314
매출	-10.7315
경향	-10.7316
적자	-10.7317
예정이라고	-10.7318
able	-10.7318
다운	-10.732
사라진	-10.7322
끝까지	-10.7322
▁이번에	-10.7323
이명박후보	-10.7323
정상적인	-10.7325
에서북쪽으로	-10.7325
연패	-10.7327
없지만	-10.7329
밀러	-10.7329
경제성장률	-10.733
키바키대통령	-10.7331
인치	-10.7332
조씨	-10.7334
▁년대	-10.7335
부결	-10.7336
라니	-10.7338
창조	-10.7339
타협	-10.734
은매우	-10.734
몬드	-10.734
▁이곳은	-10.734
것같다고말했다	-10.7341
가족의	-10.7342
발달	-10.7342
에걸린	-10.7343
버려	-10.7344
코치	-10.7345
소비자들이	-10.7346
출두	-10.7347
조류	-10.7348
ID	-10.7348
두나라	-10.7349
비율	-10.735
선적	-10.7354
보여줬다	-10.7354
참모	-10.7355
사우스	-10.7355
매케인의	-10.7356
우세	-10.7358
이었습니다	-10.736
시위대는	-10.7361
데비	-10.7364
배포	-10.7364
원화	-10.7365
일만에	-10.7366
재판소	-10.7367
의핵심	-10.737
지사	-10.7371
시키려는	-10.7372
▁텍사스	-10.7374
독재자	-10.7376
년내	-10.7376
돌아올	-10.7377
을장악	-10.7381
동부지역	-10.7384
지역주민	-10.7384
윌리엄스는	-10.7385
사들이	-10.7386
조치로	-10.7387
를목표로	-10.7388
을지나	-10.739
이번판결	-10.7398
의상	-10.7399
골로	-10.7401
다고지적했다	-10.7402
시간에	-10.7405
당국과	-10.7406
지침	-10.7409
그들에게	-10.7411
폭력사태가	-10.7412
그의가족	-10.7414
공정한	-10.7416
제시한	-10.7416
위험이	-10.742
아이오와	-10.7423
역을	-10.7427
를시도	-10.7428
소총	-10.7428
소식통이	-10.743
하고싶어	-10.7432
라트	-10.7433
념	-10.744
아니라	-10.7442
적이며	-10.7443
알카에다가	-10.7449
에타고있던	-10.7451
약탈	-10.7452
조직을	-10.7452
거친	-10.7454
하는방법	-10.7457
형태로	-10.7459
ast	-10.746
선제	-10.7463
신원이	-10.7464
승객명	-10.7466
해져	-10.7468
한가지	-10.7473
힐러리가	-10.7473
군함	-10.7475
유감	-10.7476
줘	-10.748
체포되었다	-10.7481
▁FBI	-10.7481
이라면	-10.7483
지어	-10.7483
축출	-10.7486
던진	-10.7492
유골	-10.7492
레즈	-10.7496
남편인	-10.7498
용의자는	-10.7498
미국으로	-10.7501
자제	-10.7503
만찬	-10.7505
날짜	-10.7506
남성들	-10.7506
저널	-10.7508
지에서	-10.751
▁이번연구	-10.7511
으로구성된	-10.7513
도그	-10.7514
채취	-10.7517
정부군과	-10.7517
다른나라	-10.7517
용으로	-10.7517
전부터	-10.7518
콩	-10.7519
군부대	-10.7519
적이다	-10.752
제공한	-10.7521
에들어갔다	-10.7521
롤링	-10.7521
하비	-10.7524
대장	-10.7526
노무현대통령의	-10.7526
일로	-10.7532
을거부했다	-10.7533
▁포	-10.7534
▁작년	-10.754
는그러나	-10.7541
도시의	-10.7542
있었	-10.7543
재해	-10.7545
이적	-10.7548
에만족	-10.7549
꾼	-10.7551
압둘	-10.7551
같다	-10.7554
무엇이	-10.7558
인공	-10.7558
덩	-10.756
을잃었다	-10.7561
military	-10.7562
슛	-10.7562
텔레비전	-10.7562
International	-10.7562
러닝메이트	-10.7562
그린피스	-10.7562
호르몬	-10.7562
다행히	-10.7562
대한민국	-10.7562
득표율	-10.7562
것으로확인됐다	-10.7562
교도소에수감	-10.7562
기다려	-10.7563
기뻐	-10.7563
새롭게	-10.7563
브루니	-10.7563
슈퍼볼	-10.7564
리더	-10.7564
하길	-10.7565
기로결정했다	-10.7565
불가피	-10.7565
크레이그	-10.7565
남녀	-10.7565
에베레스트	-10.7567
끄러	-10.7567
중의하나	-10.7567
주의를	-10.7569
농민	-10.7569
올시즌	-10.7571
빈민	-10.7572
저택	-10.7572
프랑스의	-10.7572
바퀴	-10.7573
들어온	-10.7574
행사를	-10.7575
년말까지	-10.7575
을받는	-10.7576
을마치고	-10.7577
생겨	-10.7577
병이	-10.7577
창설	-10.7578
끔찍한	-10.758
실질적인	-10.758
동영상이	-10.7582
들이일현지시간	-10.7582
소방대원	-10.7583
피해지역	-10.7585
art	-10.7587
연승	-10.7587
하우스	-10.7587
들을위한	-10.7588
점점더	-10.759
세이하	-10.7591
추천	-10.7591
받아들였다	-10.7592
치른	-10.7594
통근	-10.7596
토레	-10.7596
릴수있	-10.7599
공습으로	-10.7599
자국의	-10.7599
를마치고	-10.7599
할수있으며	-10.76
독점	-10.76
수백명이	-10.7601
이베이	-10.7602
충돌로	-10.7603
피해여성	-10.7605
좋지않은	-10.7605
침수	-10.7608
▁파리	-10.7608
듯이	-10.7609
활동이	-10.7609
남미	-10.7609
에서벌어진	-10.761
테러범들	-10.761
일시	-10.7613
▁또한그는	-10.7613
오마르	-10.7614
▁마크	-10.7615
밖	-10.7618
중계	-10.7619
▁교황은	-10.762
지는못	-10.762
edto	-10.762
만료	-10.7623
파키스탄정부	-10.7624
폭로	-10.7625
영구	-10.7627
자회담이	-10.7627
원장은	-10.7627
다수의	-10.7631
레이크	-10.7632
를고려	-10.7635
시키며	-10.7635
유권자들은	-10.7637
일단	-10.7637
▁교육	-10.7638
을두고	-10.7639
피로	-10.7639
토네이도	-10.7644
▁이라크에서	-10.7644
영국과	-10.7646
내게	-10.7647
것에	-10.765
위치를	-10.7652
났으며	-10.7653
대통령을	-10.7655
대표가	-10.7657
카니	-10.7658
서울시	-10.766
호프	-10.766
act	-10.7661
타이어	-10.7662
도시로	-10.7663
켈리	-10.7667
언급하지않았다	-10.7668
의미래	-10.767
무소속	-10.7671
통과시켰다	-10.7672
만개	-10.7672
넘기	-10.7675
아들을	-10.7675
회사들이	-10.7678
아이티	-10.7681
로딕	-10.7682
보안관	-10.7689
공조	-10.7693
합의했다	-10.7693
차베스	-10.7693
요구하고있다	-10.7694
선박이	-10.7695
산사태	-10.7695
부분을	-10.7699
에참석했다	-10.77
머리에	-10.7701
이용자	-10.7705
이어졌다	-10.7706
▁청와대	-10.7706
을맞아	-10.7707
겠	-10.7707
남자들	-10.7708
개정안	-10.7714
관리자	-10.7714
미하원	-10.7715
지역에서는	-10.7721
NA	-10.7722
되도록	-10.7723
혐의를받고있는	-10.7723
의중심	-10.7726
훨씬	-10.7733
를떠나	-10.7733
기름	-10.7735
부활	-10.7736
소리를	-10.7737
이스트	-10.7738
시청자들	-10.7738
에서온	-10.7738
▁네덜란드	-10.7743
세계적으로	-10.7743
렀	-10.7746
개주에서	-10.7746
비록	-10.7748
정식	-10.7748
아기들	-10.775
참가자	-10.7751
포위	-10.7751
신호를	-10.7753
행위는	-10.7753
를보고	-10.7754
형태의	-10.7756
위원회에서	-10.776
로이드	-10.7763
기대를	-10.7765
경제위기	-10.7765
이번회담	-10.7766
▁R	-10.7768
길바라고있다	-10.7773
것인가	-10.7773
조사단	-10.7775
년월부터	-10.7776
달러까지	-10.7777
했을것이라	-10.7779
당부했다	-10.7781
바하마	-10.7781
을것이라고밝혔다	-10.7781
불법으로	-10.7783
시골	-10.7785
을예정이다	-10.7786
가필요	-10.7789
게되는	-10.779
숨을	-10.7793
역대	-10.7793
매니저	-10.7793
의수석	-10.7794
렸던	-10.7794
전대통령은	-10.7795
를보냈다	-10.7796
명을대상으로	-10.7796
win	-10.7804
자금이	-10.7804
화석	-10.7804
뉴저지	-10.7806
반정부시위	-10.7806
을요구하는	-10.7806
일리노이	-10.7809
동점	-10.7813
▁D	-10.7815
연구에서	-10.7815
이후보의	-10.7818
CO	-10.7821
믿고있다	-10.7827
무산	-10.7827
파업을	-10.7827
New	-10.7828
이미국	-10.783
독자	-10.783
민주당원	-10.7831
요청을	-10.7831
플루토늄	-10.7835
▁메	-10.7835
지말라	-10.7836
이었다고	-10.7837
에모인	-10.7839
급격히	-10.7839
선두를달리고있	-10.7839
헬리콥터	-10.7839
크로아티아	-10.7839
히틀러	-10.7839
엔지니어	-10.7839
로스앤젤레스	-10.7839
철저히	-10.7839
스튜디오	-10.7839
against	-10.7839
인도주의적	-10.784
스러워	-10.784
일오전현지시간	-10.784
일오후현지시간	-10.784
침묵	-10.7841
을태운	-10.7841
주가조작	-10.7841
끝났다	-10.7841
단순히	-10.7841
휴스턴	-10.7842
의정치	-10.7842
늘어날	-10.7842
을발휘	-10.7842
딜러	-10.7843
lu	-10.7843
되었는데	-10.7843
모험	-10.7845
은모두	-10.7847
차이로	-10.7847
하버드	-10.7847
과충돌	-10.7849
안전보장	-10.7849
톤의	-10.7849
여론조사에따르면	-10.7849
기념식	-10.785
약만명이	-10.785
해병	-10.7852
벌어들	-10.7852
낭비	-10.7852
약억원	-10.7853
집필	-10.7856
세트에서	-10.7857
정규	-10.786
문제점	-10.786
비로	-10.7862
트랙	-10.7863
일본과	-10.7863
는생각	-10.7864
수치여사	-10.7866
지지자들에게	-10.7867
정부군이	-10.7867
계층	-10.7868
랐다	-10.7868
을만큼	-10.7869
헤르	-10.787
할수없다고말했다	-10.787
위장	-10.7871
수있다고말했다	-10.7874
를지지하는	-10.7875
기회가	-10.7876
극적인	-10.7876
속도를	-10.7878
우파	-10.7879
의결	-10.7879
소유한	-10.7881
낸시	-10.7883
의변호사인	-10.7888
촉진	-10.7888
입력	-10.7889
힐차관보는	-10.7889
줬	-10.7889
을차지하	-10.789
혐의로기소됐다	-10.7892
구경	-10.7892
묘지	-10.7893
수요일에	-10.7893
전임	-10.7896
부시는	-10.7897
▁그는그러나	-10.7897
될전망이	-10.79
후보인	-10.7906
평화협정	-10.7907
▁구글	-10.7907
에관련	-10.7907
아프	-10.7908
회사를	-10.7908
스콧	-10.7908
년후	-10.7908
서장은	-10.7908
심화	-10.7909
DC	-10.7914
건강보험	-10.7914
개설	-10.7914
양측이	-10.7915
더잘	-10.7917
달라고	-10.792
을가지고	-10.7922
전송	-10.7923
파인	-10.7926
판다	-10.7926
에반발	-10.7927
연휴	-10.7934
어려움을겪	-10.7937
과시	-10.7938
국회의원들	-10.7938
영국정부	-10.7943
호화	-10.7944
박탈	-10.7945
로이터	-10.7947
모든사람	-10.7947
언제나	-10.7952
대선결과	-10.7952
해야한다고밝혔다	-10.7956
를얻었다	-10.7956
▁지금	-10.7958
작년월	-10.7959
▁베네수엘라	-10.796
조금더	-10.796
은년월	-10.7961
ub	-10.7963
성사	-10.7964
시위자	-10.7964
증시가	-10.7967
다우지수	-10.7967
는상어	-10.7971
적응	-10.7972
발급	-10.7973
버튼	-10.7979
끌려	-10.7981
득표	-10.7982
범인은	-10.7983
장난	-10.799
미술	-10.7992
부족한	-10.7995
ations	-10.7999
적절	-10.7999
Lo	-10.8001
ga	-10.8005
스트라	-10.801
기자들이	-10.8013
대의원수	-10.8013
교내	-10.8014
여성명	-10.8015
받았	-10.8017
개헌안	-10.8019
명이부상	-10.8019
사례가	-10.8022
의부인	-10.8023
너는	-10.8023
사진을찍	-10.8024
와충돌	-10.8025
고위관리는	-10.8026
체중	-10.8029
프랑스파리	-10.8029
점은	-10.8029
서도	-10.8036
복지	-10.8036
의사인	-10.8037
성지	-10.8039
는사람들이	-10.804
쟁	-10.8045
였다고	-10.8045
가말했다	-10.8053
회장이	-10.8053
제출한	-10.8057
몰려	-10.8057
험	-10.8062
종사	-10.8064
을보여주는	-10.8064
갔으며	-10.8067
금융제재	-10.8068
할수없다며	-10.807
▁시위대는	-10.807
고일	-10.8072
자행	-10.8074
자원봉사자	-10.8074
포함된	-10.8074
는이같은	-10.8075
올메르트	-10.8078
년전에	-10.808
반미	-10.8081
자살폭탄테러로	-10.8082
소유권	-10.8082
급진	-10.8083
▁시카고	-10.8088
행사에서	-10.8088
견해를	-10.8093
국면	-10.8095
엑스	-10.8098
펼쳐	-10.8099
그당시	-10.8101
유명인사	-10.8103
야후의	-10.8107
지도않	-10.8108
지난년월일	-10.8108
기상청은	-10.8113
tri	-10.8113
응답자	-10.8117
KT	-10.8117
햇	-10.8121
그녀를	-10.8122
붐	-10.8124
표명했다	-10.8125
안토니오	-10.8125
몇개	-10.8125
명확히	-10.8125
산타클로스	-10.8125
빵	-10.8125
베어스턴스	-10.8125
칸다하르	-10.8125
캄	-10.8125
스프링	-10.8125
망원경	-10.8125
애니메이션	-10.8125
머리카락	-10.8125
▁내가찾	-10.8125
에이른다	-10.8125
즐길수있	-10.8125
소수민족	-10.8126
North	-10.8126
고릴라	-10.8126
흰색	-10.8127
식민지	-10.8127
의사임	-10.8127
흐름	-10.8128
리서치	-10.8128
녹색	-10.8128
에실린	-10.8128
펀드	-10.8128
준비가	-10.8129
구조조정	-10.8131
라디오뉴스	-10.8131
우려를나타냈다	-10.8131
인질들을	-10.8132
이슬람사원	-10.8132
중국정부가	-10.8132
국방장관은	-10.8133
관점에서	-10.8134
을거쳐	-10.8134
건수	-10.8135
원치않	-10.8135
▁그리스	-10.8136
헤드	-10.8136
정치적으로	-10.8137
cut	-10.8139
미국정부가	-10.814
지난수요일	-10.8141
의원들이	-10.8143
고위급	-10.8145
현장을	-10.8145
특별히	-10.8146
알말리키총리	-10.8148
수치는	-10.8149
를이루	-10.8151
에서우승	-10.8154
를막기위해	-10.8154
반환	-10.8154
좋게	-10.8156
로예정된	-10.8156
재판관	-10.8159
ten	-10.8159
사망자는	-10.816
유엔의	-10.816
기아	-10.816
포스트	-10.8161
비전	-10.8161
▁오바마당선인은	-10.8162
매매	-10.8166
며나는	-10.8167
자리잡	-10.8169
알렌	-10.8169
고있는것	-10.817
가결	-10.8171
외상	-10.8171
신병	-10.8172
대표단은	-10.8175
을보여주	-10.8175
수있다고	-10.8177
무슨	-10.8178
워크	-10.8179
절약	-10.818
이번방문	-10.8183
선거유세	-10.8183
말로	-10.8183
총회	-10.8184
인도의	-10.819
소속의	-10.8193
는앞으로	-10.8194
메르	-10.8194
풍선	-10.8195
오바마에	-10.8195
검사를받	-10.8195
버전	-10.8196
집안	-10.8196
so	-10.8197
결정했다	-10.8197
권위	-10.8198
인존	-10.8202
ence	-10.8203
일본에	-10.8204
▁몇몇	-10.8206
북한이핵	-10.8207
전세계에	-10.8208
존매케인상원의원	-10.8213
사용되는	-10.8214
올해월	-10.8224
워드	-10.8225
들어와	-10.8229
어린이들이	-10.8232
▁그는일	-10.8234
유죄판결을받	-10.8239
매주	-10.824
성과를	-10.8245
가능하다	-10.8246
실업	-10.8246
강진	-10.825
사진은	-10.825
경험을	-10.8252
티아	-10.8252
레비	-10.8253
논쟁이	-10.8253
장악	-10.8254
을것입니다	-10.8254
명중명은	-10.8256
사회당	-10.8257
는여전히	-10.8258
핵개발	-10.8264
짜	-10.8267
조사를받고있다	-10.8269
부진	-10.8274
정부에서	-10.8274
관심을갖	-10.8274
파문	-10.8276
▁그는이번	-10.8277
인물이	-10.8277
입구	-10.8277
크다	-10.8279
▁남한	-10.828
▁애플	-10.8281
모두에게	-10.8282
ian	-10.8282
마이어	-10.8284
총격을가	-10.8285
So	-10.8285
로돌아가	-10.8286
직원명	-10.8291
연예	-10.8292
문학	-10.8293
자금지원	-10.8298
의최대	-10.8299
대변인은이번	-10.8301
pa	-10.8301
하였으며	-10.8302
호주의	-10.8303
파일	-10.8305
는보고	-10.831
들고	-10.8313
찾아내	-10.8314
알마	-10.8315
선원들	-10.8321
주식을	-10.8321
의유일한	-10.8321
북한의핵	-10.8322
이매우	-10.8323
약명의	-10.8323
인터뷰를	-10.8323
에착수	-10.8327
할것이라고발표했다	-10.8327
일저녁	-10.8334
물리	-10.8335
교도	-10.8335
지적했다	-10.8337
느끼는	-10.8339
마이	-10.8339
러시아는	-10.8345
에투입	-10.8348
호흡	-10.8348
제품을	-10.835
밤에	-10.835
지만그	-10.8351
될예정이라고	-10.8351
ER	-10.8353
말하는	-10.8355
사업가	-10.8357
부문에서	-10.8357
타격을입	-10.8361
로활동	-10.8362
후보들	-10.8364
▁심지어	-10.8365
란다	-10.8366
사고현장	-10.8369
우안	-10.837
알려주	-10.837
상공	-10.8371
다리가	-10.8372
ress	-10.8372
을유발	-10.8373
▁이스라엘은	-10.8375
이익이	-10.8376
금메달	-10.8378
재판을받	-10.8383
약세	-10.8384
고장	-10.8385
꼽	-10.8385
에대해언급	-10.8385
분실	-10.8385
떠났다	-10.8387
모든것이	-10.8389
위협을받	-10.839
만톤	-10.8392
한미국	-10.8394
한남자가	-10.8394
을잘	-10.8397
윔블던	-10.8398
효과가	-10.8399
복장	-10.84
주요한	-10.8403
유력	-10.8403
영변핵시설	-10.8404
을열어	-10.8406
목을	-10.8406
이이번	-10.8406
뿐이다	-10.8406
사육	-10.8407
하기위해서	-10.8408
재무	-10.8408
고말하고있다	-10.8409
오바마를	-10.841
전파	-10.841
청년	-10.8411
국가들의	-10.8412
망치	-10.8414
수사관	-10.8414
우주비행	-10.8414
달간	-10.8419
우고차베스베네수엘라대통령	-10.8419
템	-10.8419
튀	-10.8419
닭	-10.8419
비즈니스	-10.8419
마케팅	-10.8419
에스토니아	-10.8419
프린트	-10.8419
후지모리	-10.8419
거부권을행사	-10.8419
를일으키	-10.8419
긋	-10.8419
챙	-10.8419
닿	-10.8419
펭귄	-10.8419
고현정	-10.8419
덩어리	-10.8419
산악지역	-10.842
중국정부	-10.842
유적지	-10.842
맥도날드	-10.8421
의신원을	-10.8421
교과서	-10.8421
국회의사당	-10.8421
를거쳐	-10.8421
혁신	-10.8422
캔자스	-10.8422
세르	-10.8422
의목소리	-10.8424
▁연방	-10.8426
노래를	-10.8427
알제리	-10.8427
부모가	-10.8428
핵실험을	-10.8428
을넘	-10.8431
억달러약조원	-10.8434
채권	-10.8435
강의	-10.8435
국무총리	-10.8435
영광	-10.8437
탄도미사일	-10.8439
센터는	-10.8439
사건에	-10.8439
기초	-10.8442
관할경찰은	-10.8443
인파	-10.8444
면적	-10.8445
물의	-10.8446
배럴당달러	-10.8447
에협조	-10.8448
권총	-10.845
원인이	-10.8451
페르베즈무샤라프대통령	-10.8451
푸르	-10.8451
여당인	-10.8461
재료	-10.8462
가즈니주	-10.8463
Di	-10.8463
파손됐다	-10.8464
돈이	-10.8465
돼있	-10.8465
제트	-10.8465
기보다는	-10.8467
을강조	-10.8467
평소	-10.8467
산맥	-10.8467
수사가	-10.847
근교	-10.8471
경쟁자인	-10.8472
흐르	-10.8473
발견한	-10.8473
▁전세계	-10.8474
지난년이후	-10.8474
시민들은	-10.8476
eda	-10.8477
목소리를	-10.8478
게되	-10.8479
발표를	-10.8479
타결	-10.8481
었는데	-10.8483
▁아프리카	-10.8484
겠다고밝혔다	-10.8486
메달	-10.8486
관광객들이	-10.8488
를받고	-10.8488
이있다고	-10.8489
을찾기위해	-10.8489
풀려났다	-10.849
여아	-10.849
을담은	-10.8496
연구팀	-10.8502
물었다	-10.8503
장기간	-10.8503
있었습니다	-10.8506
부장	-10.8509
일보	-10.8517
마일떨어진	-10.8517
예정된	-10.8522
친게	-10.8523
밝혔으나	-10.8525
최지	-10.8525
leader	-10.8525
가족들에게	-10.8525
매케인후보	-10.8525
윤리적	-10.8526
지않을경우	-10.8526
Me	-10.8528
state	-10.8531
이될것이다	-10.8531
선출된	-10.8533
이번달	-10.8535
▁크리스	-10.8535
지역이다	-10.8536
을올렸다	-10.8538
에대한조사	-10.854
받았으며	-10.854
타임스	-10.8541
세관	-10.8542
를입고	-10.8542
측의	-10.8543
미국대사관	-10.8544
출석	-10.8549
오고있다	-10.855
제방	-10.855
▁플로리다	-10.8551
알파	-10.8552
아스	-10.8552
▁그들의	-10.8553
협회는	-10.8555
하고있는데	-10.856
회계	-10.8561
주류	-10.8563
음에도불구하고	-10.8563
복수	-10.8565
고든	-10.8565
제출했다	-10.8568
상처를	-10.8568
를대상으로	-10.857
은성명을통해	-10.8571
하기로결정	-10.8575
가가장	-10.8577
지점에서	-10.8578
을펼쳤다	-10.8581
손자	-10.8582
▁미국에서	-10.8583
지않으면	-10.8584
징역형	-10.8588
모건	-10.859
변호인	-10.859
이후에	-10.859
돌아갈	-10.8594
기념일	-10.8595
케리	-10.8596
최고지도자	-10.8598
생각하고있다	-10.8599
무라	-10.8599
태우	-10.8599
지않았다고밝혔다	-10.8602
터키의	-10.8602
겠다고말했다	-10.8604
경찰서장	-10.8604
▁오늘날	-10.8605
공부	-10.8608
돼야한다	-10.8609
와비슷한	-10.8611
이영화의	-10.8611
지며	-10.8612
해나가	-10.8618
아들인	-10.8622
경기도	-10.8623
에게도	-10.8624
일으킨	-10.8625
bar	-10.8625
회사들은	-10.8627
당이	-10.8629
웹사이트에서	-10.863
쳤으며	-10.8631
확인된	-10.8632
출범	-10.8635
그곳	-10.8638
▁도쿄	-10.8638
드러냈다	-10.8644
명이상	-10.8645
경쟁자	-10.8648
일경우	-10.8653
관리가	-10.8653
진행되고있	-10.8653
매달	-10.8653
라고강조했다	-10.8655
aid	-10.866
율이	-10.866
센터의	-10.8661
재선	-10.8662
Sp	-10.8665
이에앞서	-10.8665
경관	-10.8666
수감된	-10.8668
다며그러나	-10.867
면에서	-10.8671
식수	-10.8672
실력	-10.8675
한사실을	-10.8676
와트	-10.8676
▁UN	-10.8677
살이	-10.8678
과거의	-10.8679
여성을	-10.8679
올해의	-10.868
고든브라운영국총리	-10.8681
남겨	-10.8683
얼굴을	-10.8684
이지역에	-10.8685
하기에	-10.8691
스탠	-10.8692
강력	-10.8692
마크스미스	-10.8695
지난월요일	-10.8695
ran	-10.8697
발효	-10.8697
여유	-10.8697
과장	-10.8698
크리	-10.8699
팩	-10.8699
인질들이	-10.8701
흥미	-10.8702
가난한	-10.8702
걸었다	-10.8703
자정	-10.8703
지구에	-10.8705
를방문한	-10.871
뉴욕주	-10.8713
지고있는	-10.8713
성명을발표	-10.8714
를갖고있다	-10.8714
되었지만	-10.8715
감원	-10.8716
셋	-10.8717
발의	-10.8719
할것을요구	-10.872
박근혜	-10.8721
펴	-10.8722
신용경색	-10.8722
유니세프	-10.8722
명백히	-10.8722
쉴	-10.8722
항생제	-10.8722
에이르기까지	-10.8722
루아얄	-10.8722
수류탄	-10.8722
침팬지	-10.8722
살모넬라균	-10.8722
허커비	-10.8722
덕분에	-10.8722
다운로드	-10.8723
상반기	-10.8723
모바일	-10.8723
동성결혼	-10.8723
어두운	-10.8723
모로코	-10.8723
바꿔	-10.8723
대량살상무기	-10.8723
페이스북	-10.8724
월드시리즈	-10.8724
사령부	-10.8725
대대적인	-10.8726
가되는	-10.8728
선거캠프	-10.8729
세에서세	-10.873
유조선	-10.8731
볼튼	-10.8731
과학자들	-10.8731
진흙	-10.8732
믿는다	-10.8732
명을사살	-10.8732
이라크를	-10.8733
독감	-10.8735
에투자	-10.8736
군사훈련	-10.8736
성명을발표하고	-10.8736
남아프리카	-10.8736
에참여할	-10.8736
대략	-10.8737
경기는	-10.8737
플린	-10.8737
풍경	-10.8738
밤새	-10.8739
회의가	-10.874
하얀	-10.8741
언론보도	-10.8741
이슬람무장세력	-10.8741
를들고	-10.8743
폐기물	-10.8745
지속적인	-10.8745
역설	-10.8746
▁차베스대통령은	-10.8747
고밝혔으며	-10.8748
러시아와	-10.8749
하기전까지	-10.8749
에대해조사	-10.875
의번째	-10.875
인체	-10.875
높이의	-10.8751
할아버지	-10.8752
을취소	-10.8753
하지않았지만	-10.8754
서로다른	-10.8755
HN	-10.8756
조종	-10.8756
명의한국인	-10.8756
현행	-10.8757
일반적인	-10.8759
이스라엘은	-10.8759
함유	-10.8759
▁푸틴은	-10.876
혐의에대해	-10.8761
가장많이	-10.8761
하지않을것이라고밝혔다	-10.8761
버트	-10.8761
마사지	-10.8764
까요	-10.8764
보도를	-10.8765
상원에서	-10.8765
수는없	-10.8766
야구	-10.8766
지도부는	-10.8766
비는	-10.8766
부른	-10.8767
웨스트버지니아	-10.8767
일열린	-10.8769
사실을알	-10.877
▁이보고서는	-10.8771
탐지	-10.8772
시카고에서	-10.8772
었기때문에	-10.8774
올해말	-10.8775
캐롤	-10.8777
통증	-10.8777
공무원들	-10.8779
제작된	-10.8779
상을수상했다	-10.8781
을것이라는	-10.8781
폭도	-10.8783
남성의	-10.8786
회색	-10.8787
▁상승	-10.8791
생각하는	-10.8793
도핑	-10.8794
고말해	-10.8794
을촉구했다	-10.8797
니까	-10.8799
산불이	-10.8799
벌어졌	-10.8803
신고를	-10.8803
소리가	-10.8804
훨씬더	-10.8804
착취	-10.8804
조사를받	-10.8804
사이드	-10.8805
빌클린턴	-10.8806
에감염된	-10.8806
군데	-10.8806
투자자들	-10.8807
하드	-10.8807
보여줄	-10.8808
그곳에	-10.8809
전염	-10.8811
정책이	-10.8811
싸우	-10.8813
하지	-10.8814
녹화	-10.8814
사과했다	-10.8815
발생했으며	-10.8816
복권	-10.8816
크는	-10.8817
필요가있다	-10.882
해나갈	-10.8822
것으로보고있다	-10.8823
전략을	-10.8824
▁Obama	-10.8824
▁I	-10.8827
모어	-10.8827
떨어질	-10.883
면허	-10.8831
행진을	-10.8834
루스	-10.8835
소송을제기했다	-10.8835
유권자들	-10.8836
될것으로예상된다	-10.8839
붕괴된	-10.884
land	-10.8841
모의	-10.8844
한해	-10.8845
▁그결과	-10.8845
Be	-10.8848
ade	-10.885
이틀간	-10.8853
나가는	-10.8853
두고있다	-10.8855
다른국가	-10.8857
증언을	-10.8857
섬유	-10.8857
입수한	-10.8858
난민들	-10.8859
에출연한	-10.8859
폭등	-10.886
하고있다고비난했다	-10.886
제프리	-10.886
tra	-10.8861
모르겠다	-10.8862
현직	-10.8867
환자가	-10.8867
어선	-10.8868
경계를	-10.887
찍은	-10.887
올월	-10.8871
에티오피아	-10.8873
센터에서	-10.8873
대안	-10.8875
미국뉴욕	-10.8877
주가가	-10.8878
반응을보이	-10.888
의석방	-10.8881
에다시	-10.8883
▁지난일	-10.8884
결론을	-10.8884
불법행위	-10.8884
할수없다고	-10.8888
법은	-10.8889
카나	-10.889
사임했다	-10.8892
사진이	-10.8893
업체가	-10.8894
공격을받았다	-10.8895
부정적	-10.8895
주소	-10.8896
것이아니다	-10.8898
상공에서	-10.8899
무성	-10.8902
▁국방부는	-10.8902
rate	-10.8902
이용하는	-10.8904
상병	-10.8904
될것이라며	-10.8905
연설을통해	-10.8905
가서	-10.8907
절감	-10.8908
불길	-10.8908
해명	-10.8909
운반	-10.8911
▁싱가포르	-10.8911
▁그는우리는	-10.892
을제시했다	-10.8921
생기	-10.8922
는것을막	-10.8922
년대초	-10.8923
의대변인인	-10.8924
일수있다	-10.8924
리비	-10.8925
품질	-10.8925
축구팬	-10.8927
충분	-10.8929
▁또는	-10.8931
맞서	-10.8931
지방의	-10.8935
동유럽	-10.8941
카트	-10.8946
펼	-10.8946
시점에서	-10.8946
라이벌	-10.8947
참가국	-10.895
개발한	-10.8953
구체적	-10.8957
에승리	-10.8958
미상원	-10.8959
보낸다	-10.8959
나이가	-10.896
소란	-10.8962
지못할	-10.8963
의배후	-10.8963
이있다고말했다	-10.8964
복잡	-10.8965
중일부	-10.8966
하지말것을	-10.8968
지금이	-10.8969
개조	-10.8972
을방해	-10.8972
줄여	-10.8979
사정	-10.8979
쇄	-10.898
그에대한	-10.8985
내릴	-10.8985
이었다고밝혔다	-10.8985
공장에서	-10.8985
표적	-10.8994
항공우주국	-10.8995
대원	-10.8996
만났	-10.8996
이익을	-10.8997
개월간의	-10.8999
ite	-10.9003
하고있음을	-10.9003
평화를	-10.9004
원인은	-10.9004
den	-10.9004
서약	-10.9006
대상이	-10.9007
여단	-10.9008
를포함해	-10.9008
▁서울시	-10.9009
딜	-10.9011
da	-10.9013
병사들이	-10.9013
야당은	-10.9015
기어	-10.9016
거론	-10.9017
열심히	-10.9018
재활	-10.9021
ef	-10.9021
워싱턴주	-10.9022
봐	-10.9024
데이빗	-10.9026
부상자들	-10.9026
뒤집	-10.9026
폭력사태로	-10.9028
양자	-10.9031
라고생각	-10.9032
Q	-10.9032
깔	-10.9032
위해	-10.9033
흰	-10.9033
저희	-10.9034
븐	-10.9034
댐	-10.9035
뷰	-10.9035
툴	-10.9035
AFP	-10.9035
WFP	-10.9035
굿	-10.9035
NFL	-10.9035
돋	-10.9035
▁중앙일보	-10.9035
election	-10.9035
그랜드슬램	-10.9035
터미널	-10.9035
아메리칸아이돌	-10.9035
매머드	-10.9035
을둘러싼	-10.9035
열대성폭풍	-10.9035
되풀이	-10.9035
유일하게	-10.9035
도널드	-10.9035
LPGA	-10.9036
쿠르드족	-10.9036
셰이크	-10.9036
의혹을	-10.9036
붉은사원	-10.9036
점프하	-10.9036
개성	-10.9036
베이루트	-10.9036
취득	-10.9037
승점점	-10.9037
쇼핑몰	-10.9037
노동조합	-10.9037
수십명이	-10.9037
삼성그룹	-10.9038
간호사	-10.9038
켄터키	-10.9038
대중교통	-10.9039
워싱턴포스트	-10.9039
강제진압	-10.904
느낄수있	-10.904
▁이어	-10.904
칭찬	-10.904
블록	-10.9041
타스	-10.9042
월마트	-10.9043
하지는않았다	-10.9046
어졌다	-10.9049
교전이	-10.9049
인조	-10.9049
보고서를통해	-10.905
수사관은	-10.905
것이라고강조했다	-10.9052
사항이	-10.9052
는우리는	-10.9053
의사를밝혔다	-10.9054
고코리아타임즈가	-10.9054
추출	-10.9054
나타난	-10.9054
시신구	-10.9056
하지않은채	-10.9056
외출	-10.9056
것은아니라	-10.9057
군사정권	-10.9057
닉슨	-10.9058
성능	-10.906
지지선언을	-10.906
미군기지	-10.906
농구	-10.906
정상적으로	-10.9061
잡았다	-10.9068
▁제임스	-10.9068
기습	-10.9069
수성	-10.907
소년이	-10.9072
현지경찰	-10.9072
앞선	-10.9073
의작품	-10.9073
자회담의	-10.9074
press	-10.9074
돼있었다	-10.9074
해왔던	-10.9077
사망자중	-10.9078
스트리	-10.9078
겨우	-10.9081
연애	-10.9082
시신을	-10.9082
졸리	-10.9083
호주오픈	-10.9083
스텔	-10.9084
살아있는	-10.9086
우주인	-10.9086
에빠져있	-10.9087
일째	-10.9088
▁이영화는	-10.9093
페르	-10.9095
누구도	-10.9096
전략적	-10.9096
장소에서	-10.9097
▁해수욕장	-10.9098
유효	-10.9101
최고위	-10.9102
종양	-10.9103
국방부는	-10.9108
고민	-10.9108
쿠퍼	-10.9109
남아	-10.911
실어	-10.9112
를놓고	-10.9112
책정	-10.9112
약억	-10.9116
해있다	-10.9118
프랑스와	-10.9118
▁국영	-10.9119
떨어진곳에서	-10.9119
샤프	-10.9119
죄수	-10.912
보냈	-10.9124
기장	-10.9124
패스	-10.9125
거주지	-10.9125
▁정치	-10.9127
일현지시간미국	-10.9128
가족에게	-10.9128
부분은	-10.9128
수지	-10.9129
▁헬기	-10.9132
라이벌인	-10.9132
용납	-10.9133
검찰청	-10.9134
보좌관들	-10.9137
하는모습	-10.9138
사고여객기	-10.9142
답변을	-10.9145
세계위	-10.9147
곡물	-10.9147
다녀	-10.9149
구타	-10.915
양측	-10.9152
월터	-10.9152
왔지만	-10.9153
일에는	-10.9153
뒤에서	-10.9154
격리	-10.9156
그날	-10.916
가능성도	-10.9162
주교	-10.9165
대법원장	-10.9166
▁대통령은	-10.9167
바다로	-10.9167
그다음	-10.9168
당사	-10.9173
역전	-10.9174
신화통신은	-10.9176
불평	-10.9177
전세계에서	-10.918
은행은	-10.9183
캐리	-10.9188
요새	-10.9189
아바	-10.919
일대	-10.9194
하게될것이다	-10.9195
▁북	-10.9195
로보내	-10.9196
웨인	-10.9196
테러가발생	-10.9198
지않겠다고	-10.9199
투표가	-10.9202
ors	-10.9203
주최측은	-10.9206
베스	-10.9206
죽었다	-10.9206
영화는	-10.9207
자동차업체	-10.9213
코는	-10.9214
목요일에	-10.9215
명중명	-10.9215
쉬운	-10.9215
그결과	-10.9218
이들에게	-10.922
자치정부	-10.922
토양	-10.9221
잘알려진	-10.9223
네바다	-10.9225
해왔	-10.9226
버렸	-10.9227
예보	-10.9231
불능화	-10.9231
섰	-10.9234
청사	-10.9235
동맹국들	-10.9235
와인	-10.9235
말리	-10.9237
만천	-10.9238
이문제에대해	-10.9242
체인	-10.9243
는일부	-10.9244
영화가	-10.9246
진행되	-10.9248
증인	-10.9249
된다며	-10.9249
물건을	-10.925
대책을	-10.9252
한차례	-10.9259
모른다	-10.9261
재임	-10.9262
를구성	-10.9263
비만	-10.9263
을중지	-10.9263
연구가	-10.9268
되어왔다	-10.9269
공원에서	-10.9274
을제한	-10.9275
부실	-10.9275
폭우로	-10.9279
깊	-10.9282
를저질렀	-10.9283
몸값	-10.9284
총기난사	-10.9285
편지를	-10.9286
관광지	-10.9287
주장을	-10.9288
차례로	-10.9289
추가적인	-10.9289
비디오를	-10.929
식사	-10.9291
어지는	-10.9291
임원	-10.9293
열차가	-10.9297
새벽	-10.93
이면	-10.9302
양국간의	-10.9305
자신의집	-10.9306
블레어	-10.9308
투자를	-10.9308
필리	-10.9309
사건현장	-10.931
일과일	-10.9311
폭탄폭발	-10.9317
로옮겨	-10.9317
▁LA	-10.9319
대조	-10.9321
의딸	-10.9322
기를바란다	-10.9323
육상	-10.9324
한국정부는	-10.9324
드레	-10.9325
비리	-10.9326
무장세력이	-10.9329
도움이될	-10.9331
드러났다	-10.9331
rea	-10.9332
카스트로	-10.9332
학회	-10.9333
ook	-10.9336
성공회	-10.9338
한남성	-10.9339
글리	-10.9341
강세	-10.9342
ical	-10.9345
실험을	-10.9347
▁힐튼은	-10.9351
샘	-10.9354
조건을	-10.9355
South	-10.9357
무너져	-10.9357
중산층	-10.9357
팍	-10.9357
렁	-10.9357
▁관련동영상보기	-10.9357
갤런당	-10.9357
광우병	-10.9357
당나귀	-10.9357
▁NEWYORKCNN	-10.9357
카자흐스탄	-10.9357
단백질	-10.9357
무너진	-10.9357
연방준비은행	-10.9357
뉴캐슬	-10.9357
커뮤니티	-10.9357
캠퍼스	-10.9358
과더불어	-10.9358
▁브라운총리는	-10.9358
protest	-10.9358
쇠고기	-10.9358
비밀리에	-10.9358
최선의	-10.9358
이른바	-10.9358
니콜라스	-10.9358
에항의하는	-10.9359
몸무게	-10.9359
뒀다	-10.9359
게이	-10.936
도덕적	-10.9361
line	-10.9362
ISS	-10.9362
좀	-10.9364
자르다리	-10.9365
라불리는	-10.9365
SK	-10.9365
에나선	-10.9365
인근서	-10.9366
농담	-10.9366
티켓	-10.9366
몰래	-10.9366
평결	-10.9367
기술이	-10.9368
국내에서	-10.9368
가스공급	-10.9369
에주둔	-10.937
요원들	-10.9371
일아침	-10.9371
검찰총장	-10.9372
수년간	-10.9373
오바마당선자	-10.9373
이끄는	-10.9374
구제안	-10.9374
계곡	-10.9374
세균	-10.9374
과학기술	-10.9375
다툼	-10.9375
강사	-10.9376
프린스	-10.9377
및기타	-10.9377
민주당후보	-10.938
기온	-10.9381
헌신	-10.9381
교류	-10.9381
측면	-10.9382
돌입	-10.9384
여부를결정	-10.9384
임박	-10.9384
호송	-10.9385
하지않을것이라고말했다	-10.9385
는것입니다	-10.9388
명을석방	-10.9388
▁뉴질랜드	-10.9388
를입은	-10.9388
시나리오	-10.9389
힌두교	-10.939
해야한다고강조했다	-10.939
진료	-10.9391
계열사	-10.9392
배상	-10.9393
전국적인	-10.9394
공백	-10.9394
▁LO	-10.9394
라고불리는	-10.9396
비디오테이프	-10.9397
해야하며	-10.9397
나아	-10.94
해안지역	-10.9401
서비스를제공	-10.9402
사법부	-10.9403
사자	-10.9404
불화	-10.9407
계약을	-10.941
얻을수있	-10.9411
har	-10.9413
연구조사	-10.9413
에관심을	-10.9416
지도자들과	-10.942
억만	-10.9421
부작용	-10.9422
장갑	-10.9423
감각	-10.9423
보스	-10.9423
언론이	-10.9424
한국과	-10.9425
받았다고	-10.9425
방송에서	-10.9426
클린턴전대통령	-10.9426
국정	-10.9428
법개정	-10.9429
단기	-10.9431
▁F	-10.9437
법을위반	-10.9437
한것으로밝혀졌다	-10.9438
필립스	-10.944
비준	-10.9441
간섭	-10.9443
▁만일	-10.9445
라이스장관	-10.9446
순찰대	-10.9447
뇌물	-10.9447
강연	-10.9448
제리	-10.9455
국회에서	-10.9456
사회주의	-10.946
개별	-10.9462
받기위해	-10.9462
모욕	-10.9463
될때	-10.9468
혐의를부인	-10.9468
아시아의	-10.9468
시스템이	-10.9469
이번주초	-10.9471
본토	-10.9471
의장례식	-10.9471
벨트	-10.9472
주민들을	-10.9477
홈페이지	-10.948
임시정부	-10.9481
지않게	-10.9481
다는사실을	-10.9482
지오	-10.9483
올림픽위원회	-10.9483
다소	-10.9484
남편은	-10.9484
클린턴상원의원	-10.9492
ster	-10.9494
추락한	-10.9494
방한	-10.9495
수준이	-10.9497
인터넷에	-10.9498
세부	-10.95
를찾는	-10.95
사무	-10.9502
하고있는가운데	-10.9503
개헌	-10.9505
아야한다	-10.9505
세력을	-10.9509
로구성된	-10.9516
세계경제	-10.9518
플로	-10.9518
피의자	-10.9521
시에서	-10.9521
참석한	-10.9521
하지않도록	-10.9522
을것이라며	-10.9522
하자는	-10.9523
유엔이	-10.9524
을포함하여	-10.9525
아이오와주	-10.9526
철수시키	-10.9528
가족들과	-10.9531
협상단	-10.9533
것으로추정되는	-10.9536
주립대학	-10.9536
의모습을	-10.9537
대도시	-10.954
에이커	-10.9543
연기가	-10.9543
지요	-10.9545
는항상	-10.9547
의사는	-10.9548
가축	-10.9548
버마의	-10.9549
La	-10.9549
수술을	-10.955
해외에서	-10.9552
경제제재	-10.9556
허위	-10.9556
들은모두	-10.9556
현안	-10.9558
한번도	-10.9561
익명	-10.9561
들어갔다	-10.9564
원자로를폐쇄	-10.9565
의양	-10.9568
건물에	-10.9568
방치	-10.9568
여성과	-10.957
맞붙	-10.9572
략	-10.9573
다고생각하	-10.9573
데리	-10.9574
che	-10.9586
사용자들	-10.9587
다이애나가	-10.959
군정	-10.9591
ish	-10.9592
승자	-10.9593
벽에	-10.9599
어드	-10.96
신뢰를	-10.9601
점이다	-10.9605
야드	-10.9609
얻어	-10.961
샘플	-10.9611
살이빠	-10.9611
약만명의	-10.9611
단일	-10.9612
는지난월일	-10.9613
와의관계	-10.9614
지구에서	-10.9614
위험을	-10.9619
을당시	-10.9619
제약	-10.9621
대폭	-10.9623
밝혀지지않	-10.9623
되어있었다	-10.9626
렀다	-10.9632
나달	-10.9634
감염된	-10.9635
하기위하여	-10.964
를공개했다	-10.9641
번지	-10.9645
될것이라는	-10.9646
하게될것이라고	-10.9647
정치가	-10.9648
공동으로	-10.9653
보고했다	-10.9658
이름으로	-10.9658
구조대원	-10.9658
에후드올메르트이스라엘총리	-10.9658
을강화하	-10.9661
틱	-10.9661
관리인	-10.9662
널	-10.9662
승려들	-10.9663
하고있으나	-10.9665
시작되었다	-10.9668
규모를	-10.9668
고있으나	-10.9669
한나라당의	-10.967
자살폭탄테러가발생	-10.967
▁이들중	-10.9674
하지않았으며	-10.9676
주인이	-10.9676
고싶어한다	-10.9676
공격수	-10.9677
융	-10.9678
노조는	-10.9679
자살폭탄	-10.9679
방식을	-10.9681
하게되면	-10.9684
PS	-10.9686
화제	-10.9687
작품을	-10.9688
주기위해	-10.9688
결의	-10.9689
이같은결정	-10.969
우라늄	-10.969
엘리자베스세여왕	-10.9691
허드슨	-10.9691
엽	-10.9691
냄	-10.9691
호나우두	-10.9691
베스트셀러	-10.9691
틈	-10.9691
스튜어트	-10.9691
뉴욕상업거래소	-10.9691
패리스힐튼	-10.9691
openurl	-10.9691
▁WASHINGTONCNN	-10.9691
랫	-10.9691
오키나와	-10.9691
닛	-10.9691
미네소타	-10.9691
상파울루	-10.9691
비슷하	-10.9691
윗	-10.9691
럼스펠드	-10.9691
믹	-10.9691
지나치게	-10.9691
유럽축구연맹	-10.9691
안락사	-10.9691
초등학교	-10.9691
그루지아	-10.9691
피아노	-10.9691
에동참	-10.9691
풍부한	-10.9691
장기기증	-10.9691
사라페일린	-10.9691
리타	-10.9691
라파엘나달	-10.9692
일축했다	-10.9692
뮤직	-10.9692
이번사건을	-10.9692
수하물	-10.9692
을허가	-10.9692
홈런	-10.9693
불쾌	-10.9693
여겨	-10.9693
타이완	-10.9694
자서전	-10.9694
쿠폰	-10.9695
수퍼화요일	-10.9695
아마존	-10.9695
년이래	-10.9695
언제든	-10.9696
는어제	-10.9697
태양열	-10.9698
침투	-10.9699
을내놓	-10.97
▁지난해월	-10.9701
싫어	-10.9701
한국정부가	-10.9702
보여주고있다	-10.9702
당혹	-10.9704
▁양측은	-10.9704
토론토	-10.9705
근본	-10.9705
세탁	-10.9706
동전	-10.9706
gi	-10.9706
비디오게임	-10.9707
광부들	-10.9708
정치범	-10.971
down	-10.9711
게하는	-10.9712
기본적인	-10.9713
선거전	-10.9714
지않았지만	-10.9715
면왜	-10.9716
사랑하는	-10.9717
미화	-10.9718
사이즈	-10.9719
펜실베니아주	-10.972
야한다고강조했다	-10.9721
중한명이	-10.9721
단순한	-10.9721
댄스	-10.9721
make	-10.9723
퇴장	-10.9723
지않았으며	-10.9723
회견	-10.9724
▁환경	-10.9724
스페인의	-10.9724
사찰	-10.9725
검사결과	-10.9726
정부관리	-10.9726
해왔습니다	-10.9727
북한과미국	-10.9728
▁관계당국은	-10.9729
지못하게	-10.973
해수면	-10.9732
작성한	-10.9733
높게	-10.9734
▁스리랑카	-10.9735
보상금	-10.9736
연료를	-10.9737
DR	-10.9737
여배우	-10.9738
두뇌	-10.9738
지도자는	-10.9739
았다고말했다	-10.9746
▁스웨덴	-10.975
이라크파병	-10.9751
진행되고있다	-10.9752
를맞아	-10.9753
제조회사	-10.9753
성전	-10.9754
가중	-10.9755
었다고설명했다	-10.9756
이란의핵	-10.976
이가능하다	-10.976
구단주	-10.976
총선을	-10.9762
AK	-10.9764
기업인	-10.9765
고향인	-10.9767
미사	-10.9767
통신이보도했	-10.977
서버	-10.9773
순회	-10.9775
몇달	-10.9775
이더욱	-10.9775
호흡기	-10.9776
하는가운데	-10.9776
고집	-10.9778
교전으로	-10.9778
이잘	-10.9781
양당	-10.9781
그랜드	-10.9783
폭격기	-10.9784
메가	-10.9784
취한	-10.9784
것으로알려져있	-10.9784
일정으로	-10.9785
제트기	-10.9785
체스	-10.9786
AM	-10.9786
법에따라	-10.9787
이발견됐다	-10.9787
은여전히	-10.9788
에상륙	-10.979
가자지구의	-10.9792
군인들은	-10.9792
카르자이대통령	-10.9793
진행됐다	-10.9795
할수도있	-10.9796
▁언론은	-10.9796
판결했다	-10.9797
억달러규모의	-10.9798
개국이	-10.9798
용서	-10.9798
대피소	-10.98
도없이	-10.9801
품을	-10.9803
를마쳤다	-10.9803
예측했다	-10.9806
민주당경선	-10.9808
에출연해	-10.9809
투수	-10.9809
개주	-10.9809
정상들은	-10.9811
가나오	-10.9812
이안	-10.9813
뜻을밝혔다	-10.9814
사절	-10.9817
도로에서	-10.9817
교량	-10.9818
사르	-10.9818
된것이다	-10.9821
수위	-10.9825
수준의	-10.9828
이될것이라	-10.983
안건	-10.9836
확인하고	-10.9839
항의시위	-10.9839
콜로	-10.984
위치한	-10.984
선거운동을	-10.9841
심사위원	-10.9843
속력	-10.9844
선거자금	-10.9845
제재를	-10.9848
질까	-10.985
홀리	-10.985
기간이	-10.985
사회에	-10.9854
온천	-10.9855
고생	-10.9857
▁컴퓨터	-10.986
비상사태를선포	-10.9863
파키스탄에서	-10.9863
번영	-10.9864
din	-10.9865
▁이집트	-10.9868
존스는	-10.9869
는지난년월	-10.9875
소식이전해	-10.9877
상승한	-10.9877
절반이상	-10.9878
되어야	-10.988
학년	-10.9883
을운영하	-10.9883
용의자명	-10.9883
결정에	-10.9886
성경	-10.9888
환자의	-10.9888
pi	-10.9888
부토전총리가	-10.9889
승을거뒀	-10.9889
br	-10.989
계미국인	-10.9892
ever	-10.9893
시간이상	-10.9893
는거의	-10.9893
백만명	-10.9895
오전	-10.9895
인계	-10.9897
지는않을것이라고	-10.9898
이어질	-10.9901
그의아내	-10.9904
이었지만	-10.9905
해지고있다	-10.9907
들을대상으로	-10.9909
▁영국런던	-10.991
자수가	-10.991
여객기는	-10.9911
휴전협정	-10.9911
아버지의	-10.9912
승객들이	-10.9912
▁병원	-10.9914
이번시즌	-10.9915
하는내용	-10.9915
ert	-10.9916
예상보다	-10.9917
했던것	-10.9917
위생	-10.9918
불러	-10.9918
선거에서승리	-10.9923
으로보내	-10.9926
양측의	-10.9927
학생들과	-10.9929
에서일어난	-10.9931
부시미대통령과	-10.9938
▁미국이	-10.9939
십대	-10.994
지나가	-10.9942
상관	-10.9945
격분	-10.9947
높아지고있다	-10.9948
좁	-10.995
을불러	-10.995
은년전	-10.9951
인정받	-10.9951
명성	-10.9952
지도모른다	-10.9952
이란에	-10.9952
아웃	-10.9954
▁수정	-10.9955
국제사회가	-10.9958
Go	-10.9958
미얀마정부	-10.9959
문서를	-10.996
준결승	-10.9961
부탁	-10.9964
경고를	-10.9967
힐러리클린턴상원의원은	-10.9969
자매	-10.9971
이지역의	-10.9972
지는못했다	-10.9973
이사실을	-10.9976
목숨	-10.9977
군사령관	-10.9977
아프간군	-10.9983
과학적	-10.9986
법안은	-10.9987
버락오바마대통령	-10.9988
소수의	-10.9988
보라	-10.9989
지면	-10.999
그같은	-10.9992
초점	-10.9994
벌리	-10.9996
는없다	-10.9996
쁘	-10.9996
발견되	-10.9997
라운드에서	-10.9998
반기문유엔사무총장	-11.0001
렬	-11.0004
▁사우디아라비아	-11.0008
암살사건	-11.0009
수백명	-11.0009
에서열릴	-11.001
칙	-11.001
되는데	-11.0013
가루	-11.0015
두려움	-11.0016
아이들에게	-11.0016
첩	-11.0017
성행위	-11.0017
상을받	-11.0019
통역	-11.002
임무는	-11.0022
에도불구	-11.0022
왓	-11.0022
겨냥	-11.0025
애쓰	-11.0025
최첨단	-11.0026
렘	-11.0028
야당인한나라당	-11.0031
par	-11.0032
세웠다	-11.0032
즘	-11.0033
일어날	-11.0034
창기라이	-11.0035
메드베데프	-11.0035
캘	-11.0035
그루지야	-11.0035
모하마드	-11.0035
히드로공항	-11.0035
프로듀서	-11.0035
집행유예	-11.0035
NDO	-11.0035
김선일씨	-11.0035
종업원	-11.0035
둬	-11.0036
미드필더	-11.0036
잎	-11.0036
맘	-11.0036
박테리아	-11.0036
썩	-11.0036
코스피지수	-11.0036
호날두	-11.0036
끊임없이	-11.0036
텍	-11.0036
철저한	-11.0036
아스널	-11.0036
light	-11.0036
딕체니부통령	-11.0036
에이르렀다	-11.0036
승용차	-11.0036
방사능	-11.0036
세비야	-11.0036
늘어났다	-11.0036
캠벨	-11.0037
says	-11.0037
잔혹	-11.0037
패널	-11.0037
셔츠	-11.0039
대통령당선자	-11.004
혈액	-11.004
특이한	-11.0041
아프간남부	-11.0042
연합뉴스	-11.0042
것같습니다	-11.0042
교황청	-11.0043
기때문입니다	-11.0043
줄을	-11.0043
소감을	-11.0044
기소된	-11.0045
관광산업	-11.0045
조셉	-11.0046
추락했다	-11.0047
주말에	-11.0047
지수도	-11.0047
세인트	-11.0048
미래의	-11.0048
항복	-11.0049
긴하지만	-11.005
불안감	-11.0052
금지조치	-11.0053
발부	-11.0053
외무부대변인은	-11.0053
지속되	-11.0056
맹세	-11.0056
에파견	-11.0056
꼬리	-11.0057
리처드슨	-11.0058
수비수	-11.0058
워커	-11.0059
한것으로나타났다	-11.0059
을마친	-11.0061
퇴치	-11.0062
요격	-11.0062
롬니	-11.0062
탐사선	-11.0063
잡혀	-11.0064
운명	-11.0064
금연	-11.0065
지난목요일	-11.0065
한국인들이	-11.0066
▁중국당국은	-11.0068
연기했다	-11.0068
레이건	-11.0068
▁이단체는	-11.007
야당이	-11.0072
로프	-11.0073
iz	-11.0073
격려	-11.0074
이필요한	-11.0074
델타	-11.0076
보다훨씬	-11.0076
개최되는	-11.008
이와같이	-11.0085
무기한	-11.0087
경기중	-11.0088
평양에서	-11.0088
바쿠바	-11.0088
인근지역	-11.0089
두사람이	-11.0091
무장대원들	-11.0092
로한은	-11.0092
여파로	-11.0095
제대	-11.0097
가르치	-11.0104
원격	-11.0104
미국인들에게	-11.0105
관광객들은	-11.0106
을맡은	-11.0109
시간을보내	-11.0109
에앉아	-11.0109
법무	-11.011
수퍼대의원	-11.0111
노무현대통령과	-11.0112
살고있	-11.0112
에찬성	-11.0113
바이오	-11.0118
모기지	-11.0119
영역	-11.0123
Ro	-11.0127
흥행	-11.0128
재벌	-11.0128
을개선	-11.0128
것임을	-11.0129
거의없다	-11.0131
비방	-11.0131
시범	-11.0141
ai	-11.0143
은아니다	-11.0145
한명이	-11.0145
정도가	-11.0146
▁이들의	-11.0147
것같다며	-11.0148
하워드총리는	-11.0149
fire	-11.015
에동의했다	-11.0151
밝힌바있다	-11.0152
세계의	-11.0153
총알	-11.0154
하게됩니다	-11.0156
누리	-11.0157
cor	-11.0159
데르	-11.016
공개한	-11.0163
선언문	-11.0165
탈출했다	-11.0165
질수있	-11.0166
법원의	-11.0167
크라우	-11.0168
판사가	-11.0168
로의심되는	-11.017
사제	-11.0171
득	-11.0172
해적들	-11.0173
지않지만	-11.0174
Do	-11.0174
몸이	-11.0175
경로	-11.0175
접어	-11.0179
군대가	-11.018
차전에서	-11.0181
로선정	-11.0184
보호소	-11.0184
을바꾸	-11.0184
년말	-11.0186
대통령에게	-11.0187
을비난하는	-11.0192
이라고생각	-11.0192
앞서있다	-11.0193
제재조치	-11.0194
이없다고	-11.0195
개표가	-11.0201
실직	-11.0202
자산을	-11.0204
부처	-11.0205
안드레	-11.0208
아기가	-11.0208
이될것이라고	-11.0209
부상을당했	-11.021
▁중국의	-11.021
췄다	-11.021
소녀가	-11.0211
베라	-11.0212
국민당	-11.0212
상아	-11.0212
에보내	-11.0212
반장관	-11.0219
ll	-11.0219
전범	-11.022
통행	-11.022
오프	-11.0222
운전을	-11.0223
을중단했다	-11.023
은계속	-11.023
기로합의했다	-11.0235
핵연료	-11.0237
포스	-11.0238
인기있는	-11.0238
▁그는자신의	-11.0244
서브	-11.0244
정찰	-11.0247
가지난년	-11.0248
정책은	-11.0248
기증	-11.0251
혼다	-11.0258
기업들	-11.0258
야한다며	-11.0263
이사건에대해	-11.0266
청소년들	-11.0266
중국정부의	-11.0269
되어있습니다	-11.0274
수십명의	-11.0276
이사건을	-11.0278
국기	-11.028
는것에대해	-11.0284
명시	-11.0284
윤리	-11.0285
아담	-11.0288
가장좋은	-11.0288
고믿고있다	-11.029
으로추정되는	-11.0291
울리	-11.0291
무엇	-11.0291
알수없다	-11.0294
신씨	-11.0296
red	-11.0298
시한을	-11.0299
head	-11.0299
만드는	-11.0299
집회를	-11.0307
을파견	-11.0307
주최측	-11.0308
팬들에게	-11.031
파커	-11.031
협회의	-11.0311
격추	-11.0318
으로간주	-11.032
아내와	-11.0321
▁BA	-11.0324
전적으로	-11.0325
진상조사	-11.0329
과접촉	-11.0334
벗어나	-11.0338
문을닫	-11.0338
반도	-11.0338
정비	-11.034
을동원	-11.034
가즈니	-11.0341
웹사이트는	-11.0342
조사에따르면	-11.0342
하지않을것이라고	-11.0345
의가치	-11.0345
연구팀은	-11.0347
und	-11.0349
한여성이	-11.0352
물질이	-11.0355
쓰고	-11.0356
년초	-11.0357
중국인들	-11.0357
보수당	-11.0358
배럴당	-11.0359
미셸	-11.0364
하지못하도록	-11.0367
머레이	-11.0367
되고있으며	-11.0369
시킬수있는	-11.0374
퍼스	-11.0374
캠	-11.0374
가발견됐다	-11.0376
콜린	-11.0377
을만들어	-11.0379
싼	-11.038
나왔	-11.0381
하나로	-11.0381
동일	-11.0383
옹	-11.0383
터스	-11.0384
후에도	-11.0384
투자자들이	-11.0386
려면	-11.0386
파예드	-11.0387
지구상	-11.0388
신성	-11.0389
몇달간	-11.0391
맨체스터	-11.0392
당하는	-11.0392
니콜라사르코지	-11.0393
오징어	-11.0393
꽤	-11.0393
세실리아	-11.0393
월인도분	-11.0393
휴대용	-11.0393
셈	-11.0393
만장일치로	-11.0393
first	-11.0393
피추시킨	-11.0393
BMW	-11.0393
캥거루	-11.0393
▁그런가하면	-11.0393
이스탄불	-11.0393
크누트	-11.0393
자메이카	-11.0393
클레이코트	-11.0393
혐오	-11.0393
대단히	-11.0393
나란히	-11.0393
마침내	-11.0393
Time	-11.0393
허리케인카트리나	-11.0393
신속한	-11.0393
가속화	-11.0393
back	-11.0393
계약을맺	-11.0394
빨간색	-11.0394
아웅산수치여사	-11.0395
사마라	-11.0395
북한과의	-11.0395
디스커버리호	-11.0396
부인인	-11.0396
유죄판결을받았다	-11.0396
펌프	-11.0396
에나가있는	-11.0397
공략	-11.0397
▁샌프란시스코	-11.0397
발표한성명에서	-11.0398
결정을내리	-11.0398
전염병	-11.0398
미망인	-11.0398
됐을때	-11.04
어려워	-11.0401
냉동	-11.0401
마이클잭슨	-11.0401
상임	-11.0402
삼림	-11.0403
전반적으로	-11.0404
가이드	-11.0404
밀림	-11.0405
주치의	-11.0406
유대	-11.0408
고위관계자는	-11.0408
남북정상회담	-11.0409
제라드	-11.0409
양육권	-11.0409
차례나	-11.0411
건립	-11.0412
제조사	-11.0412
러셀	-11.0412
상원의원직	-11.0416
릭스	-11.0416
지구의	-11.0417
▁워싱턴에서	-11.0418
최대한	-11.0419
고립된	-11.0419
▁이로인해	-11.042
공작	-11.0421
의료보험	-11.0422
피플	-11.0422
▁가장	-11.0423
gu	-11.0424
의수가	-11.0424
기에는	-11.0424
Un	-11.0426
의대상이	-11.0427
완공	-11.0427
클린	-11.0428
내장	-11.0431
소령	-11.0432
나쁘	-11.0432
비율이	-11.0432
plansto	-11.0434
전경	-11.0436
년째	-11.0437
량은	-11.0438
뉴저지주	-11.0439
걸프	-11.044
My	-11.0442
악재	-11.0442
수만명	-11.0442
오락	-11.0446
남한의	-11.0446
도메인	-11.0448
사건이발생한	-11.0448
방북	-11.0449
수있다고경고했다	-11.0449
차량은	-11.0451
신행정수도	-11.0451
관행	-11.0451
황교수	-11.0454
선데이	-11.0455
된것으로	-11.0455
사항은	-11.0455
방문한	-11.0456
오직	-11.0456
보니	-11.0456
유독	-11.0457
아바스	-11.0458
으려고	-11.0458
유세에서	-11.0459
▁스위스	-11.0461
숨기	-11.0461
소요사태	-11.0462
BC	-11.0463
부사장은	-11.0464
해달라는	-11.0466
채워	-11.0467
을보호하기위해	-11.0468
사건을조사	-11.0468
국정원	-11.0469
▁학교	-11.0471
기둥	-11.0472
test	-11.0475
언론인	-11.0477
반응을	-11.048
것으로보이는	-11.048
비상사태선포	-11.0483
주재미대사	-11.0484
영부인	-11.0484
야한다고주장	-11.0486
취소됐다	-11.0488
공식발표	-11.0488
노동력	-11.049
브라이트	-11.0491
내정자	-11.0492
에시달리고있	-11.0493
구상	-11.0493
있다고주장했다	-11.0498
동맹관계	-11.0501
는주장을	-11.0503
▁탈레반은	-11.0504
놨다	-11.0505
알고있었다	-11.0505
▁방글라데시	-11.0506
통로	-11.0506
의지를	-11.0509
발목	-11.0509
해줄것을요구	-11.0509
해서는안된다	-11.0511
미해병대	-11.0511
탄약	-11.0512
출구조사결과	-11.0513
현지언론	-11.0517
공산	-11.0518
의역사	-11.0518
발명	-11.052
조심	-11.0521
주장했지만	-11.0521
것이라고말	-11.0521
에넣	-11.0522
더이상의	-11.0524
을일으켰다	-11.0526
중한명은	-11.0529
맞았다	-11.0534
앤드	-11.0537
부상을입은	-11.0537
에있었다	-11.0537
고르	-11.0537
이라크와	-11.0539
선장	-11.054
부시행정부의	-11.054
할정도로	-11.0541
크고	-11.0542
야한다고주장했다	-11.0542
이있으며	-11.0543
가될것이라고	-11.0547
유혹	-11.0548
이날오전	-11.0549
대변인은일	-11.0553
지속된	-11.0554
유포	-11.0557
일환	-11.0557
책임이있다	-11.0557
참석했다	-11.0558
펠로	-11.0559
알자	-11.0561
되기도했다	-11.0561
반대시위	-11.0562
Pr	-11.0563
를살해한	-11.0563
일상	-11.0563
팔레스타인인	-11.0565
조달	-11.0566
call	-11.0567
불교	-11.0567
한데대해	-11.0568
중하나로	-11.057
매사추세츠주	-11.0573
악성	-11.0575
use	-11.0576
과도한	-11.0577
기온이	-11.0578
하기로한	-11.0581
알카에다와	-11.0582
들로구성된	-11.0583
Ca	-11.0584
내무장관은	-11.0585
▁나이지리아	-11.0587
유리한	-11.0587
이번사고	-11.0592
하는경우	-11.0594
승무원들	-11.0594
를두고	-11.0595
일이라고	-11.0596
법으로	-11.0597
어머니가	-11.06
밝히고있다	-11.0602
요원들이	-11.0602
니야	-11.0603
하는방안을	-11.0607
컴퓨터가	-11.0607
여개의	-11.0612
살해됐다	-11.0612
해진다	-11.0614
경위	-11.0614
에서가진기자회견에서	-11.0615
증가하는	-11.0617
고자하는	-11.0617
혐의로체포됐다	-11.0618
▁코리아헤럴드는	-11.0618
이라크군이	-11.0619
기능을	-11.062
불안한	-11.062
커트	-11.0621
무대에서	-11.0621
맞은	-11.0623
홈페이지에	-11.0624
선수들의	-11.0626
런던의	-11.0627
소송을제기	-11.0628
이번사고로	-11.0629
딸의	-11.0633
장소로	-11.0636
용의자들을	-11.0643
끌고	-11.0645
만명이상이	-11.0649
손해	-11.065
는뜻을	-11.0651
국민에게	-11.0652
하고나섰	-11.0656
제작사	-11.0658
관리가밝혔	-11.0659
하길바란다	-11.0661
고속	-11.0663
를받고있다	-11.0663
고있는데	-11.0663
년안에	-11.0667
ina	-11.0667
전세계의	-11.0671
를벌였	-11.0673
의주인공	-11.0674
하게되는	-11.0676
지표	-11.0677
▁한편이번	-11.068
시위대를	-11.0683
주변에서	-11.0685
것으로예상했다	-11.0686
지난년부터	-11.0686
모습으로	-11.0688
거주자	-11.0689
를사용해	-11.0691
약속한	-11.0694
올여름	-11.0694
사건이발생했다	-11.0695
만여명의	-11.0696
메사추세츠	-11.0696
보호단체	-11.0698
루트	-11.0699
예금	-11.07
독재	-11.07
에매우	-11.0705
군부가	-11.0706
메모	-11.0706
국세청	-11.0707
목소리로	-11.0708
누리알말리키이라크총리	-11.0715
를석방	-11.0719
바오	-11.0721
을앓	-11.0722
나온것이	-11.0722
코드	-11.0724
들어보	-11.0725
평등	-11.0725
복사	-11.0728
을확대	-11.0728
워싱턴의	-11.0729
아프리카연합	-11.073
크루	-11.0732
지방선거	-11.0737
재발	-11.0738
form	-11.0738
가능하게	-11.0743
위원장이	-11.0743
방문중	-11.0745
상태였다	-11.0745
을끊	-11.0746
식물	-11.0746
을피해	-11.0747
수잔	-11.0749
하고있기때문에	-11.0749
관료	-11.075
좋지않	-11.0751
셉	-11.0751
보리	-11.0753
맨해튼	-11.0753
동계올림픽	-11.0756
몇년동안	-11.0757
하겠다고말했다	-11.0758
조카	-11.0758
납치됐다	-11.0759
뒷받침	-11.0759
하겠지만	-11.076
엘리베이터	-11.0761
증권거래소	-11.0762
관타나모	-11.0763
나눠	-11.0763
그렇다	-11.0763
서브프라임모기지	-11.0763
자회담에복귀	-11.0763
Chinese	-11.0763
오케스트라	-11.0763
띠	-11.0763
보건복지부	-11.0763
인신매매	-11.0763
올바른	-11.0763
케르비엘	-11.0763
빠르면	-11.0763
인디아나존스	-11.0763
저렴한	-11.0763
▁EnglandCNN	-11.0763
놔	-11.0763
급속히	-11.0763
본격적인	-11.0763
승리를거뒀다	-11.0763
듬	-11.0763
무하메드	-11.0763
파키스탄인민당	-11.0763
넥	-11.0763
수족관	-11.0763
댈러스	-11.0763
ject	-11.0763
작곡가	-11.0763
전형적인	-11.0763
브리트니스피어스	-11.0763
제네바	-11.0763
에탄올	-11.0763
최우수	-11.0763
저작권	-11.0764
코소보의독립	-11.0764
낙찰	-11.0764
을앞둔	-11.0764
겁니다	-11.0764
하반기	-11.0764
▁올해세인	-11.0764
이벤트	-11.0765
색깔	-11.0765
혈압	-11.0766
열렸던	-11.0767
브루스	-11.0767
강전	-11.0768
▁버락오바마대통령은	-11.0768
하르	-11.0768
올랐으며	-11.0769
넘어섰다	-11.0769
영향력있는	-11.077
그냥	-11.077
신념	-11.0772
트로터	-11.0773
구소련	-11.0774
뛰어난	-11.0775
▁라이스국무장관은	-11.0775
모르지만	-11.0776
날씨가	-11.0776
납치범들	-11.0776
글렌	-11.0776
위협이되	-11.0776
때로는	-11.0776
여동생	-11.0777
연습	-11.0777
대주교	-11.0777
스프레이	-11.0778
곧바로	-11.0778
후계자	-11.0779
공격을감행	-11.078
효력	-11.078
지않았고	-11.0781
흡수	-11.0783
민주주의를	-11.0784
전문의	-11.0785
로만든	-11.0786
할만큼	-11.0787
이라크와아프가니스탄	-11.0788
를넘	-11.0788
큰폭으로	-11.0788
의영향	-11.079
조기총선	-11.079
소아과	-11.0792
생방송으로	-11.0793
조지부시미국대통령	-11.0793
에맞아	-11.0793
극히	-11.0793
대표인	-11.0794
발견되었다	-11.0795
문제와	-11.0795
을느낀다	-11.0796
될수없다	-11.0799
경쟁을	-11.0799
을보낸	-11.0799
이문제를	-11.08
▁러시아는	-11.08
선제공격	-11.0803
혼합	-11.0805
이영화는	-11.0805
수십년간	-11.0806
몰랐	-11.0808
넬슨	-11.0808
분출	-11.0808
이번지진으로	-11.0808
영입	-11.081
스쿨	-11.0812
▁아베총리는	-11.0812
창고	-11.0813
나섰다	-11.0813
회사에	-11.0813
우편	-11.0815
경찰서에	-11.0816
이슬람반군	-11.0816
개혁안	-11.0816
승려들이	-11.0818
시기를	-11.0819
초대형	-11.082
사망원인	-11.082
당장	-11.082
정유	-11.0822
밑으로	-11.0825
해줬다	-11.0827
공통	-11.0828
장착된	-11.083
반지	-11.083
최우선	-11.0831
경찰관은	-11.0833
대사가	-11.0834
찬성표	-11.0836
기대하고있다	-11.0837
중국공산당	-11.0839
수퍼	-11.0839
을거절	-11.084
수있을것이라고	-11.084
계단	-11.0842
was	-11.0842
버거	-11.0843
줄일	-11.0843
야당지도자인	-11.0844
troops	-11.0844
놀랐다	-11.0847
북한측	-11.0847
했는지여부	-11.0849
issue	-11.085
할전망이	-11.0855
감정을	-11.0857
부정행위	-11.0857
의사당	-11.0857
반란	-11.086
날짜를	-11.0861
감자	-11.0863
규모는	-11.0864
노프	-11.0867
해킹	-11.0872
시사회	-11.0874
cl	-11.0876
분배	-11.0877
투자자들은	-11.0877
학생들의	-11.0879
후보작	-11.0881
출혈	-11.0881
자치구	-11.0882
해왔으며	-11.0883
건물에서	-11.0883
확산되고있다	-11.0883
설교	-11.0884
에서나온	-11.0887
기위해서	-11.0889
붙이	-11.0889
이슬람국가	-11.0892
한것으로보인다	-11.0892
제재조치를	-11.0894
문제들을	-11.0895
고경찰이밝혔	-11.0896
강타	-11.0896
을자제	-11.0897
돌보	-11.0897
후임자	-11.0899
얼마나많은	-11.09
회담을갖	-11.0901
변동	-11.0903
후퇴	-11.0903
을차지했다	-11.0904
과비교	-11.0909
은아니라고	-11.0909
지못하고	-11.0913
규명	-11.0915
을넘어	-11.0916
분위기를	-11.0918
타지	-11.092
파괴됐다	-11.092
가진기자회견에서	-11.0921
테이프를	-11.0922
성범죄자	-11.0923
장비를	-11.0924
대담	-11.0924
방으로	-11.0925
관세	-11.0926
검찰의	-11.0928
골을기록	-11.093
바그다드북부	-11.0933
수상한	-11.0933
지는않았지만	-11.0934
가장유명한	-11.0938
역사가	-11.0939
▁km	-11.094
명이숨진	-11.0947
아시아에서	-11.0948
Cu	-11.0951
문제가발생	-11.0951
부시행정부가	-11.0952
학교수는	-11.0955
이책	-11.0958
발작	-11.0959
분양	-11.0959
대학살	-11.0961
▁달러로	-11.0961
마쳤다	-11.0962
시리아와	-11.0964
부총리는	-11.0966
의아버지는	-11.0968
위법	-11.0968
이라크민간인	-11.0969
연정	-11.0971
지않은채	-11.0972
어려움을겪고있	-11.0972
일본군	-11.0974
마사	-11.0978
거절했다	-11.0979
리히	-11.0979
놀이	-11.098
것이라고생각	-11.098
성적인	-11.0981
도움을주	-11.0982
에서출발	-11.0983
사람과	-11.0985
몇년	-11.0985
제재를가	-11.0989
▁Bush	-11.099
자연적	-11.0991
을것으로보인다	-11.0992
개체수	-11.0995
네트	-11.0995
유세를	-11.0996
을촉진	-11.0996
지었다	-11.0997
우승을차지했	-11.1
땅을	-11.1003
고위인사	-11.1004
받을수있다	-11.1004
노무현대통령은	-11.1006
로생각	-11.1008
상정	-11.1009
스틴	-11.101
자유당	-11.101
을보여줬다	-11.1011
이민자들	-11.1012
녹아	-11.1015
행위로	-11.1016
기지를	-11.1016
신비	-11.1016
치타	-11.1017
자살한	-11.1017
을맺	-11.1019
다른국가들	-11.102
무릎부상	-11.1021
번째로큰	-11.103
승무원명	-11.103
길원한다	-11.1031
토네이도가	-11.1032
당일	-11.1034
전화를	-11.1035
는것이중요하다	-11.1042
을정도로	-11.1044
였으나	-11.1046
콜롬비아정부	-11.1049
랐	-11.105
의시신은	-11.105
사망했다고밝혔다	-11.1058
효	-11.1061
부족으로	-11.1062
을확보하	-11.1063
은지난월일	-11.1069
이같은조치	-11.1069
클린턴의원	-11.107
경제적인	-11.107
년전부터	-11.1075
▁윌리엄스는	-11.1075
급히	-11.1075
오프라	-11.1077
영향을줄	-11.1078
이라고주장	-11.1079
에참여했다	-11.1079
▁그는현재	-11.1079
학원	-11.1079
ner	-11.108
과거에	-11.1082
기를원한다	-11.1083
빛을	-11.1084
상업적	-11.1084
이번이처음이다	-11.1087
내년월일	-11.1089
전화로	-11.1089
ves	-11.1091
의아버지인	-11.1092
신화통신이	-11.1093
예정이라고밝혔다	-11.1093
약만원	-11.1093
역임	-11.1094
내려가	-11.1095
블라디미르푸틴러시아대통령	-11.1095
쁜	-11.1096
놓았다	-11.1098
호위	-11.1104
치명적	-11.1104
서기	-11.1105
지지율이	-11.1107
동해	-11.1107
비티	-11.111
퇴진	-11.1112
보안요원	-11.1113
웰스	-11.1113
바드	-11.1117
연관된	-11.1119
하스	-11.1119
주관	-11.1119
내기위해	-11.1121
앉아있	-11.1121
호우	-11.1123
계획에대해	-11.1123
운용	-11.1125
선정됐다	-11.1127
시스템은	-11.1128
관심사	-11.1128
아니라고말했다	-11.1129
논의가	-11.113
수있으며	-11.113
메릴랜드	-11.1131
경찰에의해	-11.1131
을준수	-11.1133
를사용하	-11.1134
야간	-11.1135
재판관은	-11.1137
거스	-11.1137
거물	-11.114
놈	-11.1141
군복무	-11.1141
명이부상을입었다	-11.1142
탔	-11.1145
수직	-11.1145
저지르	-11.1145
딴	-11.1145
팽	-11.1146
보여준	-11.1147
골든글로브	-11.1147
위험에처	-11.1147
유나이티드	-11.1147
낫	-11.1147
퍼레이드	-11.1148
닌텐도	-11.1148
Pakistan	-11.1148
병원으로후송	-11.1148
열렬한	-11.1148
텔레콤	-11.1148
라왈핀디	-11.1148
엔데버호	-11.1148
FTSE	-11.1148
베테랑	-11.1148
젖	-11.1148
BBK	-11.1148
과테말라	-11.1148
브로드웨이	-11.1148
팰	-11.1148
노리에가	-11.1148
세금감면	-11.1148
SUV	-11.1148
UFO	-11.1148
스티브잡스	-11.1148
퓨	-11.1148
이의를제기	-11.1148
싱가폴	-11.1148
추수감사절	-11.1148
콜레라	-11.1148
마누엘	-11.1148
두개골	-11.1148
내비쳤다	-11.1148
낼것이라	-11.1148
work	-11.1148
예언자	-11.1148
평범한	-11.1148
기쁨	-11.1148
손해배상	-11.1148
이루어질	-11.1148
주의를기울	-11.1148
토마토	-11.1148
유태인	-11.1148
리우	-11.1148
태어나	-11.1148
재정경제부	-11.1149
랭킹	-11.1149
코미디언	-11.1149
횡단	-11.1149
기번스	-11.1149
그만두	-11.1149
아카데미시상식	-11.1149
사형선고	-11.115
의구심	-11.115
좌익	-11.115
이일어날	-11.1151
대통령에당선	-11.1152
과정에	-11.1152
NorthKorean	-11.1152
크로커	-11.1152
범람	-11.1153
지뢰	-11.1153
침범	-11.1153
봉송	-11.1153
문자메시지	-11.1153
검출	-11.1154
왕궁	-11.1154
그린존	-11.1155
바람직	-11.1155
아시아태평양	-11.1156
대북제재	-11.1156
멕시코시티	-11.1156
빨간	-11.1156
air	-11.1157
태양계	-11.1157
지않을것이다	-11.1158
비싼	-11.116
성매매	-11.116
도르	-11.1161
▁현지경찰은	-11.1162
최근몇년간	-11.1162
참패	-11.1162
said	-11.1163
를근거로	-11.1164
News	-11.1164
Kim	-11.1164
당분간	-11.1165
예정대로	-11.1165
화학물질	-11.1165
펼쳤	-11.1166
헌법개정	-11.1167
되어있던	-11.1167
사절단	-11.1168
라고주장	-11.1171
포스터	-11.1174
얼음이	-11.1174
under	-11.1176
미주리주	-11.1176
바스크	-11.1177
보수파	-11.1178
친절	-11.118
이정인	-11.118
쟁점	-11.118
홍보담당자	-11.118
미대사관	-11.1181
종교단체	-11.1181
잔디	-11.1183
등개	-11.1184
광경	-11.1185
유권자들에게	-11.1187
law	-11.1187
암살된	-11.1188
김전대통령	-11.1189
구체적으로	-11.119
car	-11.1191
경제협력	-11.1191
저격	-11.1191
쿠르	-11.1192
콜로라도주	-11.1194
연이어	-11.1195
항구도시	-11.1195
명확하	-11.1195
요트	-11.1195
것을요구했다	-11.1196
Lee	-11.1196
주어진	-11.1197
oll	-11.12
펠리	-11.1201
가져올	-11.1202
회사에서	-11.1203
학계	-11.1206
인쇄	-11.1207
마찬가지	-11.1211
EC	-11.1213
장기적인	-11.1214
고대답했다	-11.1216
스타디움에서	-11.1216
분후	-11.1218
박사가	-11.1218
완수	-11.1218
울프	-11.1224
전차	-11.1226
사육사	-11.1227
것을우려	-11.1233
부상자가	-11.1234
OR	-11.1234
기업들이	-11.1239
어떤것	-11.1241
의뢰인	-11.1244
두배	-11.1244
흔들리	-11.1244
백악관대변인	-11.1245
프트	-11.1245
대중의	-11.1248
해줄것을요청	-11.1249
에실려	-11.1254
분쟁을	-11.1258
을파괴	-11.1258
에서일하는	-11.1258
관계당국이	-11.126
공화당의원들	-11.126
이스라엘군이	-11.126
시간분	-11.1261
배나	-11.1263
매춘부	-11.1265
대표들은	-11.1266
아카데미상	-11.1266
을추구하	-11.1267
훈련을받	-11.1269
이들어있	-11.1273
쿠데타로	-11.1273
구분	-11.1273
바스	-11.1276
▁미국무부는	-11.128
에불참	-11.128
지역에있는	-11.128
켰	-11.1282
도같은	-11.1282
남편과	-11.1284
보아	-11.1285
HD	-11.1285
군사행동	-11.1286
내년에	-11.1287
결승에서	-11.1288
예상했다	-11.1292
강경한	-11.1292
당국자는	-11.1299
조업	-11.13
정직	-11.13
민주당소속	-11.1304
라고발표했다	-11.1304
할계획이라고	-11.1305
지명자	-11.1307
하면서도	-11.131
등다른	-11.131
지원하는	-11.1315
을노리	-11.1315
카운티관할	-11.1316
▁이라크의	-11.132
시위자들이	-11.1323
지않으며	-11.1324
발생했다고전했다	-11.1325
을얻어	-11.1325
동물을	-11.1326
중서부	-11.1331
비공개	-11.1332
문신	-11.1334
내역	-11.1338
아시아증시	-11.1341
코르	-11.1351
연구센터	-11.1351
죽음을	-11.1351
재미	-11.1351
권유	-11.1353
차량대	-11.1353
브랜	-11.1354
이자율	-11.1354
달렸다	-11.1355
사람은없	-11.1357
가없었다	-11.1359
당국이일현지시간	-11.1363
하려면	-11.1363
었을때	-11.1364
재생	-11.1364
되지만	-11.1369
경관은	-11.1371
▁그중	-11.1371
정권을	-11.1372
▁무샤라프는	-11.1373
할것이라고경고했다	-11.1376
과관련한	-11.1385
치아	-11.1386
신원을확인	-11.1388
을떠났다	-11.1389
재판은	-11.139
비상사태를선포했다	-11.1392
탈당	-11.1392
대학원	-11.1393
Sun	-11.1397
의보도에따르면	-11.1398
교역	-11.14
이번사건에대해	-11.14
담배를	-11.1403
이틀간의	-11.1407
아민	-11.1409
한미양국	-11.141
열릴예정이	-11.1411
눈물	-11.1412
키드	-11.1415
get	-11.1415
미상	-11.1416
확실하다	-11.1419
▁Seoul	-11.1419
유권자들의	-11.142
회생	-11.1421
배후	-11.1421
스텐	-11.1424
증산	-11.1424
카르자이	-11.1426
웹사이트를	-11.1433
질것이다	-11.1433
특사는	-11.1435
명을살해한	-11.1436
용의자를	-11.1437
보류	-11.1445
알렉	-11.1445
사르코지는	-11.1446
떠난	-11.1452
OS	-11.1453
의료진이	-11.1454
교신	-11.1456
교통부	-11.1458
ism	-11.1458
베일	-11.1459
을반대하는	-11.146
방사	-11.1462
로불리는	-11.1466
루이지애나주	-11.1467
분리주의자	-11.1469
더나은	-11.1472
전원이	-11.1473
면제	-11.1476
무고한	-11.1477
알았다	-11.1479
정오	-11.148
군대를	-11.148
에사용될	-11.1482
받게된다	-11.1482
사건당시	-11.1482
개이상의	-11.1483
에접속	-11.1484
국토	-11.1484
차관보는	-11.1486
미사일발사	-11.1491
CNNJOINS	-11.1491
해결을위해	-11.1494
할수는없다	-11.1496
가시작되	-11.1497
논문	-11.15
매트	-11.1501
를가지고	-11.1501
업계의	-11.1504
인데이비드	-11.1504
환경단체	-11.1509
을앓고있	-11.1511
교회에서	-11.1511
려한다	-11.1517
에나서	-11.1518
파리에서	-11.1519
하지못한다	-11.1519
체니부통령	-11.1521
이생기	-11.1524
취업	-11.1525
우주에서	-11.1526
밸	-11.1527
토프	-11.1541
부터시작	-11.1541
화염	-11.1542
하위	-11.1543
Car	-11.1545
리치는	-11.1545
아이디어를	-11.1545
엔터테인먼트	-11.1547
온실가스	-11.1547
끌어들이	-11.1547
애틀랜타	-11.1547
헤럴드	-11.1548
곤돌라	-11.1548
터무니없	-11.1548
루마니아	-11.1548
얼리쇼	-11.1548
예방접종	-11.1548
와지리스탄	-11.1548
이데올로기	-11.1548
딱	-11.1548
무너졌다	-11.1548
짝짓기	-11.1548
찔	-11.1548
농작물	-11.1548
실업수당	-11.1548
콜롬비아무장혁명군	-11.1548
로버트게이츠미국방장관	-11.1548
벤자민	-11.1548
폴라로이드	-11.1548
휴양지	-11.1548
마닐라	-11.1548
스러웠	-11.1548
콜레스테롤	-11.1548
조류인플루엔자	-11.1548
평론가들	-11.1548
로맨틱	-11.1548
카리스마	-11.1548
카라카스	-11.1548
갤럭시	-11.1548
모가디슈	-11.1548
뻔	-11.1548
알자지라	-11.1548
유망주	-11.1548
전설적인	-11.1548
눈에띄	-11.1548
사냥꾼	-11.1548
보스니아	-11.1548
선두주자	-11.1548
샤리프전총리	-11.1549
속옷	-11.1549
가자시티	-11.1549
돈을벌	-11.1549
▁어휘	-11.155
영사관	-11.155
ny	-11.155
부인과	-11.1551
번호판	-11.1552
에불과했다	-11.1552
ATT	-11.1552
냉각	-11.1553
필름	-11.1554
장을마감했다	-11.1554
억압	-11.1555
통계청	-11.1556
전력공급	-11.1556
보기배	-11.1557
올해말까지	-11.1558
국제올림픽위원회	-11.1558
마카오은행	-11.1559
창립	-11.1559
ah	-11.1559
간첩	-11.156
의도움으로	-11.1562
대상자	-11.1562
고밝히며	-11.1562
고위관리가	-11.1563
세부사항	-11.1563
퇴원	-11.1564
표범	-11.1565
하자마자	-11.1565
may	-11.1566
폭력사태를	-11.1566
금융기관	-11.1567
퍼져	-11.1567
관계자들과	-11.1568
평생	-11.1568
항해	-11.1568
당원들	-11.1568
할지도모른다	-11.1569
발언에대해	-11.157
경제정책	-11.1571
사격	-11.1571
입찰	-11.1571
폭풍우	-11.1571
부속	-11.1571
마감시한	-11.1572
될수있다고	-11.1572
없었던	-11.1573
책임감	-11.1574
오바마당선인이	-11.1575
어렵게	-11.1575
이없어	-11.1577
마약거래	-11.1577
문화적	-11.1578
오스틴	-11.1578
미연방수사국	-11.158
이끌었던	-11.158
살인사건	-11.1582
고분석했다	-11.1583
김정일위원장	-11.1583
gain	-11.1583
케이스	-11.1588
의료진은	-11.159
기는하지만	-11.1591
것이라고발표했다	-11.1592
수습	-11.1592
발견되지않았다	-11.1592
앤디	-11.1593
북한의핵실험	-11.1593
ami	-11.1594
잠정	-11.1594
받지못했다	-11.1595
을낳	-11.1595
치매	-11.1597
비싸	-11.1598
차투표에서	-11.1598
중대	-11.1598
의원들에게	-11.1599
단절	-11.16
자선	-11.1601
▁이회사는	-11.1603
마른	-11.1603
바그다드남부	-11.1607
되지않았	-11.1608
반격	-11.161
분명한	-11.1611
배달	-11.1614
에대해이야기	-11.1616
두목	-11.1616
구조대원들이	-11.1618
고생각했다	-11.1622
번식	-11.1622
무샤라프가	-11.1623
을받아왔다	-11.1624
지모른다	-11.1624
고일현지시간현지경찰이	-11.1628
루이지애나	-11.1629
길원	-11.1631
중하나는	-11.1634
본적이없	-11.1634
를요구했다	-11.164
이끌었다	-11.1641
게되고	-11.1642
북한자금	-11.1646
브리지	-11.1648
수업을	-11.1652
일이라며	-11.1654
에관해서	-11.1656
기록적인	-11.1659
를불러	-11.166
사고가발생했다	-11.166
관계개선	-11.1666
명이숨졌으며	-11.1667
을일으킬	-11.1668
데대한	-11.1672
포크	-11.1673
▁그는지난년	-11.1675
의분의	-11.1675
과잉	-11.1677
ali	-11.1677
미행정부	-11.1677
테마	-11.1679
파업이	-11.1681
have	-11.1681
행운	-11.1682
조사중이라	-11.1682
표정	-11.1683
에참석해	-11.1684
동행	-11.1685
를얻기위해	-11.169
만평	-11.169
격차로	-11.169
진술을	-11.1691
로유명한	-11.1692
밝은	-11.1693
잡힌	-11.1694
사실을확인했다	-11.1694
로들어가	-11.1695
호주에서	-11.1697
납치한	-11.1699
보험사	-11.1699
터진	-11.17
대표단이	-11.1703
되었으나	-11.1703
학자들은	-11.1708
영상을	-11.171
전쟁으로	-11.171
기업들은	-11.1712
중이라고말했다	-11.1713
낙관적	-11.1714
어리	-11.1717
국방부가	-11.1718
프랑	-11.1718
패배를	-11.1718
아이들과	-11.172
테네시주	-11.1721
게이트	-11.1723
역사를	-11.1725
노동자들이	-11.1725
에대한보복	-11.1727
만행	-11.1728
담당자	-11.1729
버크	-11.1731
임기를	-11.1733
합류	-11.1737
무가베대통령	-11.1737
를마시	-11.174
부족장	-11.1744
과정이	-11.1745
촉구하는	-11.1747
정부로부터	-11.1748
하루전	-11.1748
이포함된	-11.175
ign	-11.1751
공공장소에서	-11.1753
다음으로	-11.1753
의운명	-11.1754
할계획이라	-11.1755
이끈	-11.1758
매치	-11.1761
분야에	-11.1761
얘기를	-11.1762
그루	-11.1764
을거듭	-11.1765
지폐	-11.1767
부당	-11.1769
들어오는	-11.1769
이번사건으로	-11.1769
이유가	-11.1769
차지하는	-11.177
own	-11.1771
왕국	-11.1771
을조사하고있다	-11.1771
부수	-11.1775
을지도모른다	-11.1775
기로약속	-11.1776
후보에올랐	-11.1776
영향력을	-11.1778
해야만한다	-11.1778
으로향하	-11.1778
몰리	-11.1779
미얀마정부가	-11.1782
아트	-11.1785
게되어	-11.1791
것이라고경고했다	-11.1793
할수없었다	-11.1793
타고있던	-11.1795
를찾고있다	-11.1796
이번에는	-11.1796
나아가	-11.1797
지않을것이라고말했다	-11.1798
비난을받았	-11.18
의주가는	-11.1801
ator	-11.1802
다르게	-11.1804
이룬	-11.1809
수십억달러	-11.181
일반인들	-11.1818
공안	-11.1819
미시간주	-11.1824
효율	-11.1825
렸지만	-11.1827
억명	-11.1828
아버지와	-11.183
최소명이	-11.1831
호주군	-11.1834
상품을	-11.1834
도박	-11.1836
운하	-11.1837
한나라당이	-11.1837
들을보호	-11.184
봉인	-11.1841
심장병	-11.1843
를운영하고있	-11.1844
작품상	-11.1846
할예정이었다	-11.1848
Sh	-11.1848
박스	-11.185
We	-11.1854
ones	-11.1857
풍자	-11.1863
에출연했다	-11.1863
분야의	-11.1867
명의미군	-11.1868
오르며	-11.1869
퍼지	-11.1869
급상승	-11.1874
알수없	-11.1875
명의여성	-11.1879
숨졌다고	-11.188
의뢰	-11.1884
훔	-11.1885
밝힐	-11.1886
부분에	-11.1887
를인수	-11.1888
물질을	-11.189
소유의	-11.1891
내무부대변인은	-11.1894
애리조나주	-11.1896
포격	-11.1897
체제를	-11.1903
결성	-11.1903
수단정부	-11.1904
트너	-11.1905
손으로	-11.1909
조짐	-11.191
얄	-11.1912
공업	-11.1914
유아	-11.1918
남북관계	-11.192
존케리	-11.192
담겨있다	-11.1923
환영한다	-11.1924
돌파	-11.1926
축구스타	-11.1926
연방수사국	-11.1931
를공급하	-11.1933
발사된	-11.1936
수도있	-11.1938
결별	-11.1939
을대상으로한	-11.194
치료제	-11.1941
▁한나라당은	-11.1941
황제	-11.1941
프리메라리가	-11.1944
할수밖에없다	-11.1949
부당한	-11.195
으로향하는	-11.195
싫	-11.1951
페어	-11.1951
나노	-11.1952
멋	-11.1958
병원으로	-11.1959
돼있는	-11.196
여정	-11.1961
뚫	-11.1962
는년에	-11.1963
퍼거슨	-11.1963
동북아	-11.1963
벡	-11.1964
잃어버린	-11.1964
국제사면위원회	-11.1964
김정일국방위원장	-11.1964
반기문외교통상부장관	-11.1964
억달러약조억원	-11.1964
가졌던	-11.1964
가볍게	-11.1964
뚜	-11.1964
브뤼셀	-11.1964
신속하게	-11.1964
조천억원	-11.1964
켐	-11.1964
Bank	-11.1964
OECD	-11.1964
WWF	-11.1964
사카쉬빌리	-11.1964
툰	-11.1964
president	-11.1964
하게되었다	-11.1964
불매운동	-11.1964
푼	-11.1964
줄어든	-11.1964
캣	-11.1964
쿤	-11.1964
콘크리트	-11.1964
뜨거운	-11.1964
미트롬니	-11.1964
뭉	-11.1964
임산부	-11.1964
몬타나	-11.1964
팔루자	-11.1964
쿠퍼할머니	-11.1965
낙하산	-11.1965
배럭오바마	-11.1965
를제치고	-11.1965
크리켓	-11.1965
페인트	-11.1965
국가정보원	-11.1965
명령을내렸다	-11.1965
유수프	-11.1966
미정부	-11.1966
그래픽	-11.1966
State	-11.1966
이틀째	-11.1966
벌어지는	-11.1966
소비자물가	-11.1966
용의자로지목	-11.1966
믿을수없	-11.1967
그의아들	-11.1967
경기후퇴	-11.1967
계속됐다	-11.1968
할준비가되어있	-11.1968
되고있다며	-11.1968
서비스게임을	-11.1968
그린랜드	-11.1968
이소연	-11.1969
앞둔	-11.1969
빌클린턴전대통령	-11.1969
누구든	-11.1969
불쾌감	-11.197
대선레이스	-11.197
힉스	-11.197
베네수엘라의	-11.197
감시카메라	-11.1971
천문학자들은	-11.1971
강력하게	-11.1971
근접	-11.1972
하이브리드차량	-11.1973
사상자가발생	-11.1974
철폐	-11.1975
을제외한	-11.1975
검열	-11.1975
할것인가	-11.1977
몇시간동안	-11.1977
살짜리	-11.1978
석유회사	-11.1979
that	-11.1979
평창	-11.1979
지나친	-11.1981
일곱	-11.1981
에걸렸	-11.1982
응답자중	-11.1982
미국과유럽연합	-11.1983
방안을모색	-11.1983
자란	-11.1983
될수있도록	-11.1984
마스크	-11.1984
새정부	-11.1984
을대표하는	-11.1985
이달말	-11.1985
생명을구	-11.1985
무차별	-11.1985
상징적인	-11.1985
누설	-11.1985
사전에	-11.1988
자회담은	-11.1988
와의경기에서	-11.1989
당국자들은	-11.199
중동지역	-11.199
철거	-11.199
억파운드	-11.1991
밀수	-11.1992
핵폐기	-11.1993
를마친	-11.1994
파키스탄북서부	-11.1994
경사는	-11.1995
로간주	-11.1995
본래	-11.1996
합법적으로	-11.1997
를몰고	-11.1997
의대결	-11.1999
돌아갔다	-11.2001
이포함돼있다	-11.2003
보수적인	-11.2003
콜린스	-11.2004
만해도	-11.2004
코넬	-11.2004
인준	-11.2004
▁에후드올메르트이스라엘총리는	-11.2005
액수	-11.2006
양국이	-11.2007
납부	-11.2007
외각	-11.2008
들이있다	-11.2009
떨어진곳에	-11.2011
부자	-11.2014
납치범	-11.2015
세워진	-11.2015
전통적으로	-11.2019
데이트	-11.2019
노벨상	-11.202
주가지수	-11.2022
언더	-11.2022
남았다	-11.2022
으로알려진	-11.2022
후임으로	-11.2022
케이시	-11.2025
부르크	-11.2027
가격에	-11.2028
말라위	-11.2029
고증언했다	-11.203
토끼	-11.2031
정글	-11.2032
척추	-11.2033
일어나지않	-11.2033
중한명인	-11.2036
높였다	-11.2038
영화제작사	-11.2039
핵개발계획	-11.2041
재산피해	-11.2041
입장이다	-11.2041
미래를	-11.2041
산불로	-11.2043
파워	-11.2046
라이프	-11.2046
모든것	-11.2046
체포영장	-11.2049
총격을가했다	-11.2056
외모	-11.206
이과정에서	-11.2064
급파	-11.2064
미국캘리포니아	-11.2065
라고말한다	-11.2065
시간후	-11.2066
지하드	-11.2067
좁은	-11.2068
미칠	-11.2069
지못하다	-11.2069
구조됐다	-11.207
SouthKorean	-11.2072
외신	-11.2073
할가능성이있	-11.2073
로켓포	-11.2074
러브	-11.2076
앤더슨은	-11.2079
게될것입니다	-11.2079
의논	-11.208
을받게된다	-11.208
병역	-11.2081
SI	-11.2082
미육군	-11.2083
투기	-11.2083
연기됐다	-11.2083
명모두	-11.2084
과연관	-11.2086
비공식	-11.2086
되다	-11.2088
중요한것은	-11.209
법규	-11.2091
하고있지않다	-11.2096
것이아니	-11.2096
king	-11.2096
인도네시아에서	-11.2099
본부장	-11.2103
입학	-11.2104
도착했을때	-11.2106
개월된	-11.211
의주장을	-11.2113
하겠다고약속했	-11.2113
석방을위해	-11.2114
대의차량	-11.2114
해변에서	-11.2115
며칠전	-11.2116
상황에대해	-11.2121
를받았	-11.2122
에서명했다	-11.2125
몬트	-11.2125
무려	-11.2126
수있다고밝혔다	-11.2127
수장	-11.2128
선거를앞두고	-11.213
카톨릭	-11.2131
았었다	-11.2135
여름에	-11.2135
양상	-11.2136
태아	-11.2138
한반도에서	-11.2138
트릭	-11.2139
반감	-11.2139
지도력	-11.214
스피어스가	-11.2142
폭발물을	-11.2143
이래로	-11.2144
이있다면	-11.2146
점유	-11.2149
지위	-11.215
을전망이	-11.2152
연예인	-11.2153
무력충돌	-11.2154
의시신을	-11.2155
탈세	-11.2156
양측은	-11.2158
넓은	-11.2158
그라운드	-11.216
부토가	-11.2167
요인이	-11.2168
췄	-11.2174
설립된	-11.2175
월부터	-11.2175
군용	-11.2176
당수는	-11.2176
아랍어	-11.2176
하원에서	-11.2178
결의안은	-11.2178
이라크국민	-11.2179
약천	-11.2185
생방송	-11.2185
마샤	-11.2185
파괴된	-11.2187
영국정부는	-11.2187
그렇지않	-11.219
열려	-11.2192
이시작되	-11.2193
파울	-11.2194
산사태로	-11.2197
수학	-11.2197
하게될것이라	-11.2197
느꼈	-11.2199
채무	-11.2207
이민법	-11.2207
기업들의	-11.2208
를보호하	-11.2209
year	-11.2209
금지령	-11.2209
충고	-11.2211
하지못하고있다	-11.2212
심각하다	-11.2213
줄기세포연구	-11.2216
도없었다	-11.2216
부분에서	-11.2217
Man	-11.2221
구형	-11.2223
할수있을것으로	-11.2225
나중에	-11.2228
지향	-11.2229
입장을밝혔다	-11.2229
훌륭	-11.223
신설	-11.2231
PD	-11.2233
지않을것이라며	-11.2236
언론과	-11.2238
층에서	-11.2238
지않을것이라고	-11.2239
중국정부는	-11.224
해야했다	-11.224
수단으로	-11.224
상을받았다	-11.2241
회담을가질예정이	-11.2243
항공기가	-11.2245
피크	-11.2246
두차례	-11.2247
연합군이	-11.2249
가없어	-11.225
수없었다	-11.2251
주가는	-11.2255
재미있	-11.226
것으로나타났	-11.2263
정국	-11.2263
정서	-11.2268
어부	-11.2272
재차	-11.2274
골을성공시	-11.2274
가될것이다	-11.2275
하산	-11.2277
불길이	-11.2278
전역의	-11.2278
앤더슨	-11.2281
리틀	-11.2282
문을열	-11.2283
식당에서	-11.2284
정말로	-11.2284
을만드는	-11.2285
의회의원	-11.2287
고말했지만	-11.2288
가정에	-11.2289
억류된	-11.229
증거로	-11.2291
받았지만	-11.2291
SC	-11.2291
폭발해	-11.2292
양호	-11.2292
표기	-11.2293
피난민	-11.2294
상실	-11.2295
에참석하기위해	-11.2297
받아들일수없	-11.2299
둑	-11.23
트리스	-11.2305
장소에	-11.2306
와중에	-11.2306
에대한비난	-11.2306
알아보	-11.2307
뜨린	-11.2308
실내	-11.2309
주행	-11.2314
ease	-11.2315
긍정적	-11.2319
과는달리	-11.2319
착수	-11.232
취임한	-11.2323
동물들이	-11.2325
평화회담	-11.2325
금지된	-11.2326
펜실베이니아주	-11.2328
발생했던	-11.2331
연합군은	-11.2338
을보유하고있	-11.2342
법위반	-11.2343
팬들의	-11.2343
ros	-11.2346
중재자	-11.2351
보다더많은	-11.2352
공해	-11.2356
위스콘신	-11.2359
방송을통해	-11.236
이라크인들	-11.236
끌어내	-11.2361
전통적	-11.2361
에가입	-11.2362
leg	-11.2363
인터폴	-11.2364
장관급회담	-11.2365
할것이고	-11.2367
바람이	-11.2369
순례	-11.237
되돌아	-11.237
총격으로	-11.2372
포인트상승했	-11.2372
버리고	-11.2375
거주하는	-11.2381
하는대신	-11.2382
열기	-11.2384
을근거로	-11.2386
한끝에	-11.2387
여행사	-11.2387
수천명	-11.2388
▁일본에서	-11.2388
도못	-11.2388
rap	-11.2389
경기부양	-11.2391
투표결과	-11.2393
깃	-11.2394
목사는	-11.2394
껏	-11.2397
크리스토퍼힐미국무부차관보	-11.2398
로추정되는	-11.2398
홉	-11.2399
로저페더러	-11.2399
린제이로한	-11.2399
Australia	-11.2399
고싶지않다	-11.2399
앰	-11.2399
클리블랜드	-11.2399
톡	-11.2399
HSBC	-11.2399
짙	-11.2399
official	-11.2399
윌리암	-11.2399
이라크전발발	-11.2399
개성공단	-11.2399
검시관	-11.2399
경의를표	-11.2399
블룸버그	-11.2399
박스오피스	-11.2399
승리를거두	-11.2399
옌	-11.2399
푸에르토리코	-11.2399
오프라윈프리	-11.2399
토니블레어영국총리	-11.2399
디얄라	-11.2399
세컨드라이프	-11.2399
올랜도	-11.2399
도로매설폭탄	-11.2399
꾸준히	-11.2399
앨라배마	-11.2399
테헤란	-11.2399
언색호	-11.2399
여객선	-11.2399
최루탄	-11.2399
뇌물수수	-11.2399
마스터스	-11.2399
물러난	-11.2399
ful	-11.2399
빠른속도로	-11.2399
따뜻한	-11.2399
농산물	-11.2399
아이오와코커스	-11.2399
유시프	-11.2399
을실시했다	-11.24
순례객	-11.24
관타나모수용소	-11.24
무엇인가	-11.24
파이프라인	-11.24
브래드피트	-11.24
원문기사원문기사보기	-11.24
구호품을	-11.24
손을흔들	-11.24
리더십	-11.24
물러났	-11.24
땅콩	-11.24
탁신전총리	-11.24
GNP	-11.24
앵커	-11.2401
가르시아	-11.2401
로버트무가베대통령	-11.2401
푸켓	-11.2401
자유로운	-11.2402
death	-11.2402
아르빌	-11.2403
인권침해	-11.2403
지중해	-11.2404
남서쪽	-11.2404
반도체	-11.2404
티셔츠	-11.2405
늘어난	-11.2406
만들어졌다	-11.2406
이틀동안	-11.2407
집어	-11.2408
사진작가	-11.2409
아바타	-11.241
자본주의	-11.241
우승자인	-11.2411
미술관	-11.2411
거주하고있는	-11.2412
기도를	-11.2413
차원의	-11.2414
메뉴	-11.2414
대통령궁	-11.2415
일리노이주상원의원	-11.2417
존에드워즈	-11.2417
효과적인	-11.2418
기념품	-11.2419
합의안	-11.2419
존스턴기자	-11.2419
억달러약억원	-11.2419
재능	-11.2419
▁경찰에따르면	-11.2419
퇴직	-11.2419
저녁식사	-11.242
▁테러이후	-11.242
휴식	-11.2423
ship	-11.2424
종파	-11.2424
망명생활을	-11.2425
우익	-11.2426
사이로	-11.2426
살았던	-11.2426
며따라서	-11.2426
자발적으로	-11.2427
명의인질	-11.2427
친구들과	-11.2428
들어왔다	-11.2428
상대적으로	-11.2428
수호	-11.2429
모토	-11.2429
워너	-11.2431
들어있다	-11.2434
을태우고	-11.2434
양식	-11.2435
재앙	-11.2436
지진으로인한	-11.2437
북한의핵무기	-11.2437
발송	-11.2437
중일부는	-11.2437
데이비드베컴	-11.2439
수송기	-11.2442
고말하면서	-11.2443
화폐	-11.2444
유명인사들	-11.2447
부적절한	-11.2451
에빠졌다	-11.2451
넘어서	-11.2452
누구나	-11.2453
법집행	-11.2455
분기에	-11.2456
기종	-11.2456
후보들은	-11.2456
직위	-11.2456
정식으로	-11.2456
임명된	-11.2458
오픈에서	-11.2458
될것입니다	-11.2459
적당한	-11.246
민주적인	-11.2461
유엔인권	-11.2462
고말한것	-11.2463
▁이지역은	-11.2464
시몬	-11.2465
합법적인	-11.2466
적힌	-11.2466
을받았으며	-11.2466
만날예정이	-11.2468
외계인	-11.2468
출간	-11.2468
새해	-11.2468
국가대표팀	-11.247
참모총장	-11.2471
불법적인	-11.2476
걸린	-11.2476
에참가한	-11.2477
고객들이	-11.2479
아시아지역	-11.248
을열고	-11.248
를방문했다	-11.2481
건강검진	-11.2482
하지도않	-11.2482
많았다	-11.2483
년월까지	-11.2486
지난월부터	-11.2488
되지않고있다	-11.2491
를꺾	-11.2491
살았	-11.2491
결과를발표	-11.2492
소식을전	-11.2493
을모았다	-11.2495
배아줄기세포	-11.2499
조차도	-11.25
동요	-11.2502
이번공격은	-11.2503
관계자에따르면	-11.2504
특별검사	-11.2504
into	-11.2505
프로젝트를	-11.2505
▁라이스는	-11.2505
를맞이	-11.2506
유감을표	-11.2508
샘플을	-11.2509
리터	-11.2511
밝혀지지않은	-11.2512
을터뜨	-11.2512
피터슨	-11.2514
불거	-11.2515
년연속	-11.2515
독일과	-11.2516
극장에서	-11.2523
예를들	-11.2524
고확신했다	-11.2525
▁이스라엘군은	-11.2529
오는일현지시간	-11.253
지는않을것	-11.2532
해주고있다	-11.2533
관계자가전했	-11.2537
서로를	-11.2538
대표와	-11.2539
시합	-11.2541
루니	-11.2541
올림픽성화봉송	-11.2544
황박사	-11.2544
줄었다	-11.2545
줄어들었다	-11.2546
차기대통령	-11.2549
에들어간	-11.255
아프간정부가	-11.2551
반세기	-11.2551
조각상	-11.2552
부정부패	-11.2554
미셀	-11.2554
최소명의	-11.2555
북경	-11.2556
측면에서	-11.2559
에살고있다	-11.2559
이어진	-11.256
내용이다	-11.2562
근거지	-11.2566
을찾았다	-11.2566
실수로	-11.2567
이이뤄지	-11.2568
증오	-11.2569
터너	-11.257
담당자인	-11.2573
ally	-11.2574
지않는다면	-11.2575
참수	-11.2575
▁부토는	-11.2576
신화통신	-11.2578
환자들이	-11.2578
헌장	-11.2585
ingthe	-11.2585
구조대가	-11.2588
ark	-11.2592
생선	-11.2593
밝히고	-11.2593
역할을했다	-11.2594
앨범을	-11.2596
알아내	-11.2597
냈던	-11.2599
알고있는	-11.2599
단장	-11.2603
법적인	-11.2603
떨어진지점에서	-11.2604
분량의	-11.2604
하는것으로나타났다	-11.2605
걸려있	-11.2607
질문을받	-11.261
데이터를	-11.2612
대금	-11.2612
라는사실을	-11.2613
실종됐다	-11.2613
후보자들	-11.2614
일뿐	-11.2615
arm	-11.2616
전술	-11.2616
수백만명의	-11.2617
하지않겠다는	-11.2619
를나타냈다	-11.2619
임신한	-11.262
최고기록	-11.262
주문했다	-11.2622
청문회에서	-11.2626
받을수있도록	-11.2627
여성에게	-11.2628
언론이보도했	-11.2635
ous	-11.2636
측대변인은	-11.2638
구성원	-11.264
핵시설불능화	-11.2641
합의된	-11.2643
유죄판결	-11.2645
세트를	-11.2647
지방정부	-11.2648
개부문	-11.2649
연계	-11.265
조합원	-11.265
찾기	-11.265
명이목숨을잃었다	-11.2653
혼인	-11.2654
불경기	-11.2654
이자율을	-11.2656
에대비해	-11.2658
노선을	-11.2659
이번사건에대한	-11.2659
사무실에서	-11.2661
처벌을받	-11.2663
한국측	-11.2666
확인하기위해	-11.2667
범죄행위	-11.267
민주당상원의원	-11.2671
정부관계자들은	-11.2675
호박	-11.2675
계속되고있는	-11.2675
을갖고있는	-11.2678
겠다며	-11.268
진정시키	-11.2689
필요가있	-11.269
을모으	-11.2693
결의안이	-11.2694
토론회에서	-11.2696
지난년월이후	-11.27
에대한우려가	-11.27
강하게비난	-11.2701
지난년대	-11.2701
타워	-11.2701
같은기간	-11.2703
을시작한	-11.2706
▁그러나일부	-11.2709
최대규모의	-11.271
사단	-11.2712
장애인	-11.2718
중한명	-11.2721
지위를	-11.2723
▁달러에거래	-11.2725
행동으로	-11.2726
여건	-11.2726
미국인들의	-11.2728
심리에서	-11.2729
에접근하	-11.273
고있다고지적했다	-11.273
용납할수없	-11.2731
추락사고	-11.2732
해결을위한	-11.2736
남부지역에서	-11.2737
미국캘리포니아주	-11.2737
사망하고	-11.2738
개표	-11.2738
카디	-11.2738
곳곳	-11.2744
를출발	-11.2746
크기가	-11.2747
조세	-11.2755
우리들	-11.2756
미시간	-11.2757
에연루된	-11.2757
나오면서	-11.2758
부시미대통령의	-11.2758
을나타내는	-11.276
호킹박사	-11.2766
곳곳에서	-11.2769
사람들중	-11.2769
하라고촉구했	-11.277
젊	-11.277
조화	-11.2774
팔리	-11.2775
발견했으며	-11.2776
을자극	-11.2776
그의아버지	-11.2776
물리적	-11.2777
라고그는	-11.2779
에게있어	-11.2781
어린아이	-11.2785
에침입	-11.2786
두번의	-11.2787
여러곳	-11.2787
의중요성을	-11.2791
활동을중단	-11.2794
심리학자	-11.2798
을중단하고	-11.2802
힐튼이	-11.2804
뿌	-11.2804
천만달러	-11.2811
에서발생했으며	-11.2814
흡	-11.2815
베니	-11.2817
명이사망했다고밝혔다	-11.2818
궤도를	-11.2821
벨라	-11.2824
것을촉구했다	-11.2825
따른	-11.2828
위험하다	-11.2828
지지선언	-11.2829
연어	-11.2833
대상으로	-11.2836
몇주동안	-11.2836
있는데	-11.2838
부상을입었	-11.2838
흙	-11.2839
특파원이	-11.2843
팝	-11.2844
을승인했다	-11.2845
에베레스트산	-11.2845
하는방법을	-11.2846
을요구하며	-11.2847
있었는지	-11.2847
화성탐사	-11.2849
여러분들	-11.2849
론자들	-11.285
개최지	-11.2851
카트리나	-11.2853
띄	-11.2853
식품의약국	-11.2854
마호메트	-11.2854
제니퍼	-11.2854
ough	-11.2854
에본사를둔	-11.2854
▁코리아타임스	-11.2854
무크타다알사드르	-11.2854
자이툰부대	-11.2854
봅	-11.2854
총기를난사	-11.2854
밭	-11.2854
몰디브	-11.2854
아이슬란드	-11.2854
암스트롱	-11.2854
구스마오	-11.2854
무드아바스팔레스타인자치정부수반	-11.2854
오차범위	-11.2854
촨	-11.2854
우비넨	-11.2854
윙	-11.2854
농축우라늄	-11.2854
라일라오딩가	-11.2854
를둘러싼	-11.2854
뮌헨	-11.2854
알마스리	-11.2854
world	-11.2854
파란색	-11.2854
낸시펠로시하원의장	-11.2854
핏	-11.2854
베탕쿠르	-11.2854
정동영	-11.2854
PresidentRoh	-11.2854
가라앉	-11.2854
테이블	-11.2854
가금류	-11.2854
온실가스배출	-11.2854
주머니	-11.2854
자부심	-11.2854
플레이오프	-11.2854
진지하게	-11.2854
아이팟	-11.2854
참전용사	-11.2854
확실하지않다	-11.2854
오페라	-11.2854
주니어	-11.2855
전서울시장	-11.2855
투데이쇼	-11.2855
로페즈	-11.2855
콘텐트	-11.2855
프레슬리	-11.2855
Roh	-11.2855
압둘라굴	-11.2856
낡은	-11.2856
진원지	-11.2856
에어웨이	-11.2856
모하메드엘바라데이	-11.2856
평화로운	-11.2857
고통을겪	-11.2857
스타디움에서열린	-11.2857
Qu	-11.2857
하지않을것이며	-11.2857
소방당국	-11.2857
GPS	-11.2858
주식은	-11.2858
기차역	-11.2858
자살폭탄테러범	-11.2859
에기여	-11.2859
열쇠	-11.2859
주지않	-11.2859
포옹	-11.286
극심한	-11.286
인접한	-11.286
정확하게	-11.286
농축	-11.2861
윈프리	-11.2861
불법복제	-11.2862
atch	-11.2862
과의대화	-11.2862
잠수함	-11.2863
일시적으로	-11.2863
보궐선거	-11.2863
수지여사	-11.2864
비평가들은	-11.2864
몬테	-11.2864
승려	-11.2864
전자제품	-11.2865
을겨냥한	-11.2865
강아지	-11.2865
FAA	-11.2865
북아일랜드	-11.2866
명이상의사람들이	-11.2866
곤란	-11.2866
반체제	-11.2867
입장을취	-11.2868
없었지만	-11.2868
준장은	-11.2869
스텔스전	-11.287
탈레반무장단체	-11.287
공동기자회견에서	-11.287
사이먼	-11.287
첫째	-11.287
세를일기로	-11.287
헌터	-11.287
당첨	-11.287
총회에서	-11.2871
문제를해결하기위해	-11.2871
미래에	-11.2872
할가능성이높다	-11.2872
누출	-11.2872
통신망	-11.2872
투항	-11.2872
ident	-11.2873
탑재	-11.2873
지난토요일	-11.2874
격돌한	-11.2875
늘려	-11.2875
▁저희는	-11.2875
요구사항을	-11.2875
의안전을위해	-11.2876
기부금	-11.2877
부유한	-11.2877
웃으며	-11.2878
마련된	-11.2882
국어	-11.2883
미해병	-11.2883
탈레반측은	-11.2884
비극적인	-11.2886
혼잡	-11.2886
발령	-11.2887
구제금융안	-11.2887
ib	-11.2889
선진국	-11.2889
는소문	-11.289
긍정적으로	-11.289
청색	-11.2891
차세대	-11.2891
이라크내알카에다	-11.2893
투자은행	-11.2895
상세한	-11.2895
일수도있다	-11.2895
메시지를전달	-11.2896
침실	-11.2897
엑	-11.2897
자사의	-11.2897
만회	-11.2899
다양성	-11.29
조립	-11.29
작가조합	-11.2902
예외	-11.2902
낮게	-11.2905
You	-11.2906
당신에게	-11.2907
할수있습니다	-11.2907
ift	-11.2908
고코리아타임즈는	-11.2908
식사를	-11.2908
게되며	-11.2908
내놓았다	-11.2908
사촌	-11.2909
마흐	-11.2909
사탕	-11.291
그럴	-11.291
기다리는	-11.2911
왕조	-11.2913
사건이후	-11.2913
을향한	-11.2913
첫단계	-11.2914
변형	-11.2914
해산물	-11.2914
거울	-11.2917
이남자는	-11.2918
미재무부	-11.2918
금연법	-11.2919
되지않도록	-11.292
시라크대통령	-11.2922
포경선	-11.2924
sno	-11.2924
월말까지	-11.2928
이불가능	-11.2928
기소됐다	-11.293
수술을받은	-11.293
성공적인	-11.2931
장면은	-11.2933
병원관계자는	-11.2934
az	-11.2936
부시대통령에게	-11.2936
진전을	-11.2938
인터넷을통해	-11.2939
공격목표	-11.2939
을둘러싸고	-11.294
제약회사	-11.294
석탄	-11.2941
에속한	-11.2942
대교수	-11.2945
결혼생활	-11.2946
크로스	-11.2946
관계자는이번	-11.2952
뉴햄프셔주	-11.2953
왔으나	-11.2953
살때	-11.2954
목표물	-11.2956
대책본부	-11.2956
다룰	-11.2959
미국무장관	-11.296
펠트	-11.2961
검토하고있다	-11.2961
밑에	-11.2961
▁미국에서는	-11.2962
억만달러약억원	-11.2965
주입	-11.2966
절단	-11.2966
카페인	-11.2967
공방	-11.2968
자신들을	-11.2969
중국외교부	-11.2972
동력	-11.2972
조언을	-11.2974
피해규모	-11.2975
를통한	-11.2976
모습을드러냈	-11.2977
주차장에서	-11.2979
을수도있	-11.2979
는데성공했다	-11.2981
가장큰규모	-11.2981
되게	-11.2982
미대선	-11.2982
불렀다	-11.2982
마트	-11.2984
계기	-11.2985
나이키	-11.2991
을떠난	-11.2994
로드리게스는	-11.2996
대표들이	-11.2996
을들여	-11.2997
비율은	-11.3002
가정에서	-11.3004
복부	-11.3005
준수	-11.3005
러시아정부	-11.3008
수술을받	-11.3008
판명	-11.3009
처음에는	-11.3013
공표	-11.3013
볼수없	-11.3015
로가득	-11.3017
SG	-11.3022
철학	-11.3023
MP	-11.3024
come	-11.3024
명의승객	-11.3028
한국인인질들	-11.3029
안개	-11.3031
전해지	-11.3032
승무원들은	-11.3044
할수밖에없었다	-11.3046
의이름은	-11.3048
를지나	-11.3049
고말았다	-11.3054
특파원은	-11.3056
달동안	-11.306
할것임을	-11.3061
한적이있다	-11.3069
umb	-11.3069
받은뒤	-11.3071
정찰기	-11.3071
믿음	-11.3071
관계자의말을인용	-11.3073
반테러	-11.3076
힐대표	-11.3076
실시됐다	-11.3077
필요가없	-11.3078
팔려	-11.3079
Sa	-11.308
성폭행사건	-11.3083
성화봉송행사	-11.3084
별개	-11.3087
있거나	-11.3089
최고치	-11.3092
Bu	-11.3094
을좋아한다	-11.3095
측에서는	-11.3098
범죄자	-11.31
콜라	-11.3101
교황의	-11.3104
이브라힘	-11.3106
실감	-11.3107
단축	-11.3108
힘들었	-11.3108
는소식에	-11.311
일본총리	-11.311
이번폭탄테러	-11.3116
권리가있	-11.3118
되지않아	-11.3118
교차	-11.3119
일요일에	-11.3119
MTV	-11.3121
국제적으로	-11.3124
에밀리	-11.3124
의석방을위해	-11.3126
종신형	-11.3127
가격상승	-11.3127
사람으로	-11.3127
약억달러	-11.3132
국기를	-11.3132
익사	-11.3134
같은날	-11.3135
사상최고	-11.3136
통행금지	-11.3136
공범	-11.3137
계속유지	-11.3138
▁달러를기록	-11.3143
에달했다	-11.3143
을모색	-11.3145
사실을밝혀냈다	-11.3151
을주장하는	-11.3155
들을상대로	-11.3157
작성된	-11.3158
용품	-11.3161
빠진	-11.3162
공격을받아	-11.3162
유타	-11.3163
표현했다	-11.3164
사고기	-11.3167
할것이라고강조했다	-11.3168
인텔	-11.3169
무조건	-11.317
출구조사	-11.3172
자식	-11.318
명의사망자가발생	-11.318
하지는않을것이라	-11.3181
수도있습니다	-11.3182
상을입었	-11.3182
노엘	-11.3183
사이클론으로	-11.3187
많은수의	-11.3188
장거리	-11.3191
강력히비난	-11.3194
동상	-11.3195
폭발사고	-11.3196
작전을수행	-11.3197
상륙	-11.3201
등록된	-11.3206
북한군	-11.3209
기위한노력	-11.3212
들은대부분	-11.3213
가장낮은	-11.3215
를찾기위해	-11.3218
관리국	-11.3218
한국인들은	-11.3219
과싸우	-11.3222
신분증	-11.3223
싸움을	-11.3224
월과월	-11.3227
의소행	-11.3227
공화당원들	-11.3228
약물검사	-11.323
협상대표	-11.3231
합법적	-11.3232
을이용한	-11.3232
과정은	-11.3233
하워드총리	-11.3233
경제적으로	-11.3234
미국을방문	-11.3237
밖에없	-11.3238
할수있고	-11.3239
축구선수	-11.3241
한국과미국	-11.3243
거짓말	-11.3246
미친	-11.3247
하지못해	-11.3248
고그는말했다	-11.3248
하퍼	-11.325
내려오	-11.325
참전	-11.3254
북한핵	-11.3256
손상된	-11.3256
폭락했다	-11.3259
의시신이	-11.3262
쿨	-11.3267
국가비상사태를선포	-11.3272
주일동안	-11.328
주요도시	-11.3281
주식시장에서	-11.3282
약만명	-11.3283
에탑승한	-11.3283
인물이라	-11.3283
중단된	-11.3284
중에있다	-11.3284
느낀	-11.3288
마감했다	-11.3293
국경을넘	-11.3293
으로분류	-11.3294
출항	-11.3295
격렬	-11.3295
극적으로	-11.3299
돼있으며	-11.3299
불황	-11.3299
연방준비제도이사회	-11.33
양성	-11.3301
최소명이사망하고	-11.3302
재미있는	-11.3302
정부관계자	-11.3305
타마	-11.3306
을보호하는	-11.3307
수위가	-11.3311
경로를	-11.3312
단장은	-11.3316
닫	-11.3327
마르코	-11.3328
브래드	-11.3329
괄	-11.3329
긍	-11.3329
투탕카멘	-11.333
오피니언리서치	-11.333
Foreign	-11.333
WTI	-11.333
갓	-11.333
만달러약억만원	-11.333
몫	-11.333
소렌스탐	-11.333
쏜	-11.333
유네스코	-11.333
NYMEX	-11.333
굽	-11.333
Russia	-11.333
PMLN	-11.333
로드맵	-11.333
포틀랜드	-11.333
합참의장	-11.333
대통합민주신당	-11.333
스콜세지	-11.333
고중앙일보가	-11.333
을불러일으켰다	-11.333
프란시스	-11.333
아웅산수지여사	-11.333
정권인수팀	-11.333
핫	-11.333
break	-11.333
스탤론	-11.333
코네티컷	-11.333
급속도로	-11.333
생태계	-11.333
푸에르타	-11.333
House	-11.333
이명박대통령당선인	-11.333
선생님	-11.333
라틴아메리카	-11.333
Show	-11.333
음란물	-11.333
깜짝	-11.333
고마움	-11.333
명확한	-11.333
압도적인	-11.333
콘돌리자라이스국무장관	-11.333
Association	-11.333
메모리얼	-11.333
아메드	-11.333
종말론	-11.333
헝가리	-11.333
조류독감	-11.333
비아그라	-11.333
개구리	-11.3331
한반도비핵화	-11.3331
기꺼이	-11.3331
하리리	-11.3332
기준금리를	-11.3332
압수수색	-11.3332
willbe	-11.3332
에서동쪽으로	-11.3333
을낮추	-11.3333
외딴	-11.3333
fund	-11.3333
오스만	-11.3333
ECB	-11.3333
잉글랜드대표팀	-11.3333
를제외한	-11.3333
압승	-11.3334
중소기업	-11.3334
전화인터뷰에서	-11.3334
노력의일환으로	-11.3334
trial	-11.3334
함정	-11.3335
납북	-11.3336
향후년간	-11.3336
제이슨	-11.3337
결렬	-11.3337
오전시분경	-11.3337
을내릴	-11.3337
홍수가발생	-11.3337
NHC	-11.3338
인터넷접속	-11.3338
하는데합의했다	-11.3338
투옥	-11.3339
신체적	-11.3339
양키스	-11.3341
함으로서	-11.3341
빠져나가	-11.3342
버클리	-11.3342
효과적으로	-11.3343
theU	-11.3343
유엔사무총장	-11.3343
핑크	-11.3343
팔렸다	-11.3343
젊은여성	-11.3343
보건당국은	-11.3344
며칠간	-11.3344
에걸리	-11.3344
역할을수행	-11.3346
데이브	-11.3346
버려진	-11.335
정확하	-11.3351
워렌	-11.3351
위안화	-11.3351
중국본토	-11.3352
실질적으로	-11.3353
김대중	-11.3353
인터넷사용자	-11.3354
하였고	-11.3354
극단주의자들	-11.3354
밸리	-11.3354
마찰	-11.3355
태워	-11.3355
열릴예정	-11.3355
서식하는	-11.3355
아마디네자드대통령	-11.3357
위헌	-11.3357
화물선	-11.3358
위크	-11.3359
주간지	-11.3359
토록	-11.336
질식	-11.336
긴장감	-11.336
전념	-11.336
에서남쪽으로	-11.3361
맞교환	-11.3362
자체적으로	-11.3364
사실을확인	-11.3367
호황	-11.3367
중하나이다	-11.3368
자살폭탄테러가발생해	-11.3369
공동체	-11.3373
를극복	-11.3374
최근까지	-11.3376
보관소	-11.3377
금융계	-11.338
정당화	-11.338
줄리아	-11.3381
쿠즈	-11.3382
유언	-11.3382
이번행사	-11.3383
직접적으로	-11.3384
에직면해있	-11.3386
견디	-11.3386
항공편	-11.3387
를시작으로	-11.3387
여기서	-11.3387
장애물	-11.3388
만천명	-11.3388
생물체	-11.3388
로얄	-11.339
조율	-11.3392
투명성	-11.3392
경제불황	-11.3394
힌두	-11.3395
추가적으로	-11.3397
판결을내렸다	-11.3397
아이다호	-11.3398
을준비하	-11.3398
듯하다	-11.3398
보조금	-11.3399
동부해안	-11.34
천백만달러	-11.34
▁국제유가는	-11.3401
원석	-11.3403
체중이	-11.3404
지못한다	-11.3404
지않았습니다	-11.3405
본드	-11.3407
억유로	-11.341
비난을받고있	-11.3412
를보여주는	-11.3414
밀란은	-11.3415
힐튼은	-11.3416
▁이후보는	-11.3418
높았다	-11.342
일것이라	-11.3421
다는이유로	-11.3422
상표	-11.3422
정황	-11.3423
분초	-11.3424
유머	-11.3425
머피	-11.3426
을사용해	-11.3426
총살	-11.3427
을죽이	-11.3427
보고서에는	-11.3429
han	-11.3432
되길바란다	-11.3432
수의사	-11.3434
학부모	-11.3434
납치사건	-11.3436
넣어	-11.3436
갖추고있다	-11.3438
양국관계	-11.3439
엔화	-11.3441
이포함되어있다	-11.3441
많은사람들은	-11.3443
반정부시위대	-11.3444
태어났다	-11.3444
ath	-11.3444
되기전까지	-11.3446
기시작한	-11.345
붙였다	-11.345
애정	-11.3451
모든사람들이	-11.3451
이넘는	-11.3454
요크	-11.3455
허브	-11.3457
알수있다	-11.3457
적극적인	-11.3457
게만들었다	-11.3459
이혼했다	-11.346
고밝히고	-11.3461
무료로	-11.3461
경제발전	-11.3466
pen	-11.3466
주식시장은	-11.3467
딸인	-11.347
한적이없다	-11.3472
려고노력	-11.3474
나간다	-11.3477
길기대하고있다	-11.3477
고위간부	-11.3478
후보지명	-11.3478
발자국	-11.3481
될것으로예상	-11.3483
회상	-11.3483
년대선	-11.3487
수영장	-11.349
▁샤리프는	-11.349
을선고받았다	-11.3491
미공군	-11.3492
어머니와	-11.3493
과거사	-11.3495
오렌지	-11.35
퍼드	-11.3501
중력	-11.3501
기간에	-11.3504
차를타고	-11.3505
지못하도록	-11.3509
배역	-11.3509
원자력	-11.3512
진전이있	-11.3516
지않았던	-11.3516
할예정인	-11.3517
설립한	-11.3517
지난년에	-11.352
▁이대통령은	-11.352
팔레스타인무장세력	-11.3521
충족	-11.3523
inIraq	-11.3525
탁신은	-11.3525
남자명	-11.3527
적군	-11.3529
나온다	-11.3529
예선전	-11.353
수술을받았다	-11.353
버락오바마후보	-11.3532
시작되는	-11.3533
매력적	-11.3533
사진기자	-11.3536
불가능한	-11.3537
each	-11.3541
법원의판결	-11.3542
미국과영국	-11.3544
필요로하는	-11.3545
동거	-11.3546
서울대	-11.3546
미군병사	-11.3547
동물들	-11.3549
올해들어	-11.355
을느꼈다	-11.3555
인권문제	-11.3555
투표소	-11.3557
생물학적	-11.3559
볼트	-11.356
존매케인상원의원이	-11.3569
▁이씨는	-11.3571
치료법	-11.3571
을피하	-11.3572
긴장이고조되	-11.3573
하지않는것	-11.3576
회사측	-11.3578
남성명	-11.3581
에나오는	-11.3582
년이지난	-11.3583
사상처음으로	-11.3584
받을수있는	-11.3584
몇십년	-11.3589
흑인대통령	-11.3591
직면	-11.3591
에주둔하고있는	-11.3594
감바리특사	-11.3595
후보를지지	-11.3595
팔아	-11.3596
장래	-11.3601
기를원하	-11.3601
퇴원했다	-11.3604
에머물고있다	-11.3604
허리	-11.3605
교실	-11.3605
토드	-11.3606
증거가없다	-11.3608
것과같은	-11.3608
로나뉘	-11.3609
했거나	-11.3609
지목했다	-11.3613
사망했고	-11.3614
공동성명	-11.3616
테네시	-11.3618
았을때	-11.362
를촉구했다	-11.362
임기중	-11.3627
데대해	-11.3628
를벌였다	-11.3628
를장악	-11.3629
를벗어나	-11.3638
약혼	-11.3639
연료공급	-11.3641
라이더	-11.3641
제이미	-11.3642
미국증시	-11.3646
할수밖에없	-11.3658
이같은사실을	-11.366
언론사	-11.3662
말레	-11.3665
하지않았다고밝혔다	-11.3669
청원	-11.3669
항의했다	-11.3678
▁오바마는일	-11.3682
세계각국	-11.3683
출판사	-11.3685
안심	-11.3689
관영언론	-11.369
inKorea	-11.3693
주식시장이	-11.3695
주차장	-11.3697
보험금	-11.3698
ana	-11.3699
을열었	-11.3702
년형을선고받	-11.3706
JP	-11.3706
체포됐으며	-11.3708
시킬수있다고	-11.3708
경찰이일현지시간	-11.3711
태어났	-11.3714
미시건주	-11.3716
소유자	-11.3721
한다는것은	-11.3722
발언으로	-11.3722
교정	-11.3723
레저	-11.3725
연주자	-11.373
번시드	-11.3731
펜실베이니아프라이머리	-11.3731
로삼았다	-11.3733
조언	-11.3735
파이프	-11.3739
했다는이유로	-11.374
레빈	-11.3741
시작됐으며	-11.3741
를만드는	-11.3742
에사용된	-11.3743
만들어지	-11.3743
몇주전	-11.3744
밝히지않은	-11.3751
원장	-11.3752
천명	-11.3752
참가자들은	-11.3763
하는일이	-11.3767
노대통령과	-11.3767
주택가격	-11.3772
시청자	-11.3773
관할경찰서	-11.3777
반응을보였다	-11.3779
보고된	-11.378
함께일	-11.3782
의건강상태	-11.3784
탈레반무장세력	-11.3785
카카	-11.379
urge	-11.379
인질석방	-11.3791
메스	-11.3792
한것과관련	-11.3796
붕	-11.3797
메인주	-11.3798
미국인들	-11.38
지못했지만	-11.3801
보도된	-11.3802
보조금을	-11.3802
other	-11.3805
을축하하	-11.3805
배심원단은	-11.3807
America	-11.3808
명의남자	-11.3809
하지않는다며	-11.3809
부패혐의	-11.3809
버드	-11.3809
문어	-11.381
클린턴선거캠프	-11.3812
나타난다	-11.3813
몇달동안	-11.3814
컷	-11.3815
주재미국대사	-11.3818
어버렸다	-11.3819
외계	-11.3821
하였으나	-11.3821
통신과의인터뷰에서	-11.3824
룡	-11.3824
Sc	-11.3826
부양책	-11.3827
만명당	-11.3828
김계관	-11.3828
첨단기술	-11.3829
버냉키	-11.3829
돔	-11.3829
조선중앙통신	-11.3829
될수도있	-11.3829
콴	-11.383
stitution	-11.383
닥터페퍼	-11.383
깨끗한	-11.383
포츠머스	-11.383
시장점유율	-11.383
케네디우주센터	-11.383
economic	-11.383
갑작스런	-11.383
슈나이더	-11.383
현수막	-11.383
맑	-11.383
매카트니	-11.383
안젤리나졸리	-11.383
국제통화기금	-11.383
스위스마터호른에서의트레킹	-11.383
와이오밍	-11.383
교토의정서	-11.383
메르세데스	-11.383
산악지대	-11.383
ZANUPF	-11.383
미니수퍼화요일경선	-11.383
Court	-11.383
RCTV	-11.383
곁	-11.383
본격적으로	-11.383
체중감량	-11.383
칠면조	-11.383
UAE	-11.383
뜯	-11.383
슈워제네거	-11.383
우연히	-11.383
컨퍼런스	-11.383
갤러리	-11.383
도디파예드	-11.383
면밀히	-11.383
페르난도	-11.383
스파이스걸스	-11.383
하루종일	-11.383
claim	-11.383
합법화	-11.383
Agency	-11.383
연말까지	-11.383
부유층	-11.383
사이언스	-11.383
국토안보부	-11.383
마리화나	-11.383
초콜릿	-11.383
신생아	-11.383
관심을끌	-11.383
마무드	-11.383
자민당	-11.383
백화점	-11.383
메르켈	-11.383
이루어져	-11.383
매도프	-11.383
이무엇인지	-11.383
강원도	-11.3831
강대국	-11.3831
추종자들	-11.3831
아폴로	-11.3831
딜런	-11.3831
눈보라	-11.3831
about	-11.3831
지는아직	-11.3831
로드아일랜드	-11.3831
이와유사한	-11.3832
Two	-11.3832
아라비아	-11.3832
콜롬	-11.3832
함부르크	-11.3832
스테이트	-11.3832
UMP	-11.3832
Inter	-11.3832
resign	-11.3832
해리포터시리즈	-11.3832
린치	-11.3833
여당인열린우리당	-11.3833
뭔가	-11.3833
마무리짓	-11.3833
을제외하고	-11.3834
잠비아	-11.3834
▁원총리는	-11.3834
action	-11.3835
트로피를	-11.3835
Air	-11.3835
인공위성	-11.3835
도없고	-11.3835
입장을보였다	-11.3836
로비스트	-11.3836
는의견이	-11.3836
구호물품을	-11.3836
자동차제조업체	-11.3836
오늘오전	-11.3836
퇴역	-11.3837
민주노동당	-11.3837
할리우드배우	-11.3837
경제대국	-11.3838
킹목사	-11.3839
게놈	-11.3839
미시시피강	-11.3839
갱단	-11.384
수도있다고말했다	-11.384
근본적인	-11.384
에달려있다	-11.384
육류	-11.3841
전미국대통령	-11.3841
황폐	-11.3841
에비유	-11.3842
매몰	-11.3842
유엔평화유지군	-11.3842
돌풍	-11.3843
신중하게	-11.3843
유학	-11.3843
소식통에따르면	-11.3845
빚어	-11.3846
외쳤다	-11.3846
봉투	-11.3847
지켜본	-11.3847
레코드	-11.3848
하지는않는다	-11.385
음향	-11.385
올라온	-11.3851
디젤	-11.3851
보석금	-11.3851
배우자	-11.3853
달러약원	-11.3854
법령	-11.3854
진지한	-11.3856
비평	-11.3856
이기도하다	-11.386
을위해서는	-11.386
기상청	-11.386
을거절했다	-11.3861
생물학	-11.3861
남긴	-11.3861
것으로추정하고있다	-11.3861
관광객들에게	-11.3862
주요도로	-11.3862
미연방준비제도이사회	-11.3862
중국공안	-11.3862
대성당	-11.3862
연루된	-11.3864
빠른시일내에	-11.3864
연봉	-11.3864
연못	-11.3864
단언	-11.3864
라디오방송국	-11.3865
파타당	-11.3866
핵활동	-11.3869
에서개최된	-11.3869
를요구하며	-11.3872
영국왕실	-11.3872
지말고	-11.3872
합의에따라	-11.3875
을얻기위해	-11.3877
이라크보안군	-11.3877
lect	-11.3877
카이로	-11.3878
파손된	-11.3879
의결과로	-11.3879
▁부토전총리는	-11.388
선거에출마	-11.3881
을비롯해	-11.3883
주식거래	-11.3883
전화를걸어	-11.3886
인원을	-11.3886
▁이법안은	-11.3888
빨라	-11.3888
홍수피해	-11.3892
크리스티나	-11.3892
start	-11.3893
의지지를받	-11.3894
의철수를	-11.3894
겼으며	-11.3894
부시미대통령은일현지시간	-11.3897
라싸	-11.3897
계열	-11.39
을느끼고	-11.3901
을만들어내	-11.3902
나와있	-11.3902
정박	-11.3902
이라크난민	-11.3903
테러를자행	-11.3904
동의안	-11.3904
알려지지않은	-11.3907
에대한정보를	-11.3907
집중적으로	-11.3907
블루스	-11.3907
는주장이	-11.3907
승진	-11.3907
라고생각한다	-11.3908
우주복	-11.3909
교토	-11.3913
어린이들에게	-11.3914
발생하고있다	-11.3915
매니저인	-11.3915
을옹호	-11.3915
등이있다	-11.3916
대학교수	-11.3918
후보로지명	-11.392
▁미정부는	-11.3922
케리후보	-11.3923
을벌이고있는	-11.3924
한미간	-11.3926
천재소녀의부활	-11.3928
혐의를인정	-11.3929
존슨은	-11.3933
녹스	-11.3934
최악	-11.3934
석유생산	-11.3934
제조업	-11.3935
명의대의원	-11.3937
돌진	-11.394
싱글	-11.3943
을사용했다	-11.3943
▁차베스는	-11.3943
이날오후	-11.3944
을이끌고있	-11.3945
경비대	-11.3946
악마	-11.3947
도움을요청	-11.3948
불편한	-11.395
이제까지	-11.395
부터시작된	-11.395
진술서	-11.3951
를가지고있다	-11.3952
농부들	-11.3952
투여	-11.3952
할것으로보	-11.3952
벌이던	-11.3952
강진이발생	-11.3954
에대한연구	-11.3957
대통령으로서	-11.3958
충격으로	-11.3964
legal	-11.3968
인수위원회	-11.3969
예산안	-11.3973
이번결정은	-11.3975
살난	-11.3975
교전중	-11.3978
유타주	-11.3978
적대적인	-11.3978
데릭	-11.3979
구직	-11.398
심각한문제	-11.398
대령은	-11.3983
만마리	-11.3983
으로들어가	-11.3983
별장	-11.3988
이라크경찰	-11.3991
정해진	-11.3996
도발적	-11.3998
로전환	-11.3999
CI	-11.4003
추락해	-11.4004
▁그러면	-11.401
high	-11.401
주장해왔다	-11.4016
구속됐다	-11.4027
이들국가	-11.4033
미국은북한이	-11.4033
억천만	-11.4035
목성	-11.4036
개체수가	-11.4036
유혈	-11.4036
이식수술	-11.4037
팀동료	-11.4043
방송에출연	-11.4043
이번공습	-11.4045
을맞이하	-11.405
이슬람군대	-11.4055
충돌이발생	-11.4055
한국경제	-11.4056
를주도한	-11.4057
을알리는	-11.406
손상을입	-11.406
우리는그	-11.4061
조사중이다	-11.4062
허가를받	-11.4063
이루어지고있	-11.4063
몇분	-11.4064
고말했으며	-11.4064
야외	-11.4065
죽였다	-11.4065
천국	-11.4066
팀장은	-11.407
넘게	-11.4073
새벽시	-11.4073
반경	-11.4074
산토	-11.4079
영화관	-11.4081
농부	-11.4084
관용	-11.4086
지난해말	-11.4086
재건축	-11.4087
을일으키는	-11.4089
모색	-11.4091
All	-11.4092
테크	-11.4093
보는것	-11.4093
위에올랐다	-11.4097
막았다	-11.4097
폭력사태가발생	-11.4097
제작자들	-11.4097
뿐이라고말했다	-11.4098
소포	-11.4099
Pe	-11.4106
직면한	-11.4106
거의모든	-11.411
구속된	-11.411
사진을공개	-11.4112
년에걸쳐	-11.4113
고전하며	-11.4114
테러행위	-11.4115
eep	-11.4119
되지않았지만	-11.4123
보르	-11.4124
어머니인	-11.4127
을피하기위해	-11.4128
어왔다	-11.4128
에대한관심이	-11.4138
이번경매	-11.4144
잘알고있다	-11.4148
ju	-11.415
낙관	-11.4152
군당국	-11.4153
경영자	-11.4155
원자력발전	-11.4159
sup	-11.4162
잘라	-11.4164
폭력시위	-11.4166
잠수	-11.4168
얻지못	-11.4168
중명인	-11.4169
jo	-11.417
ash	-11.4184
범죄자들	-11.4187
을꾸	-11.4188
을취소했다	-11.4189
워스	-11.4191
현정부	-11.4196
시위에참가	-11.4198
uck	-11.4202
경찰국장은	-11.4202
을시작으로	-11.4206
경제침체	-11.4207
당당수	-11.4215
거주지역	-11.4217
이후에도	-11.4224
것이기때문에	-11.4225
과유사한	-11.4226
때마다	-11.4228
개정된	-11.4229
을만들었다	-11.4239
에도움이	-11.424
과의전쟁	-11.424
기를희망한다	-11.4244
스몰	-11.4245
대의원확보	-11.4246
하지않는다면	-11.4249
할것을촉구	-11.4253
시신들	-11.4255
에대해사과	-11.4258
▁Koreas	-11.4264
혈관	-11.4265
도마찬가지	-11.4266
net	-11.4267
결과에따라	-11.4269
병원에입원했다	-11.4271
대선이후	-11.4273
시라크	-11.4278
날밤	-11.428
뛰어넘	-11.4284
을바꿀	-11.4294
문제에관해	-11.4296
과비슷한	-11.4298
에게전화를걸어	-11.4298
에걸릴	-11.43
욱	-11.4304
세소년	-11.4309
섞	-11.431
펜실베니아	-11.431
앞서고있다	-11.4315
생중계	-11.4321
을밝혀내	-11.4321
형에처해	-11.4323
민주적	-11.4326
비자금	-11.4326
이아니었다	-11.4328
hit	-11.4328
들을만나	-11.4329
불에타	-11.4332
관람객	-11.4337
정부관계자가	-11.4338
회담을갖고	-11.434
더악화	-11.4344
하기도한다	-11.4344
스티븐스	-11.4345
말리키총리	-11.4347
수하르토	-11.4348
릴수있다	-11.4348
샤리아	-11.4348
멍	-11.4349
▁그녀는또	-11.4349
콕	-11.435
증권거래	-11.4351
높아졌다	-11.4352
그의부인	-11.4355
흩	-11.4355
내셔널	-11.4355
판니스텔로이	-11.4356
애틀란타	-11.4356
벼	-11.4356
뮬	-11.4356
탬	-11.4356
아제르바이잔	-11.4356
획기적인	-11.4356
에본부를둔	-11.4356
타밀타이거반군	-11.4356
메릴린치	-11.4356
라스무센	-11.4356
럿	-11.4356
빔	-11.4356
요하네스버그	-11.4356
핀란드	-11.4356
방코델타아시아	-11.4356
백과사전	-11.4356
플레이스테이션	-11.4356
벵	-11.4356
오리건주	-11.4356
원자바오중국총리	-11.4356
다우존스산업평균지수	-11.4356
리트비넨코	-11.4356
무거운	-11.4356
▁패션계의	-11.4356
겹	-11.4356
고코리아타임스가	-11.4356
버틀러	-11.4356
▁메일한통이만드는	-11.4356
데지저스	-11.4356
바랍니다	-11.4356
즐거움	-11.4356
펙	-11.4356
할방침이다	-11.4356
라울카스트로	-11.4356
뻗	-11.4356
재규어	-11.4356
노던록	-11.4356
인질로잡혀	-11.4356
모습을드러내	-11.4356
애틀랜티스호	-11.4356
조용히	-11.4356
USGS	-11.4356
토튼햄	-11.4356
제너럴모터스	-11.4356
아흐메드	-11.4356
파타알이슬람	-11.4356
항공모함	-11.4356
People	-11.4356
▁그럼에도불구하고	-11.4356
홈구장	-11.4356
옥스포드	-11.4356
메신저	-11.4356
밀라노	-11.4356
연락을취	-11.4356
압도적으로	-11.4356
여기저기	-11.4356
르완다	-11.4356
앨고어	-11.4356
민주당대선경선	-11.4356
급격한	-11.4356
가솔린	-11.4356
인디언	-11.4356
Work	-11.4356
change	-11.4356
급속한	-11.4356
핸드폰	-11.4356
그려진	-11.4357
right	-11.4357
uff	-11.4357
아이튠	-11.4357
연관성	-11.4357
컨셉	-11.4357
조선일보	-11.4357
▁사르코지대통령은	-11.4357
불행한	-11.4357
셰퍼드	-11.4357
와마찬가지로	-11.4357
월스트리트저널	-11.4357
풋볼	-11.4357
스즈키	-11.4357
루카스	-11.4357
묵념	-11.4357
오사카	-11.4357
기다렸다	-11.4357
값싼	-11.4357
디스플레이	-11.4357
구호를외쳤	-11.4357
알코올중독	-11.4357
습니까	-11.4357
놀랄만한	-11.4357
파라오	-11.4357
트러스트	-11.4357
센트럴	-11.4357
비너스	-11.4357
개인적	-11.4357
블랙워터	-11.4358
톰크루즈	-11.4358
압둘라국왕	-11.4358
특혜	-11.4358
차대전	-11.4358
dict	-11.4358
정찰위성	-11.4358
인내심	-11.4358
직에서물러나	-11.4358
그리핀	-11.4358
영향력을행사	-11.4358
신선한	-11.4358
블레이크	-11.4359
에서서쪽으로	-11.4359
부모님	-11.4359
명의대의원을확보	-11.4359
약물복용	-11.4359
북동쪽	-11.4359
봤을때	-11.4359
▁그런데	-11.4359
앙카라	-11.4359
노숙자	-11.4359
대기오염	-11.4359
할것을제안했다	-11.4359
▁여기에는	-11.4359
찍힌	-11.4359
를낮추	-11.4359
하기로약속했다	-11.4359
선거법위반	-11.436
order	-11.436
링컨	-11.436
하이킹	-11.436
무효	-11.436
확립	-11.436
쏟아져	-11.436
를잇는	-11.436
선거운동본부	-11.436
할것을요청했다	-11.4361
다닌다	-11.4361
했음에도불구하고	-11.4361
칸영화제	-11.4361
생후개월	-11.4362
광대	-11.4362
기자들의질문에	-11.4362
꿀벌	-11.4362
번째생일	-11.4362
편안한	-11.4363
자위대	-11.4363
막바지	-11.4363
액션	-11.4364
돌파구	-11.4364
크리스틴	-11.4364
놀이공원	-11.4364
추모식	-11.4364
숨져	-11.4365
찾았다	-11.4365
갖췄다	-11.4366
졸업생	-11.4366
번화가	-11.4366
최상의	-11.4367
양육	-11.4367
일상적인	-11.4368
쿠마르	-11.4368
진행중이다	-11.4368
현대자동차	-11.4369
스테판	-11.4369
주재미국대사관	-11.4369
뉴욕증권거래소	-11.437
대운하	-11.4372
할때마다	-11.4372
오늘오후	-11.4373
roll	-11.4374
핸드	-11.4374
출산율	-11.4374
테이션	-11.4374
하기도했었다	-11.4375
디에고	-11.4375
검역	-11.4375
오후시경	-11.4375
시간가량	-11.4376
모여들었다	-11.4377
한국과일본	-11.4378
지난금요일	-11.4379
회피	-11.438
갈망	-11.4381
어워드	-11.4382
카타르	-11.4382
관례	-11.4383
넘겼다	-11.4384
징조	-11.4385
부정선거	-11.4386
을이용하여	-11.4386
반란군	-11.4387
괴물	-11.4387
갈색	-11.4388
거센	-11.4389
몸싸움	-11.439
고싶다고말했다	-11.4392
어디서	-11.4393
휘트	-11.4393
할수있게된다	-11.4393
년넘게	-11.4397
하지않았던	-11.4398
하고있었으며	-11.4398
몇일간	-11.4398
순례자	-11.44
냉전	-11.4402
국경을넘어	-11.4402
섞인	-11.4403
알리기위해	-11.4403
지말아야한다	-11.4403
기네스	-11.4405
위스콘신주	-11.4405
를펼쳤다	-11.4406
역할을맡	-11.4406
베스트	-11.4407
산악인	-11.4408
행해진	-11.4409
오닐	-11.441
을받아야한다	-11.4411
비밀요원	-11.4411
대북정책	-11.4411
갈때	-11.4413
되길	-11.4414
▁오바마대통령은	-11.4414
명절	-11.4415
양성반응	-11.4415
없다고주장했다	-11.4417
이어져	-11.4418
기때문이	-11.4419
▁이사건은	-11.4422
주한미대사	-11.4423
난처	-11.4423
자문위원회	-11.4423
신용시장	-11.4424
하려했던	-11.4424
민간항공	-11.4425
▁스피어스는	-11.4425
상환	-11.4426
former	-11.4427
루머	-11.4428
몇년전	-11.4428
대항	-11.443
에게보낸	-11.4431
는것을알고있다	-11.4432
보수주의	-11.4434
위치해있다	-11.4437
에도착해	-11.4437
기업체	-11.4438
노무현정부	-11.4443
줄것이다	-11.4443
비틀	-11.4447
보잉사	-11.4448
forces	-11.4449
지난월말	-11.445
희생됐다	-11.4451
년대중반	-11.4452
사료	-11.4453
매우중요한	-11.4456
명으로구성된	-11.4457
알게됐다	-11.4459
좌우	-11.4463
지않아도된다	-11.4463
인종적	-11.4466
데니스	-11.447
찾아온	-11.4478
cle	-11.4479
감사원	-11.448
거래소	-11.448
명이부상당	-11.4481
물리학자	-11.4482
익명을요구한	-11.4484
카렌	-11.4484
런스	-11.4487
정상들이	-11.4489
선거구	-11.4489
총격을가해	-11.4489
웨스	-11.449
위를기록했다	-11.4491
KO	-11.4492
명정도	-11.4494
일종의	-11.4496
감독관	-11.4496
최대규모	-11.4498
경제상황	-11.4499
벤치	-11.45
놓치	-11.4501
바라보	-11.4502
중국을방문	-11.4505
불빛	-11.4509
정보를얻	-11.4509
를돌파	-11.451
문제와관련	-11.4511
당사자들	-11.4514
점이있다	-11.4516
왔을때	-11.4518
지말것을	-11.4518
경감	-11.4518
북극해	-11.4518
계속될것이라고	-11.4519
영국대사관	-11.4522
경찰관들	-11.4527
과연계	-11.4538
가져오	-11.4539
외무부장관	-11.4546
것은이번이처음이	-11.4546
봉사단	-11.4547
우즈	-11.4547
사무국	-11.455
미국과이란	-11.4557
노출된	-11.4557
현대적	-11.456
▁터키군은	-11.456
사고원인	-11.4562
TSA	-11.4563
것을목격했다	-11.4564
찰리	-11.4566
군사위원회	-11.4566
하든	-11.4566
미국대선	-11.4567
수있을것이다	-11.4568
주인공인	-11.4568
투표권	-11.4572
법원으로부터	-11.4573
을목표로한	-11.4577
그들중	-11.4578
해달라고요청했다	-11.4584
을받았던	-11.4593
계획을발표	-11.4596
원형	-11.4598
늘릴	-11.4599
이번폭탄테러로	-11.4603
소행이라고	-11.4612
담당의사	-11.4614
▁야후는	-11.4616
베니스	-11.4621
영국총리	-11.4621
선포했다	-11.4622
영국항공	-11.4623
구조대원들은	-11.4625
승인을받	-11.4627
정도떨어진	-11.4629
일주일전	-11.4633
사건발생	-11.4635
그녀에게	-11.4636
가자지구북부	-11.464
선거위원회	-11.464
핵시설폐쇄	-11.4644
혐의로기소된	-11.4646
USS	-11.4647
책상	-11.465
거행	-11.4653
걷는것	-11.4657
에도달했다	-11.466
환수	-11.4661
부사장	-11.4661
이라는사실	-11.4666
물건들	-11.4669
명씩	-11.4672
지니고있	-11.4679
남부도시	-11.468
입안	-11.4685
회담을가진	-11.4691
예일대	-11.4692
비평가	-11.4697
전용기	-11.4698
오바마에게	-11.4704
델리	-11.4706
지않는다며	-11.4707
ated	-11.4708
가정집	-11.4713
ww	-11.4714
것이다라고말했다	-11.4715
보였지만	-11.4716
질렀다	-11.4717
명을체포했다고	-11.4718
데라	-11.4719
중부지역	-11.4723
보여주기위해	-11.4723
합의내용	-11.4727
친선	-11.473
년만의	-11.4733
과관련하여	-11.4737
유전적	-11.4739
로드리게스	-11.474
년만에처음	-11.4741
할수는없	-11.4748
를거부했다	-11.4749
에시달리	-11.4757
미국과일본	-11.4758
도움을받	-11.476
소녀들	-11.4763
블라	-11.4765
관계자가일현지시간	-11.4767
에대해서는언급하지않았	-11.477
을지지한다	-11.4772
받았던	-11.4772
이번테러로	-11.4772
을통제하	-11.4773
인수합병	-11.4774
제휴	-11.4775
전화통화를	-11.4777
만들어낸	-11.4778
ST	-11.478
관제	-11.4781
반이상	-11.4781
목적지	-11.4782
되고있는가운데	-11.4782
고덧붙	-11.4783
에돌입했다	-11.4786
우표	-11.4786
완구	-11.4787
폐쇄하고	-11.4795
벌어질	-11.4796
실직자	-11.4796
한것은이번이처음이	-11.4803
등여러	-11.4805
스타디움	-11.4808
을올렸	-11.481
나눈	-11.4811
이번연구는	-11.4812
심리학	-11.4813
것이라고설명	-11.4814
끔	-11.4815
소방서	-11.4816
혀있는	-11.4817
대학생들	-11.4821
크레인	-11.4825
생산성	-11.483
직원들에게	-11.483
주목을받	-11.484
너무많은	-11.4843
알려지지않	-11.4845
중단시키	-11.4846
있을수있다	-11.4857
할수있을지	-11.486
이번대회	-11.4865
오랜기간	-11.4869
휴전선	-11.487
대령	-11.4874
반대표	-11.4877
이슬람근본주의	-11.4879
옷을입	-11.4879
극단주의	-11.4881
롭게	-11.4883
승패	-11.4883
약조원	-11.4884
길기대한다	-11.4886
set	-11.4887
하느냐	-11.4892
now	-11.4892
구제금융법안	-11.4895
알카에다와탈레반	-11.4897
PM	-11.4898
블로거	-11.4902
느낄	-11.4903
엇	-11.4904
을줄이는	-11.4905
구호물품	-11.4907
을표했다	-11.4907
앵	-11.4909
차세계대전당시	-11.491
▁한국군	-11.4911
탓	-11.4911
명을살해했다	-11.4911
Gra	-11.4911
숭	-11.4911
있었기때문에	-11.4911
British	-11.4912
아프카니스탄	-11.4912
압바스수반	-11.4912
차이나데일리	-11.4912
히스패닉	-11.4912
국내총생산	-11.4912
당뇨병	-11.4912
명의사망자를낸	-11.4912
프레스어소시에이션	-11.4912
흠	-11.4912
공상과학	-11.4912
김경준씨	-11.4912
자세를취	-11.4912
페르난데스	-11.4912
한꺼번에	-11.4912
price	-11.4912
라크시미	-11.4912
송민순	-11.4912
제퍼슨	-11.4912
turn	-11.4912
앙겔라메르켈독일총리	-11.4912
어쩔수없	-11.4912
즐거운	-11.4912
소비자신뢰지수	-11.4912
엉덩이	-11.4912
커뮤니케이션	-11.4912
쿠알라룸푸르	-11.4912
페널티킥을	-11.4912
EPL	-11.4912
췌장암	-11.4912
행방불명	-11.4912
국제축구연맹	-11.4912
새크라멘토	-11.4912
쯔	-11.4912
최고치를경신	-11.4912
ISAF	-11.4912
Research	-11.4912
PrimeMinister	-11.4912
대니얼	-11.4912
헐리우드	-11.4912
peace	-11.4912
걸림돌	-11.4912
독특한	-11.4912
무하마드	-11.4912
에육박	-11.4912
마찰을빚	-11.4912
애슐리	-11.4912
수익을올리	-11.4912
이른아침	-11.4912
키티호크	-11.4912
Health	-11.4912
아칸소	-11.4912
각기다른	-11.4912
웨인루니	-11.4912
하드웨어	-11.4912
손가락	-11.4912
후진타오주석	-11.4912
발레리	-11.4912
도미니카공화국	-11.4912
디스위크	-11.4912
악천후	-11.4912
party	-11.4912
마다가스카	-11.4912
엑스파일	-11.4912
조심스럽게	-11.4912
오디오	-11.4912
indow	-11.4912
버나드	-11.4912
골든글로브시상식	-11.4912
India	-11.4912
블레어전총리	-11.4912
포브스	-11.4912
로향하는	-11.4913
유동성	-11.4913
독극물	-11.4913
오래전부터	-11.4913
것으로추산했다	-11.4913
캐롤라인	-11.4913
팝가수	-11.4913
대화를나누	-11.4913
their	-11.4913
엘리자베스여왕	-11.4913
정보통신부	-11.4913
번홀에서	-11.4913
도서관	-11.4913
로렌스	-11.4913
제임스본드	-11.4913
인기를얻	-11.4914
자신만의	-11.4914
서둘러	-11.4914
UCI	-11.4914
감사를표	-11.4914
선거기부금	-11.4914
깁슨	-11.4914
디즈니랜드	-11.4915
공동저자	-11.4915
부활절	-11.4915
금리인상	-11.4915
빌게이츠	-11.4915
이중단되	-11.4915
임금인상	-11.4915
가능성을배제	-11.4916
억천만달러	-11.4916
준결승전에서	-11.4916
잠을자	-11.4916
되는것이다	-11.4916
붉은색	-11.4916
경기를치르	-11.4916
보였으며	-11.4917
ttle	-11.4917
깁스	-11.4917
에후드	-11.4917
갈수록	-11.4917
회교도	-11.4917
탈퇴	-11.4918
코소보독립	-11.4918
워졌다	-11.4918
즐겨	-11.4918
▁IraqCNN	-11.4918
사형제도	-11.4918
과도하게	-11.4919
상황에처	-11.4919
걸리는	-11.4919
사라져	-11.4919
는데그쳤다	-11.4919
를토대로	-11.4919
을이룩	-11.4919
컬럼비아호	-11.492
을문제삼	-11.492
희귀	-11.4921
몰락	-11.4922
체첸	-11.4922
가격인상	-11.4923
재결합	-11.4923
될듯	-11.4923
채발견됐다	-11.4924
번에걸쳐	-11.4924
압류	-11.4924
비행선	-11.4924
궁극적으로	-11.4925
나타날	-11.4925
축구협회	-11.4925
잠겨	-11.4926
유용한	-11.4926
의상징으로	-11.4926
자발적	-11.4926
에서발견되었다	-11.4927
▁게이츠장관은	-11.4928
에반하는	-11.4928
이어갔다	-11.4928
타계했다	-11.4928
▁연합뉴스는	-11.4928
하는데동의	-11.4931
오바마선거캠프	-11.4931
쉽다	-11.4931
국가안보보좌관	-11.4932
투데이	-11.4932
총선에서승리	-11.4933
실망감	-11.4933
소유즈	-11.4933
알자와히리는	-11.4934
하고있다는사실을	-11.4935
병원으로이송됐다	-11.4937
을고려해	-11.4938
있어야한다	-11.4939
rious	-11.4939
빙산	-11.494
집결	-11.494
천장	-11.4941
불균형	-11.4942
를만들었다	-11.4942
액체	-11.4943
소비자들에게	-11.4944
건강관리	-11.4944
바레인	-11.4944
모닝	-11.4945
진짜	-11.4945
일부터일까지	-11.4945
돌려보내	-11.4946
자백했다	-11.4947
샤론	-11.4947
출현	-11.4948
북한의핵프로그램	-11.4949
검문	-11.495
열광	-11.495
욕구	-11.495
고비난하며	-11.495
발간된	-11.495
기회를제공	-11.4951
배심원단	-11.4951
을비난하며	-11.4951
명이사망하고명이	-11.4952
펠드	-11.4956
ung	-11.4957
그램	-11.4957
불필요한	-11.4957
에놓인	-11.4959
철강	-11.496
스틱	-11.496
불량	-11.4963
설립자	-11.4963
꾸며	-11.4966
활력	-11.4967
의영향으로	-11.4967
를열어	-11.4967
비난해왔다	-11.4968
악화된	-11.4969
하고싶다고말했다	-11.497
수익금	-11.4972
바흐	-11.4972
진척	-11.4975
구조물	-11.4975
드라이브	-11.4975
처음엔	-11.4975
난민캠프	-11.4977
미식축구	-11.4978
판사에게	-11.4978
인권보호	-11.4979
▁샤라포바는	-11.4979
스탠리	-11.498
지난해월부터	-11.498
행동을취	-11.4981
결과가나왔다	-11.4981
식량부족	-11.4982
충돌사고	-11.4985
여사가	-11.4985
총기사건	-11.4985
단원	-11.4986
미국워싱턴	-11.4986
두사람은	-11.4986
케르	-11.4988
되어있으며	-11.4991
아담스	-11.4991
부패혐의로	-11.4992
주의보	-11.4993
liance	-11.4993
운이좋	-11.4994
의한관계자는	-11.4994
넘긴	-11.4994
위성사진	-11.4995
▁이신문은	-11.4995
기자실	-11.4995
시민들에게	-11.4996
통신원	-11.4999
를가질예정이	-11.4999
▁부시행정부는	-11.5001
부회장은	-11.5003
협의회	-11.5005
우주비행사들이	-11.5006
탈선	-11.5006
보이지않는다	-11.5006
마지막날	-11.5013
남겨두고	-11.5015
소비자들은	-11.5015
꺼내	-11.5016
정복	-11.5017
세의나이로	-11.5021
이라고생각한다	-11.5021
것으로전해졌	-11.5023
김영	-11.5025
전쟁범죄	-11.5025
병력을파견	-11.5027
북부에위치한	-11.5029
직을맡	-11.5033
관료들	-11.5034
이번회담에서	-11.5036
지난월이후	-11.5039
황소	-11.504
민주당과공화당	-11.504
발사됐다	-11.5041
를중단했다	-11.5041
미시건	-11.5042
어지고있다	-11.5043
군요	-11.5043
gree	-11.5043
분명하다	-11.5047
거점	-11.5047
무승부를	-11.505
조사를받았다	-11.505
좋았다	-11.5055
수차례	-11.5055
길바라는	-11.5056
을준비하고있다	-11.5057
를나타내는	-11.5058
개회원국	-11.5058
위기상황	-11.5059
차례우승	-11.5061
▁맨유는	-11.5062
을막아	-11.5062
틸리	-11.5063
데요	-11.5067
투표를실시	-11.5069
반입	-11.5069
게이츠장관	-11.5071
누구에게	-11.5072
이스라엘남부	-11.5073
고말했으나	-11.5073
생산업체	-11.5074
ja	-11.5076
는것을증명	-11.508
카누	-11.508
손을잡	-11.5083
유대인들	-11.509
계획을발표했다	-11.509
는데실패했다	-11.5093
지않으려	-11.5093
원유생산	-11.5094
학과교수	-11.5094
세를보이	-11.5094
만명의사람들이	-11.5094
감염되	-11.5096
영국언론	-11.5096
분리주의	-11.5096
에대한논쟁	-11.5099
에저항하	-11.5102
유가상승	-11.5103
권장	-11.5109
▁다우지수는	-11.5116
개도시에서	-11.5118
잘알고있	-11.5125
영변원자로	-11.5125
입장을표명	-11.5128
이번총선	-11.5132
지난여름	-11.5132
무기거래	-11.5133
가장오래된	-11.5138
종류	-11.5145
정부관계자가밝혔다	-11.5147
환자에게	-11.5151
년에서년	-11.5154
국무회의	-11.5155
운동화	-11.5155
클린턴후보	-11.516
마을주민들	-11.5167
정부관계자들	-11.5167
음식점	-11.5168
kill	-11.5169
젤리	-11.5182
밀크	-11.5182
하기위한노력	-11.5183
당국자들이	-11.5184
가장인기있는	-11.5189
남북간	-11.5194
추위	-11.5196
을찾고있다	-11.5199
특별위원회	-11.52
종목	-11.5201
sign	-11.5203
추방된	-11.5208
attacks	-11.5209
행사에참석	-11.5209
맡았다	-11.5218
이해관계	-11.5219
논란이되고있	-11.5222
는것을발견했다	-11.5225
지원을요청	-11.5227
지원을받는	-11.5227
에걸려	-11.5228
으로돌아오	-11.5228
었었다	-11.5232
촬영된	-11.5235
일이내에	-11.5236
풀리	-11.5238
남서부지역	-11.5241
떨어진지점	-11.5248
청산	-11.5251
에들어갔	-11.526
하지않은것	-11.5277
목숨을잃었다	-11.5278
이라는것을	-11.5278
돌아보	-11.5282
질예정이	-11.5288
때보다	-11.5292
증명서	-11.5293
에대한의문	-11.5295
지아니면	-11.5298
lead	-11.5299
천여명의	-11.5311
이루어졌	-11.5317
전화를받	-11.5318
이들중명	-11.5325
는것을봤다	-11.533
섭	-11.5334
육지	-11.5335
라이드	-11.5336
세를보이고있	-11.5337
폭행을당	-11.534
만들고있다	-11.534
북핵자회담	-11.5341
실업자	-11.5342
진행중이라	-11.5343
것으로예상되	-11.5343
것이없다	-11.5346
을기다리고있다	-11.5348
군과경찰	-11.5356
가장가까운	-11.5358
pop	-11.5359
▁의강진이	-11.536
를기록한	-11.5361
자동차판매	-11.5376
봐야	-11.5379
보호구역	-11.5379
농촌	-11.5381
내다봤다	-11.5385
하는데있어	-11.5389
로켓공격을	-11.5402
지나간	-11.5404
force	-11.5407
글판	-11.5411
문을통해	-11.5421
가능성이있는	-11.5423
고발표했	-11.5423
생각하지않는다	-11.5424
무장조직	-11.543
방위군	-11.5432
예정이며	-11.5432
를선보	-11.5432
▁클린턴의	-11.5436
측근들	-11.5442
밝히지않았지만	-11.5443
랍	-11.5445
참석자들	-11.5446
간의충돌	-11.5449
주장을부인	-11.5451
격화	-11.5451
에로승리	-11.5453
비상대책	-11.5455
을표시했다	-11.5455
올림픽성화	-11.5463
페더러	-11.5469
는발생하지않았다	-11.547
거품	-11.5476
를일으켰다	-11.5478
랜디	-11.5484
글래스고공항	-11.5485
하이브리드	-11.5487
하는데성공했다	-11.5491
사드르	-11.5493
클루니	-11.5493
륜	-11.5495
를발표하	-11.5496
임원들	-11.5497
붓	-11.5498
집무실	-11.5499
건스앤로지스	-11.55
섹스앤더시티	-11.55
북대서양조약기구	-11.55
후진타오중국국가주석	-11.55
늑	-11.55
니케이지수	-11.55
벗어날	-11.55
순식간에	-11.55
Black	-11.55
IRNA	-11.55
가자지구를점령	-11.55
다이애나전왕세자비	-11.55
알츠하이머	-11.55
demand	-11.55
공화당대선후보인존매케인상원의원	-11.55
굉장히	-11.55
늄	-11.55
볼티모어	-11.55
블래터	-11.55
솔직히	-11.55
신시내티	-11.55
야스쿠니신사	-11.55
GDP	-11.55
life	-11.55
꾀	-11.55
더글라스	-11.55
퐁	-11.55
Senate	-11.55
뇌졸중	-11.55
뚝	-11.55
아베신조일본총리	-11.55
천천히	-11.55
황우석교수	-11.55
휴먼라이츠워치	-11.55
movie	-11.55
검정색	-11.55
근소한차이로	-11.55
띤	-11.55
로야저가	-11.55
마스터즈	-11.55
바나프샤	-11.55
스틸러스	-11.55
카메론	-11.55
패트로스	-11.55
chief	-11.55
show	-11.55
다우존스산업지수	-11.55
매뉴얼	-11.55
암스테르담	-11.55
영향을미쳤다	-11.55
라우터바흐	-11.55
씻	-11.55
엉덩이는쭉빼고	-11.55
임상실험	-11.55
트레일러	-11.55
EADS	-11.55
Life	-11.55
summit	-11.55
파키스탄무슬림리그	-11.55
팻	-11.55
Japanese	-11.55
Service	-11.55
리우데자네이루	-11.55
조사를벌이고있다	-11.55
퉁	-11.55
UNHCR	-11.55
로널드레이건	-11.55
샨	-11.55
츄	-11.55
public	-11.55
간단히	-11.55
마라도나는	-11.55
뭐	-11.55
시에라리온	-11.55
언젠가	-11.55
포유류	-11.55
control	-11.55
무자비한	-11.55
폭력을행사	-11.55
strike	-11.55
IWC	-11.55
KBS	-11.55
도망쳤다	-11.55
타이타닉	-11.55
Thai	-11.55
아디다스	-11.55
월본선에서	-11.55
스피처	-11.55
메이도프	-11.55
서브프라임모기지부실	-11.55
의사소통	-11.55
버크헤드	-11.55
타임스퀘어	-11.55
▁wid	-11.55
친밀한	-11.55
▁그렇다면	-11.55
변함없	-11.55
사드르시티	-11.55
가담긴	-11.5501
다이어트	-11.5501
마약밀매	-11.5501
대선에출마	-11.5501
정착촌	-11.5501
헤드폰	-11.5501
교착상태에빠진	-11.5501
지켜봤다	-11.5501
슬픈	-11.5501
것으로기대된다	-11.5501
확고한	-11.5501
흩어져	-11.5501
씨앗	-11.5501
벤버냉키	-11.5501
원자재	-11.5501
로이터통신은	-11.5501
알라스카	-11.5501
물리치고	-11.5501
존레논	-11.5501
에스트라다	-11.5501
좁혀	-11.5501
이걸렸다	-11.5501
주목할만한	-11.5501
그밖의	-11.5502
전자메일	-11.5502
조용한	-11.5502
단순	-11.5502
놀랄	-11.5502
무죄를주장	-11.5502
사무국장은	-11.5502
숨어있	-11.5502
십자가	-11.5503
겠는가	-11.5503
트리폴리	-11.5503
대통령집무실	-11.5503
월경작전	-11.5503
여중생	-11.5503
마약중독	-11.5503
누구인지	-11.5503
빈민층	-11.5503
상무부	-11.5504
영화화한	-11.5504
도포함되어있다	-11.5504
블랙홀	-11.5504
것과같다	-11.5504
클릭	-11.5504
중령은	-11.5504
낭독	-11.5504
내륙	-11.5504
스톤감독은	-11.5506
조세프	-11.5506
당직자	-11.5506
깃발	-11.5507
고아원	-11.5507
헬렌	-11.5507
브룩	-11.5508
좋은소식이	-11.5508
무효화	-11.5508
슈퍼화요일	-11.5508
정부부처	-11.5508
을바탕으로	-11.5508
적절히	-11.5509
잡혔다	-11.5509
미국과이라크	-11.5509
햇빛	-11.5509
오는년까지	-11.5509
Iran	-11.551
한미동맹	-11.551
암살시도	-11.551
orn	-11.551
쿼터백	-11.551
힘들게	-11.551
건물잔해	-11.551
페드로	-11.5511
에대하여	-11.5512
who	-11.5512
피난처	-11.5512
다음단계	-11.5512
할렘	-11.5512
됐기때문에	-11.5513
▁이러한움직임은	-11.5513
무중력	-11.5514
올라왔다	-11.5514
할수있을것이다	-11.5514
일본포경선	-11.5515
최신작	-11.5515
즉각적으로	-11.5516
축복	-11.5516
코미디영화	-11.5517
ump	-11.5517
돌렸다	-11.5518
아프간주둔	-11.5518
하려는시도	-11.5518
신흥	-11.5518
▁미얀마정부는	-11.5518
극도로	-11.5519
서서히	-11.552
짐에따라	-11.552
신탁	-11.552
바꾼	-11.5521
이슬람무장단체	-11.5522
기밀문서	-11.5522
투성이	-11.5522
도포함됐다	-11.5523
기본적으로	-11.5524
분리된	-11.5524
전인대	-11.5526
절망	-11.5526
미중앙정보	-11.5526
CAC	-11.5527
즉석	-11.5528
하지않지만	-11.5528
우편물	-11.5529
고객들에게	-11.5529
원내대표	-11.5529
중요하게	-11.553
학술	-11.553
피살된	-11.5531
기반시설	-11.5531
경선에서승리	-11.5531
BP	-11.5532
공중보건	-11.5532
충격적인	-11.5534
오바마와클린턴	-11.5535
의미가있다	-11.5535
장기적	-11.5535
헌재	-11.5535
급성장	-11.5537
포괄적인	-11.5537
친서방	-11.5537
경계선	-11.5537
출처	-11.5537
페라로	-11.5538
버몬트주	-11.5538
고등학생	-11.5538
이례적인	-11.5539
하지않을것이다	-11.5539
간접	-11.5539
과의만남	-11.5541
방안을마련	-11.5541
켄트	-11.5542
윔블던대회	-11.5543
제기됐다	-11.5543
자료에따르면	-11.5543
되지않았으며	-11.5544
의행방	-11.5544
담합	-11.5546
경제학자들은	-11.5547
왕관	-11.5548
년에서년사이	-11.5548
거북	-11.5549
▁그들은또한	-11.555
옷을입고	-11.5552
소식통들은	-11.5552
반시리아	-11.5553
▁우즈는	-11.5554
튜브	-11.5556
목장	-11.5556
에의거	-11.5557
PR	-11.5557
강탈	-11.5559
와의회담	-11.5559
여겨지는	-11.5567
에대처하기위해	-11.5568
이러한움직임	-11.557
불법적으로	-11.5571
중동평화회의	-11.5573
넣었다	-11.5574
리콜조치	-11.5575
처음부터	-11.5576
이라크북부지역	-11.5577
공석	-11.558
부상당한	-11.558
치료를받았다	-11.5581
경제회복	-11.5582
로켓포공격	-11.5583
지상군	-11.5583
정권을잡	-11.5584
야망	-11.5584
등다양한	-11.5585
more	-11.5586
는생각이들	-11.5587
기쁘다며	-11.5588
어제밝혔다	-11.5589
연구개발	-11.559
드러나	-11.5591
사라질	-11.5592
오찬	-11.5592
할권리	-11.5593
대통령임기	-11.5594
Her	-11.5596
고답변했다	-11.5596
불만을토로했다	-11.5599
유로화	-11.5599
security	-11.5602
또하나의	-11.5604
매직	-11.5613
탈레반세력	-11.5616
지도자들에게	-11.5618
유엔총회	-11.5623
웨어	-11.5626
서방국가	-11.5629
원유가격	-11.5636
나아갈	-11.5636
도둑	-11.5637
자원봉사	-11.5637
에착수했다	-11.5638
인수제안	-11.5641
충분하다	-11.5643
주일전	-11.5645
을해결하기위해	-11.5648
들을돕기위해	-11.5651
이란핵	-11.5654
하원의장	-11.5657
헌법상	-11.5663
무패	-11.5664
냈지만	-11.5667
국회의장	-11.5667
수있을지	-11.5671
외국인투자	-11.5684
했으며이는	-11.5688
다고믿	-11.569
베티	-11.5693
Seoul	-11.5694
합의사항	-11.5696
식별	-11.5696
예정이었으나	-11.5698
티베트사태	-11.5705
것으로알려진	-11.5705
리얼	-11.5707
▁BE	-11.5716
악화되고있다	-11.5716
문건	-11.5722
andthe	-11.5723
run	-11.5726
메이어	-11.5727
을이해하	-11.573
희생된	-11.5735
밝혀냈다	-11.5736
이라고표현	-11.5739
붙어있	-11.5749
뒀	-11.5754
노대통령에게	-11.5756
존맥케인	-11.5761
핵심적인	-11.5762
명이사망했다고일현지시간	-11.5763
유대교	-11.5763
sare	-11.5764
정부측	-11.5764
말하고있습니다	-11.5769
것이라고예상했다	-11.577
필요는없	-11.5772
역을맡았	-11.5777
하지않을것	-11.5778
사실을인정했다	-11.578
가장잘	-11.578
일본측	-11.5782
문제가있다	-11.5783
폭력행위	-11.5783
압력을받고있	-11.5785
그렇지않다	-11.5789
백만달러	-11.579
경제활동	-11.5794
다가오는	-11.5798
단결	-11.5799
만에이커	-11.5801
을폐쇄했다	-11.5802
노인들	-11.581
전비법안	-11.5813
지는않지만	-11.5818
대선에서승리	-11.5818
라고부르는	-11.5823
되려	-11.5834
하지못하게	-11.5844
었음을	-11.5848
팔레스타인정부	-11.5849
레이즈	-11.5853
소매업	-11.5853
알게된	-11.5857
nor	-11.5861
억달러를지원	-11.5873
없었다고밝혔다	-11.5873
나타나고있다	-11.5873
대통령보좌관	-11.5879
외곽지역	-11.5881
를열었다	-11.5885
기힘든	-11.5887
에대한논란	-11.5889
구조대원들	-11.5904
고말했었다	-11.5904
고생각합니다	-11.5904
이번프로젝트	-11.5907
vers	-11.5914
었을것이라고	-11.5918
보잉기	-11.5922
에이르게	-11.5925
질것이라고말했다	-11.5927
감정적	-11.5935
▁코리아헤럴드	-11.5943
칠수있다	-11.5944
숨졌으며	-11.5947
에들어갈	-11.5955
집주인	-11.5957
emi	-11.5961
앓	-11.5966
임에도불구하고	-11.598
국가비상사태	-11.5983
을원한다	-11.5989
이와같이말했	-11.5992
빠졌다	-11.5997
를가지고있	-11.6001
Star	-11.6002
해주었다	-11.6019
연방법원에	-11.6026
노벨평화상수상자인	-11.6026
키바키	-11.6031
같았다	-11.6035
를막을	-11.6036
가톨릭	-11.6039
마술	-11.6045
줄일수있	-11.6049
지도않았다	-11.605
위치해있	-11.6053
호주정부	-11.6061
부상당했다	-11.6063
관광객들을	-11.6063
걷기	-11.6065
한데이어	-11.6074
지킬것	-11.6078
구매자들	-11.6079
조예선	-11.6081
▁이사고로	-11.6103
펜스	-11.6104
결론을내렸다	-11.6107
변호인단	-11.6108
블라고예비치	-11.611
꿀	-11.6115
시행되	-11.6118
아웅산수치	-11.6121
앗	-11.6123
끌어낼	-11.6124
휩	-11.6125
헝	-11.6125
랏	-11.6125
Space	-11.6125
그린스펀	-11.6125
숨겨진	-11.6125
룽	-11.6125
비무장지대	-11.6125
꽂	-11.6125
펑	-11.6125
훌	-11.6125
멜버른	-11.6125
▁왜냐하면	-11.6125
레슬링	-11.6125
리투아니아	-11.6125
마무드아마디네자드이란대통령	-11.6125
심사숙고	-11.6125
쥬	-11.6125
expect	-11.6125
긴밀한	-11.6125
래드클리프	-11.6125
에정통한	-11.6125
버락오바마미국대통령당선인	-11.6125
포즈를취	-11.6125
경보를발령	-11.6125
북방한계선	-11.6125
지난몇주간	-11.6125
아부그라이브	-11.6125
candidate	-11.6125
뎌	-11.6125
명단에서제외	-11.6125
프랑크푸르트	-11.6125
OMX	-11.6125
left	-11.6125
냉장고	-11.6125
아이만알자와히리	-11.6125
에부딪혀	-11.6125
function	-11.6125
next	-11.6125
▁Newsweek	-11.6125
노스다코타	-11.6125
야스쿠니신사참배	-11.6125
폭넓게	-11.6125
하였는데	-11.6125
네그로폰테	-11.6125
멤피스	-11.6125
휠체어	-11.6125
▁height	-11.6125
반짝이는	-11.6125
카르발라	-11.6125
Administration	-11.6125
Heart	-11.6125
블록버스터	-11.6125
클래식	-11.6125
호주오픈테니스대회	-11.6125
굶	-11.6125
꽉	-11.6125
룻	-11.6125
모레스모	-11.6125
식이요법	-11.6125
요구를들어주지않	-11.6125
혹등고래	-11.6125
support	-11.6125
윅	-11.6125
옥수수	-11.6125
배트맨	-11.6125
부동층	-11.6125
씀	-11.6125
워너브라더스	-11.6125
조바이든	-11.6125
퀘벡	-11.6125
사이언톨로지	-11.6125
조속히	-11.6125
CES	-11.6125
팡	-11.6125
ABN	-11.6125
풀려나	-11.6125
나미비아	-11.6125
배기가스	-11.6125
옵션	-11.6125
보너스	-11.6125
대법관	-11.6125
인터밀란	-11.6125
감기약	-11.6125
때때로	-11.6125
순교자	-11.6125
플레이를펼쳤다	-11.6125
트레이드	-11.6125
마피아	-11.6126
마가렛	-11.6126
불이붙	-11.6126
숨진채발견됐다	-11.6126
본거지	-11.6126
흥미로운	-11.6126
깨닫	-11.6126
계약을체결	-11.6126
조속한	-11.6126
오마바	-11.6126
결론지었다	-11.6126
대리모	-11.6126
비서관	-11.6126
중상을입었다	-11.6126
납성분	-11.6126
서두르	-11.6126
섭씨	-11.6126
주변국들	-11.6127
스콜스	-11.6127
를촉발	-11.6127
저명한	-11.6127
이야기를나누	-11.6127
비상사태가선포	-11.6127
지명수배	-11.6127
히트곡	-11.6127
게시물	-11.6128
휘발유가격이	-11.6128
투표용지	-11.6128
하기힘들다	-11.6128
일방적인	-11.6129
흡입	-11.6129
중동순방	-11.6129
다비드	-11.6129
진심으로	-11.6129
슬림	-11.6129
축구대표팀	-11.613
몇년간	-11.613
불륜	-11.613
손해를입	-11.613
세계은행총재	-11.613
임무수행	-11.613
크리스마스트리	-11.613
떠올랐다	-11.613
이벌어지고있	-11.613
휴이트	-11.613
기위함	-11.613
대선주자	-11.613
어둠	-11.6131
터키남동부	-11.6131
▁하락하며	-11.6131
가능한빨리	-11.6132
대피령	-11.6132
이뤄져야한다	-11.6132
검은색	-11.6132
교훈	-11.6132
남동생	-11.6133
조지클루니	-11.6133
경찰에체포됐다	-11.6134
고속열차	-11.6134
ATP	-11.6134
재난관리	-11.6134
More	-11.6134
하지않았으나	-11.6136
Asia	-11.6136
특수부대	-11.6136
흔히	-11.6136
떨어졌습니다	-11.6137
오후시분경	-11.6137
을토대로	-11.6137
그어느때보다	-11.6137
이동전화	-11.6137
차량폭탄테러가발생	-11.6137
의한호텔에서	-11.6137
수천개의	-11.6138
년에서년까지	-11.6138
재경부	-11.6138
처럼생긴	-11.6138
총리직에	-11.6139
를동원해	-11.6139
인도뭄바이	-11.614
순환	-11.614
밝혀져	-11.614
자유무역	-11.614
방법을모색	-11.614
프로스트	-11.6141
영국공군	-11.6141
독자적인	-11.6141
보고서에의하면	-11.6142
무력화	-11.6142
감시기구	-11.6142
첸코	-11.6143
현지주민들	-11.6143
시켰으며	-11.6144
최첨단기술	-11.6144
존스턴	-11.6144
매몰된	-11.6144
One	-11.6145
기는힘들	-11.6145
카터전대통령	-11.6146
힐러리클린턴상원의원이일현지시간	-11.6147
▁한국과미국은	-11.6147
테러사건	-11.6148
하는것을막기위해	-11.6148
민주당대통령후보	-11.6149
차이점	-11.615
을지지한다고밝혔다	-11.615
부분적으로	-11.6151
합쳐	-11.6151
▁군당국은	-11.6152
공헌	-11.6152
데스크	-11.6153
제야당인한나라당	-11.6154
마켓	-11.6156
항목	-11.6156
합리적	-11.6156
를포함하여	-11.6158
골절	-11.6159
편견	-11.6159
행정명령	-11.616
지하실	-11.616
집값	-11.616
에대한두려움	-11.6161
추억	-11.6164
근절	-11.6167
Bri	-11.6169
단계적으로	-11.6169
▁이번사고는	-11.6169
이참석한가운데	-11.6171
하려는움직임	-11.6172
팩스	-11.6173
조롱	-11.6174
돼왔다	-11.6176
명의자녀	-11.6177
들어설	-11.6177
생애	-11.6179
신랑	-11.618
▁pr	-11.6184
롤리	-11.6184
난민수용소	-11.6187
home	-11.6189
와의전쟁	-11.6189
영상물	-11.619
▁게이츠는	-11.6191
선거법	-11.6191
주만에	-11.6192
를구입하	-11.6192
산시성	-11.6192
밀매	-11.6192
브론	-11.6193
일뿐이다	-11.6194
UK	-11.6197
하고자한다	-11.6197
확산됐다	-11.6199
put	-11.6201
▁심슨은	-11.6201
tax	-11.6202
깨진	-11.6204
언니	-11.6205
시간을보냈	-11.6206
의요청으로	-11.621
▁고든브라운영국총리는	-11.6211
용도로	-11.6213
생체	-11.6213
과격단체	-11.6217
에으로승리	-11.6218
일본과중국	-11.6218
동결자금	-11.622
ities	-11.6222
매번	-11.6224
에대항하는	-11.6224
일으킬수있다	-11.6225
것으로여겨지	-11.6225
대통령비서실	-11.6226
hot	-11.623
열리기전	-11.6233
우리정부는	-11.6241
효과가있	-11.6241
찾으려	-11.6245
크레디	-11.6248
장례	-11.6249
완벽하게	-11.6249
오웬	-11.6251
의협조를	-11.6252
주변지역	-11.6252
남아시아	-11.6259
long	-11.6259
이번공격이	-11.626
인디애나주	-11.6262
▁달라이라마는	-11.6262
올려놓	-11.6263
had	-11.6263
사진속	-11.6272
징역형을선고받	-11.6273
그의죽음	-11.628
민족주의	-11.6284
부탁했다	-11.6287
보험회사	-11.6289
물리학	-11.629
낮은수치	-11.629
사용된다	-11.6295
는지여부를	-11.6296
재임기간	-11.6298
의목적은	-11.63
고코리아헤럴드가보도	-11.6302
이슬람단체	-11.6303
공화당소속	-11.6304
자연보호	-11.6305
일본도쿄	-11.6306
렉스	-11.6308
의시신을발견했다	-11.6309
불길에휩싸	-11.631
을우려해	-11.6315
을논의하기위해	-11.6316
것이아닌	-11.6318
금융시스템	-11.6319
교장	-11.6324
축출된	-11.6325
평의회	-11.6329
안정화	-11.6331
나타내고있다	-11.6335
사망자가발생했다	-11.6336
넘길	-11.6342
공적자금	-11.6343
활동가들	-11.6344
탁신총리	-11.6352
HDA	-11.6354
적합하	-11.6363
이란정부는	-11.6363
누드사진	-11.6366
거주하고있다	-11.6371
이아니며	-11.6375
반군단체	-11.6375
찾아냈다	-11.6378
하도록요구	-11.6379
년월드컵	-11.6385
그의어머니	-11.6389
네번째	-11.6404
해야할것이라	-11.6404
bill	-11.6405
▁달러에거래됐	-11.641
고난후	-11.6411
묻혔	-11.6412
보고를받	-11.6417
북동부지역	-11.6418
이상상승	-11.6419
정신병	-11.6429
막으려	-11.6429
매사추세츠	-11.6442
기쉬운	-11.6447
특성	-11.6452
는것을인정	-11.6455
이날경기에서	-11.6458
Plan	-11.6459
에티오피아군	-11.6463
사법적	-11.648
상점들	-11.6485
을찾지못	-11.6486
돌려받	-11.6491
수사결과	-11.6495
그레그	-11.6495
killed	-11.6496
총파업	-11.6503
하려는노력	-11.6505
연방검사	-11.651
유럽국가들	-11.6512
석을확보	-11.6523
민주당대선후보인버락오바마	-11.6524
바그다드중심	-11.6527
공급업체	-11.6534
[...]
