<pad>	0
<s>	0
</s>	0
<unk>	0
▁the	-3.15582
▁.	-3.21687
▁,	-3.25275
s	-3.38901
ed	-3.84412
▁to	-3.87401
▁of	-3.93146
▁a	-3.94128
▁in	-4.07293
▁and	-4.10908
ing	-4.29816
▁s	-4.57849
y	-4.73592
▁The	-4.84566
▁said	-4.88284
▁	-4.88822
▁on	-4.91212
▁for	-4.98826
▁that	-5.02177
▁is	-5.17431
ly	-5.19412
▁was	-5.26455
▁with	-5.32007
▁be	-5.33082
d	-5.39359
▁at	-5.58687
▁from	-5.62199
▁by	-5.65178
▁has	-5.67093
▁it	-5.68407
▁an	-5.70133
▁as	-5.73107
e	-5.7586
▁have	-5.75973
▁he	-5.79502
▁his	-5.80815
▁are	-5.88262
t	-5.89062
▁were	-5.96537
▁will	-5.97447
▁S	-6.05065
n	-6.05141
▁not	-6.05733
▁who	-6.11581
▁had	-6.1865
▁U	-6.2179
▁been	-6.232
▁after	-6.23342
▁I	-6.24798
▁A	-6.25461
▁their	-6.33247
▁year	-6.33488
▁but	-6.3365
▁its	-6.35963
▁people	-6.38465
▁about	-6.39992
▁Korea	-6.41434
▁more	-6.43332
▁this	-6.44703
▁which	-6.46105
▁t	-6.47172
▁two	-6.47975
▁up	-6.49777
▁would	-6.51468
▁government	-6.53676
▁they	-6.5424
▁her	-6.55682
a	-6.55792
▁or	-6.57676
▁one	-6.60468
▁out	-6.62566
▁than	-6.62854
ies	-6.62891
▁also	-6.63229
▁North	-6.6892
▁over	-6.69331
er	-6.72853
▁CNN	-6.74824
▁first	-6.76286
▁last	-6.76837
al	-6.78964
▁He	-6.80769
▁In	-6.82323
es	-6.82483
▁It	-6.84079
▁into	-6.84102
r	-6.84937
▁President	-6.85331
▁when	-6.86922
▁South	-6.87477
▁she	-6.87589
▁other	-6.88111
▁time	-6.91235
o	-6.91827
▁told	-6.92163
▁new	-6.92841
▁Korean	-6.95483
▁police	-6.95567
▁all	-6.96305
▁we	-6.96402
▁percent	-6.99836
▁some	-7.00987
▁years	-7.01143
on	-7.03695
▁But	-7.04731
▁United	-7.05878
▁them	-7.06126
▁could	-7.0654
an	-7.06895
▁can	-7.09101
en	-7.0918
▁no	-7.10648
ce	-7.10839
▁country	-7.12202
▁Monday	-7.12803
▁Iraq	-7.13509
▁there	-7.13963
▁Tuesday	-7.15108
l	-7.15144
▁says	-7.15869
ese	-7.16556
▁militar	-7.16569
▁officials	-7.16651
▁you	-7.19011
▁three	-7.19317
▁Obama	-7.20913
▁kill	-7.21245
▁him	-7.23538
▁according	-7.23647
▁Wednesday	-7.23708
▁week	-7.23717
▁million	-7.23892
▁Japan	-7.24122
in	-7.24306
▁C	-7.25037
▁take	-7.25867
▁like	-7.26348
▁Sunday	-7.26711
▁world	-7.26842
▁against	-7.27148
▁old	-7.28585
▁day	-7.2879
▁before	-7.28924
▁We	-7.29485
▁China	-7.29696
▁Bush	-7.29862
▁nuclear	-7.30808
▁where	-7.32084
▁down	-7.32874
▁what	-7.33909
▁state	-7.34788
▁us	-7.34884
▁say	-7.35002
▁since	-7.35068
cause	-7.35282
▁near	-7.36227
▁official	-7.36404
▁off	-7.3648
▁Thursday	-7.36686
▁back	-7.37069
▁most	-7.37588
▁New	-7.38323
ish	-7.38912
▁States	-7.40012
▁reported	-7.40529
tween	-7.40597
ment	-7.41258
▁if	-7.41682
▁made	-7.42309
▁al	-7.43618
▁American	-7.43865
▁now	-7.44403
▁under	-7.44534
i	-7.45516
▁just	-7.45573
▁dur	-7.45693
▁N	-7.45772
▁month	-7.47088
▁four	-7.50061
▁through	-7.50131
▁former	-7.50226
▁so	-7.50988
▁end	-7.52687
▁D	-7.53375
▁being	-7.54429
▁plan	-7.54654
▁including	-7.54701
▁high	-7.54951
▁m	-7.54989
▁called	-7.55257
▁president	-7.57067
▁statement	-7.57715
▁re	-7.58169
▁whil	-7.6048
▁help	-7.60565
▁did	-7.60591
▁found	-7.60958
▁nation	-7.61262
▁group	-7.61343
▁any	-7.61371
▁home	-7.61814
▁get	-7.61874
▁many	-7.63796
▁party	-7.63951
▁work	-7.64343
▁do	-7.644
▁US	-7.65128
▁part	-7.65663
▁city	-7.65772
▁National	-7.65854
▁show	-7.65886
▁report	-7.66026
▁won	-7.66634
▁may	-7.66836
▁reports	-7.67971
▁nex	-7.68053
▁six	-7.68131
▁attack	-7.6875
▁talks	-7.68783
man	-7.69077
▁our	-7.6916
▁make	-7.69197
hose	-7.69351
▁un	-7.70617
▁Minister	-7.70738
▁security	-7.71146
▁war	-7.71919
▁news	-7.72013
▁days	-7.72287
▁death	-7.72299
▁leas	-7.72575
able	-7.72671
▁second	-7.72975
other	-7.73275
ion	-7.73698
▁troops	-7.73962
▁man	-7.74521
▁five	-7.75289
▁still	-7.7588
▁want	-7.76723
▁Seoul	-7.7678
▁di	-7.77078
▁long	-7.77395
▁around	-7.78148
▁H	-7.78787
▁see	-7.78869
▁T	-7.79302
▁know	-7.79482
▁set	-7.80062
▁hour	-7.80359
▁come	-7.80691
▁W	-7.80899
▁recent	-7.81196
▁Clinton	-7.82252
▁way	-7.82342
▁close	-7.82411
ok	-7.84405
▁leader	-7.84613
▁go	-7.84732
▁top	-7.85155
▁lead	-7.85236
ther	-7.85915
▁support	-7.86262
▁site	-7.86309
out	-7.86443
▁return	-7.86809
▁program	-7.86865
▁place	-7.86926
ity	-7.87281
▁Iraqi	-7.87448
▁expected	-7.87673
▁B	-7.87814
est	-7.88298
▁company	-7.88828
▁saying	-7.8946
▁Brit	-7.8988
▁billion	-7.90334
▁look	-7.90978
▁how	-7.91143
▁spokesm	-7.91323
▁presidential	-7.91958
le	-7.92007
▁public	-7.92154
▁House	-7.92764
▁th	-7.92909
▁should	-7.93443
▁number	-7.93907
▁office	-7.94317
▁arrest	-7.94781
▁Saturday	-7.95022
▁M	-7.95713
▁campaign	-7.95717
▁head	-7.95873
▁Chin	-7.95916
▁Friday	-7.96603
▁well	-7.97118
▁children	-7.97123
▁minister	-7.97339
ic	-7.97391
▁political	-7.97871
▁Washington	-7.97958
very	-7.98101
▁meeting	-7.98334
▁members	-7.98673
▁P	-7.99256
▁release	-7.99412
▁countries	-7.99838
▁claim	-7.99841
▁early	-8.00241
▁believe	-8.00392
▁She	-8.00591
▁came	-8.00898
▁Kim	-8.00998
▁An	-8.0131
▁use	-8.01374
▁And	-8.01775
▁York	-8.01883
▁team	-8.01884
▁forces	-8.01931
▁going	-8.02113
▁Party	-8.02177
▁This	-8.02622
▁months	-8.02811
▁think	-8.02992
▁visit	-8.03489
ers	-8.03657
▁arm	-8.03939
▁election	-8.04458
▁Lee	-8.04767
▁court	-8.04953
▁authorit	-8.05076
▁give	-8.05359
▁There	-8.05572
▁even	-8.0568
▁K	-8.05732
▁family	-8.06507
▁international	-8.06614
held	-8.06624
▁try	-8.06625
▁need	-8.06762
▁left	-8.07165
▁capital	-8.07296
▁John	-8.07451
▁ago	-8.07695
▁night	-8.08017
▁much	-8.08045
▁power	-8.08628
▁issue	-8.08725
▁face	-8.0892
▁announc	-8.09007
▁national	-8.09014
▁wom	-8.09127
▁yesterday	-8.09249
▁fire	-8.09438
▁e	-8.10354
▁deal	-8.1107
▁move	-8.11192
▁good	-8.11535
▁Pakistan	-8.11572
▁allow	-8.11585
▁later	-8.11648
▁Democratic	-8.11802
▁ask	-8.12057
▁run	-8.12059
▁economic	-8.12349
h	-8.12967
ation	-8.13091
▁Ministry	-8.13218
▁both	-8.13298
▁my	-8.13354
▁Iran	-8.14094
▁area	-8.14232
▁chief	-8.14823
land	-8.14911
uch	-8.15116
▁life	-8.15269
▁same	-8.15283
▁among	-8.16305
▁On	-8.16403
▁turn	-8.16502
▁own	-8.16598
▁bank	-8.1692
▁Prime	-8.17051
▁car	-8.18155
▁business	-8.18412
▁market	-8.18704
▁major	-8.18807
▁At	-8.19116
▁World	-8.19179
▁men	-8.19188
▁service	-8.19339
▁dead	-8.19455
▁appear	-8.1947
▁start	-8.19595
▁Roh	-8.19642
▁foreign	-8.19685
▁soldier	-8.20265
▁past	-8.20269
▁earlie	-8.20741
▁State	-8.20789
▁F	-8.2134
▁human	-8.21387
▁Police	-8.21521
▁candidate	-8.21663
▁militant	-8.21821
▁right	-8.21935
▁leaders	-8.22194
▁third	-8.22453
▁E	-8.22514
ve	-8.22697
▁then	-8.22904
▁concern	-8.23249
▁whe	-8.23637
▁call	-8.23749
▁media	-8.23897
▁main	-8.24056
▁opposition	-8.24216
▁half	-8.24274
▁local	-8.24374
▁record	-8.24378
▁vote	-8.24482
▁Taliban	-8.24537
▁hit	-8.24737
▁case	-8.24741
▁economy	-8.25023
▁few	-8.25352
▁sign	-8.2549
▁agency	-8.25722
▁remain	-8.25742
▁That	-8.26013
▁put	-8.26581
▁com	-8.26746
to	-8.2675
▁oil	-8.26901
▁spokes	-8.26974
▁White	-8.28031
▁L	-8.28062
▁Afghanistan	-8.28166
▁morning	-8.28182
▁large	-8.28264
▁Palestinian	-8.28501
▁final	-8.28651
▁German	-8.2867
▁house	-8.28957
▁McCain	-8.29177
▁test	-8.29311
▁health	-8.29521
▁clear	-8.29858
▁money	-8.29865
▁late	-8.30157
▁rule	-8.31015
▁your	-8.31027
▁increase	-8.31233
▁If	-8.3173
▁does	-8.31814
▁attacks	-8.31819
▁law	-8.31955
▁unti	-8.32357
▁led	-8.33235
▁killing	-8.33262
▁win	-8.33287
▁financial	-8.33334
▁school	-8.33496
▁already	-8.33536
▁began	-8.33709
▁decision	-8.34045
th	-8.3409
▁Al	-8.34222
▁don	-8.34229
▁source	-8.34334
▁system	-8.346
▁AP	-8.34648
u	-8.3498
▁water	-8.35325
▁best	-8.35452
▁strong	-8.35692
▁name	-8.36502
▁free	-8.37231
▁bomb	-8.37248
▁line	-8.37338
▁Sen	-8.37734
▁along	-8.37822
▁film	-8.37859
▁Press	-8.37863
cross	-8.38026
▁French	-8.3804
▁miles	-8.38107
▁away	-8.38225
▁Israeli	-8.38449
▁play	-8.38463
▁continue	-8.38464
▁become	-8.38603
m	-8.38704
▁workers	-8.38731
▁Israel	-8.38885
▁Beijing	-8.39158
▁cut	-8.39293
▁keep	-8.39325
▁region	-8.39424
▁change	-8.39585
▁small	-8.39723
▁O	-8.39898
▁b	-8.40344
▁eight	-8.4048
▁Barack	-8.40481
▁University	-8.40862
▁today	-8.4139
▁attempt	-8.41646
▁consider	-8.41786
▁Secretar	-8.41871
▁hope	-8.41958
▁injur	-8.42424
yang	-8.42471
▁agreement	-8.42563
▁European	-8.43236
▁bas	-8.43512
▁Web	-8.4361
▁video	-8.43723
▁space	-8.43809
▁confirm	-8.43854
▁operation	-8.43857
▁accus	-8.44257
▁current	-8.44353
▁Depart	-8.44506
each	-8.44712
▁Russia	-8.44717
▁weapons	-8.44848
▁woman	-8.44849
▁Baghdad	-8.44948
um	-8.45057
▁No	-8.45106
▁conference	-8.45352
▁Times	-8.4541
▁offer	-8.45564
▁mak	-8.45866
▁these	-8.45878
taking	-8.45929
▁condition	-8.46043
▁air	-8.46143
▁rate	-8.46294
▁person	-8.46297
▁gas	-8.46326
us	-8.46338
▁great	-8.46346
▁force	-8.46414
▁me	-8.46516
▁control	-8.46701
▁violence	-8.46749
▁station	-8.47171
▁general	-8.47361
▁plann	-8.4764
▁border	-8.4797
▁seven	-8.48175
▁far	-8.48566
▁London	-8.48586
▁big	-8.48658
▁weeks	-8.49214
▁prices	-8.49253
▁One	-8.49649
▁hospital	-8.49735
▁G	-8.49903
▁action	-8.49954
▁California	-8.50668
went	-8.5079
▁launch	-8.50836
▁administration	-8.50883
▁town	-8.50902
▁fund	-8.50947
▁Republican	-8.51321
▁others	-8.51431
▁added	-8.51783
▁full	-8.51786
▁alleged	-8.51851
▁food	-8.51938
▁Britain	-8.51939
▁students	-8.52103
▁Pyong	-8.52153
▁article	-8.52413
▁point	-8.52505
▁involv	-8.52637
▁global	-8.52781
▁might	-8.53009
son	-8.53023
▁thousand	-8.53224
▁southern	-8.53231
▁include	-8.53358
▁post	-8.53519
▁rights	-8.53525
▁grow	-8.53655
▁open	-8.54235
▁Foreign	-8.54308
▁releas	-8.54404
▁base	-8.54457
▁information	-8.54756
▁target	-8.54965
▁Internet	-8.54971
▁comment	-8.55043
▁order	-8.55553
▁province	-8.55617
▁member	-8.55683
▁p	-8.55732
▁got	-8.55741
▁outside	-8.55925
▁points	-8.56006
▁ve	-8.56053
▁International	-8.56291
te	-8.56341
▁Man	-8.5644
▁talk	-8.56486
▁immediate	-8.56514
▁following	-8.56721
▁ahead	-8.5704
▁here	-8.5707
▁sever	-8.57338
▁side	-8.57794
▁May	-8.58064
▁France	-8.58458
▁hold	-8.58657
▁key	-8.5881
▁investigation	-8.58819
▁short	-8.58878
▁aid	-8.5888
▁never	-8.58999
▁March	-8.59005
▁larges	-8.59089
▁possible	-8.59303
▁follow	-8.59352
▁cause	-8.59353
▁working	-8.5953
▁center	-8.59758
▁question	-8.59764
▁director	-8.59944
▁cost	-8.60153
▁must	-8.60397
▁find	-8.60431
▁charges	-8.6047
▁live	-8.60617
▁Some	-8.60781
▁January	-8.61075
▁crisis	-8.61076
▁trade	-8.61341
▁young	-8.61455
ism	-8.61639
▁Securit	-8.61679
▁body	-8.61942
greed	-8.62381
▁After	-8.62481
▁June	-8.62505
▁companies	-8.62722
▁every	-8.62777
▁latest	-8.62993
▁again	-8.63174
ness	-8.63232
▁study	-8.63249
▁stop	-8.63383
▁July	-8.63954
▁America	-8.64167
▁race	-8.64248
▁due	-8.64454
▁elections	-8.64508
▁Associat	-8.64596
▁newspaper	-8.6464
▁Russian	-8.6492
▁For	-8.65009
▁hard	-8.65048
▁toward	-8.65125
▁anti	-8.65134
▁tell	-8.6527
▁interview	-8.65445
▁Islam	-8.6548
▁game	-8.65593
little	-8.65868
▁round	-8.65897
▁reporters	-8.65992
▁Afghan	-8.66098
▁senior	-8.662
▁George	-8.66351
▁building	-8.66528
▁central	-8.66655
▁peace	-8.66813
▁carry	-8.66867
▁England	-8.67087
▁pay	-8.67238
▁Bank	-8.67347
▁term	-8.67952
▁search	-8.68092
▁suicide	-8.68124
▁process	-8.68255
▁less	-8.68301
▁September	-8.68585
▁interest	-8.68733
▁ruling	-8.68837
▁weekend	-8.69091
▁emergency	-8.69374
z	-8.69636
▁northern	-8.69859
▁Gaza	-8.69876
▁list	-8.69926
▁previous	-8.70106
▁hostage	-8.70117
een	-8.70296
▁further	-8.70364
▁groups	-8.70404
▁Ap	-8.70499
▁demand	-8.70508
▁low	-8.70514
▁meet	-8.70806
▁age	-8.70855
▁efforts	-8.71017
self	-8.71091
▁lot	-8.71092
▁level	-8.71113
one	-8.71176
cy	-8.71248
▁share	-8.71583
▁couple	-8.71664
such	-8.71775
▁As	-8.71811
ive	-8.71816
▁bring	-8.71819
▁prime	-8.72038
▁develop	-8.72062
▁travel	-8.72181
▁per	-8.72252
raf	-8.72424
▁provide	-8.72519
▁send	-8.72698
▁My	-8.7279
▁minutes	-8.73033
▁child	-8.73229
age	-8.73686
▁suggest	-8.73704
▁lost	-8.73747
▁serious	-8.73747
▁policy	-8.73838
▁too	-8.73884
ril	-8.74035
▁future	-8.74076
▁goal	-8.74147
▁Re	-8.7424
▁better	-8.74292
▁Congress	-8.74545
▁terrorist	-8.74657
▁wide	-8.74833
eda	-8.74918
woman	-8.75129
▁shot	-8.75205
ry	-8.75254
▁train	-8.75332
▁December	-8.75619
▁hundred	-8.75619
▁East	-8.75743
▁strike	-8.7577
▁bill	-8.75819
▁Musha	-8.75822
▁stay	-8.75893
▁sent	-8.75903
▁TV	-8.75952
▁victory	-8.7596
▁missile	-8.76164
▁Court	-8.76167
▁storm	-8.76174
eries	-8.76805
▁fuel	-8.76979
▁poll	-8.77047
ought	-8.7705
▁break	-8.77224
▁You	-8.77266
▁hand	-8.77283
▁result	-8.7745
hind	-8.77523
▁lawmaker	-8.77539
▁When	-8.77553
ary	-8.77699
▁incident	-8.77804
▁damage	-8.77904
though	-8.77928
▁threaten	-8.78139
▁direct	-8.78613
▁seek	-8.7863
▁Europe	-8.78824
▁His	-8.78982
▁wounded	-8.79145
g	-8.79188
▁mother	-8.7936
▁enough	-8.79752
▁father	-8.79767
▁November	-8.80033
▁David	-8.80034
▁important	-8.80035
▁More	-8.80041
▁Asia	-8.80203
▁really	-8.80271
ial	-8.80598
▁cell	-8.80621
▁Pa	-8.80781
▁City	-8.80835
▁season	-8.81479
▁hav	-8.81636
▁plane	-8.81745
▁wife	-8.81749
▁ever	-8.81901
▁job	-8.82093
▁discuss	-8.82273
▁stock	-8.82372
▁vehicle	-8.82605
▁Arm	-8.82655
▁fall	-8.82782
▁protest	-8.82845
▁With	-8.82865
▁industry	-8.82895
▁television	-8.82926
▁started	-8.83037
▁ground	-8.83179
coming	-8.83248
ance	-8.83334
▁prison	-8.8347
▁India	-8.83525
▁almost	-8.83588
▁San	-8.83658
▁executive	-8.83773
▁inside	-8.838
▁sex	-8.83817
▁whose	-8.83848
▁role	-8.83881
ier	-8.84035
ous	-8.84049
▁act	-8.84133
na	-8.84571
▁crash	-8.84652
▁press	-8.84697
BC	-8.84771
▁J	-8.84879
▁Democrat	-8.84907
mid	-8.85244
▁history	-8.85551
▁August	-8.85841
▁Center	-8.85846
▁foot	-8.85864
less	-8.85932
▁Tw	-8.86012
▁front	-8.86201
▁So	-8.86306
▁pro	-8.86409
▁organization	-8.86451
▁star	-8.86451
▁caus	-8.86666
▁fighting	-8.86724
▁different	-8.86748
mar	-8.86924
▁problem	-8.86996
▁private	-8.87048
▁soon	-8.87148
▁heart	-8.87287
▁All	-8.87306
▁General	-8.87347
▁mission	-8.87423
▁player	-8.87534
▁judge	-8.87763
▁receiv	-8.87885
▁warn	-8.87934
▁complete	-8.88415
▁victims	-8.88422
▁evidence	-8.88568
▁urg	-8.88592
▁total	-8.88804
▁conduct	-8.88882
▁problems	-8.88924
▁fail	-8.89053
▁special	-8.89107
▁rebel	-8.89192
▁negotiation	-8.89194
vez	-8.8922
▁War	-8.89457
▁gave	-8.89494
▁scientist	-8.89494
▁pressure	-8.89533
▁step	-8.89548
▁Australia	-8.89574
ten	-8.89607
▁charge	-8.89686
▁voter	-8.89718
▁homes	-8.90119
▁room	-8.90209
▁areas	-8.90247
▁de	-8.90256
▁join	-8.90265
▁Las	-8.90318
▁elect	-8.90412
▁February	-8.90428
▁Nation	-8.90446
▁times	-8.90696
▁Council	-8.90742
▁flight	-8.90801
▁tour	-8.91076
▁leave	-8.91103
▁protect	-8.91215
▁R	-8.91322
▁liv	-8.91324
▁supporter	-8.91354
▁hyun	-8.91374
▁despi	-8.91487
▁coast	-8.91508
▁trip	-8.91801
▁reach	-8.91882
▁yet	-8.92049
▁met	-8.92332
▁primar	-8.92575
▁speak	-8.92613
▁risk	-8.92964
▁situation	-8.92965
ri	-8.92989
▁thought	-8.93011
▁w	-8.93192
▁happen	-8.93344
▁tried	-8.93364
▁severa	-8.93509
▁Senate	-8.93615
▁Angel	-8.93622
▁fell	-8.93647
▁Park	-8.93739
▁Pakistani	-8.93763
▁research	-8.93962
ton	-8.94226
▁crew	-8.94263
▁link	-8.94276
▁watch	-8.94558
▁illegal	-8.94582
▁West	-8.94608
▁ship	-8.94821
▁detail	-8.94909
▁loss	-8.94926
▁south	-8.95028
▁October	-8.95237
▁lower	-8.95406
ally	-8.95452
▁energy	-8.95576
▁serve	-8.95605
▁express	-8.95868
▁approv	-8.95919
▁price	-8.96077
▁walk	-8.96207
▁pull	-8.96235
▁parliament	-8.96447
▁Florida	-8.96562
▁real	-8.96678
▁sell	-8.96717
known	-8.96764
wide	-8.9679
▁request	-8.96893
▁ministr	-8.96893
▁rival	-8.96899
▁speech	-8.97227
▁attend	-8.97231
▁According	-8.97244
▁nine	-8.97261
▁denie	-8.97264
▁summit	-8.97286
▁son	-8.97298
▁results	-8.97321
▁wanted	-8.9748
▁federal	-8.97563
▁Gen	-8.97734
▁airport	-8.97879
▁Hamas	-8.979
▁medical	-8.97915
f	-8.97915
▁movie	-8.98074
▁aim	-8.98081
▁road	-8.98148
▁Moo	-8.98156
▁Leban	-8.98239
▁lawyer	-8.98245
▁position	-8.98267
▁hotel	-8.98584
▁Thai	-8.9859
▁something	-8.98605
▁ll	-8.98736
▁phone	-8.98783
▁decided	-8.98811
▁focus	-8.98918
▁UN	-8.99218
▁Union	-8.99251
▁animal	-8.99266
▁north	-8.99288
▁together	-8.993
or	-8.99328
▁Muslim	-8.996
▁dozen	-8.99689
▁resident	-8.99836
biggest	-8.99882
▁begin	-8.99935
▁bus	-9.00215
▁Agenc	-9.0025
O	-9.00581
▁calls	-9.00626
▁quick	-9.00635
▁crime	-9.00649
▁daughter	-9.00658
▁To	-9.00904
▁co	-9.0095
▁prosecutor	-9.00987
▁rise	-9.00999
▁boy	-9.01074
by	-9.01152
▁address	-9.01209
▁crowd	-9.01335
▁growth	-9.01369
▁light	-9.01421
▁needed	-9.01446
▁fight	-9.01552
▁Rice	-9.01701
▁stage	-9.01744
▁People	-9.02031
▁missing	-9.02157
c	-9.02196
▁reached	-9.02226
side	-9.02305
▁terror	-9.02355
▁chance	-9.0239
▁Hillary	-9.02398
▁saw	-9.02466
▁rais	-9.0251
▁disease	-9.02511
▁girl	-9.02536
▁effort	-9.02542
▁Asian	-9.02644
▁arriv	-9.02934
▁Koreans	-9.03026
owever	-9.03137
▁mov	-9.03263
▁product	-9.03391
▁apparent	-9.03493
▁defense	-9.03811
▁getting	-9.03829
▁states	-9.03851
▁Olympic	-9.0401
▁treat	-9.04138
▁popular	-9.04189
▁fee	-9.046
▁online	-9.04675
▁protesters	-9.04695
▁battle	-9.04871
▁Sarkozy	-9.04883
▁scene	-9.04888
▁kind	-9.0494
▁expect	-9.04945
▁stand	-9.05198
▁prevent	-9.05245
▁match	-9.05287
▁carrie	-9.05603
▁heavy	-9.05609
▁Robert	-9.0561
▁jail	-9.05611
▁Hong	-9.05641
▁feel	-9.05929
▁seem	-9.05931
co	-9.05995
▁markets	-9.06015
▁cover	-9.06068
▁nomination	-9.06355
▁Earl	-9.06423
st	-9.06447
▁legal	-9.06465
came	-9.06484
▁blood	-9.06686
▁pick	-9.06737
▁threat	-9.07316
▁schedul	-9.07413
ra	-9.07416
▁Texas	-9.07447
▁issues	-9.07608
▁tax	-9.07621
▁relations	-9.07634
▁credit	-9.07725
▁Ki	-9.0804
▁running	-9.08208
▁Brown	-9.08245
▁mid	-9.08255
▁destroy	-9.08367
▁event	-9.08462
▁form	-9.08673
▁Australian	-9.08846
▁Paul	-9.08913
▁Tokyo	-9.08943
▁blast	-9.08943
▁buy	-9.08962
▁board	-9.09104
▁delay	-9.09326
▁fan	-9.09329
▁Authorit	-9.09372
▁black	-9.09546
▁murder	-9.09563
▁project	-9.0962
▁park	-9.09705
▁quarter	-9.09706
▁Hill	-9.09946
▁land	-9.10673
▁host	-9.10688
▁Cha	-9.10703
▁idea	-9.1076
▁Bhut	-9.10844
▁count	-9.11437
efense	-9.11458
▁summer	-9.11615
▁coalition	-9.11616
▁officers	-9.11814
▁though	-9.12037
▁bad	-9.1204
▁estimate	-9.12203
▁opened	-9.12213
▁Turke	-9.12246
▁protests	-9.12249
▁Force	-9.12523
▁message	-9.12529
▁cat	-9.12534
▁describ	-9.12653
▁bid	-9.12724
▁Los	-9.12754
▁suffer	-9.12996
▁sanction	-9.13179
▁title	-9.13181
▁population	-9.13182
▁island	-9.13196
▁f	-9.13326
ern	-9.13437
▁Paris	-9.13445
▁c	-9.13448
▁continued	-9.13574
▁lives	-9.13612
▁Cup	-9.13618
k	-9.13631
▁firm	-9.13965
pent	-9.1401
▁development	-9.14055
▁higher	-9.14151
▁civilians	-9.14191
▁quot	-9.14281
▁Co	-9.14624
▁plant	-9.14748
▁communist	-9.14763
▁trial	-9.14781
▁technology	-9.14788
▁image	-9.14815
za	-9.14862
▁officer	-9.14922
▁polls	-9.15048
▁resolution	-9.15161
▁committee	-9.15193
▁story	-9.15297
ways	-9.15377
▁deep	-9.15478
▁sentence	-9.15521
▁doing	-9.15711
▁average	-9.15732
▁appeal	-9.15963
▁measures	-9.15966
▁chairman	-9.15979
whil	-9.16115
▁community	-9.16182
▁survey	-9.16201
▁identified	-9.16227
▁ra	-9.16301
▁Abou	-9.16359
▁ceremon	-9.16368
▁analyst	-9.16374
▁refus	-9.16475
ung	-9.16551
x	-9.16564
▁minute	-9.16655
▁beat	-9.16749
▁debate	-9.1675
▁Africa	-9.16952
▁Iranian	-9.1703
▁letter	-9.17212
▁production	-9.17234
▁Her	-9.17459
▁things	-9.17531
▁date	-9.17554
▁husband	-9.17593
▁Michael	-9.17594
▁contain	-9.17742
▁book	-9.17968
▁Commission	-9.18004
▁Committee	-9.18004
▁intelligen	-9.18006
▁am	-9.1806
▁Grand	-9.18062
▁safe	-9.18126
▁fired	-9.18307
▁wait	-9.18418
▁sales	-9.18479
el	-9.1852
▁let	-9.18667
▁network	-9.18695
▁music	-9.18704
▁democrac	-9.18832
▁What	-9.18833
▁sea	-9.18864
▁News	-9.1897
▁shooting	-9.19192
▁similar	-9.19249
▁dispute	-9.19259
▁often	-9.19446
▁drive	-9.19504
▁done	-9.19606
▁fear	-9.19608
▁push	-9.19985
▁delegates	-9.20039
▁moment	-9.20096
▁Per	-9.2041
▁Put	-9.20605
▁ordered	-9.20687
▁cit	-9.20755
re	-9.20805
▁facilit	-9.20886
▁Street	-9.20936
ia	-9.20988
▁African	-9.21173
▁famili	-9.21268
▁Now	-9.21474
▁present	-9.21529
▁field	-9.21689
▁fact	-9.21791
▁period	-9.21984
▁Count	-9.222
▁neighbor	-9.22213
▁accident	-9.22256
▁drug	-9.22283
▁journalist	-9.22665
▁Dow	-9.22735
vice	-9.22783
▁related	-9.22828
▁increasing	-9.23079
▁accept	-9.23154
▁Red	-9.23166
▁Wall	-9.23285
▁rest	-9.23295
eague	-9.23316
▁love	-9.23364
ey	-9.23455
▁difficult	-9.23493
▁afternoon	-9.23519
▁finish	-9.23528
▁joint	-9.23895
▁experts	-9.2392
▁reform	-9.23935
▁English	-9.23951
▁white	-9.23953
▁paper	-9.23959
▁forc	-9.23973
▁tourist	-9.24008
▁included	-9.24207
▁Air	-9.2423
▁suspected	-9.24233
ful	-9.24306
▁certain	-9.24389
▁initial	-9.2439
▁parents	-9.24395
selves	-9.24418
▁gain	-9.24523
taken	-9.24614
▁care	-9.24642
▁kilometer	-9.2483
▁huge	-9.24864
▁Kong	-9.24991
▁ready	-9.25056
▁reject	-9.2523
▁potential	-9.25273
▁sexual	-9.25324
▁activities	-9.25347
▁NAT	-9.25432
▁computer	-9.2545
▁bodie	-9.25496
▁access	-9.25504
▁contract	-9.25523
▁draw	-9.25684
▁vot	-9.25772
truck	-9.25848
▁matter	-9.25892
▁commander	-9.25909
giving	-9.26156
▁detain	-9.26159
▁burn	-9.26182
▁course	-9.2623
▁eastern	-9.26325
ty	-9.26351
▁Saudi	-9.26612
stead	-9.26733
▁Dr	-9.26749
▁declar	-9.26773
ler	-9.26807
▁leav	-9.27003
▁rally	-9.27074
ah	-9.27096
ard	-9.27218
▁account	-9.27312
▁contact	-9.27515
▁block	-9.27515
▁poor	-9.27517
▁played	-9.27592
▁wear	-9.27747
▁cases	-9.27878
▁however	-9.28006
p	-9.28011
▁announcement	-9.28021
▁means	-9.28059
▁opening	-9.28078
▁design	-9.282
▁challenge	-9.2824
▁streets	-9.28272
▁Turk	-9.28296
▁jobs	-9.283
▁Mean	-9.28452
▁exchange	-9.28473
▁Association	-9.28506
▁cars	-9.28538
▁Indian	-9.28649
▁ban	-9.28677
▁tie	-9.28721
▁friend	-9.28832
▁wors	-9.2884
▁patient	-9.28927
▁Be	-9.29041
▁majorit	-9.29074
▁response	-9.29345
▁suspend	-9.29345
▁why	-9.29357
▁broke	-9.29409
▁view	-9.29508
▁manager	-9.29515
▁Harr	-9.2952
▁progress	-9.29787
▁Assembly	-9.29808
▁cross	-9.29836
▁enter	-9.29866
▁inter	-9.29886
▁shows	-9.30004
▁create	-9.30043
▁hearing	-9.30065
▁provid	-9.30085
▁raid	-9.30287
▁deliver	-9.30328
▁dog	-9.30386
▁safety	-9.30505
ither	-9.30531
▁treatment	-9.30819
▁forward	-9.30898
▁Ban	-9.31077
▁Illinois	-9.3121
▁attorney	-9.3121
▁Taiwan	-9.3121
▁availab	-9.3126
▁sure	-9.31337
wood	-9.31372
▁spoke	-9.31462
▁track	-9.31474
▁published	-9.31557
▁partie	-9.31602
▁prisoner	-9.31694
▁lift	-9.3172
▁cities	-9.31833
men	-9.32111
▁single	-9.32384
▁material	-9.32441
▁critical	-9.32443
ar	-9.32581
▁check	-9.3264
▁understand	-9.32963
rought	-9.33001
▁passed	-9.33037
▁session	-9.33111
▁gun	-9.33157
▁union	-9.3336
▁spread	-9.33452
▁Su	-9.3359
▁explosion	-9.33591
▁relationship	-9.33593
▁staff	-9.33626
▁probabl	-9.33678
▁village	-9.3383
▁Spa	-9.33834
GNP	-9.34175
▁Corp	-9.34539
▁spending	-9.3461
▁Mexico	-9.35048
▁allegation	-9.35052
▁Go	-9.35098
▁professor	-9.35538
▁Chief	-9.35539
▁Health	-9.3554
▁diplomatic	-9.35628
▁criticiz	-9.35773
ever	-9.3578
▁district	-9.36036
▁radio	-9.36044
▁investigat	-9.36106
time	-9.36187
▁Day	-9.36338
ite	-9.36381
ong	-9.36434
▁holding	-9.36516
▁nominee	-9.36525
▁limit	-9.3653
▁fast	-9.36536
▁secretary	-9.36596
ING	-9.36599
se	-9.36717
▁unit	-9.37016
▁Earth	-9.37025
▁Virginia	-9.37045
ley	-9.37106
▁longer	-9.37612
▁raise	-9.37869
▁non	-9.37874
▁involve	-9.37899
▁Ko	-9.37968
▁researcher	-9.37979
▁abo	-9.37982
▁annual	-9.38006
▁female	-9.38025
▁senator	-9.38025
▁Italian	-9.38033
▁avoid	-9.38126
▁Bill	-9.38251
▁sold	-9.38297
ory	-9.38437
▁passengers	-9.38507
▁Smith	-9.38518
▁Shiite	-9.38532
▁winning	-9.3854
▁brother	-9.38546
▁actual	-9.38677
▁canno	-9.38761
ir	-9.39007
▁Chicago	-9.39038
▁Middle	-9.39038
▁rescue	-9.39287
▁Chung	-9.39552
▁nothing	-9.39571
▁camp	-9.39732
▁St	-9.39768
ASA	-9.39791
▁decades	-9.398
▁injuries	-9.39898
▁helicopter	-9.40061
▁particular	-9.40062
▁lack	-9.40075
▁citizens	-9.40101
▁Sea	-9.40361
▁award	-9.4049
▁Italy	-9.406
w	-9.40769
▁produc	-9.40869
oo	-9.40998
▁Most	-9.41157
▁personal	-9.41168
▁thing	-9.41294
▁Mark	-9.41368
▁Office	-9.41453
▁warning	-9.41534
▁trading	-9.41615
▁church	-9.41626
▁investor	-9.41664
▁committ	-9.4173
▁size	-9.41748
▁discovered	-9.41786
▁dollar	-9.41903
▁experience	-9.42133
way	-9.42237
▁movement	-9.42367
▁secret	-9.42446
▁truck	-9.42527
▁steps	-9.42528
▁Dae	-9.42555
▁Kar	-9.42662
▁insurgent	-9.42665
▁rare	-9.42689
▁club	-9.42787
ni	-9.42863
ie	-9.43005
▁red	-9.43069
▁criminal	-9.43195
▁rising	-9.43217
▁toll	-9.43317
special	-9.43488
▁fly	-9.4354
▁data	-9.43765
▁Jones	-9.4377
▁rose	-9.43791
▁operat	-9.43829
▁insist	-9.43856
▁seat	-9.4393
▁approach	-9.44036
▁success	-9.44187
▁resign	-9.44234
▁conservative	-9.44261
▁anything	-9.44268
▁barrel	-9.4427
▁separate	-9.44322
▁Federal	-9.44373
▁actor	-9.44393
▁pai	-9.44494
▁slow	-9.44593
▁investment	-9.44634
▁adding	-9.44671
▁employees	-9.44711
▁establish	-9.44737
▁range	-9.44791
▁maintain	-9.44799
▁Former	-9.44815
▁Western	-9.4482
▁build	-9.45011
▁gather	-9.45053
▁natural	-9.45072
▁Prince	-9.45186
▁King	-9.45203
▁pass	-9.45288
▁rain	-9.45292
▁friends	-9.45309
▁common	-9.45343
▁Group	-9.45346
▁reactor	-9.45348
ney	-9.45357
▁boat	-9.45368
▁worth	-9.45377
▁camera	-9.45389
▁code	-9.45394
▁extend	-9.45411
▁wound	-9.45429
▁Shin	-9.45753
▁satellite	-9.45885
aught	-9.45886
▁labor	-9.46055
▁mean	-9.46116
▁dropp	-9.46198
kept	-9.46208
▁Star	-9.4623
▁finding	-9.46361
▁earthquake	-9.46429
▁value	-9.46443
▁peaceful	-9.46451
▁honor	-9.46607
▁dollars	-9.46679
▁figure	-9.46831
▁condemn	-9.46979
▁Carolina	-9.46987
▁Peter	-9.47037
▁independent	-9.47056
▁receive	-9.47307
▁import	-9.47311
▁De	-9.47332
▁defeat	-9.47538
▁occurr	-9.47573
▁education	-9.47589
▁shut	-9.47801
▁rock	-9.47812
ble	-9.47835
▁represent	-9.48057
▁additional	-9.48188
▁ran	-9.48375
▁parts	-9.48376
▁export	-9.48487
▁Dur	-9.48715
▁social	-9.48735
▁century	-9.48866
D	-9.48984
▁Official	-9.49207
▁drink	-9.49207
▁giant	-9.49207
▁jump	-9.49207
▁prosecution	-9.4921
▁aircraft	-9.49214
▁massive	-9.49233
▁attention	-9.49238
▁significant	-9.49258
▁born	-9.49327
ak	-9.49344
▁original	-9.49372
▁universit	-9.49432
▁broadcast	-9.49504
▁Uri	-9.49528
responsible	-9.49687
▁flood	-9.49772
▁envoy	-9.49772
▁deput	-9.49777
▁charg	-9.49781
▁mail	-9.49795
upreme	-9.49819
▁remarks	-9.49951
▁quit	-9.50012
oft	-9.50139
▁dail	-9.50194
▁writ	-9.50324
▁driving	-9.5034
▁EU	-9.50351
▁visitor	-9.50351
▁convicted	-9.50458
▁whom	-9.5052
up	-9.50523
▁suspect	-9.50602
▁nam	-9.50832
▁ambassador	-9.50912
▁speed	-9.50918
▁UK	-9.51018
▁admitted	-9.51064
▁remains	-9.51255
▁voice	-9.51333
▁Y	-9.51519
▁Other	-9.51605
▁hands	-9.5165
▁Pennsylvania	-9.51798
▁Indonesia	-9.51833
▁refugee	-9.51867
hile	-9.51989
▁Ohio	-9.52065
▁regard	-9.52066
▁propos	-9.52085
▁schools	-9.52101
▁heard	-9.52258
▁II	-9.52268
▁driver	-9.52311
▁discussion	-9.52732
▁student	-9.52776
▁Tibet	-9.53142
▁drop	-9.53228
▁Institute	-9.53231
▁prompt	-9.53231
▁brain	-9.53236
▁device	-9.53251
▁levels	-9.53285
▁usual	-9.5329
▁evening	-9.53321
▁transport	-9.53819
▁department	-9.5383
▁criticism	-9.53831
▁resume	-9.53848
▁Under	-9.5385
▁doctors	-9.53904
rote	-9.54007
cific	-9.54036
▁estimat	-9.54105
▁questions	-9.54211
▁marriage	-9.54411
▁performance	-9.54423
▁Abbas	-9.54464
▁require	-9.54532
▁guilt	-9.54537
▁r	-9.5472
rew	-9.54757
▁territor	-9.5487
▁cancer	-9.55008
▁western	-9.55014
▁index	-9.55045
▁normal	-9.55503
▁custody	-9.55605
▁Both	-9.55612
▁opportunit	-9.55615
▁training	-9.5564
▁sides	-9.55702
▁review	-9.55753
▁governor	-9.55769
▁customer	-9.55847
▁hurt	-9.5591
▁Ky	-9.56043
▁regime	-9.56204
▁impact	-9.56207
▁holiday	-9.56207
ma	-9.56334
▁investigator	-9.56338
▁Micros	-9.56343
▁intend	-9.56345
▁Le	-9.56366
▁parliamentar	-9.5639
▁Service	-9.56443
▁civilian	-9.56472
▁How	-9.56484
▁aide	-9.56599
▁fac	-9.56643
▁promis	-9.56809
▁monitor	-9.56813
▁beginning	-9.56819
▁scandal	-9.56823
▁leadership	-9.56848
▁bak	-9.56949
▁effect	-9.57063
▁read	-9.57221
▁suspects	-9.57368
▁conflict	-9.57423
▁mass	-9.57477
▁compar	-9.57519
▁career	-9.57672
▁fine	-9.57717
▁Georgia	-9.57799
▁store	-9.57911
▁Do	-9.57934
▁civil	-9.57954
▁Cabinet	-9.58036
▁everything	-9.58043
▁weather	-9.58054
BI	-9.58131
▁reduce	-9.58275
▁changes	-9.58295
▁g	-9.58337
▁fighter	-9.58345
▁Cho	-9.58374
▁Moscow	-9.58654
▁construction	-9.58669
▁reason	-9.5871
rt	-9.59055
▁games	-9.59182
▁corruption	-9.59278
▁allies	-9.59279
▁negotiator	-9.59301
▁Richard	-9.59348
▁Ben	-9.59571
▁severe	-9.59576
▁produce	-9.59605
▁Tot	-9.59609
▁standard	-9.59725
▁boost	-9.59778
▁repeated	-9.59787
▁airline	-9.59796
▁sharp	-9.59833
▁language	-9.599
NA	-9.59919
▁surprise	-9.60156
▁recover	-9.60284
▁adopt	-9.60593
▁seats	-9.60748
▁fill	-9.60922
▁buildings	-9.6103
▁formal	-9.61112
▁combat	-9.61155
▁Myung	-9.61187
▁industrial	-9.61189
▁commercial	-9.61235
▁factor	-9.61236
▁proposal	-9.61275
▁east	-9.6148
▁bit	-9.61558
▁El	-9.61567
▁polic	-9.61596
nterior	-9.61621
C	-9.61637
▁ex	-9.61782
▁Spanish	-9.61799
▁failure	-9.61801
▁James	-9.61806
▁class	-9.61807
▁By	-9.61826
▁buil	-9.61919
▁Marine	-9.61925
ium	-9.62229
▁ice	-9.62348
▁double	-9.62378
▁difference	-9.6244
▁assault	-9.6244
▁Game	-9.62442
▁Royal	-9.62458
▁surgery	-9.62465
▁justice	-9.62475
▁documents	-9.62492
▁package	-9.62504
▁brief	-9.63009
▁bombing	-9.6304
▁River	-9.63096
ist	-9.63272
▁agree	-9.63343
▁Olympics	-9.63361
▁independen	-9.6346
▁hop	-9.63608
▁panel	-9.63736
▁possibilit	-9.63759
▁author	-9.63923
▁itself	-9.63953
▁pre	-9.64114
▁Ali	-9.64336
▁traditional	-9.6462
abe	-9.64639
ian	-9.6485
▁mountain	-9.64916
▁route	-9.64928
▁recall	-9.65046
▁domestic	-9.65046
▁sale	-9.65047
▁gold	-9.65057
▁figures	-9.65147
▁word	-9.65233
▁Abe	-9.65277
▁Colombia	-9.65477
▁millions	-9.65547
▁traffic	-9.65633
▁screen	-9.65673
▁trigger	-9.65708
▁violent	-9.65708
▁specific	-9.65716
▁answer	-9.65721
▁option	-9.65753
BS	-9.65819
▁owner	-9.66156
▁commission	-9.66235
▁addition	-9.66254
▁Lad	-9.66309
▁quake	-9.66375
▁Watch	-9.66376
▁penalt	-9.66393
▁maker	-9.66453
▁telephone	-9.665
▁d	-9.66544
▁Hu	-9.66884
▁withdraw	-9.67043
▁necessary	-9.67162
▁struggl	-9.67276
off	-9.67408
▁Am	-9.67522
▁Arab	-9.67562
▁reveal	-9.67722
▁cash	-9.67722
▁complex	-9.67723
▁Sunni	-9.6773
▁Wa	-9.67745
▁baby	-9.67746
▁events	-9.67782
▁Holly	-9.67812
▁amount	-9.6789
given	-9.68067
▁makes	-9.6827
▁controll	-9.68374
▁supply	-9.68402
▁fresh	-9.68402
▁Jong	-9.68429
▁fish	-9.68611
▁numbers	-9.68612
▁shown	-9.68784
▁wave	-9.68801
▁stopped	-9.68855
▁electric	-9.68916
▁created	-9.6907
TON	-9.69088
▁profit	-9.69095
▁snow	-9.69137
▁exist	-9.69172
▁chang	-9.69378
▁affect	-9.69723
▁middle	-9.69776
▁Ilbo	-9.69777
▁neighborhood	-9.6978
▁Prosecutor	-9.69782
▁showing	-9.69857
well	-9.69915
▁measure	-9.69917
▁piece	-9.69956
▁street	-9.70033
▁fifth	-9.70472
▁Open	-9.70475
▁headquarter	-9.70476
▁dangerous	-9.70482
▁coach	-9.70483
▁deadline	-9.70487
▁appearance	-9.70541
▁bridge	-9.70556
▁environmental	-9.70601
▁indicat	-9.70661
▁Shari	-9.70763
night	-9.70797
▁Financ	-9.7087
▁regional	-9.70875
▁blam	-9.70915
▁sound	-9.70915
▁announce	-9.7095
▁save	-9.71087
▁Feder	-9.71093
▁tests	-9.7112
▁restaurant	-9.7117
▁positive	-9.7117
▁loan	-9.71175
▁tree	-9.71189
▁Our	-9.71189
▁self	-9.71222
▁shuttle	-9.71233
▁Toda	-9.71306
▁consumer	-9.71338
▁ongoing	-9.71353
▁Gates	-9.71436
▁command	-9.71468
▁Research	-9.71499
▁bin	-9.715
▁forecast	-9.71634
▁seiz	-9.7171
▁respect	-9.71847
▁Yah	-9.71902
▁agent	-9.71909
▁location	-9.71935
▁apartment	-9.71977
▁moon	-9.72037
▁rank	-9.72133
▁decline	-9.72156
▁ID	-9.72311
▁flights	-9.72454
▁individual	-9.72583
▁vow	-9.72595
▁pilot	-9.72597
▁affected	-9.7264
▁Nav	-9.72695
tp	-9.73139
▁perform	-9.73216
▁college	-9.73298
▁overseas	-9.73298
▁cnn	-9.73299
DON	-9.73304
▁Mug	-9.73304
▁successful	-9.73311
▁powerful	-9.73348
▁ht	-9.73383
▁words	-9.73385
▁Francis	-9.7341
▁Desp	-9.73464
▁Olme	-9.73555
nel	-9.73628
▁climat	-9.73714
▁grand	-9.73757
▁LON	-9.73937
▁Brazil	-9.74008
▁astronaut	-9.74017
▁degree	-9.74017
▁anniversar	-9.74039
▁promise	-9.74043
▁blow	-9.74077
▁male	-9.74134
▁Centr	-9.74159
▁rocket	-9.74333
▁environment	-9.74473
▁Even	-9.74511
▁improve	-9.74562
▁alliance	-9.74565
▁behavior	-9.74745
▁port	-9.74822
uters	-9.74829
▁zone	-9.74836
▁winner	-9.75009
▁resolve	-9.75044
▁terms	-9.75119
▁Christmas	-9.75472
▁magazine	-9.75475
▁Justi	-9.75482
▁km	-9.75495
▁adviser	-9.75585
▁touch	-9.75648
▁secure	-9.75819
▁votes	-9.75854
▁mark	-9.76023
▁fel	-9.7605
▁blue	-9.76207
▁Christophe	-9.76207
▁confidence	-9.76207
▁controversial	-9.76218
▁Since	-9.76233
town	-9.76261
▁everyone	-9.76271
▁learn	-9.76336
▁Trade	-9.76619
rald	-9.76656
▁joined	-9.76697
▁Th	-9.76734
▁drugs	-9.7684
▁wrong	-9.76937
▁Blair	-9.76948
▁square	-9.76948
▁display	-9.76948
▁Thre	-9.7695
▁disaster	-9.7696
▁referr	-9.76985
▁below	-9.76999
▁replace	-9.77004
▁surrounding	-9.77021
▁page	-9.77037
▁row	-9.77053
▁influence	-9.77081
mer	-9.77158
▁victim	-9.77303
▁supplie	-9.77506
▁heat	-9.77555
▁High	-9.77656
▁kids	-9.77666
▁Energy	-9.77694
▁entire	-9.77694
▁birth	-9.77698
▁else	-9.777
▁straight	-9.7773
▁sleep	-9.77744
▁legislati	-9.77794
▁respond	-9.7785
▁adult	-9.77983
▁decade	-9.78076
▁Gold	-9.78183
▁Po	-9.78387
▁crude	-9.78446
▁virus	-9.78456
▁Tibetan	-9.78559
▁collapse	-9.78763
▁Burma	-9.78803
▁alone	-9.78918
▁kidnapped	-9.79092
▁prove	-9.79128
▁Embass	-9.79203
▁throw	-9.79211
▁regular	-9.79213
▁Four	-9.79229
▁famous	-9.79244
▁Vice	-9.79265
▁fears	-9.79285
ham	-9.79409
▁door	-9.79435
▁blame	-9.79489
▁Christian	-9.79532
▁activists	-9.79542
▁declin	-9.79661
▁cancel	-9.79738
▁transfer	-9.79777
▁govern	-9.7989
▁vessel	-9.79967
▁extreme	-9.79976
▁Apple	-9.79978
▁fair	-9.79992
▁solution	-9.80013
▁style	-9.80019
▁Yang	-9.80021
▁flu	-9.80074
▁choice	-9.8021
▁type	-9.80248
▁remov	-9.80258
▁score	-9.80266
▁engineer	-9.8027
▁issu	-9.80342
▁twi	-9.80478
▁Mo	-9.80704
▁feature	-9.80712
▁meters	-9.80718
▁floor	-9.80736
▁Sudan	-9.80737
▁propert	-9.80743
▁Charles	-9.80763
▁resignation	-9.80778
di	-9.81007
ner	-9.81172
▁pound	-9.81239
▁Malik	-9.81379
▁Tour	-9.81509
▁mosque	-9.81511
▁mobile	-9.81511
▁abandon	-9.81512
▁recession	-9.81518
▁abuse	-9.8177
▁politic	-9.81818
▁Abu	-9.81888
▁asp	-9.82179
▁competition	-9.82293
▁opinion	-9.82293
▁fil	-9.82429
▁sometime	-9.82436
▁southwest	-9.82438
ship	-9.82513
▁planet	-9.8259
▁Whi	-9.82621
▁ET	-9.82832
berg	-9.82875
▁Canad	-9.83022
▁bann	-9.83051
▁Hussein	-9.8308
▁Pentagon	-9.8308
▁affair	-9.8308
▁Communist	-9.8308
▁married	-9.83109
ASH	-9.83113
▁heavi	-9.83113
tan	-9.83164
▁activit	-9.83184
▁scor	-9.83361
▁active	-9.83379
ro	-9.83629
lew	-9.83634
▁Island	-9.83675
▁William	-9.83675
▁names	-9.83686
imbabwe	-9.83784
▁imposed	-9.83851
▁embass	-9.83873
istrict	-9.83887
▁kick	-9.8389
▁management	-9.83915
▁prepared	-9.8399
▁Gord	-9.84186
▁trouble	-9.84194
▁laws	-9.84196
▁determine	-9.84264
▁southeast	-9.8436
▁winds	-9.84497
inhu	-9.84501
▁tough	-9.8451
▁agenc	-9.84601
▁exile	-9.84678
▁communication	-9.84678
▁Cross	-9.84679
▁green	-9.8468
▁true	-9.84702
▁wall	-9.84739
▁Space	-9.8481
▁card	-9.8482
tomic	-9.84853
▁cent	-9.84858
▁pledge	-9.84975
▁Bay	-9.85014
▁protection	-9.85083
▁Steve	-9.85273
▁Singapore	-9.85388
▁currenc	-9.8548
▁euro	-9.85483
▁doubt	-9.85552
▁Williams	-9.85683
▁clean	-9.85809
b	-9.85842
▁Syria	-9.85908
ur	-9.8593
▁kidnapping	-9.85932
▁presen	-9.8612
be	-9.86156
▁doctor	-9.86173
EC	-9.86199
▁west	-9.86237
▁model	-9.86249
▁reflect	-9.86293
▁Church	-9.86293
▁Ronald	-9.86294
▁Human	-9.86353
▁setting	-9.86367
▁Se	-9.86424
ized	-9.86506
▁cast	-9.86512
▁seed	-9.8656
▁La	-9.86686
IA	-9.86693
▁Bas	-9.86882
▁Tom	-9.86929
▁advance	-9.87072
▁qualit	-9.87111
▁Condoleez	-9.87113
▁Kosov	-9.87114
▁enem	-9.87115
▁hair	-9.87129
▁commitment	-9.87146
▁software	-9.8717
▁shift	-9.87244
▁bombings	-9.87509
▁singer	-9.877
▁tank	-9.87742
▁Organization	-9.87939
▁concert	-9.87939
▁losing	-9.87939
▁riot	-9.8794
▁crackdown	-9.87941
▁resort	-9.87943
▁halt	-9.87955
▁effective	-9.88017
▁species	-9.88044
▁gone	-9.88076
▁oppos	-9.88152
▁photograph	-9.88168
▁demanding	-9.88198
▁serving	-9.8823
▁bomber	-9.884
▁Egypt	-9.88764
▁Portug	-9.88773
▁draft	-9.88773
▁correspondent	-9.88783
▁Tony	-9.88791
▁alert	-9.88796
▁withdrawal	-9.88908
▁V	-9.89127
▁Jew	-9.89146
▁eye	-9.89217
▁Right	-9.89309
▁signal	-9.89332
▁pack	-9.89488
▁Sever	-9.89559
▁Black	-9.8961
▁Hospital	-9.89613
▁Soviet	-9.89613
▁Treasur	-9.89613
▁happy	-9.89613
▁critic	-9.89703
▁scale	-9.89726
▁eventual	-9.89803
▁earn	-9.89967
▁counter	-9.90153
▁spark	-9.90169
▁complain	-9.90187
▁appoint	-9.90378
where	-9.90385
▁whole	-9.90394
▁Madrid	-9.9046
▁implement	-9.9046
▁dialogue	-9.90461
▁sector	-9.90482
ily	-9.90498
▁violation	-9.90498
den	-9.90567
▁wealth	-9.90591
▁k	-9.90881
▁indicate	-9.90908
▁broad	-9.91059
▁march	-9.9113
la	-9.91141
▁defend	-9.9128
▁militia	-9.91315
▁practice	-9.9132
▁version	-9.91336
▁connection	-9.91341
▁partner	-9.91401
▁income	-9.91408
ond	-9.91434
at	-9.91508
▁smoke	-9.91545
▁Martin	-9.91572
▁Mr	-9.91603
▁determined	-9.9172
▁suffering	-9.91726
▁flow	-9.91815
▁surge	-9.91852
▁favor	-9.91869
▁deploy	-9.92116
▁CEO	-9.92177
▁delegation	-9.92178
▁Beckham	-9.92178
▁football	-9.92184
▁hunt	-9.92247
▁producer	-9.92366
▁traveling	-9.92378
▁stem	-9.92449
▁God	-9.92534
▁sense	-9.92655
▁die	-9.92805
▁constitution	-9.92833
▁Dan	-9.93013
▁tournament	-9.93046
▁various	-9.93047
▁jet	-9.93058
▁freedom	-9.93064
▁society	-9.93097
▁meetings	-9.93277
ification	-9.93318
▁shock	-9.93429
drew	-9.93517
▁foreigner	-9.93657
▁apolog	-9.93669
▁witness	-9.93805
eninsula	-9.93904
▁danger	-9.93909
▁fraud	-9.93923
▁encourage	-9.93924
▁unveil	-9.93924
▁museum	-9.93924
▁Among	-9.93935
▁probe	-9.93951
▁Diana	-9.93989
▁Lone	-9.94022
▁chose	-9.94024
▁hear	-9.9408
zai	-9.94143
▁ending	-9.9427
▁rich	-9.9429
▁Chi	-9.94394
▁spot	-9.94734
▁ranking	-9.94745
▁Kurd	-9.94789
▁Exchange	-9.94809
▁Michigan	-9.94809
▁Saddam	-9.94809
▁religious	-9.94809
▁electronic	-9.9481
▁Senator	-9.94811
▁Airport	-9.94812
▁actress	-9.94923
▁content	-9.94973
▁Hyun	-9.9521
▁hole	-9.95297
▁computers	-9.95362
▁girls	-9.95367
▁Ang	-9.95398
▁slight	-9.95415
▁ways	-9.95423
▁Arabia	-9.95479
▁Speak	-9.95549
▁discover	-9.95558
▁enjoy	-9.95702
▁Stock	-9.95703
▁Government	-9.95706
▁sun	-9.95729
▁reaction	-9.95734
▁declaration	-9.95757
▁collapsed	-9.95796
▁Show	-9.95803
▁explod	-9.9584
▁stake	-9.95856
▁forest	-9.95858
▁shop	-9.95871
▁contest	-9.95889
overall	-9.95927
▁easi	-9.95991
▁torch	-9.96067
▁il	-9.96148
▁cap	-9.9632
F	-9.96356
▁politicians	-9.96427
▁consumers	-9.96448
▁northeast	-9.96509
▁farmer	-9.96518
▁Catholic	-9.96602
▁Vietnam	-9.96602
▁Simpson	-9.96603
▁Kennedy	-9.96604
ester	-9.96604
▁demonstrator	-9.96634
▁register	-9.96641
aks	-9.96697
▁waters	-9.96707
▁taxes	-9.96893
▁Inter	-9.96969
▁wing	-9.97023
▁historic	-9.97039
▁fled	-9.97097
dministration	-9.97133
▁dress	-9.97241
▁items	-9.97319
▁fix	-9.97395
▁Republic	-9.97424
▁extra	-9.97443
▁NEW	-9.97512
un	-9.97578
junta	-9.97603
▁schedule	-9.97629
▁wind	-9.97754
▁weight	-9.97761
▁sub	-9.9793
▁table	-9.97947
▁Super	-9.98005
▁pledg	-9.98085
▁organiz	-9.98166
▁Ji	-9.98229
▁Cuba	-9.9823
▁accepted	-9.98246
▁council	-9.98294
▁dark	-9.98344
▁object	-9.98357
▁Affair	-9.98429
▁budget	-9.98433
▁Sadr	-9.98437
ribal	-9.98448
▁Province	-9.9845
▁Ahmadi	-9.98486
▁guard	-9.98486
▁decide	-9.9849
▁add	-9.98513
▁Arizo	-9.98523
house	-9.98531
▁demanded	-9.98535
▁flame	-9.98555
▁picture	-9.98742
▁river	-9.9877
urani	-9.98838
▁mine	-9.98842
▁Inc	-9.98893
▁spend	-9.98919
▁possibl	-9.99039
▁pictures	-9.9904
▁believ	-9.99116
▁Kenya	-9.99124
▁Jose	-9.99302
▁virtual	-9.99355
▁Nicola	-9.99355
▁From	-9.99356
▁Labor	-9.99367
▁color	-9.9937
▁orbit	-9.99379
ta	-9.99422
▁trust	-9.99432
▁hot	-9.99505
▁bag	-9.99535
▁rape	-9.99567
▁stoo	-9.99578
rs	-9.99583
▁mind	-9.99649
▁alive	-9.99813
▁violat	-10.0001
▁lose	-10.0009
▁leg	-10.0011
▁alcohol	-10.0026
▁Massac	-10.0029
▁Spear	-10.0029
▁temperature	-10.003
huse	-10.0032
▁rush	-10.0033
▁sister	-10.0036
▁statu	-10.0042
▁Gov	-10.0045
▁minor	-10.0051
▁ho	-10.0056
▁demonstrations	-10.006
▁pounds	-10.0063
tts	-10.0065
▁Defen	-10.0072
▁Chen	-10.0086
▁continu	-10.0096
ors	-10.0104
cient	-10.0123
▁machine	-10.0123
▁obtain	-10.0123
▁purpose	-10.0123
▁remote	-10.0123
▁enrich	-10.0123
▁Election	-10.0126
▁troop	-10.0134
▁ensure	-10.0137
▁climb	-10.0138
▁stars	-10.0142
▁Che	-10.0149
▁welcome	-10.0155
▁Fat	-10.016
▁cooperati	-10.0181
▁users	-10.0184
▁studie	-10.0193
im	-10.0208
▁exact	-10.0219
▁rapid	-10.0219
▁Joong	-10.0219
▁debt	-10.0221
▁hous	-10.0225
back	-10.023
▁Han	-10.023
▁mayor	-10.0239
▁dut	-10.024
▁complaint	-10.0249
ack	-10.0252
▁artist	-10.0253
▁weapon	-10.0266
▁Li	-10.0269
▁band	-10.027
▁Don	-10.0278
▁locat	-10.0299
yone	-10.0303
▁ethnic	-10.0315
▁trillion	-10.0315
▁equipment	-10.0315
▁rallie	-10.0315
▁relief	-10.0315
ick	-10.0315
▁Iowa	-10.0316
▁peninsula	-10.0317
▁jur	-10.0325
▁sentenc	-10.0325
▁standing	-10.033
▁clashe	-10.0337
J	-10.0356
▁pain	-10.0356
▁ball	-10.0357
▁remove	-10.0362
▁broken	-10.0368
▁invite	-10.0371
▁trail	-10.0377
▁auto	-10.0391
▁art	-10.0409
▁Constitution	-10.0412
▁narrow	-10.0412
▁School	-10.0412
▁crucial	-10.0412
▁warrant	-10.0414
▁box	-10.0414
▁works	-10.0415
▁Of	-10.0417
▁generation	-10.0418
▁leak	-10.0419
▁explosives	-10.042
ogle	-10.0424
▁edge	-10.0434
▁finance	-10.0437
▁culture	-10.0437
▁photos	-10.0441
▁evacuated	-10.0441
▁audience	-10.0455
▁Oscar	-10.0461
▁relative	-10.0466
▁expand	-10.047
▁requir	-10.0479
▁plot	-10.0481
▁license	-10.0483
ical	-10.0487
▁multi	-10.0491
▁tape	-10.0492
▁systems	-10.0501
▁roll	-10.0509
▁tons	-10.0509
▁Mahmoud	-10.051
▁subject	-10.051
▁regulation	-10.051
▁bailout	-10.0512
▁survivor	-10.0513
▁inspector	-10.0513
▁cold	-10.0516
▁physical	-10.0516
▁strengthen	-10.0517
▁speculation	-10.052
▁exercise	-10.0527
▁Jan	-10.0528
▁warming	-10.0532
▁Samsun	-10.0535
▁gunm	-10.0554
▁dismissed	-10.0557
▁Sa	-10.0574
▁Ma	-10.0582
▁enforce	-10.0593
▁boycott	-10.0594
▁highway	-10.0606
haps	-10.0608
▁Tehran	-10.0609
▁invasion	-10.0609
▁magnitude	-10.0609
▁dream	-10.0609
▁perfect	-10.0609
▁Dutch	-10.0609
▁Nevada	-10.061
▁Economic	-10.061
field	-10.0611
▁Mike	-10.0612
▁surface	-10.0614
▁democratic	-10.0615
▁arrive	-10.0624
▁promote	-10.0647
responsibility	-10.065
▁mile	-10.0672
▁damag	-10.0675
▁acknowledg	-10.0691
▁basic	-10.0699
▁Daniel	-10.0709
▁Premier	-10.0709
▁Nobel	-10.0709
▁stress	-10.071
▁ring	-10.0712
▁argu	-10.0727
broad	-10.0732
▁bear	-10.0733
RK	-10.0748
▁founder	-10.0749
ine	-10.0754
▁spy	-10.0755
▁Santa	-10.0764
▁handed	-10.0768
▁farm	-10.0793
▁king	-10.0795
▁Nepal	-10.0796
▁wild	-10.08
▁equal	-10.0801
▁attract	-10.0808
itarian	-10.081
▁offensive	-10.081
▁temporar	-10.081
▁guarantee	-10.081
▁Governor	-10.081
▁lawsuit	-10.081
▁wake	-10.081
▁putt	-10.0812
▁calm	-10.0813
▁science	-10.0817
▁guy	-10.0819
▁pair	-10.0834
▁miss	-10.0846
▁meant	-10.0862
surance	-10.0878
ado	-10.0905
▁shar	-10.0907
▁Wi	-10.091
▁suburb	-10.0912
▁reduction	-10.0912
▁visa	-10.0912
▁Louis	-10.0912
▁estate	-10.0912
▁relay	-10.0913
▁assassination	-10.0914
▁winter	-10.0914
EA	-10.0918
▁spring	-10.0919
▁transition	-10.0923
▁Ford	-10.0928
is	-10.093
▁Or	-10.0946
▁anger	-10.0961
ju	-10.0974
▁tensions	-10.0977
▁Alaska	-10.0991
mi	-10.0994
▁Wolf	-10.1003
▁phones	-10.1011
▁tight	-10.1013
▁aware	-10.1014
▁advantage	-10.1015
▁counterpart	-10.1015
▁colleague	-10.1015
▁channel	-10.1015
▁fellow	-10.1016
▁modern	-10.1016
▁restriction	-10.1018
▁manag	-10.1023
▁song	-10.1038
▁Colombian	-10.1051
▁smok	-10.1064
corporate	-10.1069
▁responsibilit	-10.1076
▁traveler	-10.109
ueen	-10.11
▁Un	-10.11
hua	-10.1106
ch	-10.1111
▁identify	-10.1119
▁strategy	-10.1119
▁detention	-10.1119
▁Jackson	-10.112
▁runner	-10.1126
▁arrival	-10.115
▁describe	-10.1154
ha	-10.1154
▁path	-10.1158
▁reasons	-10.1168
▁example	-10.1186
▁presiden	-10.1195
▁champion	-10.12
ani	-10.1207
▁projects	-10.1217
ified	-10.122
▁economist	-10.1224
▁Vegas	-10.1224
▁carbon	-10.1226
▁casualties	-10.1227
▁Mayor	-10.1233
▁Manch	-10.1237
▁Hund	-10.1238
▁witnesses	-10.1239
▁batter	-10.1247
pool	-10.1253
A	-10.1254
▁sh	-10.1254
▁visiting	-10.1267
ent	-10.1269
ant	-10.1272
▁angr	-10.1287
gun	-10.1299
▁Venezuela	-10.1308
▁offering	-10.1317
▁coup	-10.1321
▁Academ	-10.1331
▁anonymity	-10.1331
▁suspicion	-10.1331
▁Science	-10.1331
▁task	-10.1332
▁closer	-10.1332
▁rough	-10.1335
▁Mohamm	-10.1342
▁aboard	-10.1343
▁reporter	-10.1344
▁terroris	-10.1354
▁Maca	-10.1358
▁mix	-10.1358
▁Northern	-10.1367
K	-10.1379
dai	-10.1381
TA	-10.1386
▁Nor	-10.1396
▁catch	-10.1402
▁zoo	-10.1433
▁freed	-10.1434
▁monk	-10.1438
▁Nadal	-10.1438
▁celebrit	-10.1438
▁Kabul	-10.1438
▁Hilton	-10.1439
▁guest	-10.1439
▁split	-10.1443
▁Home	-10.1447
▁gay	-10.1447
▁Award	-10.1447
▁choose	-10.1454
▁improv	-10.1455
▁Johnson	-10.1456
spread	-10.147
▁investigate	-10.1497
▁provinc	-10.1505
▁via	-10.1507
▁engag	-10.1524
ell	-10.1533
▁Son	-10.1534
▁Ukrain	-10.1546
▁permanent	-10.1547
▁Pitt	-10.1547
▁Coast	-10.1547
▁remember	-10.1547
iya	-10.1549
▁threats	-10.1562
▁retir	-10.1582
▁sports	-10.1585
▁Indiana	-10.1587
▁document	-10.1588
body	-10.1612
ul	-10.1616
▁ease	-10.163
▁buri	-10.1647
▁Diego	-10.1657
▁Ocean	-10.1657
▁medicine	-10.1657
▁fashion	-10.1657
▁babies	-10.1658
▁label	-10.1658
▁assistance	-10.1658
▁teenager	-10.1665
▁Wen	-10.1668
reds	-10.1675
▁Big	-10.1678
▁internal	-10.1679
ches	-10.1681
ground	-10.1682
▁kne	-10.169
▁captur	-10.1703
▁file	-10.1724
▁landing	-10.1727
▁benefits	-10.1733
▁warm	-10.1744
S	-10.1764
▁urge	-10.1765
▁tear	-10.1768
▁compound	-10.1768
▁sudden	-10.1768
▁debut	-10.1768
▁technical	-10.1768
▁Dubai	-10.1768
▁emission	-10.1768
▁dis	-10.1769
▁Canadian	-10.1769
▁destruction	-10.177
▁cutting	-10.177
▁suit	-10.1771
▁professional	-10.1773
ger	-10.1798
▁easy	-10.1807
ver	-10.1808
▁creat	-10.1818
▁relatives	-10.1819
▁Guard	-10.1827
ei	-10.183
▁capture	-10.1833
▁struggle	-10.1842
▁super	-10.185
olar	-10.1851
▁Malaysia	-10.1857
▁Real	-10.187
▁detect	-10.187
▁erupt	-10.1876
ari	-10.1878
▁cleric	-10.188
▁congress	-10.188
▁devastat	-10.188
▁Thomas	-10.188
▁shelter	-10.188
▁agenda	-10.1881
▁Deput	-10.1881
▁assistant	-10.1881
▁exit	-10.1881
▁lay	-10.1881
▁froze	-10.1882
▁Ed	-10.1897
▁Anna	-10.19
▁harm	-10.19
▁tens	-10.1903
▁profile	-10.1907
▁Frank	-10.191
▁trapped	-10.1913
▁percentage	-10.192
▁movies	-10.1923
lso	-10.1934
▁worse	-10.1935
▁unclea	-10.1954
▁convention	-10.1959
▁nominat	-10.1969
▁YO	-10.198
ural	-10.1984
▁basi	-10.1985
▁infect	-10.199
▁Chelsea	-10.1994
▁negative	-10.1994
▁unlike	-10.1996
▁renew	-10.1996
▁mention	-10.1997
▁Airline	-10.1998
▁passenger	-10.1999
ability	-10.2
▁participat	-10.2
▁shortage	-10.2002
ongbyon	-10.2003
▁Liver	-10.2004
▁strain	-10.2004
▁escape	-10.202
▁Pop	-10.202
▁constitutional	-10.2036
▁Not	-10.2036
wang	-10.2037
▁sky	-10.2047
id	-10.2052
▁net	-10.2062
▁prepar	-10.2063
ersey	-10.2065
▁roads	-10.2077
▁clash	-10.2084
ay	-10.2093
ept	-10.2094
▁Potter	-10.2109
▁conspirac	-10.2109
▁simply	-10.2111
▁favorite	-10.2112
▁auction	-10.2112
▁ticket	-10.2115
▁expert	-10.2118
▁diplomats	-10.2124
▁simple	-10.2133
▁heading	-10.2135
▁payment	-10.2137
sands	-10.2138
▁haven	-10.2145
ter	-10.2179
▁Lt	-10.2181
▁Mars	-10.219
ez	-10.2218
▁brand	-10.2222
▁Sun	-10.2224
▁Jerusalem	-10.2225
▁frequent	-10.2225
▁elder	-10.2227
▁organizer	-10.223
▁Kang	-10.223
▁sort	-10.224
▁Every	-10.2245
▁recruit	-10.2247
hairman	-10.2247
▁purchase	-10.2248
▁books	-10.2249
▁Fay	-10.2252
ville	-10.2253
ice	-10.2262
da	-10.2265
▁ride	-10.2287
▁conclud	-10.2288
▁engine	-10.2296
ne	-10.2307
han	-10.2317
▁learned	-10.2322
awa	-10.2325
▁marked	-10.2334
▁era	-10.2335
▁disappoint	-10.2337
▁succeed	-10.2343
▁stall	-10.2343
▁Maryland	-10.2345
▁Thou	-10.2346
▁eyes	-10.235
▁Khan	-10.2352
▁prize	-10.2354
▁Reserv	-10.2354
llah	-10.2356
▁unemploy	-10.236
▁Ro	-10.2383
▁Just	-10.2384
▁recovery	-10.239
day	-10.2402
▁beach	-10.2403
▁bone	-10.2405
▁landed	-10.2407
▁Boe	-10.2447
ional	-10.2449
▁assets	-10.2454
▁McCann	-10.2462
▁unusual	-10.2462
▁element	-10.2462
▁bilateral	-10.2462
▁closing	-10.2462
▁crack	-10.2462
▁gap	-10.2462
▁Abdullah	-10.2463
▁proper	-10.2464
▁album	-10.2471
▁Champions	-10.2472
▁Near	-10.2475
▁Green	-10.2478
▁identit	-10.2482
▁plead	-10.2486
go	-10.2499
▁tall	-10.2507
BA	-10.2528
▁reduced	-10.2558
▁manufactur	-10.2567
▁collect	-10.2572
▁disappear	-10.2581
▁Attorney	-10.2582
▁Peace	-10.2582
▁bullet	-10.2583
▁First	-10.2583
▁Hezb	-10.2583
▁proud	-10.2583
▁Law	-10.2584
▁tomorrow	-10.2584
▁execution	-10.2585
▁Chrys	-10.2589
▁Daily	-10.2589
▁section	-10.2596
▁birds	-10.2599
▁atmospher	-10.2603
▁Color	-10.2615
▁PC	-10.2622
▁accuse	-10.2623
oline	-10.2629
▁Fire	-10.2636
▁Easter	-10.2649
▁sit	-10.2659
mph	-10.2663
▁tonight	-10.2699
fare	-10.2701
▁Darfur	-10.2704
▁error	-10.2704
▁controversy	-10.2704
▁Edwards	-10.2704
▁cheer	-10.2704
▁Prize	-10.2706
▁division	-10.2706
▁wedding	-10.2706
▁boom	-10.2707
▁Palin	-10.2708
▁expectation	-10.2714
▁outbreak	-10.2731
▁writer	-10.2731
▁fate	-10.2745
eus	-10.2754
ling	-10.2757
work	-10.2759
▁sw	-10.2761
▁divorce	-10.2765
▁Lama	-10.2778
▁heads	-10.2779
em	-10.2796
▁goods	-10.2797
▁Scot	-10.2805
▁Petra	-10.2813
▁surround	-10.2815
▁Six	-10.2819
▁strength	-10.282
▁mortgage	-10.2828
▁firing	-10.2828
▁sponsor	-10.2829
▁Great	-10.283
▁festival	-10.283
▁Young	-10.2833
▁hopeful	-10.2834
▁Joe	-10.2838
▁chemical	-10.2839
▁soar	-10.2843
beth	-10.2845
▁Sydn	-10.2847
▁detonat	-10.285
▁royal	-10.285
no	-10.2852
▁Venezuelan	-10.2855
▁pushing	-10.2858
azir	-10.2884
▁Roman	-10.289
▁bottle	-10.2892
▁Sean	-10.2908
▁sport	-10.2912
▁worrie	-10.2921
right	-10.2925
▁fit	-10.2933
ization	-10.2941
▁PA	-10.2946
▁Over	-10.2949
▁knee	-10.2953
▁Yonhap	-10.2953
agan	-10.2953
▁Gulf	-10.2954
▁bottom	-10.2955
ren	-10.2957
▁Gonzale	-10.2961
▁Food	-10.2973
▁hospitaliz	-10.2973
▁corner	-10.2975
▁shoe	-10.298
DC	-10.2982
over	-10.2983
▁Yoo	-10.2983
▁benefit	-10.2993
▁Dong	-10.2995
▁Indonesian	-10.3003
▁lie	-10.3006
▁meaning	-10.3017
▁gains	-10.3041
▁notice	-10.3048
j	-10.3053
▁weigh	-10.3055
▁weak	-10.3063
efore	-10.3066
▁entering	-10.3072
▁IA	-10.3072
▁Public	-10.3079
▁YouTube	-10.3079
▁gallon	-10.3079
▁convoy	-10.3079
▁alternative	-10.3079
▁method	-10.3079
▁ballot	-10.308
▁radical	-10.308
▁prett	-10.3081
dom	-10.3084
▁weaken	-10.3088
▁deployment	-10.3088
▁Post	-10.309
▁belong	-10.3091
sh	-10.3099
elta	-10.3102
▁inflation	-10.3103
▁institution	-10.3108
▁thank	-10.311
▁theater	-10.3111
▁wonder	-10.3111
▁associate	-10.3115
▁writing	-10.313
▁plus	-10.3133
ence	-10.3136
▁gathering	-10.3147
▁seal	-10.3148
▁Ghaz	-10.3149
▁effects	-10.3151
ealand	-10.3152
ach	-10.3161
▁cool	-10.3162
▁stone	-10.3168
FA	-10.3176
▁Free	-10.3191
▁handl	-10.32
▁predicted	-10.3203
▁convince	-10.3208
▁girlfriend	-10.3208
▁Square	-10.3208
▁sustain	-10.3208
▁Berlin	-10.3209
▁boss	-10.3211
▁Year	-10.3212
▁lock	-10.3217
▁waste	-10.3238
▁fatal	-10.324
OS	-10.3241
▁grave	-10.3242
▁Osam	-10.3245
uk	-10.3251
oward	-10.3262
▁beating	-10.3266
▁battl	-10.3284
▁Intelligen	-10.3292
ka	-10.3294
▁charit	-10.3334
▁drove	-10.3337
▁experiment	-10.3337
▁journey	-10.3337
▁vacation	-10.3337
▁select	-10.3339
▁assist	-10.3339
▁Jesu	-10.334
▁Alexand	-10.3344
▁innocent	-10.3344
▁stability	-10.3352
arah	-10.3354
▁operate	-10.3362
▁afford	-10.3369
▁Scott	-10.3369
down	-10.3383
ious	-10.3391
▁toys	-10.3396
water	-10.3396
▁Argentin	-10.3396
ican	-10.3404
ng	-10.3404
▁declare	-10.3414
▁ABC	-10.3425
▁Ask	-10.3439
itting	-10.3455
▁length	-10.346
▁Good	-10.3467
▁pump	-10.3469
▁veteran	-10.3469
▁Development	-10.3469
▁Major	-10.3471
urricane	-10.3471
▁shopping	-10.3472
▁defendant	-10.3475
▁Islamist	-10.3476
▁tech	-10.3481
bed	-10.3494
hud	-10.3495
▁dramatic	-10.3496
OP	-10.3517
▁structure	-10.3521
Y	-10.3527
▁pursu	-10.3529
ford	-10.3537
▁complet	-10.3542
sburg	-10.3553
▁Gor	-10.3576
▁flee	-10.3582
▁balance	-10.3584
▁invest	-10.3584
▁delivery	-10.3587
▁cultur	-10.3595
adeleine	-10.36
ana	-10.3601
▁landslide	-10.3602
▁BEI	-10.3602
▁Investigator	-10.3603
▁vast	-10.3603
▁chain	-10.3605
▁Atlantic	-10.3608
▁Oil	-10.361
▁Still	-10.3615
bility	-10.3616
▁Kerr	-10.3617
▁acre	-10.3627
▁Bal	-10.3652
AG	-10.3652
▁carrier	-10.3657
▁failing	-10.366
▁digital	-10.3674
▁tradition	-10.3681
▁listen	-10.3682
et	-10.3692
▁metal	-10.3698
chi	-10.3698
▁falling	-10.3699
▁patrol	-10.3707
▁Col	-10.3709
▁Port	-10.3709
occer	-10.3713
▁clon	-10.3718
▁abduct	-10.3718
▁survived	-10.3725
▁Vladimir	-10.3725
▁participate	-10.373
ina	-10.3731
▁formed	-10.3733
▁campus	-10.3733
▁AIDS	-10.3737
▁Women	-10.3737
▁palace	-10.3738
▁preliminar	-10.3738
▁clinic	-10.3738
▁Film	-10.3738
▁pace	-10.3739
▁tsunami	-10.3739
▁dump	-10.3743
lor	-10.3747
▁Though	-10.375
▁authoriz	-10.3762
▁friendly	-10.3769
▁reading	-10.377
▁ill	-10.3791
▁Can	-10.3792
▁celebrat	-10.3793
▁provinces	-10.3796
▁margin	-10.3802
▁resources	-10.3804
▁younger	-10.3808
▁Tim	-10.3809
ada	-10.3812
▁restore	-10.3819
upper	-10.3822
▁dealing	-10.3826
▁warnings	-10.3827
▁guards	-10.383
▁pose	-10.3838
▁desert	-10.3869
▁negotiat	-10.3872
▁Barcelon	-10.3874
▁Michel	-10.3874
▁Representative	-10.3874
▁Societ	-10.3874
▁client	-10.3874
▁Boston	-10.3875
▁conversation	-10.3875
▁Eliza	-10.3875
▁jung	-10.3876
▁connect	-10.3876
▁Fox	-10.3877
▁van	-10.3877
baki	-10.3879
▁mount	-10.3882
ol	-10.3885
▁hung	-10.3897
▁ten	-10.3898
▁rang	-10.391
▁Ga	-10.3915
▁direction	-10.3917
▁opponents	-10.3918
▁bound	-10.3927
▁Song	-10.393
▁youth	-10.3934
▁planes	-10.3936
▁rockets	-10.3953
▁stores	-10.3954
▁teacher	-10.3961
hai	-10.3969
▁Serbia	-10.3991
▁Dala	-10.3995
▁Gar	-10.3999
▁Late	-10.4008
▁restrict	-10.4011
▁Abdul	-10.4013
▁Bangkok	-10.4013
▁prospect	-10.4013
▁plastic	-10.4014
▁knowledge	-10.4014
▁memory	-10.4014
▁Jordan	-10.4014
ejad	-10.4015
▁nor	-10.4016
▁sensitiv	-10.4019
▁Hen	-10.402
▁Peru	-10.4022
▁wish	-10.4029
▁Vat	-10.403
▁assembly	-10.4034
▁excit	-10.4044
▁pet	-10.4047
▁Min	-10.4062
▁Na	-10.4063
▁stepp	-10.4069
▁write	-10.4079
▁Philippines	-10.4083
▁recommend	-10.4086
il	-10.4092
zo	-10.4101
▁promot	-10.4105
▁Jim	-10.4109
▁stretch	-10.4121
▁responded	-10.4124
▁escap	-10.4124
▁Rome	-10.4131
▁ver	-10.4136
evin	-10.4145
▁rid	-10.4145
▁pregnant	-10.4154
▁Miami	-10.4154
▁routine	-10.4154
▁Islamabad	-10.4154
▁Buddhist	-10.4155
tiny	-10.4155
▁Life	-10.4156
▁Brazilian	-10.4156
▁shrine	-10.4157
▁punishment	-10.416
▁collection	-10.4161
▁apologize	-10.4162
▁accord	-10.4162
▁firefighter	-10.4173
▁beef	-10.4181
▁character	-10.4182
▁Mila	-10.4186
▁Fed	-10.4215
▁string	-10.4221
▁highlight	-10.4243
▁symbol	-10.4248
head	-10.4248
▁Van	-10.4252
▁Hall	-10.4259
▁shape	-10.427
▁affiliate	-10.4277
▁skin	-10.4281
▁Hampshire	-10.4297
▁Revolution	-10.4297
▁surrender	-10.4297
▁Hawaii	-10.4297
▁cloud	-10.4297
▁Hotel	-10.4298
▁illness	-10.4299
▁Od	-10.43
▁neck	-10.43
stance	-10.4301
▁solve	-10.4304
har	-10.4306
▁peacekeep	-10.4307
enko	-10.4309
HDA	-10.4311
▁sample	-10.4359
▁teachers	-10.4362
▁crop	-10.4368
▁humans	-10.4374
▁Jon	-10.4376
hattan	-10.4382
▁oppose	-10.4382
▁note	-10.4386
▁tire	-10.4394
▁demonstration	-10.4395
▁comfort	-10.4402
▁drama	-10.4413
▁survive	-10.4414
▁brutal	-10.442
uh	-10.4431
▁coordinat	-10.4436
▁televis	-10.4438
▁squad	-10.4442
▁Scientist	-10.4442
▁shirt	-10.4442
▁watchdog	-10.4442
▁ultimate	-10.4443
▁birthday	-10.4443
▁Analyst	-10.4443
▁airstrike	-10.4444
▁featur	-10.4447
▁divid	-10.4447
▁successor	-10.4448
▁distance	-10.4449
▁bar	-10.445
▁appointment	-10.4452
▁stories	-10.4456
▁bright	-10.4456
▁Morgan	-10.4457
▁Rock	-10.446
▁veto	-10.4461
▁accusation	-10.4463
▁Jak	-10.4464
▁abus	-10.447
▁Kenyan	-10.4479
▁feeling	-10.4483
▁Di	-10.4484
▁barr	-10.4493
▁runway	-10.4501
▁celebrate	-10.4524
▁Somali	-10.453
▁flag	-10.4532
▁inform	-10.4533
▁print	-10.4537
▁Atlant	-10.4542
▁photo	-10.4546
▁publicly	-10.4556
▁contests	-10.4556
▁gang	-10.4561
owitz	-10.4579
▁advertis	-10.4583
▁cease	-10.4589
▁capacity	-10.4589
▁Foundation	-10.4589
oney	-10.4589
KK	-10.459
▁Fund	-10.4592
▁sovereign	-10.4593
arta	-10.46
gi	-10.4602
▁Shang	-10.4604
▁pop	-10.4613
▁Meh	-10.4616
▁nav	-10.4623
HO	-10.4626
▁immigrat	-10.4626
▁hospitals	-10.4626
▁achieve	-10.4632
▁observer	-10.4633
▁undergo	-10.4634
OK	-10.4639
▁dub	-10.4647
▁stadium	-10.4652
▁striker	-10.4655
witz	-10.4673
▁Mad	-10.468
▁Car	-10.4685
▁chair	-10.469
▁Gamba	-10.4695
▁none	-10.4696
▁photographer	-10.4697
▁commit	-10.4704
▁Airb	-10.4707
▁replac	-10.4716
ippi	-10.4728
▁journal	-10.4735
▁Time	-10.4735
▁Blago	-10.4738
▁wreck	-10.4738
▁Stephen	-10.4738
▁Transport	-10.4738
▁venue	-10.4738
▁studio	-10.4738
▁captain	-10.4738
▁numer	-10.4739
▁entertainment	-10.4739
▁Judge	-10.474
▁Egyptian	-10.474
▁typical	-10.4741
▁text	-10.4742
▁strict	-10.4742
▁Valley	-10.4743
▁Loh	-10.4753
▁briefing	-10.4756
▁Dick	-10.4759
▁Chile	-10.4763
▁cable	-10.4768
▁Ba	-10.4768
▁Assistan	-10.4773
▁transferr	-10.4776
MA	-10.4785
▁Well	-10.4786
▁explain	-10.4791
DP	-10.4811
▁truth	-10.4827
▁resolv	-10.4833
▁settle	-10.4845
▁glass	-10.4847
▁eat	-10.4848
▁tool	-10.4866
rai	-10.487
▁Moham	-10.4873
ogan	-10.4876
▁approve	-10.4879
▁emerged	-10.488
▁Mur	-10.4882
▁knock	-10.4886
▁dispatch	-10.489
▁queen	-10.489
▁endanger	-10.489
▁Board	-10.489
▁peak	-10.4891
▁Mississ	-10.4891
▁inspection	-10.4892
▁Columbia	-10.4892
▁Congo	-10.4893
▁FTA	-10.4894
▁en	-10.4895
▁expensive	-10.4895
▁realit	-10.4896
▁stressed	-10.4903
▁stimul	-10.4903
▁worker	-10.4905
▁Bob	-10.4906
▁Rom	-10.4913
▁circumstances	-10.4914
▁stole	-10.4914
▁views	-10.4941
▁Gree	-10.4949
▁cloth	-10.4949
▁caucuse	-10.4979
▁Men	-10.4982
stein	-10.4995
▁depend	-10.4997
▁GMT	-10.4998
▁plu	-10.5004
light	-10.5011
▁welcom	-10.5012
tah	-10.5016
▁divers	-10.5027
▁Elect	-10.5038
▁agricultur	-10.5044
▁coffee	-10.5044
▁harsh	-10.5044
▁Mexican	-10.5044
▁funeral	-10.5044
▁multiple	-10.5044
▁cabinet	-10.5044
▁inquir	-10.5044
▁supposed	-10.5044
▁superdelegate	-10.5045
tion	-10.5045
▁Parliament	-10.5047
▁marine	-10.5049
▁switch	-10.505
▁sailor	-10.5051
armament	-10.5055
▁blaze	-10.5055
▁mental	-10.5059
▁Steven	-10.506
▁mate	-10.5062
rice	-10.5078
▁mouth	-10.5081
▁accounts	-10.5121
ular	-10.5123
B	-10.5128
tt	-10.513
▁Henr	-10.5139
tic	-10.5144
pped	-10.5152
▁wage	-10.5159
▁handle	-10.517
ullah	-10.5177
▁introduc	-10.5184
▁maxim	-10.5188
▁ski	-10.5189
TV	-10.5189
iana	-10.519
▁Sch	-10.519
▁matche	-10.5192
▁consult	-10.5195
rey	-10.5196
▁DVD	-10.52
▁breakthrough	-10.52
▁false	-10.52
▁application	-10.52
▁yellow	-10.52
▁dinner	-10.52
▁northwest	-10.5201
▁yard	-10.5202
▁Castro	-10.5202
▁deny	-10.5203
▁lung	-10.5205
▁regulator	-10.5205
▁shoot	-10.5208
▁indication	-10.5209
▁intention	-10.5215
▁rescued	-10.5219
▁entry	-10.5225
▁prepare	-10.5227
▁appropriate	-10.523
▁lady	-10.5233
▁dominat	-10.524
ala	-10.5245
▁FAR	-10.525
▁powers	-10.527
▁forum	-10.5271
▁Ray	-10.5278
▁moderate	-10.5287
▁Art	-10.5287
▁wor	-10.5289
▁marks	-10.5296
▁earning	-10.5298
▁pirates	-10.5303
▁messages	-10.5312
▁Je	-10.5317
▁recognize	-10.5321
▁counts	-10.5324
▁diplomat	-10.5331
▁liter	-10.535
▁punish	-10.5353
▁breath	-10.5355
▁Disney	-10.5356
HIV	-10.5357
▁Control	-10.5357
▁Swiss	-10.5359
▁Benedict	-10.5359
▁Staff	-10.5359
▁debri	-10.5359
▁testimon	-10.5359
▁impeach	-10.5359
▁diamond	-10.5361
▁edition	-10.5361
▁shark	-10.5362
▁Join	-10.5364
▁intense	-10.5372
▁compete	-10.5376
▁wins	-10.5386
▁Stan	-10.5399
▁bombers	-10.5403
pending	-10.5417
▁Report	-10.5438
▁bird	-10.5438
wise	-10.5441
▁pursue	-10.5447
▁saving	-10.5451
▁guns	-10.5468
▁Gul	-10.5469
trick	-10.5472
▁lights	-10.5475
erland	-10.5476
▁Bar	-10.5494
▁Blue	-10.55
▁eating	-10.5502
▁window	-10.5505
▁explosive	-10.5506
▁citizen	-10.5506
▁bail	-10.5518
▁editor	-10.552
▁Phoeni	-10.552
▁apply	-10.552
▁occupation	-10.552
▁participant	-10.552
▁benchmark	-10.552
▁concrete	-10.552
▁conclusion	-10.552
▁Power	-10.552
▁Director	-10.552
▁nature	-10.552
▁bitter	-10.5523
▁hail	-10.5526
led	-10.5528
ev	-10.553
▁disable	-10.5536
huan	-10.5539
▁operator	-10.5541
▁comedy	-10.5545
it	-10.5546
▁Worker	-10.5553
▁correct	-10.5556
▁apologiz	-10.5557
▁musical	-10.5563
▁Pelo	-10.5563
▁Mi	-10.5563
put	-10.5568
wo	-10.5579
nformation	-10.561
▁Sri	-10.5615
▁react	-10.5619
more	-10.5624
olo	-10.5627
▁stag	-10.5636
▁Den	-10.5637
▁communit	-10.5645
▁pitch	-10.5646
eath	-10.5671
▁Camp	-10.5677
▁disrupt	-10.568
▁confident	-10.5682
▁verdict	-10.5684
▁Rescue	-10.5684
▁ordinar	-10.5684
▁boyfriend	-10.5684
▁hurricane	-10.5684
▁Joseph	-10.5684
▁genetic	-10.5684
▁faith	-10.5685
▁Kingdom	-10.5685
▁shareholder	-10.5685
▁fierce	-10.5686
▁barrier	-10.5687
▁Brad	-10.5693
▁spott	-10.5699
▁overwhelming	-10.5729
sumption	-10.5729
▁Let	-10.5737
▁Ho	-10.5739
▁owners	-10.5743
▁Chad	-10.5745
▁Somalia	-10.575
▁torture	-10.575
▁camps	-10.5788
▁thanks	-10.5793
ella	-10.5803
ad	-10.5804
▁argue	-10.5811
▁slipp	-10.5814
▁Austria	-10.5827
▁negotiate	-10.5842
▁Journal	-10.5846
▁Top	-10.5847
▁Mount	-10.5848
▁Ambassador	-10.5851
▁Czech	-10.5851
▁sweep	-10.5851
▁await	-10.5851
▁vital	-10.5851
▁Jeff	-10.5852
▁Bad	-10.5853
▁careful	-10.5855
▁preparation	-10.5855
▁Carlo	-10.5856
▁scientific	-10.5864
rac	-10.5869
▁substantial	-10.587
▁Pe	-10.5873
▁unknown	-10.5876
▁Chris	-10.5877
▁Maj	-10.5878
▁sick	-10.5879
▁copy	-10.588
▁Bond	-10.5882
▁Beach	-10.5884
PP	-10.5891
▁toxic	-10.5896
▁Ja	-10.5919
aine	-10.5922
▁fun	-10.5923
ho	-10.5937
pover	-10.5948
▁pos	-10.595
▁Mary	-10.5959
▁chao	-10.5962
bai	-10.5967
▁Mid	-10.5974
▁Ri	-10.599
▁denounc	-10.6013
▁Second	-10.602
▁McCorm	-10.602
▁Tennesse	-10.602
▁transaction	-10.602
▁quiet	-10.602
▁odd	-10.602
▁native	-10.6021
▁Case	-10.6022
▁Clark	-10.6023
▁cafe	-10.6028
▁surveill	-10.6034
▁UE	-10.6042
▁hitt	-10.6042
▁Water	-10.6043
▁inspir	-10.6044
▁whal	-10.6046
▁Speaker	-10.6052
▁familiar	-10.6061
▁bigge	-10.6066
▁tend	-10.6067
▁pope	-10.607
▁Oh	-10.6072
▁con	-10.6084
▁Mar	-10.6098
ko	-10.61
craft	-10.6112
hood	-10.6113
▁Mel	-10.6131
▁copie	-10.6134
erry	-10.6141
▁convert	-10.6143
▁plung	-10.6152
▁Chun	-10.6154
▁ignor	-10.6167
▁Il	-10.6167
▁mistake	-10.6174
▁strip	-10.6186
▁priva	-10.6189
▁Radio	-10.6189
▁compensation	-10.6192
▁referendum	-10.6192
▁striking	-10.6192
▁rumor	-10.6192
▁departure	-10.6193
▁Museum	-10.6193
▁separatist	-10.6193
▁petition	-10.6193
▁repair	-10.6194
▁Jack	-10.6194
▁tackle	-10.6194
▁Jane	-10.6196
▁Lake	-10.6197
▁representative	-10.62
▁parent	-10.6207
▁frame	-10.6207
▁Erd	-10.6217
ities	-10.6226
▁Medic	-10.623
▁Wine	-10.6233
▁Antoni	-10.6237
▁Cuban	-10.6237
▁Kent	-10.624
▁Move	-10.6247
ca	-10.6258
▁realize	-10.6259
ible	-10.6261
▁Larr	-10.6262
▁shore	-10.6265
▁stands	-10.6267
▁restor	-10.6269
▁broadcaster	-10.6275
▁thinking	-10.6276
▁Ten	-10.628
ball	-10.6286
▁Bel	-10.629
court	-10.6292
line	-10.6303
▁Alex	-10.6329
li	-10.6341
▁Ryan	-10.6348
▁teen	-10.635
▁miner	-10.6357
▁Mac	-10.6357
▁motor	-10.6358
▁resist	-10.6361
▁Mart	-10.6366
▁novel	-10.6367
▁floods	-10.6367
▁immigrant	-10.6368
▁uniform	-10.6368
▁platform	-10.6368
▁Doctor	-10.6368
▁Championship	-10.6368
▁Eight	-10.6368
▁initiative	-10.6369
do	-10.6369
▁conviction	-10.6369
▁sentiment	-10.6369
▁regions	-10.6369
▁Global	-10.6369
▁Tech	-10.6372
▁Stone	-10.6373
▁rail	-10.6374
▁Emergenc	-10.6376
▁Chong	-10.6377
▁anticipat	-10.6378
▁Kate	-10.6378
▁slamm	-10.6379
▁isolat	-10.6384
▁absolutely	-10.6388
▁reference	-10.6391
ub	-10.6402
▁stable	-10.6404
▁acknowledge	-10.6405
▁rat	-10.6411
▁Long	-10.6411
am	-10.6418
▁Officer	-10.6423
▁shipp	-10.6423
▁prayer	-10.643
▁paint	-10.6435
▁cruise	-10.6441
board	-10.6446
clusive	-10.6467
lo	-10.6474
▁Nanc	-10.6475
▁oldest	-10.6478
▁priorit	-10.6493
▁mourn	-10.6501
oil	-10.6505
▁vi	-10.6512
▁Da	-10.6521
▁buyer	-10.6522
▁Libya	-10.6523
▁newly	-10.653
▁outrage	-10.6541
▁loyal	-10.6543
▁secular	-10.6544
▁imprison	-10.6546
▁Delhi	-10.6547
▁smash	-10.6547
▁Rafa	-10.6547
▁clock	-10.6547
FP	-10.6547
▁crush	-10.6547
▁contrast	-10.6547
▁alarm	-10.6547
▁chest	-10.6548
▁aggressive	-10.6548
▁breach	-10.6549
▁Like	-10.6549
▁everybody	-10.6549
▁cargo	-10.6551
▁confrontation	-10.6553
▁chant	-10.656
iang	-10.656
si	-10.6563
▁windows	-10.6563
▁settlement	-10.6564
▁moral	-10.6566
ota	-10.6566
▁continent	-10.6569
▁Mum	-10.6569
uri	-10.6569
▁Act	-10.6577
▁speaker	-10.6578
▁greet	-10.6585
▁Sir	-10.6608
▁map	-10.6625
angi	-10.6629
▁meter	-10.6641
▁o	-10.6649
que	-10.6655
▁aren	-10.6656
▁Services	-10.6657
▁Ru	-10.666
▁soil	-10.6661
GA	-10.6666
▁Airway	-10.6676
▁painting	-10.6687
▁Miss	-10.6687
quo	-10.6693
▁Moon	-10.6695
▁attacker	-10.6703
▁employ	-10.6706
▁partners	-10.6721
▁robot	-10.6725
▁slave	-10.6727
▁spirit	-10.6728
▁muscle	-10.6728
▁urban	-10.6728
▁retain	-10.6728
▁Donald	-10.6728
▁Roger	-10.6729
▁outcome	-10.673
▁volcano	-10.6732
▁respective	-10.6733
▁dust	-10.6733
▁essential	-10.6733
▁Timor	-10.6733
▁float	-10.6736
▁Tsv	-10.6737
▁stroke	-10.6739
▁Pat	-10.674
▁Moore	-10.6742
▁league	-10.6744
▁Andrew	-10.6746
awi	-10.6749
▁submitt	-10.6757
▁delegate	-10.6759
▁employee	-10.6759
▁unity	-10.6761
▁Yi	-10.6773
▁Mil	-10.6777
▁expos	-10.6807
▁Syrian	-10.6815
hildren	-10.6822
▁historical	-10.6835
shore	-10.6838
▁Ire	-10.6844
▁wood	-10.6853
▁civi	-10.6871
▁Ala	-10.6872
band	-10.6875
▁trader	-10.6886
▁Sam	-10.689
▁impose	-10.6896
▁Bangladesh	-10.6903
▁spill	-10.6909
▁Civil	-10.6911
▁lobby	-10.6913
▁unrest	-10.6913
▁Capitol	-10.6913
▁Education	-10.6913
▁qualify	-10.6913
▁Commerc	-10.6914
▁obvious	-10.6914
▁embryo	-10.6914
▁motion	-10.6914
ANGE	-10.6914
▁rifle	-10.6914
▁Local	-10.6914
▁relocation	-10.6915
▁Hamid	-10.6915
▁Davis	-10.6915
▁slump	-10.6916
▁Bowl	-10.6916
▁Mohammad	-10.6916
▁concept	-10.6919
▁Rod	-10.6919
elphi	-10.692
▁Memori	-10.6922
▁phase	-10.6924
▁freeze	-10.6924
▁Pro	-10.6925
▁Rich	-10.6926
▁Seven	-10.6931
▁inch	-10.6931
▁introduce	-10.6932
▁hid	-10.6935
▁Ra	-10.6938
▁Out	-10.6939
▁Murr	-10.6941
▁contender	-10.6947
▁politician	-10.6952
▁fires	-10.6953
▁graduate	-10.6954
▁cave	-10.6958
▁Bell	-10.6966
▁Change	-10.6972
ated	-10.6976
▁twin	-10.6981
nke	-10.6982
▁Te	-10.7002
istan	-10.7005
▁undermine	-10.7011
me	-10.7018
▁liberal	-10.7027
▁seconds	-10.7027
▁extremists	-10.7036
ew	-10.7045
W	-10.7049
▁attach	-10.7054
▁pleas	-10.7055
▁execut	-10.7057
▁organ	-10.7062
▁guide	-10.7071
▁Lanka	-10.7078
evich	-10.7088
▁prince	-10.7091
▁function	-10.7091
▁teens	-10.7094
▁diet	-10.7102
▁Netherlands	-10.7102
▁quarterfinal	-10.7102
▁sweet	-10.7102
▁technique	-10.7102
▁caution	-10.7102
▁summon	-10.7102
LES	-10.7102
▁creature	-10.7102
▁checkpoint	-10.7102
▁Palace	-10.7103
▁consequence	-10.7103
▁greenhouse	-10.7103
▁curb	-10.7103
▁Huck	-10.7104
▁extraordinar	-10.7104
▁Missou	-10.7105
▁baseball	-10.7105
▁tobacco	-10.7105
▁medal	-10.7106
▁efficient	-10.7106
▁roof	-10.7107
▁runoff	-10.7111
▁Old	-10.7112
▁portion	-10.7113
▁rebuild	-10.7113
▁airports	-10.7115
▁su	-10.7119
▁root	-10.7141
ade	-10.7157
▁sect	-10.7161
▁worsen	-10.7175
▁hero	-10.7181
▁athletes	-10.7182
▁escalat	-10.7191
▁villager	-10.7199
▁Nas	-10.7201
▁Researcher	-10.7204
▁distribut	-10.7208
▁sole	-10.721
ti	-10.7211
▁Me	-10.7213
▁documentar	-10.7213
▁OP	-10.7216
▁clothe	-10.7225
▁combin	-10.7226
▁bribe	-10.7226
▁lend	-10.7233
▁rac	-10.7251
▁mis	-10.7261
▁submit	-10.7266
▁compet	-10.7273
▁reserve	-10.7277
▁administrative	-10.7294
▁ambush	-10.7294
▁globe	-10.7294
▁Cruise	-10.7294
▁Giuli	-10.7294
▁pattern	-10.7294
▁Darwin	-10.7295
▁exposure	-10.7295
▁Gyeong	-10.7295
▁championship	-10.7296
▁toilet	-10.7296
▁Globe	-10.7297
▁gross	-10.7297
▁shield	-10.7301
▁Warner	-10.7302
▁variet	-10.7307
iest	-10.7314
▁feed	-10.7314
mbled	-10.7315
▁assessment	-10.7316
E	-10.7319
▁contribute	-10.7326
▁trend	-10.7327
▁homeless	-10.7327
▁robber	-10.7327
▁Har	-10.7328
▁Motor	-10.733
▁offender	-10.733
▁attitude	-10.7347
▁Polan	-10.7351
▁whale	-10.7354
▁Yong	-10.7356
▁da	-10.7359
▁foundation	-10.7362
▁dat	-10.7372
▁yes	-10.7374
▁Jae	-10.7381
▁refuse	-10.7388
▁Northeast	-10.7395
old	-10.7395
▁Ha	-10.7408
▁Far	-10.7413
▁legs	-10.7414
▁traffick	-10.7421
standing	-10.7421
▁ousted	-10.7422
▁Nine	-10.7424
▁min	-10.7427
nt	-10.743
erald	-10.7432
▁Wal	-10.7432
ox	-10.7442
▁liquid	-10.7452
▁Ni	-10.7459
ential	-10.7475
▁br	-10.7478
▁scar	-10.7485
▁except	-10.7486
▁dictator	-10.749
▁guerrilla	-10.7491
▁Orlean	-10.7491
▁Merkel	-10.7491
▁minimum	-10.7491
▁Tiger	-10.7491
▁Job	-10.7492
▁Greek	-10.7493
▁earth	-10.7493
▁timetable	-10.7493
▁Snow	-10.7494
▁bankruptcy	-10.7495
▁celebration	-10.7497
daq	-10.7499
▁hall	-10.7499
▁residence	-10.7504
▁Feb	-10.7504
▁fever	-10.7505
▁Rep	-10.7509
▁deadlie	-10.7525
ph	-10.7535
▁Whit	-10.7536
▁revenue	-10.7541
▁scheme	-10.7542
▁household	-10.7547
▁overcom	-10.7553
sfeld	-10.7557
▁Shara	-10.7558
lub	-10.7558
▁sad	-10.7559
EB	-10.756
▁Mer	-10.7562
▁Ever	-10.7588
fer	-10.7594
▁Rio	-10.7596
▁Ste	-10.7598
▁revive	-10.7599
ged	-10.76
▁mandat	-10.7603
▁prais	-10.7612
identified	-10.7613
▁Ron	-10.7615
▁pray	-10.762
▁endors	-10.7621
hilad	-10.7622
▁classic	-10.7631
lated	-10.7633
fi	-10.7653
▁whales	-10.7653
east	-10.7661
▁faction	-10.7673
elevision	-10.7676
▁Rum	-10.7681
▁Kuwait	-10.7682
▁Serb	-10.7689
▁steel	-10.769
▁Detroit	-10.7691
▁clinch	-10.7691
▁consecutive	-10.7691
▁IOC	-10.7691
▁Program	-10.7691
▁swimming	-10.7691
▁legend	-10.7691
▁republic	-10.7691
▁Winter	-10.7691
▁abortion	-10.7691
▁Light	-10.7691
▁temple	-10.7691
▁exploit	-10.7691
▁Critic	-10.7691
▁aftershock	-10.7692
▁tunnel	-10.7692
▁evacuation	-10.7692
▁wireless	-10.7693
▁disappearance	-10.7693
▁competitive	-10.7693
▁launder	-10.7694
▁Rodrigue	-10.7694
▁amounts	-10.7694
▁substance	-10.7694
▁Rowl	-10.7694
▁Colleg	-10.7696
▁proof	-10.77
▁Kurdis	-10.77
heriff	-10.7701
▁Simon	-10.7706
▁troubl	-10.7712
▁torn	-10.7715
▁Metropoli	-10.7717
▁specialist	-10.773
▁turnout	-10.7743
▁plate	-10.7744
▁Princes	-10.7748
▁apart	-10.7767
▁conclude	-10.7787
▁classifi	-10.7788
▁doors	-10.7792
▁Albert	-10.7798
▁rescuer	-10.7803
▁banner	-10.7804
▁upset	-10.7804
half	-10.7813
▁retail	-10.7815
▁shots	-10.7818
ll	-10.782
▁Eric	-10.7832
▁Bear	-10.7838
▁Motors	-10.7842
▁stick	-10.7847
▁laugh	-10.7848
▁compromise	-10.7854
abee	-10.7854
▁granted	-10.7867
▁Latin	-10.7888
▁Sic	-10.789
▁voluntar	-10.7895
▁concession	-10.7895
▁encounter	-10.7895
▁ocean	-10.7895
▁laptop	-10.7895
▁mortar	-10.7895
▁Panama	-10.7895
▁Festival	-10.7895
▁offense	-10.7895
▁stuff	-10.7895
▁Technolog	-10.7895
▁hint	-10.7895
▁fulfill	-10.7895
▁Rei	-10.7895
▁obligation	-10.7895
▁cyclone	-10.7895
▁Socialist	-10.7895
▁impossible	-10.7896
▁cow	-10.7896
▁Athen	-10.7896
▁Master	-10.7897
▁Lo	-10.7898
▁Engineer	-10.7899
▁reward	-10.7899
▁inquest	-10.79
▁jungle	-10.79
▁Week	-10.7902
▁Arabic	-10.7905
the	-10.7905
▁emotional	-10.7907
▁sons	-10.7909
▁ambition	-10.791
▁Up	-10.7912
▁Rose	-10.7912
▁Ball	-10.7914
▁Rudd	-10.7916
▁icon	-10.7922
▁Forest	-10.7929
▁engage	-10.7932
▁Cooper	-10.7944
▁n	-10.7949
▁Paulo	-10.7949
▁worry	-10.796
oxid	-10.7966
▁bars	-10.7966
pov	-10.7969
▁generate	-10.7987
all	-10.7989
▁tension	-10.799
▁beer	-10.7991
▁Leader	-10.7994
lum	-10.7997
▁viewers	-10.8011
fire	-10.8019
▁dry	-10.8022
bow	-10.8023
▁regret	-10.8033
▁winners	-10.8033
izu	-10.8036
▁wire	-10.8041
▁indicted	-10.8048
▁Politic	-10.8058
▁cartoon	-10.8061
▁flat	-10.8082
▁divide	-10.81
▁semifinal	-10.8101
▁deficit	-10.8103
▁precaution	-10.8103
▁dawn	-10.8103
▁blanket	-10.8103
▁ballistic	-10.8103
▁landmark	-10.8103
▁testify	-10.8104
▁Barbara	-10.8104
▁crown	-10.8104
▁suspicious	-10.8104
▁Media	-10.8105
▁postpone	-10.8105
▁tropic	-10.8106
▁Video	-10.8107
▁meat	-10.8109
▁turm	-10.8109
▁Ark	-10.811
▁Hawk	-10.8119
▁Fift	-10.812
▁Sheriff	-10.8128
ntao	-10.8132
▁gate	-10.8134
▁designer	-10.8136
▁equit	-10.8139
▁volunteers	-10.8141
▁Fi	-10.8141
▁Dean	-10.8141
▁Malaysian	-10.8146
▁Wales	-10.8148
▁Bolt	-10.8152
▁trick	-10.8154
▁burst	-10.8159
▁Jer	-10.8161
laid	-10.8162
▁worri	-10.8164
▁detainees	-10.8167
▁homeland	-10.8174
▁shoulder	-10.8176
lets	-10.8178
ably	-10.8197
▁Will	-10.8197
▁rubb	-10.8208
▁Ch	-10.8208
▁wine	-10.821
▁Bei	-10.8217
▁Pri	-10.8221
▁Hug	-10.8228
▁promotion	-10.8228
▁pointed	-10.8249
▁wrapp	-10.8256
▁secur	-10.8257
▁Wh	-10.8259
▁GM	-10.8259
and	-10.8259
▁Maria	-10.8262
▁trained	-10.8263
▁habitat	-10.8263
erson	-10.8284
▁investigations	-10.8286
▁Ramo	-10.8288
▁Kyo	-10.8288
ap	-10.8293
▁Command	-10.8296
▁Live	-10.8298
▁cheap	-10.8304
▁bureau	-10.8311
▁confess	-10.8311
med	-10.8314
▁Hud	-10.8316
▁Oklahoma	-10.8316
▁transplant	-10.8316
▁Division	-10.8316
▁constant	-10.8316
▁cigarette	-10.8316
▁Morning	-10.8316
▁drill	-10.8316
▁wildfire	-10.8316
▁gear	-10.8316
▁belief	-10.8317
▁Cleve	-10.8317
▁respondent	-10.8317
▁colonial	-10.8317
▁displac	-10.8317
▁Survey	-10.8318
▁Kansa	-10.8318
▁premier	-10.8319
▁spiritual	-10.8319
▁Yu	-10.8319
▁Yel	-10.832
▁mom	-10.832
▁prominent	-10.8321
▁solid	-10.8322
▁spray	-10.8325
▁pour	-10.833
▁core	-10.8336
▁occasion	-10.8336
anagement	-10.8341
rctic	-10.8342
▁leftist	-10.8344
▁flash	-10.8354
▁instance	-10.8358
q	-10.8361
▁predict	-10.8373
▁depressi	-10.8383
▁coal	-10.8384
▁Hit	-10.8397
▁Tay	-10.8404
▁passport	-10.8404
▁Berna	-10.8404
▁decid	-10.8405
▁nei	-10.8406
▁principle	-10.8408
▁thin	-10.8426
▁Terr	-10.8427
precedent	-10.8453
▁deliberate	-10.8464
▁desire	-10.8475
nis	-10.8481
▁fat	-10.8483
▁reduc	-10.8492
▁colon	-10.8499
▁Dod	-10.85
▁Ne	-10.8502
▁counsel	-10.8525
▁confront	-10.8525
▁prohibit	-10.8526
▁Euro	-10.853
▁decisions	-10.8531
▁luxur	-10.8533
▁Ecuador	-10.8533
▁Ibrahim	-10.8533
▁memorial	-10.8533
▁technologies	-10.8533
▁relax	-10.8533
▁migrant	-10.8533
▁admission	-10.8533
▁expansion	-10.8533
▁Seattle	-10.8534
▁Meet	-10.8534
▁beaut	-10.8534
▁tornado	-10.8534
▁inauguration	-10.8534
▁Yet	-10.8535
▁urgent	-10.8537
▁Adam	-10.8537
▁empty	-10.854
▁resistan	-10.8543
▁Compan	-10.8544
▁background	-10.8546
▁railway	-10.8546
▁presumpti	-10.8554
▁Virgin	-10.8554
▁towns	-10.8557
▁load	-10.8558
hn	-10.856
▁stead	-10.8575
▁fleet	-10.8579
▁commissioner	-10.858
tsin	-10.8583
▁Lewis	-10.8584
▁Yes	-10.8586
▁custom	-10.8591
▁institute	-10.8591
bu	-10.8594
▁Line	-10.8596
▁Phil	-10.8598
▁capabilit	-10.8599
▁cards	-10.8604
her	-10.8613
▁sand	-10.8613
conciliation	-10.8621
ster	-10.863
ba	-10.8646
nak	-10.866
▁centur	-10.8669
▁oversee	-10.8669
▁Woo	-10.8678
▁achiev	-10.8682
ek	-10.8683
orry	-10.8711
▁marking	-10.8725
▁denucleariz	-10.8732
▁stepping	-10.8736
▁Harv	-10.8738
▁Ahmad	-10.8741
▁designat	-10.8742
▁caps	-10.8744
iscons	-10.8749
▁Yemen	-10.8749
▁wrap	-10.8749
afety	-10.8752
▁exhibit	-10.8752
▁interpret	-10.8752
▁disclose	-10.8755
bama	-10.8755
▁Follow	-10.8755
▁consensu	-10.8755
▁hybrid	-10.8755
▁Craig	-10.8755
▁Current	-10.8755
▁extensive	-10.8755
▁tragedy	-10.8755
▁Consumer	-10.8755
▁unfair	-10.8756
▁hub	-10.8756
▁pipeline	-10.8756
▁Amazon	-10.8756
▁dissident	-10.8756
▁egg	-10.8756
▁Industrial	-10.8757
▁uncover	-10.8757
kovic	-10.8758
▁medication	-10.8758
▁dragg	-10.8761
▁Chance	-10.8761
▁yuan	-10.8761
▁nice	-10.8762
▁glacier	-10.8763
▁Sweden	-10.8764
▁Fort	-10.8766
▁insurgenc	-10.8766
▁chole	-10.8768
▁peer	-10.877
▁insult	-10.8771
▁Du	-10.8776
▁strategic	-10.8776
▁Tru	-10.8781
▁Main	-10.8782
▁permissi	-10.8793
▁cooperate	-10.88
▁champions	-10.8806
▁examin	-10.8806
▁Fortun	-10.8807
▁Thanks	-10.8807
▁happening	-10.8813
▁massacre	-10.8815
ide	-10.882
viation	-10.882
▁ruler	-10.8825
▁theft	-10.8825
▁Turn	-10.8836
▁endur	-10.8841
▁retailer	-10.8843
▁persuade	-10.8848
▁strand	-10.885
▁drawing	-10.8853
▁Brun	-10.8857
▁AC	-10.8863
▁Anders	-10.8866
onna	-10.8867
▁Philippine	-10.887
▁follower	-10.8873
wa	-10.8886
▁attribut	-10.8889
▁dy	-10.889
▁revis	-10.889
pol	-10.889
ius	-10.8902
▁Ir	-10.8902
▁breed	-10.8903
ucky	-10.8903
▁Land	-10.8913
▁sight	-10.8917
▁lake	-10.8926
▁Philip	-10.8931
min	-10.8937
▁diploma	-10.8951
▁reiterat	-10.8956
▁Gerr	-10.8958
▁Yo	-10.896
▁dealers	-10.8964
most	-10.8969
▁grab	-10.897
▁representatives	-10.8973
▁reverse	-10.8974
▁economies	-10.8983
▁predecessor	-10.8983
▁religion	-10.8983
▁tabloid	-10.8983
▁unexpected	-10.8983
▁Window	-10.8983
▁Executive	-10.8983
▁infant	-10.8983
▁overturn	-10.8983
▁entrance	-10.8983
▁definite	-10.8983
▁terminal	-10.8983
▁exclusive	-10.8984
▁consistent	-10.8985
ntil	-10.8987
▁cup	-10.8987
▁recommendation	-10.8987
▁fake	-10.8988
▁Stern	-10.8988
▁Pol	-10.899
uma	-10.8991
▁Kitt	-10.8992
▁legitimate	-10.8993
▁swift	-10.8996
▁replacement	-10.9002
▁lab	-10.9005
▁Pen	-10.9006
▁tower	-10.9017
▁suggestion	-10.902
▁models	-10.9024
FDA	-10.9024
▁coc	-10.9031
▁employment	-10.9034
▁wash	-10.9037
▁publication	-10.9041
▁stream	-10.9043
uz	-10.9053
▁surg	-10.9055
▁Matt	-10.9064
▁Diya	-10.907
▁Mass	-10.9074
▁characters	-10.9074
arian	-10.9076
▁praise	-10.9078
▁Rodd	-10.9083
▁impo	-10.9087
▁starr	-10.9097
▁Jin	-10.9109
ware	-10.911
▁Broadcast	-10.9116
▁Sung	-10.9123
▁manage	-10.9153
▁minorit	-10.9163
▁contribut	-10.9165
▁Jo	-10.9177
▁silence	-10.9184
cheon	-10.9185
▁Bu	-10.9188
▁Nigeria	-10.9192
▁occur	-10.9196
▁tickets	-10.9203
▁blog	-10.9205
▁tru	-10.9206
gt	-10.9208
▁conservation	-10.9211
▁embarrass	-10.9215
▁grenade	-10.9215
▁elephant	-10.9215
▁zero	-10.9215
▁steep	-10.9215
▁fault	-10.9215
▁extension	-10.9215
▁Jolie	-10.9215
▁suspension	-10.9216
▁priest	-10.9216
▁destination	-10.9216
▁panda	-10.9217
▁guideline	-10.9217
▁loud	-10.9218
▁Kanda	-10.9219
▁contribution	-10.9219
▁Liberal	-10.9223
▁creation	-10.9224
▁instant	-10.9225
verish	-10.9226
▁jobless	-10.9227
▁snake	-10.9233
▁soo	-10.9242
eh	-10.9246
▁prior	-10.9247
▁personally	-10.9251
▁Price	-10.9257
aki	-10.9258
▁amendment	-10.9259
▁Twent	-10.9267
▁contractor	-10.9271
▁Medica	-10.9273
▁Rad	-10.9275
▁Kun	-10.9283
frai	-10.9284
▁hir	-10.9285
ward	-10.9297
▁Tho	-10.9304
rich	-10.9308
math	-10.9308
harto	-10.9312
▁Cold	-10.9315
▁lender	-10.9317
tar	-10.9325
▁wav	-10.933
▁Nazi	-10.9337
▁dropping	-10.9337
▁abduction	-10.9341
▁eas	-10.9343
▁hat	-10.9346
▁Dec	-10.9358
▁influ	-10.9363
▁recognized	-10.9363
▁matters	-10.9364
▁wheel	-10.9367
▁clip	-10.9378
▁golf	-10.9389
ological	-10.9399
eastern	-10.9399
▁Clo	-10.9405
ists	-10.9409
eva	-10.9424
▁Ge	-10.9431
ett	-10.9436
▁teenage	-10.9438
▁transform	-10.9444
▁expire	-10.9444
dev	-10.945
▁bargain	-10.9453
▁genocid	-10.9453
▁unacceptabl	-10.9453
▁volume	-10.9453
▁videotape	-10.9453
▁Vermont	-10.9453
▁prosper	-10.9453
▁discount	-10.9453
▁pardon	-10.9453
▁tiger	-10.9453
▁Katrin	-10.9453
▁tissue	-10.9453
▁Houston	-10.9454
▁Drug	-10.9454
lin	-10.9454
▁vitamin	-10.9454
▁interrogation	-10.9455
▁shutdown	-10.9455
▁Girl	-10.9455
▁Puert	-10.9455
▁download	-10.9455
▁possession	-10.9456
▁rebound	-10.9456
▁burden	-10.9456
▁everywhere	-10.9459
▁Ta	-10.9463
▁rent	-10.9466
▁musician	-10.9468
ament	-10.9473
▁visibl	-10.9475
▁sheet	-10.9477
▁dop	-10.9478
▁confirmation	-10.9489
▁Fred	-10.949
▁grant	-10.9491
▁Med	-10.9493
▁thick	-10.9494
▁advisor	-10.9499
▁Sang	-10.9502
▁shap	-10.9523
▁Glas	-10.9523
▁flags	-10.9529
▁factors	-10.9543
▁Sao	-10.9546
pe	-10.9546
▁broker	-10.9547
▁interior	-10.9553
▁Laho	-10.9553
ik	-10.9556
▁pool	-10.9557
llor	-10.956
▁consum	-10.9562
▁Love	-10.9562
▁demonstrate	-10.9569
▁Lis	-10.9575
▁abuses	-10.9576
▁crossing	-10.9576
▁CD	-10.9579
▁sav	-10.9585
▁principles	-10.9592
▁automaker	-10.9599
▁defending	-10.9599
▁kidnapp	-10.9604
▁Torre	-10.9645
▁Down	-10.9653
▁KC	-10.9654
▁arrang	-10.966
▁Nicole	-10.9662
rsenal	-10.9679
els	-10.968
ill	-10.9682
▁vulnerab	-10.969
▁advis	-10.969
T	-10.9692
▁fundamental	-10.9693
▁challeng	-10.9695
▁absence	-10.9697
▁association	-10.9697
▁disorder	-10.9697
▁infrastructure	-10.9697
▁regain	-10.9697
▁monarch	-10.9697
munition	-10.9697
▁Witness	-10.9697
▁Little	-10.9697
▁gray	-10.9697
▁Lord	-10.9698
▁Pyeong	-10.9698
▁component	-10.9698
▁Brook	-10.9698
▁Sheikh	-10.9698
▁Emirat	-10.9701
▁experienc	-10.9701
▁Flight	-10.9702
ara	-10.9704
▁occupie	-10.9704
▁remarkable	-10.9706
▁melt	-10.9708
▁Wood	-10.9709
▁Walter	-10.971
▁princess	-10.9712
▁inmate	-10.9713
▁commuter	-10.9713
hook	-10.9715
▁Vien	-10.9715
▁Milita	-10.9717
refore	-10.9719
▁Libyan	-10.9729
▁Fosse	-10.9734
▁Guan	-10.9736
▁plays	-10.9737
▁hike	-10.9741
▁plent	-10.9752
hang	-10.9754
▁habit	-10.9756
▁plac	-10.9757
▁par	-10.976
itis	-10.9767
▁rains	-10.977
▁Base	-10.9783
▁lov	-10.9785
▁procedures	-10.9788
▁primari	-10.979
▁dismantl	-10.9793
▁autonom	-10.9801
▁classe	-10.982
cut	-10.9836
▁Holy	-10.9839
tadium	-10.9842
orporation	-10.9844
▁la	-10.9855
▁procedure	-10.986
▁Palm	-10.9866
arachi	-10.987
▁complicat	-10.9876
burg	-10.988
▁Alan	-10.9881
▁Sha	-10.9882
ila	-10.9885
▁covering	-10.9886
won	-10.9897
▁flower	-10.9898
▁Chair	-10.9907
▁Roma	-10.9918
red	-10.9922
▁manufacturers	-10.9929
▁tomb	-10.9934
itag	-10.9934
▁industri	-10.9936
▁Play	-10.9938
▁Econom	-10.9941
▁raped	-10.9942
▁Spaniard	-10.9947
▁curfew	-10.9947
▁drown	-10.9947
▁evil	-10.9947
▁reopen	-10.9947
▁immun	-10.9947
▁grass	-10.9947
▁Toyota	-10.9947
▁Graham	-10.9947
▁MySpace	-10.9947
▁taxpayer	-10.9947
▁balloon	-10.9948
▁Wilson	-10.9948
▁populat	-10.9948
▁category	-10.9948
▁Summer	-10.9948
▁Recent	-10.9948
▁unique	-10.995
▁pronounce	-10.995
▁combination	-10.9951
▁Cheong	-10.9951
▁hye	-10.9952
▁Ahmed	-10.9952
▁endorsement	-10.9952
▁outlook	-10.9952
▁passage	-10.9955
▁Market	-10.9955
▁Vis	-10.9957
▁Discovery	-10.9957
▁airplane	-10.9964
▁Nov	-10.9966
▁Cape	-10.9967
▁accompani	-10.9968
▁tale	-10.9968
▁fatalit	-10.9976
▁Mal	-10.9976
▁Ku	-10.9985
▁Gu	-10.999
▁repeat	-10.9993
▁sp	-10.9996
▁craft	-11.0001
▁Station	-11.0005
▁hide	-11.0006
▁deteriorat	-11.002
▁tanker	-11.0021
latter	-11.0021
olla	-11.003
imed	-11.0037
▁fame	-11.0042
▁prov	-11.0045
▁plea	-11.0048
▁proceed	-11.0057
▁Bur	-11.0072
▁goalkeep	-11.0073
▁recording	-11.0073
cia	-11.0076
ood	-11.0093
▁Jay	-11.0093
▁remark	-11.0097
rut	-11.0101
▁Bloom	-11.0101
enior	-11.0104
NE	-11.0109
HS	-11.0111
▁lunch	-11.0116
▁opponent	-11.0122
▁infection	-11.0124
cal	-11.0126
▁Victoria	-11.0127
▁emerg	-11.013
lliance	-11.0137
til	-11.0172
▁Gaz	-11.0186
▁Kid	-11.0193
room	-11.0199
▁pilgrim	-11.0202
▁ambulance	-11.0204
▁iPhone	-11.0204
▁indefinite	-11.0204
▁prestig	-11.0204
▁volatil	-11.0204
▁Communication	-11.0204
▁gesture	-11.0204
▁salmon	-11.0204
▁distress	-11.0204
▁Idol	-11.0204
▁Oct	-11.0204
▁pill	-11.0204
▁duck	-11.0204
▁registration	-11.0204
▁gradual	-11.0204
▁Sin	-11.0204
▁palm	-11.0204
▁Heart	-11.0205
▁mask	-11.0205
▁brick	-11.0205
▁prolong	-11.0205
SA	-11.0205
▁Guang	-11.0206
▁expell	-11.0206
▁tribute	-11.0206
▁Brian	-11.0206
▁midfielder	-11.0207
▁Mobil	-11.0207
▁distribution	-11.0209
▁Death	-11.0212
▁pornograph	-11.0212
▁steal	-11.0212
▁joke	-11.0213
▁Who	-11.0213
▁coverage	-11.0215
▁Christ	-11.0217
▁circulat	-11.0218
▁landscape	-11.0218
▁closure	-11.0219
FK	-11.0224
▁headline	-11.0228
▁burial	-11.0229
▁Boy	-11.0231
hiri	-11.0233
▁publisher	-11.0234
ook	-11.0236
▁determin	-11.024
ga	-11.0244
anamo	-11.0244
▁partial	-11.025
ugher	-11.026
▁refusal	-11.0271
▁sail	-11.0293
▁tent	-11.0297
▁Mas	-11.0299
▁h	-11.031
▁Series	-11.0317
ampa	-11.0322
▁Hav	-11.0323
▁skills	-11.0347
▁chip	-11.0351
▁bacteria	-11.0355
gen	-11.0357
ov	-11.0364
▁dismantle	-11.0365
▁Christians	-11.0365
▁vaccine	-11.0384
▁activist	-11.0393
▁hiding	-11.0397
▁bull	-11.0408
▁resum	-11.041
oon	-11.0431
iro	-11.0431
away	-11.0436
▁shak	-11.0436
▁USA	-11.0437
▁Uganda	-11.0442
▁accidental	-11.0442
ildlife	-11.0454
▁mistakes	-11.0458
▁Belgi	-11.0459
▁analysi	-11.0465
▁Democrac	-11.0467
▁Oregon	-11.0467
▁counterfeit	-11.0467
▁incredibl	-11.0467
remlin	-11.0467
▁Campbell	-11.0467
▁unanimous	-11.0467
▁Project	-11.0467
▁comply	-11.0467
▁enormous	-11.0467
▁optimistic	-11.0467
▁Weather	-11.0467
▁surprising	-11.0468
▁Index	-11.0468
▁Common	-11.0468
▁Bahama	-11.0469
▁descend	-11.047
uba	-11.047
▁Kyung	-11.0472
▁mud	-11.0475
▁Miller	-11.0475
▁engagement	-11.0476
▁Minne	-11.0479
▁Kaes	-11.0479
▁advanc	-11.048
▁filmmaker	-11.0481
▁selection	-11.0482
▁finger	-11.0486
wine	-11.0486
phy	-11.0489
TO	-11.049
▁Berk	-11.0492
ose	-11.0498
ja	-11.0499
▁Geu	-11.0501
▁ISLA	-11.0509
▁Sevill	-11.0511
▁Serbian	-11.0512
▁swing	-11.0514
io	-11.0514
▁clue	-11.052
▁statue	-11.052
▁deepen	-11.0522
▁proceedings	-11.0528
ureau	-11.0537
DA	-11.0544
▁i	-11.0546
ny	-11.0547
▁theme	-11.0548
▁comfortabl	-11.0571
▁launching	-11.0586
▁defin	-11.0587
inho	-11.059
▁generat	-11.0602
RIS	-11.0604
fa	-11.0632
▁elector	-11.0639
▁Burm	-11.0651
▁rad	-11.0658
▁pollut	-11.0667
lov	-11.067
▁shell	-11.068
▁argument	-11.0684
▁swor	-11.0697
ich	-11.0703
▁widen	-11.0703
ative	-11.0705
fish	-11.071
vili	-11.0718
ONG	-11.0721
▁Pr	-11.0722
▁Mont	-11.0723
▁branch	-11.0725
▁northwester	-11.0735
▁Industr	-11.0735
xperts	-11.0736
▁height	-11.0737
▁Benjamin	-11.0737
▁Citigroup	-11.0737
▁escort	-11.0737
▁mutual	-11.0737
▁principal	-11.0737
▁shrink	-11.0737
▁Relations	-11.0737
▁cautious	-11.0737
▁chamber	-11.0737
▁coincide	-11.0737
▁intervention	-11.0737
▁gunshot	-11.0737
▁captor	-11.0737
▁acid	-11.0738
▁teeth	-11.0738
▁deadlock	-11.0738
▁excessive	-11.0738
▁honest	-11.0738
▁biologist	-11.0739
▁IBM	-11.0739
▁partnership	-11.0739
▁installation	-11.074
▁Ferg	-11.074
▁telescope	-11.074
▁yield	-11.074
▁manipulation	-11.074
▁Connecti	-11.0741
▁Music	-11.0742
▁Albanian	-11.0745
▁charter	-11.0746
▁mood	-11.0748
▁slip	-11.0749
▁subway	-11.075
▁Protest	-11.0754
▁mere	-11.0755
▁bow	-11.0757
▁publicist	-11.0759
port	-11.076
stone	-11.076
nell	-11.0763
▁dirt	-11.0765
▁Ka	-11.0782
▁mountains	-11.0784
▁Dallas	-11.0791
UL	-11.0793
▁Sept	-11.0798
itz	-11.0808
cious	-11.082
cher	-11.0827
onference	-11.0828
▁elaborate	-11.0837
▁scrap	-11.0838
P	-11.0847
▁iron	-11.0848
sky	-11.085
▁Luis	-11.0851
▁nurse	-11.0857
ola	-11.086
▁reserved	-11.0863
▁Gang	-11.0878
▁Shah	-11.0878
val	-11.09
▁Shi	-11.0904
ino	-11.091
▁prostitute	-11.0914
▁diseases	-11.0914
long	-11.0914
hou	-11.0914
▁minds	-11.092
hannel	-11.093
ue	-11.0934
▁Hindu	-11.0935
prime	-11.0938
ef	-11.0939
▁financ	-11.0941
▁deals	-11.0942
▁killer	-11.0948
▁purchas	-11.0954
shi	-11.0956
▁islands	-11.0959
▁Football	-11.096
som	-11.0963
▁radi	-11.0965
▁fence	-11.0966
▁unna	-11.0979
au	-11.0985
▁permit	-11.0986
▁Cambodia	-11.0991
▁Call	-11.0993
▁portray	-11.1004
prom	-11.1005
▁hostil	-11.1006
▁pig	-11.1009
▁Univers	-11.1011
▁jets	-11.1012
▁Heav	-11.1012
▁medic	-11.1014
▁embrace	-11.1015
▁Dakota	-11.1015
▁bolster	-11.1015
▁encouraging	-11.1015
▁evolution	-11.1015
▁expense	-11.1015
▁incumbent	-11.1015
▁dolphin	-11.1015
▁retreat	-11.1015
▁Schwarz	-11.1015
▁anchor	-11.1015
▁aspect	-11.1015
▁abolish	-11.1015
▁Member	-11.1015
▁laborator	-11.1015
▁unpopular	-11.1015
▁reputation	-11.1015
▁classroom	-11.1016
▁recycl	-11.1016
▁elevator	-11.1016
▁romantic	-11.1016
▁probation	-11.1016
▁Operation	-11.1016
▁racial	-11.1017
▁desperate	-11.1017
▁taste	-11.1018
▁audio	-11.1018
pinion	-11.1019
▁poison	-11.1021
▁disruption	-11.1022
▁rigg	-11.1023
▁objective	-11.1024
▁Back	-11.1027
OUL	-11.1029
▁attraction	-11.1029
▁grabb	-11.103
ck	-11.1039
▁chat	-11.1043
▁canal	-11.1057
▁Read	-11.1064
▁guid	-11.1077
▁Cann	-11.1083
▁indict	-11.1091
▁armor	-11.1091
▁Mosqu	-11.1094
▁appli	-11.1095
▁Helm	-11.1097
▁Islands	-11.1098
▁Walk	-11.1101
▁deposit	-11.1107
▁decrease	-11.1108
▁Bon	-11.1111
▁dedicat	-11.1112
elite	-11.1119
▁turns	-11.1131
▁hanging	-11.1136
▁reviv	-11.1144
▁Ab	-11.1149
▁mall	-11.1151
▁Pav	-11.1155
ee	-11.1156
▁Yan	-11.1158
llo	-11.1162
▁bi	-11.1163
▁Argentine	-11.1165
▁Ara	-11.1171
▁imagine	-11.1174
▁Nawa	-11.118
▁Thirt	-11.1182
▁posts	-11.1195
▁rivers	-11.1196
person	-11.1197
▁ideal	-11.1202
ire	-11.1204
indi	-11.1207
ping	-11.1214
ail	-11.1215
he	-11.1219
athrow	-11.1219
ked	-11.122
fall	-11.1221
▁fare	-11.1231
rocker	-11.1235
▁volunteer	-11.1248
▁tactic	-11.1251
▁Linds	-11.1252
▁Kell	-11.1253
▁mon	-11.1253
▁tip	-11.1255
YO	-11.1257
▁cult	-11.126
space	-11.1262
hur	-11.1265
▁Chang	-11.1267
▁admit	-11.1272
▁SE	-11.1273
▁Con	-11.1274
▁personalit	-11.1284
▁cook	-11.1285
▁Hills	-11.1289
▁ratings	-11.1293
▁adjust	-11.1295
▁Chart	-11.1295
ries	-11.1299
ncy	-11.13
▁Harris	-11.13
▁Agricultur	-11.13
▁Greenpeace	-11.13
▁dinosaur	-11.13
▁happi	-11.13
▁comprehensive	-11.13
▁episode	-11.1301
▁rhetoric	-11.1301
▁loot	-11.1301
▁legislature	-11.1301
▁motive	-11.1301
▁borrow	-11.1301
▁kidney	-11.1301
▁guess	-11.1301
▁reconstruction	-11.1302
▁Madoff	-11.1302
▁rampage	-11.1302
▁academic	-11.1303
▁examination	-11.1304
▁extinction	-11.1304
▁Mountain	-11.1305
egger	-11.1305
mpson	-11.1307
▁mad	-11.1308
yodo	-11.1308
NICE	-11.1309
▁presum	-11.1311
gender	-11.1318
▁Hank	-11.1327
▁violate	-11.1338
▁automatic	-11.1345
▁publish	-11.1349
▁shake	-11.1353
▁polluti	-11.1359
▁scrambl	-11.1365
▁nose	-11.137
▁Nikk	-11.1371
▁panic	-11.1388
▁Allen	-11.1389
uke	-11.1394
pposition	-11.1394
mura	-11.1401
going	-11.1403
▁posting	-11.1404
ribe	-11.1413
orta	-11.1415
▁defender	-11.1416
fication	-11.1418
▁signing	-11.142
sul	-11.1422
ix	-11.1425
ula	-11.1426
ya	-11.1438
▁eliminat	-11.1442
▁venture	-11.1461
zens	-11.148
▁Poll	-11.1487
N	-11.1487
▁str	-11.1491
▁installed	-11.1499
▁Der	-11.1505
▁Patric	-11.1506
▁wo	-11.1508
▁Chau	-11.1513
stream	-11.1515
▁wel	-11.1521
▁vision	-11.1525
▁noon	-11.1527
▁Did	-11.1537
▁circle	-11.1538
▁Ship	-11.1542
▁Musa	-11.1547
▁Richards	-11.1561
▁twist	-11.1562
▁Kath	-11.1574
▁trace	-11.1577
▁Antarctic	-11.158
▁opt	-11.1587
▁equivalent	-11.1595
▁statistics	-11.1595
▁unfortunate	-11.1595
▁eligib	-11.1595
▁epicenter	-11.1595
▁wrongdoing	-11.1595
▁crunch	-11.1595
▁phenomen	-11.1595
▁eager	-11.1595
▁incentive	-11.1595
▁Denmark	-11.1595
▁motorcycle	-11.1595
▁slogan	-11.1595
droe	-11.1595
▁strategist	-11.1595
▁talent	-11.1595
▁chicken	-11.1596
▁outdoor	-11.1596
▁Bernard	-11.1598
▁MP	-11.1599
▁Mission	-11.1602
▁divert	-11.1602
▁observation	-11.1602
sterol	-11.1603
▁Wu	-11.1607
▁defector	-11.1607
mond	-11.1608
prah	-11.1609
▁objection	-11.1609
▁Ethiopian	-11.1609
▁Family	-11.1612
▁grat	-11.1614
▁smil	-11.1614
▁subsid	-11.1615
try	-11.1618
▁Juan	-11.1618
▁skull	-11.1619
▁afterward	-11.162
▁useful	-11.1622
▁limb	-11.1623
residential	-11.1623
▁yourself	-11.1624
▁requirement	-11.1628
▁preserve	-11.1628
ili	-11.1629
▁Atlanti	-11.1631
▁boxes	-11.1632
▁fisherm	-11.1634
▁amaz	-11.1638
▁assured	-11.1639
▁update	-11.1647
▁marry	-11.165
▁teaching	-11.1658
▁coin	-11.1658
wan	-11.1673
▁Par	-11.1675
▁shouted	-11.1677
how	-11.1679
mo	-11.1682
rotti	-11.1683
▁Parker	-11.1707
▁Woods	-11.1711
eological	-11.1713
▁expanding	-11.1716
▁Lim	-11.1722
▁bears	-11.1725
nest	-11.1729
▁Cole	-11.173
▁ads	-11.1739
mus	-11.1752
ank	-11.1767
▁tighten	-11.1779
LG	-11.1785
▁origin	-11.1793
▁em	-11.1793
▁Dun	-11.1796
▁examine	-11.1796
▁Cor	-11.181
skirt	-11.1816
▁dispos	-11.1819
tified	-11.182
piece	-11.1821
▁pit	-11.1824
▁PM	-11.1837
tra	-11.1838
PS	-11.1843
▁ye	-11.1854
ubble	-11.1859
▁gift	-11.1859
▁sympath	-11.1863
▁Shim	-11.1866
ishu	-11.1877
▁forget	-11.1882
▁defect	-11.1882
▁disabl	-11.1884
front	-11.1889
▁exam	-11.1891
▁fertil	-11.1891
▁woo	-11.1891
▁disagree	-11.1892
▁spectac	-11.1894
▁assess	-11.1896
▁Preventi	-11.1898
▁Record	-11.1898
▁accompany	-11.1898
▁hamper	-11.1898
▁overhaul	-11.1898
▁sprawl	-11.1898
▁Animal	-11.1898
▁Mir	-11.1898
▁asteroid	-11.1898
▁carpet	-11.1898
▁surf	-11.1898
▁pepper	-11.1898
▁boast	-11.1898
▁anthem	-11.1898
▁Broadway	-11.1898
▁crocodile	-11.1898
▁Conservative	-11.1898
▁animated	-11.1898
▁breakfast	-11.1898
▁bedroom	-11.1898
▁Moga	-11.1899
▁intent	-11.1899
OSCO	-11.1899
▁AIG	-11.19
▁legislator	-11.1901
▁assertion	-11.1901
▁confine	-11.1902
▁candidacy	-11.1902
▁Wildlife	-11.1903
CI	-11.1903
▁revision	-11.1904
▁Highway	-11.1905
▁magic	-11.1907
▁approximate	-11.1908
▁Jung	-11.1909
▁eruption	-11.1909
ants	-11.1909
▁Fair	-11.1911
▁Winf	-11.1912
▁hometown	-11.1918
▁manner	-11.1919
ita	-11.1919
▁Dad	-11.1921
af	-11.1931
▁slam	-11.1934
▁slaughter	-11.1939
▁opposit	-11.1942
hry	-11.1942
ition	-11.1951
▁ear	-11.1952
▁patroll	-11.1967
▁polar	-11.1976
▁Rob	-11.1984
ise	-11.1987
▁install	-11.1989
▁Amin	-11.2001
▁refuge	-11.2003
▁Ken	-11.201
iness	-11.2019
wear	-11.2024
▁Tai	-11.2028
kara	-11.203
▁electora	-11.2036
▁agreements	-11.2037
ke	-11.204
▁Rau	-11.2052
awat	-11.2057
▁propose	-11.2058
▁donations	-11.2068
▁happens	-11.2072
▁Springs	-11.2084
▁univers	-11.2086
▁Mos	-11.2093
▁po	-11.2104
▁intervene	-11.2108
▁brave	-11.2115
▁parade	-11.2117
▁enable	-11.212
▁BA	-11.2123
AA	-11.2127
▁impos	-11.2129
▁Stalin	-11.2138
▁ramp	-11.2142
op	-11.2147
ova	-11.2147
▁bind	-11.2149
▁Justin	-11.2179
▁remind	-11.2185
▁prefer	-11.2192
▁digit	-11.2194
▁bond	-11.2196
▁alien	-11.2199
▁Haiti	-11.22
▁tea	-11.22
▁ambitio	-11.2201
▁Rove	-11.2202
▁Jenni	-11.2205
▁depart	-11.2205
▁depict	-11.2206
▁stopp	-11.2206
▁Short	-11.2208
avour	-11.2209
▁Caribbean	-11.221
▁Pichushkin	-11.221
▁Travolta	-11.221
▁appreciate	-11.221
▁depth	-11.221
▁explanation	-11.221
▁imminent	-11.221
▁mammal	-11.221
▁unsuccessful	-11.221
▁Facebook	-11.221
▁tragic	-11.221
▁website	-11.221
▁incursion	-11.221
▁denial	-11.221
▁autops	-11.221
▁Small	-11.221
▁tumor	-11.221
▁Rawal	-11.221
▁proliferat	-11.221
▁haul	-11.221
▁beautiful	-11.221
▁Strip	-11.2211
oalition	-11.2211
▁Nixon	-11.2211
▁Wayne	-11.2211
▁laser	-11.2211
▁mumm	-11.2211
▁basket	-11.2212
▁fruit	-11.2212
▁stronghold	-11.2212
▁implication	-11.2212
▁leap	-11.2212
▁Choi	-11.2213
▁Bruce	-11.2213
▁Gibbon	-11.2216
▁consultation	-11.2216
▁Sky	-11.2217
▁Environmental	-11.2224
▁Knight	-11.2225
zhei	-11.2225
▁Stewar	-11.2226
▁bath	-11.2228
▁Anti	-11.223
▁operative	-11.223
▁astronomer	-11.223
▁provider	-11.2235
▁suppress	-11.2235
nic	-11.2236
yong	-11.2247
▁shooter	-11.2253
▁smuggling	-11.2257
▁consideration	-11.2259
▁master	-11.2264
▁grade	-11.2272
▁taxi	-11.2272
ago	-11.2272
can	-11.2273
▁plunge	-11.2285
▁Part	-11.2288
▁topic	-11.2309
▁exporter	-11.231
▁Shia	-11.231
yeon	-11.2312
▁sink	-11.2317
mouth	-11.232
▁Yasu	-11.2327
venge	-11.2331
▁automakers	-11.2338
▁Ende	-11.2344
IFA	-11.2347
▁explained	-11.2347
▁oust	-11.2353
▁Nur	-11.2354
bar	-11.2357
▁Islami	-11.2366
▁assume	-11.2372
▁eliminate	-11.2375
endo	-11.2376
▁interviewed	-11.2385
▁Rev	-11.2393
ac	-11.24
▁Tala	-11.2403
▁sacrifice	-11.241
ansa	-11.2414
ink	-11.2417
▁Gay	-11.242
▁Rat	-11.242
ision	-11.242
ane	-11.2426
▁treasure	-11.2428
iling	-11.2433
ura	-11.2436
▁tumbl	-11.244
▁households	-11.2441
▁measur	-11.245
hu	-11.2454
▁Warr	-11.2454
Bay	-11.2456
▁criticize	-11.2464
▁Villa	-11.2467
▁Briton	-11.2469
▁IM	-11.2474
▁lit	-11.2481
▁evacuate	-11.2488
▁hang	-11.2491
▁ripp	-11.2501
▁Bo	-11.2502
▁Polic	-11.2507
▁Ve	-11.2507
▁hunter	-11.2516
▁refer	-11.2517
▁restructur	-11.2523
▁drunk	-11.2524
▁extinct	-11.2528
▁triumph	-11.2532
▁Falluja	-11.2533
▁Margaret	-11.2533
▁Norwegian	-11.2533
▁instrument	-11.2533
▁surpass	-11.2533
▁thorough	-11.2533
▁Cultur	-11.2533
▁fingerprint	-11.2533
▁oxygen	-11.2533
▁Tripoli	-11.2533
▁mammoth	-11.2533
▁visual	-11.2533
▁Strait	-11.2533
▁swallow	-11.2533
▁bathroom	-11.2533
▁restart	-11.2533
▁chapter	-11.2533
▁equipp	-11.2533
▁graphic	-11.2533
▁echo	-11.2533
▁pension	-11.2533
▁Bryan	-11.2534
▁spin	-11.2534
akash	-11.2534
▁CIT	-11.2535
▁citizenship	-11.2535
▁random	-11.2535
▁pride	-11.2535
▁truc	-11.2536
▁Resident	-11.2536
▁Del	-11.2536
▁painful	-11.2536
ider	-11.2537
▁Auto	-11.2538
▁subsequent	-11.2538
roid	-11.254
▁merger	-11.254
▁pirac	-11.2542
▁Belgian	-11.2544
▁McCart	-11.2544
▁Kam	-11.2545
▁Hang	-11.2545
▁reluctant	-11.2545
ronto	-11.2545
▁pregnancy	-11.2546
▁branches	-11.2547
▁survival	-11.2548
▁alter	-11.2549
▁Nick	-11.255
▁achievement	-11.255
▁Mitt	-11.2551
▁pure	-11.2553
▁Cristian	-11.2558
▁belt	-11.2558
▁favorable	-11.2559
▁Voter	-11.256
▁anybody	-11.2561
▁Eve	-11.2562
▁tears	-11.2562
▁pact	-11.2563
▁freez	-11.2568
▁Age	-11.2576
▁Unit	-11.2581
abao	-11.2588
▁passes	-11.2606
▁Au	-11.2607
pl	-11.2609
▁Pres	-11.2614
▁mob	-11.2616
▁supplier	-11.2617
▁arguments	-11.2618
▁l	-11.262
judicial	-11.2625
▁forecaster	-11.2645
▁emphasiz	-11.2653
▁Gus	-11.2666
ington	-11.2675
ux	-11.2676
idnight	-11.2681
▁Monet	-11.2691
▁Child	-11.2691
▁alli	-11.2708
▁Bus	-11.271
▁el	-11.2712
▁therap	-11.2714
NU	-11.2717
▁battles	-11.2722
cation	-11.2722
▁user	-11.2728
via	-11.2728
children	-11.2729
▁communicate	-11.2731
▁Liber	-11.2737
mann	-11.2744
▁smile	-11.2747
ture	-11.275
tuck	-11.2755
ud	-11.2759
▁Schn	-11.2773
▁captives	-11.2773
▁victor	-11.2778
▁starts	-11.2783
▁Mc	-11.2788
▁provision	-11.2796
▁rely	-11.28
ize	-11.2802
ui	-11.2803
▁Ph	-11.2822
▁dominate	-11.2836
▁jewel	-11.2842
rmed	-11.2853
▁sack	-11.2854
▁Take	-11.2856
▁embezzle	-11.2857
▁nin	-11.2857
▁Southeast	-11.2862
▁recogni	-11.2863
▁adapt	-11.2863
▁monkey	-11.2865
▁punch	-11.2865
▁cyber	-11.2866
▁Okinawa	-11.2866
▁blind	-11.2866
▁epidemic	-11.2866
▁fossil	-11.2866
▁sophisticat	-11.2866
▁surplus	-11.2866
▁tribunal	-11.2866
▁ultra	-11.2866
▁verify	-11.2866
▁harbor	-11.2866
▁silent	-11.2866
▁Mercedes	-11.2866
▁ceiling	-11.2866
▁warehouse	-11.2866
▁Mitchell	-11.2866
▁prescription	-11.2866
▁quell	-11.2866
▁Mercur	-11.2866
▁subsidiar	-11.2866
▁tentative	-11.2866
▁Convention	-11.2866
▁Edward	-11.2867
▁diabet	-11.2867
▁judgment	-11.2867
▁textbook	-11.2867
llery	-11.2867
▁Bridge	-11.2868
▁spell	-11.2868
▁utilit	-11.2869
▁Samarra	-11.2869
▁Express	-11.2869
▁Gas	-11.287
▁Rita	-11.287
air	-11.287
▁hydro	-11.287
▁retirement	-11.2871
▁scream	-11.2872
top	-11.2872
▁outpost	-11.2872
▁enhance	-11.2873
▁Kwang	-11.2876
▁Fujimo	-11.2876
▁Tayyi	-11.2876
▁mo	-11.2877
▁stabilize	-11.2882
▁typhoon	-11.2882
▁practical	-11.2883
▁Orang	-11.2884
▁plott	-11.2885
▁sideline	-11.2886
▁lifetime	-11.2886
▁nud	-11.2891
▁screening	-11.2893
dwin	-11.2893
▁belonging	-11.2895
▁Share	-11.29
▁surgeon	-11.2903
▁Beatles	-11.2908
rbil	-11.2909
like	-11.2909
▁coat	-11.291
ido	-11.2915
▁Special	-11.2921
▁shouting	-11.2927
▁Hari	-11.2928
▁grandm	-11.2934
▁Rain	-11.2937
▁ray	-11.2943
▁hearts	-11.2947
der	-11.2947
▁shattered	-11.2951
▁tap	-11.2961
obi	-11.2971
war	-11.2975
▁fa	-11.2975
▁Beta	-11.2978
ang	-11.2979
▁inde	-11.298
▁danc	-11.2981
onstruction	-11.2988
polis	-11.2991
▁lesson	-11.2992
▁Geit	-11.2995
▁deck	-11.2997
nna	-11.2999
▁revolution	-11.2999
▁hip	-11.3002
▁Matte	-11.3004
▁investments	-11.3008
hal	-11.3013
▁mandate	-11.3018
teria	-11.3021
tor	-11.3022
arns	-11.3039
▁format	-11.3045
care	-11.3048
▁manipulat	-11.3053
▁Swed	-11.3082
▁fines	-11.3099
▁Anne	-11.3099
new	-11.31
▁Wild	-11.3114
world	-11.3134
bani	-11.3137
▁captiv	-11.3138
▁Ham	-11.3139
▁Marc	-11.314
▁Neb	-11.3147
▁garden	-11.3163
▁BB	-11.3172
▁quote	-11.3173
erial	-11.3193
▁disarm	-11.3194
▁thrill	-11.3195
yphoon	-11.3195
▁kidnap	-11.32
▁Fernand	-11.3201
▁Rahm	-11.3201
▁billionaire	-11.3202
▁Victor	-11.3202
▁vigil	-11.3209
elecommunication	-11.3211
▁administrator	-11.3211
▁anonymous	-11.3211
▁obstacle	-11.3211
▁pyramid	-11.3211
▁homosexual	-11.3211
▁Field	-11.3211
▁invitation	-11.3211
▁consent	-11.3211
▁convey	-11.3211
▁disturb	-11.3211
▁Nelson	-11.3211
▁Future	-11.3211
▁Lynch	-11.3211
▁grandfather	-11.3211
▁steam	-11.3211
▁hazard	-11.3211
▁shopper	-11.3211
▁Clear	-11.3211
▁physician	-11.3212
▁NFL	-11.3212
▁atrocit	-11.3212
tanbu	-11.3212
▁expedition	-11.3212
▁Lope	-11.3212
▁corporation	-11.3212
▁layoff	-11.3213
▁Carac	-11.3213
▁Fahr	-11.3214
▁steer	-11.3214
▁Brother	-11.3214
▁Dream	-11.3215
▁Croatia	-11.3216
▁Wang	-11.3217
▁disagreement	-11.3218
▁desk	-11.3218
pper	-11.3219
▁Fernando	-11.3221
▁brush	-11.3221
▁Wazir	-11.3222
▁smart	-11.3223
▁Susan	-11.3225
▁setback	-11.3226
▁Linda	-11.3227
▁centre	-11.3229
▁petrol	-11.3231
▁kid	-11.3232
▁presentation	-11.3235
entral	-11.3237
▁purported	-11.3238
▁symptoms	-11.3239
▁assert	-11.3242
▁epic	-11.3242
▁projection	-11.3251
▁Tin	-11.3255
▁expression	-11.3256
▁snapp	-11.3257
▁removal	-11.3258
▁Austrian	-11.326
▁Roug	-11.3261
cantil	-11.3268
▁FA	-11.3269
▁ignore	-11.327
▁conscious	-11.3271
▁serv	-11.3278
▁tips	-11.3278
▁lega	-11.3282
▁stamp	-11.3291
▁antibiotics	-11.3292
▁symbolic	-11.3301
▁settl	-11.3307
ob	-11.3313
▁None	-11.3313
▁gar	-11.3325
▁slide	-11.3329
▁hijack	-11.3337
▁shed	-11.3337
▁stunning	-11.3337
▁shutt	-11.3347
▁endorse	-11.335
▁Your	-11.335
heng	-11.3353
ives	-11.3368
raw	-11.3368
▁informal	-11.337
▁Dave	-11.3398
▁aging	-11.3402
ral	-11.3404
▁OK	-11.3405
some	-11.3409
▁Baq	-11.3415
ater	-11.3416
▁exceed	-11.3425
▁fl	-11.3425
▁Wat	-11.3428
ega	-11.3431
enhei	-11.3435
▁chas	-11.3437
▁cri	-11.3444
▁reli	-11.3449
▁slid	-11.3449
lando	-11.3451
vy	-11.3463
bank	-11.3467
▁Pus	-11.347
rmal	-11.3471
▁feeding	-11.3471
▁Com	-11.3472
eira	-11.3478
▁stor	-11.3481
▁Jiang	-11.3482
▁Mor	-11.3483
▁hate	-11.3485
▁Wel	-11.3487
▁rating	-11.3499
▁discriminat	-11.3503
▁Sh	-11.3505
▁soft	-11.3515
nam	-11.3523
ima	-11.3525
▁coll	-11.3525
▁stripp	-11.3528
▁transit	-11.353
▁Khali	-11.3534
▁kyu	-11.3537
▁widow	-11.3544
▁Ke	-11.3546
▁scare	-11.3546
▁inspect	-11.3552
▁Fisher	-11.3561
▁premiere	-11.3563
▁addict	-11.3564
bourne	-11.3568
▁arson	-11.3568
▁Correspondent	-11.3568
▁Enterprise	-11.3568
▁Entertain	-11.3568
▁Professor	-11.3568
▁Support	-11.3568
▁brothel	-11.3568
▁condolence	-11.3568
▁discharge	-11.3568
▁paparazz	-11.3568
▁pistol	-11.3568
▁plummet	-11.3568
▁reaffirm	-11.3568
▁Douglas	-11.3568
▁gravit	-11.3568
▁propagand	-11.3568
▁conceal	-11.3568
▁Sierra	-11.3568
▁impass	-11.3568
▁mild	-11.3568
▁ankle	-11.3568
▁McDonald	-11.3568
▁predominant	-11.3568
▁Network	-11.3568
▁Niger	-11.3569
▁Road	-11.3569
▁rattl	-11.357
▁substitute	-11.357
▁ferry	-11.357
▁Aziz	-11.357
▁conglomerate	-11.3571
▁archaeologist	-11.3571
▁uprising	-11.3571
▁ownership	-11.3571
▁Next	-11.3571
▁knife	-11.3572
▁Jeong	-11.3572
▁Phillip	-11.3572
▁hormone	-11.3574
▁Greenland	-11.3577
▁Hassan	-11.3577
▁fortune	-11.3578
▁aggression	-11.3578
▁creative	-11.3579
▁scrapp	-11.3579
▁heighten	-11.3579
▁Sex	-11.358
▁outlaw	-11.3581
▁chart	-11.3582
▁Twel	-11.3586
▁cheaper	-11.3589
ocol	-11.3589
▁stemm	-11.3591
▁reasonable	-11.3598
▁Cambodian	-11.3598
▁arti	-11.3603
▁Wy	-11.3604
▁Tax	-11.3605
▁Nigerian	-11.3605
ardar	-11.3609
▁Histor	-11.3614
▁donor	-11.3616
▁Jacque	-11.3616
▁AK	-11.3624
▁preserv	-11.3625
▁asset	-11.3635
▁thus	-11.3641
▁clay	-11.3646
▁lucky	-11.3648
▁intensifi	-11.3658
▁kn	-11.3664
▁chill	-11.3671
▁Mali	-11.3672
▁Brus	-11.3681
je	-11.3682
▁Than	-11.3688
kdo	-11.3693
▁fed	-11.3697
▁Java	-11.3698
▁Vi	-11.3707
▁Marie	-11.3715
▁dense	-11.3719
▁caucus	-11.3722
PA	-11.3723
▁Tut	-11.3724
▁seize	-11.3726
▁demonstrat	-11.3743
▁Sports	-11.3757
▁infiltrat	-11.3767
dale	-11.377
▁characteriz	-11.3773
lateral	-11.3788
ki	-11.3797
▁paralyz	-11.3799
▁assassinat	-11.3802
▁please	-11.3804
▁troph	-11.3806
▁Oma	-11.3807
▁Gran	-11.3808
▁advocate	-11.3817
mp	-11.3818
▁holder	-11.3824
▁del	-11.3825
▁Carl	-11.3827
ax	-11.3833
▁grounds	-11.3834
▁Get	-11.3835
▁inspire	-11.3846
teen	-11.3852
tha	-11.3855
Barad	-11.3857
▁hill	-11.386
▁spare	-11.386
▁productiv	-11.3862
▁hire	-11.3865
▁roots	-11.3869
▁Dian	-11.3875
stock	-11.3875
▁Tae	-11.3887
▁spots	-11.389
ean	-11.3891
▁qualifi	-11.3893
▁gambl	-11.3894
▁CO	-11.3894
▁Johnsto	-11.3896
▁propell	-11.3896
▁prostitut	-11.3899
▁AT	-11.3904
▁Ca	-11.3905
▁patien	-11.3912
▁instruct	-11.3914
aska	-11.3925
▁donors	-11.3926
▁swap	-11.393
▁reunit	-11.3931
▁Columb	-11.3933
isease	-11.3937
▁FTSE	-11.3938
▁Starbuck	-11.3938
▁automobile	-11.3938
▁mastermind	-11.3938
▁mirror	-11.3938
▁pioneer	-11.3938
▁catastroph	-11.3938
▁oath	-11.3938
▁script	-11.3938
▁domain	-11.3938
▁nervous	-11.3938
▁refrain	-11.3938
▁sibling	-11.3938
▁decree	-11.3938
▁Deutsch	-11.3939
▁mystery	-11.3939
▁relevan	-11.3939
▁throat	-11.3939
▁Student	-11.3939
▁Yankee	-11.3939
▁libert	-11.3939
▁Standard	-11.3939
▁Bosnia	-11.3939
▁thwart	-11.3939
▁scatter	-11.3939
▁flaw	-11.3939
▁pursuit	-11.394
▁dug	-11.394
mon	-11.394
▁Half	-11.394
▁faithful	-11.3941
▁milestone	-11.3941
▁Holland	-11.3941
▁Talk	-11.3941
▁trademark	-11.3942
▁flick	-11.3942
▁mediator	-11.3942
▁editorial	-11.3942
▁Lenno	-11.3942
gow	-11.3942
▁minus	-11.3943
▁trash	-11.3943
▁buzz	-11.3943
▁constitute	-11.3943
▁transmission	-11.3943
▁Hour	-11.3943
▁mini	-11.3944
▁weakness	-11.3944
▁Father	-11.3944
▁Rick	-11.3944
▁segment	-11.3945
ternet	-11.3946
▁pants	-11.3949
▁scenario	-11.395
ervie	-11.395
VI	-11.3953
▁dam	-11.3955
▁carmaker	-11.3955
▁slush	-11.3956
▁Antarctica	-11.3957
▁Matsu	-11.3957
ow	-11.3957
▁artificial	-11.3958
▁restraint	-11.3958
▁transparent	-11.396
▁programm	-11.3963
▁Win	-11.3963
▁Spitz	-11.3963
▁inventor	-11.3965
alaxy	-11.3969
▁Bever	-11.397
▁Christi	-11.3971
▁System	-11.3975
▁entitl	-11.3978
▁Harve	-11.3984
▁annually	-11.3986
▁Details	-11.3986
▁Head	-11.3986
▁Never	-11.3986
▁Guin	-11.3992
una	-11.3997
va	-11.4002
▁Andre	-11.4004
▁Mon	-11.4007
▁cooperat	-11.401
let	-11.4014
▁amnes	-11.4017
▁manufacturer	-11.402
▁surviv	-11.4023
▁territories	-11.4024
▁Wool	-11.4027
▁shelves	-11.4029
▁electrical	-11.4043
▁Cart	-11.4043
▁Swa	-11.4045
▁Neil	-11.4054
▁Bae	-11.4075
▁frustrat	-11.4085
▁jam	-11.4086
▁mor	-11.4089
▁Em	-11.409
▁pla	-11.409
▁lecture	-11.4092
ze	-11.4099
▁Gad	-11.4103
lie	-11.4103
▁Electronics	-11.4121
R	-11.4121
▁pipe	-11.4126
▁Seren	-11.4136
allah	-11.4137
▁Liv	-11.4147
▁acquire	-11.4148
sley	-11.4151
▁button	-11.4154
che	-11.4155
▁filing	-11.4163
▁securit	-11.4165
▁speculat	-11.4166
▁sighting	-11.4171
▁bell	-11.4173
▁Capt	-11.4182
kim	-11.4185
▁stunn	-11.4194
▁shipments	-11.4204
▁congratulat	-11.4204
assam	-11.4207
▁Roy	-11.4218
disclos	-11.4229
ib	-11.4232
oli	-11.4239
hasa	-11.425
ique	-11.4254
intend	-11.4254
▁Pan	-11.426
▁ethic	-11.426
lash	-11.4261
▁Crow	-11.4265
▁smooth	-11.4267
▁skeptic	-11.4273
I	-11.4274
▁realiz	-11.4276
▁Edit	-11.4279
▁exten	-11.4283
▁slash	-11.4289
▁Bi	-11.429
ES	-11.429
▁hosts	-11.4293
nshine	-11.4294
rugg	-11.4298
per	-11.4298
▁Gre	-11.4299
▁Kaz	-11.4302
▁Perin	-11.4306
pice	-11.4315
▁intercept	-11.4315
▁pile	-11.4315
hill	-11.4315
caust	-11.4317
▁possess	-11.4319
▁psycholog	-11.4321
IC	-11.4321
▁consist	-11.4323
▁Kuznetsov	-11.4323
▁Midwest	-11.4323
▁Rhode	-11.4323
▁Unfortunate	-11.4323
▁brilliant	-11.4323
▁franchise	-11.4323
▁marathon	-11.4323
▁nightclub	-11.4323
▁Kazakhstan	-11.4323
▁transcript	-11.4323
▁Knut	-11.4323
▁cousin	-11.4323
▁consortium	-11.4323
▁throne	-11.4323
▁nerve	-11.4323
▁crater	-11.4323
▁downturn	-11.4323
▁sensitivit	-11.4323
▁Libby	-11.4324
▁bride	-11.4324
suf	-11.4324
▁swim	-11.4324
▁Room	-11.4324
▁drastic	-11.4324
▁Order	-11.4324
▁intensive	-11.4325
▁humor	-11.4325
vacu	-11.4326
▁servant	-11.4326
▁modest	-11.4326
▁coerc	-11.4326
▁Lawmaker	-11.4326
▁Jaz	-11.4327
▁Electora	-11.4328
▁decisive	-11.4328
▁Economist	-11.4328
▁Leonard	-11.4329
▁attractive	-11.4329
▁Bart	-11.4331
▁drought	-11.4331
▁isolation	-11.4332
▁massage	-11.4334
▁smell	-11.4334
▁pois	-11.4337
▁Class	-11.4342
▁representation	-11.4344
anda	-11.4346
▁Antho	-11.4348
▁Lat	-11.4351
▁Ram	-11.4353
▁biolog	-11.4354
▁Aust	-11.4355
▁Gun	-11.4355
BN	-11.4356
▁formation	-11.436
▁lion	-11.436
▁Gi	-11.4361
ston	-11.4365
▁Vol	-11.4366
ot	-11.437
▁Along	-11.437
▁Penn	-11.4373
▁Dominica	-11.4374
▁Silv	-11.4375
▁cycle	-11.4381
▁pastor	-11.4381
H	-11.4382
▁Scor	-11.4384
▁Monta	-11.4388
▁dad	-11.4394
ife	-11.4394
AS	-11.4398
ARS	-11.44
▁joy	-11.4405
▁bench	-11.4409
▁Hope	-11.441
aker	-11.4414
▁intens	-11.442
▁uncertaint	-11.4424
▁Mikh	-11.4434
▁Er	-11.4436
▁chairs	-11.4439
set	-11.444
▁Yush	-11.4447
aritime	-11.4453
▁Jet	-11.4454
▁li	-11.4456
▁Fin	-11.4458
▁Tr	-11.4463
▁Glen	-11.4465
▁Mili	-11.4469
▁char	-11.4472
iscal	-11.4481
▁bearing	-11.4482
▁challenger	-11.4489
ddy	-11.4494
▁strange	-11.4497
▁meals	-11.4499
▁Lev	-11.4503
▁Vers	-11.4511
ate	-11.4515
ema	-11.4515
▁dance	-11.4519
▁Oscars	-11.4522
EM	-11.4523
aking	-11.4533
▁Dar	-11.4535
▁motivat	-11.4544
onia	-11.4547
aid	-11.4561
USS	-11.4563
coni	-11.4563
▁consolidat	-11.4565
▁kiss	-11.4571
hip	-11.4572
▁container	-11.4576
ature	-11.4583
▁Dam	-11.4595
▁knowing	-11.4598
▁optimis	-11.46
▁Amid	-11.46
▁bother	-11.4601
▁bro	-11.4603
▁collid	-11.4605
uperior	-11.4616
▁Rail	-11.4624
▁rehabilitati	-11.4625
▁Ya	-11.4632
▁Cooperati	-11.4632
AN	-11.4633
▁mines	-11.4636
cliff	-11.4641
appropriate	-11.4645
▁hits	-11.4648
▁contend	-11.465
▁Tropic	-11.4655
nder	-11.466
▁choos	-11.4664
kov	-11.4664
▁dignit	-11.467
▁menu	-11.4672
siege	-11.4674
shire	-11.4694
▁Days	-11.4695
▁loose	-11.4699
▁Environment	-11.4705
▁acquitt	-11.4711
▁lure	-11.4716
▁enact	-11.4716
▁contaminat	-11.4718
▁sponsors	-11.4719
▁Prophet	-11.4723
▁applicant	-11.4723
▁contingent	-11.4723
▁laureate	-11.4723
▁peanut	-11.4723
▁romance	-11.4723
▁sufficient	-11.4723
▁tattoo	-11.4723
▁tremendous	-11.4723
▁vegetable	-11.4723
▁kilogram	-11.4723
▁streak	-11.4723
▁lodge	-11.4723
▁Cardinal	-11.4723
▁irregularities	-11.4723
▁overthrow	-11.4723
▁Temple	-11.4723
▁memories	-11.4723
▁premature	-11.4723
▁inhabit	-11.4723
▁Muq	-11.4723
▁Business	-11.4723
▁Electric	-11.4723
▁tenure	-11.4723
▁notorious	-11.4723
▁tomato	-11.4723
▁excuse	-11.4724
▁Campaign	-11.4724
▁Aborigin	-11.4724
▁evaluation	-11.4724
▁foster	-11.4724
▁ravag	-11.4724
▁pocket	-11.4725
▁irresponsible	-11.4725
▁unchang	-11.4725
bala	-11.4725
▁Computer	-11.4727
nati	-11.4727
▁Giant	-11.4727
ber	-11.4727
▁brown	-11.4729
▁Kwon	-11.4729
▁terrible	-11.4729
▁simultaneous	-11.473
▁Charl	-11.473
▁Cinc	-11.4732
▁locate	-11.4733
▁exhibition	-11.4733
▁blogger	-11.4734
▁amend	-11.4735
▁Grammy	-11.4736
ott	-11.4737
▁Lin	-11.4737
▁keen	-11.4738
▁Sacr	-11.4739
▁ethan	-11.4739
▁diagnosed	-11.474
▁Fall	-11.474
▁Glor	-11.4741
v	-11.4742
die	-11.4743
▁stud	-11.4744
▁Lance	-11.4745
▁warship	-11.4746
▁frontier	-11.4746
▁Actor	-11.4747
▁Philli	-11.4748
▁Nair	-11.4749
▁roar	-11.4751
▁accurate	-11.4751
▁suits	-11.4753
▁shame	-11.4755
ure	-11.4756
imbabwean	-11.4769
▁popp	-11.4771
▁Barry	-11.4771
nga	-11.4776
▁retaliati	-11.4781
bo	-11.4783
zed	-11.4789
ou	-11.479
▁En	-11.479
▁Nori	-11.4795
▁pole	-11.4801
▁Va	-11.4801
▁developer	-11.4812
▁Dann	-11.4819
▁Kle	-11.4831
ility	-11.4837
▁Boris	-11.484
▁Rash	-11.4862
▁rag	-11.4871
ough	-11.488
▁Julie	-11.4881
▁farms	-11.4885
oster	-11.4889
fat	-11.4905
▁surveys	-11.4907
onica	-11.4918
ogge	-11.4921
▁Ross	-11.4921
▁interesting	-11.4926
▁joon	-11.4929
▁lad	-11.493
▁slum	-11.493
▁Hol	-11.4939
om	-11.4942
▁steadi	-11.4946
▁Tal	-11.4953
▁disperse	-11.4959
▁outlets	-11.4963
▁cla	-11.4963
▁folks	-11.4966
izing	-11.4966
ida	-11.4974
▁tribes	-11.4981
▁KAB	-11.4992
ock	-11.5001
▁choices	-11.5005
apped	-11.5014
▁Arn	-11.5014
▁advise	-11.5015
▁observe	-11.5026
ker	-11.503
▁Travel	-11.5035
hwan	-11.5041
power	-11.5049
▁orchestra	-11.505
▁pan	-11.5051
ut	-11.5054
ge	-11.5057
▁heal	-11.5058
▁hack	-11.5062
strong	-11.5062
▁Ramad	-11.5063
cha	-11.5069
▁Ex	-11.5075
▁Ras	-11.5079
▁Browne	-11.508
arity	-11.5082
vich	-11.5086
▁Plan	-11.5092
▁Balti	-11.5098
ket	-11.5106
▁Patro	-11.5114
▁observ	-11.5117
▁espi	-11.5119
▁audit	-11.5123
▁construct	-11.5124
▁neutral	-11.5127
▁Night	-11.5128
▁terra	-11.513
hi	-11.5131
▁grim	-11.5135
uki	-11.5135
▁slot	-11.5138
SCO	-11.5139
▁BMW	-11.514
▁Lincoln	-11.514
▁Maradona	-11.514
▁Organizer	-11.514
▁bizarre	-11.514
▁certificate	-11.514
▁commodit	-11.514
▁gadget	-11.514
▁genuine	-11.514
▁junior	-11.514
▁reckless	-11.514
▁satisfie	-11.514
▁Kashmir	-11.514
▁hammer	-11.514
▁Negro	-11.514
▁Brig	-11.514
▁Conservation	-11.514
▁seizure	-11.514
▁ivor	-11.514
▁introduction	-11.514
▁profound	-11.514
▁Maoist	-11.514
▁Tamil	-11.5141
▁Medicine	-11.5141
▁Frontier	-11.5141
▁hatred	-11.5141
▁Ismail	-11.5141
▁psychologist	-11.5142
▁Harper	-11.5142
▁Venus	-11.5142
▁bonuses	-11.5142
▁respirator	-11.5142
▁Iceland	-11.5142
▁Jamie	-11.5142
▁signature	-11.5142
▁concentration	-11.5143
▁confidential	-11.5144
▁telecom	-11.5145
▁Laura	-11.5145
▁collective	-11.5146
▁cha	-11.5146
▁drain	-11.5146
▁assign	-11.5146
▁Garden	-11.5147
ris	-11.5147
▁strapp	-11.5148
▁dock	-11.5149
▁sensor	-11.5149
▁mechanical	-11.515
adilla	-11.5154
▁Laurea	-11.5157
▁Oak	-11.5157
OM	-11.5159
▁Hawa	-11.5159
▁difficulty	-11.516
active	-11.5161
▁tube	-11.5162
▁emerge	-11.5165
▁Bang	-11.5168
▁passion	-11.5173
▁indoor	-11.5174
ves	-11.5175
po	-11.5177
▁alleg	-11.5177
▁Nint	-11.5178
▁Nei	-11.5179
▁j	-11.5183
▁Ar	-11.5185
▁bold	-11.5204
▁ruin	-11.5205
▁Raj	-11.5211
▁toddler	-11.5212
▁soul	-11.5214
▁dire	-11.5215
▁tooth	-11.5215
▁blessing	-11.5221
▁exclud	-11.5223
▁Chos	-11.5224
▁comic	-11.5226
▁flexib	-11.5233
▁Fa	-11.5236
▁Barak	-11.5237
▁scan	-11.5239
▁countryside	-11.524
▁KT	-11.524
▁foe	-11.525
▁Doo	-11.5251
▁sincere	-11.5253
▁improvement	-11.5259
zel	-11.5262
▁crying	-11.5263
▁Hond	-11.5264
▁Rece	-11.5274
▁devot	-11.5274
▁Full	-11.5281
▁gangs	-11.5281
ule	-11.5284
▁networking	-11.5285
▁vers	-11.5287
▁genes	-11.529
▁outfit	-11.5291
▁sequence	-11.5306
▁sat	-11.5309
iacom	-11.5314
pa	-11.5325
gar	-11.5326
▁feelings	-11.5344
▁dismiss	-11.5352
▁item	-11.5353
▁Mayb	-11.5356
▁fin	-11.5365
▁Bil	-11.5369
igh	-11.5378
▁Polls	-11.5378
▁inaugura	-11.5382
▁Tri	-11.5395
▁rig	-11.5401
▁mess	-11.5408
▁Ana	-11.5417
bound	-11.5419
nlike	-11.5421
▁bodyguards	-11.5424
▁Bide	-11.5425
ast	-11.5426
▁poses	-11.5436
vian	-11.5438
PI	-11.5442
▁ROM	-11.5443
poul	-11.5443
▁Serge	-11.5452
▁LA	-11.5452
amba	-11.5459
conscious	-11.5465
vo	-11.5475
▁permitt	-11.5479
irk	-11.5488
▁dies	-11.5489
▁Ven	-11.549
ians	-11.5491
▁ranch	-11.5496
▁micro	-11.5502
▁deserve	-11.5507
▁reign	-11.5508
ual	-11.551
gu	-11.552
▁Ida	-11.5535
▁spa	-11.5538
▁Kh	-11.5543
L	-11.5549
▁Estonia	-11.555
▁Cast	-11.5562
▁volcan	-11.5565
▁enhanc	-11.5565
▁Camero	-11.5567
▁Nah	-11.5568
jo	-11.5569
▁bloc	-11.5571
▁academ	-11.5571
▁drum	-11.5571
▁Protecti	-11.5572
▁coron	-11.5572
▁excess	-11.5573
▁Arroyo	-11.5574
▁Climate	-11.5574
▁SUV	-11.5574
▁iPod	-11.5574
▁ingredient	-11.5574
▁umbrella	-11.5574
▁Guild	-11.5574
▁monument	-11.5574
▁prefecture	-11.5574
▁stomach	-11.5574
▁Previous	-11.5574
▁intellectual	-11.5574
▁competitor	-11.5574
▁taint	-11.5574
▁misdemeanor	-11.5575
▁lugg	-11.5575
▁premium	-11.5575
▁logistic	-11.5575
▁lyric	-11.5575
▁Alfred	-11.5575
▁Junichi	-11.5575
▁definition	-11.5575
▁UFO	-11.5575
▁hurl	-11.5575
▁Cecil	-11.5575
▁ridicul	-11.5575
▁mysterious	-11.5575
▁milk	-11.5575
▁array	-11.5575
▁breast	-11.5575
▁chunk	-11.5575
▁absent	-11.5575
▁linger	-11.5575
▁contentious	-11.5576
▁cancellation	-11.5576
▁psychological	-11.5577
▁chan	-11.5577
▁orange	-11.5577
▁pageant	-11.5577
▁dorm	-11.5577
▁Investment	-11.5577
▁contra	-11.5578
▁injection	-11.5578
▁Cairo	-11.5578
▁delight	-11.5579
▁consultant	-11.5579
▁slugg	-11.5579
▁powder	-11.558
▁loom	-11.558
▁deem	-11.5581
▁Movie	-11.5581
DF	-11.5582
▁Violen	-11.5582
▁HD	-11.5583
▁Hun	-11.5584
▁Aug	-11.5584
▁dual	-11.5586
▁drunken	-11.5586
▁Bird	-11.5588
▁impression	-11.559
▁Bulgarian	-11.559
▁spurr	-11.559
▁Area	-11.5591
▁shadow	-11.5591
gan	-11.5593
▁cage	-11.5594
oell	-11.5595
▁acquisition	-11.5597
▁Fear	-11.5599
▁Tens	-11.5606
▁Nasr	-11.5606
chum	-11.5607
▁adequate	-11.5608
▁anim	-11.5609
▁measurement	-11.5614
lim	-11.5615
▁beache	-11.5615
▁Bibl	-11.5615
▁doubl	-11.5617
▁rejection	-11.5618
▁LP	-11.562
sif	-11.5621
▁slain	-11.5621
▁combine	-11.5623
▁Osa	-11.5624
▁glimpse	-11.5624
▁Yea	-11.5626
tarian	-11.5627
▁arrange	-11.5635
idel	-11.5639
arq	-11.564
▁watcher	-11.5641
▁obes	-11.5645
pont	-11.5648
cheong	-11.5648
▁commemorate	-11.5649
▁tone	-11.5651
ini	-11.5653
▁lieutenant	-11.5664
▁protein	-11.5664
▁bo	-11.5666
▁humiliat	-11.5676
▁Ber	-11.5679
▁Sach	-11.568
▁SK	-11.5683
▁Gib	-11.5699
pton	-11.5703
▁tipp	-11.5704
▁chips	-11.5711
du	-11.572
▁rever	-11.5734
▁distan	-11.5747
▁Pole	-11.5748
round	-11.5751
▁employers	-11.5751
▁cleaner	-11.5756
▁Centre	-11.5759
▁tense	-11.5761
▁Ax	-11.5766
▁retrieve	-11.5771
▁Lion	-11.5772
▁Town	-11.5779
▁fam	-11.5779
▁outline	-11.5783
stice	-11.5783
▁medi	-11.5783
▁sketch	-11.5785
▁Dama	-11.5787
▁Pre	-11.5791
ain	-11.5794
▁Gall	-11.5805
▁Karl	-11.5815
rin	-11.5816
ffen	-11.5822
▁nurs	-11.5828
▁shocking	-11.5838
pei	-11.5839
▁compil	-11.5839
▁fitt	-11.5841
▁Cla	-11.5855
▁roles	-11.5855
▁Liu	-11.5857
attle	-11.5859
▁Pola	-11.5859
▁cub	-11.5861
▁Trad	-11.5865
scus	-11.5881
ji	-11.5885
▁Nash	-11.5887
etic	-11.5887
cular	-11.5894
▁judicia	-11.59
AC	-11.5909
▁Kyu	-11.5912
▁Mat	-11.5916
▁repli	-11.592
▁Bull	-11.5924
place	-11.5928
anuel	-11.5929
▁Bor	-11.5934
▁chase	-11.5948
decided	-11.5952
▁impressi	-11.5954
▁climber	-11.5956
about	-11.5957
our	-11.5958
oming	-11.5959
▁Ju	-11.5962
▁contents	-11.5966
tery	-11.598
▁lean	-11.5982
▁stated	-11.5989
▁Fuku	-11.5993
ped	-11.5997
itchen	-11.6
▁toppl	-11.6002
▁ratio	-11.6003
▁Guatemala	-11.6003
▁Romania	-11.6007
etary	-11.6009
▁drag	-11.6011
▁Bran	-11.6022
▁accomplish	-11.6023
▁recess	-11.6026
▁psychiatr	-11.6028
▁archaeolog	-11.6028
▁fantas	-11.6028
▁Os	-11.6028
▁deport	-11.6028
▁courage	-11.6028
▁Shepherd	-11.6029
▁abrupt	-11.6029
▁depriv	-11.6029
▁fragil	-11.6029
▁illicit	-11.6029
▁martyr	-11.6029
▁negligen	-11.6029
▁patriot	-11.6029
▁recount	-11.6029
▁Sumatra	-11.6029
▁casino	-11.6029
▁diminish	-11.6029
▁jirga	-11.6029
▁portrait	-11.6029
▁silver	-11.6029
▁anxious	-11.6029
▁harass	-11.6029
▁vault	-11.6029
▁provocative	-11.6029
▁Initial	-11.6029
▁grain	-11.6029
▁Diamond	-11.6029
▁squid	-11.6029
▁Greenspan	-11.6029
▁Through	-11.6029
▁chronic	-11.6029
▁Fitzg	-11.6029
furt	-11.6029
▁sugar	-11.6029
▁Solomon	-11.6029
▁Orthodox	-11.6029
▁unhapp	-11.6029
▁sheep	-11.603
▁derail	-11.603
▁Levinson	-11.603
▁Holding	-11.603
▁cluster	-11.603
▁timing	-11.603
▁reception	-11.603
▁Wonder	-11.603
▁Further	-11.603
▁dependent	-11.603
▁Buff	-11.603
▁Federline	-11.6031
▁Telecom	-11.6031
▁informant	-11.6032
▁nail	-11.6032
▁Letter	-11.6032
▁hover	-11.6032
▁Regional	-11.6032
▁Grace	-11.6032
▁Rico	-11.6033
▁Yale	-11.6034
▁frustration	-11.6034
▁Pearl	-11.6034
▁slavery	-11.6034
▁Ukrainian	-11.6035
▁Trust	-11.6035
▁Sharon	-11.6035
▁cabin	-11.6036
▁Where	-11.6036
ww	-11.6036
▁handgun	-11.6036
▁McCon	-11.6036
▁stunt	-11.6037
▁robotic	-11.6038
▁Keat	-11.6038
▁Flin	-11.604
▁chess	-11.604
▁detective	-11.6041
▁interrupt	-11.6041
▁bread	-11.6042
▁Interfa	-11.6042
▁bulk	-11.6043
▁contestant	-11.6043
▁sec	-11.6044
▁Few	-11.6045
▁playoff	-11.6045
▁fur	-11.6046
▁showdown	-11.6046
▁Hick	-11.605
▁castle	-11.6051
▁disappointment	-11.6053
▁rack	-11.6055
▁Neal	-11.6056
▁preferr	-11.6057
▁Ferrer	-11.6057
▁Santi	-11.6057
▁batch	-11.6058
▁Wii	-11.6059
▁Collins	-11.606
▁priorities	-11.6065
▁Carte	-11.6065
▁Whe	-11.6065
▁instruction	-11.6066
▁barely	-11.6068
▁separat	-11.6069
▁conceded	-11.6071
elro	-11.6073
▁economically	-11.6074
▁Hot	-11.6082
iz	-11.6083
▁Leone	-11.6083
cent	-11.6084
▁gifts	-11.6087
▁Tian	-11.6088
eera	-11.609
▁organic	-11.6091
▁Ashle	-11.6094
▁heir	-11.6097
▁Won	-11.6102
confirmed	-11.6104
▁gorillas	-11.6104
▁Citi	-11.6107
fo	-11.611
▁procession	-11.611
▁Hae	-11.6111
unk	-11.6113
▁Judiciar	-11.6118
▁Hans	-11.6118
▁semi	-11.612
▁filling	-11.6123
▁ethical	-11.6127
▁MI	-11.6133
▁Stalinis	-11.6141
titude	-11.6145
▁Goh	-11.6147
▁Hil	-11.6154
RE	-11.6161
▁Baby	-11.6163
▁horse	-11.6166
▁Tar	-11.6182
▁fi	-11.6183
▁compos	-11.6185
▁Cit	-11.6192
▁addresses	-11.6192
apping	-11.6197
▁Fre	-11.6198
▁Daw	-11.6199
▁bang	-11.6204
▁Sid	-11.6205
▁allege	-11.6205
▁sooner	-11.622
▁arrangements	-11.6222
▁distribute	-11.6222
▁provok	-11.6226
ethane	-11.6229
ees	-11.6231
▁Burr	-11.6239
HI	-11.6241
▁inner	-11.6244
▁poster	-11.6245
▁tours	-11.625
▁Thir	-11.6252
▁dem	-11.6257
▁revolutionar	-11.6268
pping	-11.627
▁reliev	-11.627
▁Bin	-11.6275
hand	-11.6277
illa	-11.6277
▁Lan	-11.6296
▁v	-11.6306
pot	-11.6309
tano	-11.6311
▁extremis	-11.6312
▁define	-11.6313
▁marr	-11.6332
▁memorab	-11.6341
▁Chase	-11.6347
tle	-11.6351
▁wan	-11.6355
asha	-11.6358
ndra	-11.6359
▁Net	-11.6365
part	-11.6368
amine	-11.637
M	-11.637
▁Bobb	-11.6375
▁files	-11.6378
▁Fal	-11.6379
▁uncertain	-11.6381
ology	-11.6384
aiss	-11.6393
▁seller	-11.6394
ran	-11.6395
▁holed	-11.6395
▁Front	-11.6398
▁dig	-11.6401
▁Ah	-11.6406
uan	-11.6406
▁Intel	-11.641
▁flare	-11.6414
play	-11.6415
▁Pun	-11.6416
▁div	-11.6418
▁Bol	-11.6418
specifi	-11.6422
Tun	-11.6423
folk	-11.6426
Station	-11.6427
shift	-11.6428
▁Sand	-11.6432
scope	-11.6442
uda	-11.6452
kun	-11.6455
▁occasional	-11.6459
▁Seg	-11.6459
rio	-11.646
▁BE	-11.6463
▁explaining	-11.6466
▁staffer	-11.647
▁Bat	-11.6473
▁du	-11.6474
lit	-11.6475
▁transparen	-11.6477
▁Ethiopia	-11.6482
▁Thi	-11.6483
▁valid	-11.6483
▁Monte	-11.6483
▁cry	-11.6489
▁scrutin	-11.6491
▁categori	-11.6495
▁grip	-11.6499
▁contradict	-11.65
▁extract	-11.6503
▁column	-11.6504
omposite	-11.6504
ategory	-11.6505
▁Concern	-11.6505
▁Frost	-11.6505
▁Himalaya	-11.6505
▁Minneapolis	-11.6505
▁Passenger	-11.6505
▁Refuge	-11.6505
▁artifact	-11.6505
▁brigade	-11.6505
▁cosmonaut	-11.6505
▁efficienc	-11.6505
▁enterprise	-11.6505
▁harvest	-11.6505
▁implant	-11.6505
▁inflict	-11.6505
▁tycoon	-11.6505
▁Oxford	-11.6505
▁Owen	-11.6505
▁anxiet	-11.6505
▁chocolate	-11.6505
▁disgrace	-11.6505
▁mislead	-11.6505
▁Emanuel	-11.6505
▁valley	-11.6505
▁Hispanic	-11.6505
▁frontrunner	-11.6505
▁Ledger	-11.6505
▁Atleti	-11.6505
▁persistent	-11.6506
▁Foley	-11.6506
▁perception	-11.6506
▁Malawi	-11.6506
▁frog	-11.6506
▁Keith	-11.6506
▁Shwe	-11.6506
▁flock	-11.6506
▁veterinarian	-11.6506
▁PF	-11.6506
▁click	-11.6506
▁garb	-11.6506
▁donkey	-11.6506
▁Blake	-11.6506
▁Survivor	-11.6506
▁workforce	-11.6506
▁JER	-11.6506
▁frank	-11.6506
▁grace	-11.6506
▁Medit	-11.6506
▁dictatorship	-11.6507
▁verification	-11.6507
pollo	-11.6507
▁Basque	-11.6507
▁Sau	-11.6507
▁fantastic	-11.6507
▁salarie	-11.6508
▁deportation	-11.6508
▁interaction	-11.6508
▁rover	-11.6509
▁headache	-11.6509
▁pink	-11.6509
▁overweight	-11.651
▁Hunter	-11.6511
▁cab	-11.6513
▁logo	-11.6513
▁depos	-11.6514
▁monkeys	-11.6514
▁Storm	-11.6515
▁prediction	-11.6515
▁offend	-11.6515
▁Minute	-11.6515
▁adventure	-11.6515
▁glow	-11.6515
▁Milk	-11.6516
▁creator	-11.6516
▁precise	-11.6517
▁soften	-11.6517
▁yell	-11.6521
▁ugl	-11.6522
oka	-11.6522
▁facial	-11.6523
▁behead	-11.6524
▁coordinate	-11.6526
▁costume	-11.6526
▁Given	-11.6527
▁Brigade	-11.6527
jean	-11.6528
rbach	-11.6531
▁bicycle	-11.6535
▁fold	-11.6536
holm	-11.6542
tact	-11.6544
▁Mong	-11.6545
▁utter	-11.6546
▁AU	-11.6548
▁Pic	-11.6549
▁tender	-11.655
▁Buck	-11.6551
▁performer	-11.6552
▁Vanco	-11.6555
ging	-11.6556
▁Thu	-11.6556
▁compare	-11.6559
▁Bern	-11.656
▁rear	-11.6561
▁establishment	-11.6561
▁helpful	-11.6562
ello	-11.6562
▁qualifier	-11.6564
▁Kara	-11.6565
unt	-11.6565
G	-11.6567
▁convene	-11.6569
ero	-11.657
▁spike	-11.657
uc	-11.6573
▁architect	-11.6573
▁eve	-11.6573
maker	-11.6573
hen	-11.6574
▁readers	-11.6578
▁portal	-11.658
ywhere	-11.6587
NG	-11.6589
▁universal	-11.6592
oman	-11.6597
▁Lucas	-11.6599
▁Say	-11.6599
▁cop	-11.6599
▁aquarium	-11.66
▁airliner	-11.6601
unch	-11.6604
▁ash	-11.6607
▁orchestrat	-11.6609
▁Lak	-11.6611
CC	-11.6611
▁wip	-11.6613
▁pav	-11.6618
▁Jimm	-11.6619
▁ears	-11.662
sch	-11.6622
otti	-11.6625
▁End	-11.6629
▁smoker	-11.6636
▁supervis	-11.6643
▁Hart	-11.6646
▁beam	-11.6651
▁tongue	-11.6658
▁layer	-11.6679
▁educat	-11.6684
▁explor	-11.6691
▁triple	-11.6692
erran	-11.6692
▁assurance	-11.6699
▁counterterroris	-11.6702
▁captive	-11.6703
▁highlights	-11.6708
▁bowl	-11.6712
born	-11.6713
▁underst	-11.6721
▁Aid	-11.6726
▁acquir	-11.6727
ologist	-11.673
▁cannon	-11.6733
▁collaps	-11.674
▁Claren	-11.6744
▁spur	-11.6745
▁resemble	-11.6748
▁shipment	-11.675
▁Dell	-11.6751
▁Natur	-11.6751
aware	-11.6753
▁org	-11.6753
▁mari	-11.6754
▁Alg	-11.676
USAL	-11.6761
eum	-11.6763
bon	-11.6768
▁riders	-11.6769
▁planner	-11.6779
▁Jos	-11.678
▁Haniy	-11.6782
▁scholars	-11.6797
▁lover	-11.68
action	-11.6804
hima	-11.6808
▁tortur	-11.6808
ouse	-11.6815
▁Garri	-11.6816
break	-11.6819
▁Mot	-11.6824
▁verifi	-11.6827
▁Rud	-11.6839
▁rider	-11.684
▁finalize	-11.6847
▁Poo	-11.685
▁defi	-11.6852
▁Hui	-11.6862
▁Fan	-11.6863
▁overwhelm	-11.6867
iste	-11.6868
ski	-11.6869
▁Sund	-11.6874
▁Val	-11.6875
WC	-11.6877
juan	-11.6879
▁Spe	-11.6885
ochi	-11.6885
verything	-11.6888
▁accelerate	-11.6889
▁Mu	-11.6893
V	-11.69
▁pave	-11.6903
▁seeming	-11.6908
▁donat	-11.6911
▁Griffi	-11.6912
▁bust	-11.6915
▁Russ	-11.6916
▁necessar	-11.6917
▁lone	-11.6917
▁luck	-11.6918
week	-11.6928
▁wings	-11.6929
▁analyz	-11.693
wealth	-11.6931
atar	-11.6939
ilia	-11.694
terior	-11.694
ork	-11.6946
▁intimidat	-11.6946
rank	-11.6947
▁applau	-11.6952
▁Fight	-11.6954
▁distinct	-11.6957
ssif	-11.696
▁prizes	-11.696
planes	-11.6962
will	-11.6963
sian	-11.6972
▁significan	-11.6978
▁bump	-11.6981
▁Algeria	-11.6982
▁forth	-11.6984
aft	-11.6984
lone	-11.6987
▁authentic	-11.6987
▁pond	-11.6991
iora	-11.6997
▁Gibb	-11.6997
▁inject	-11.7001
▁ideolog	-11.7003
▁guitar	-11.7004
athedral	-11.7005
▁Avenue	-11.7005
▁Exxon	-11.7005
▁barricade	-11.7005
▁calendar	-11.7005
▁evolv	-11.7005
▁historian	-11.7005
▁prototype	-11.7005
▁stalemate	-11.7005
▁unilateral	-11.7005
▁wheelchair	-11.7005
▁Retail	-11.7005
▁intensify	-11.7005
▁curator	-11.7005
▁rogue	-11.7005
▁wrist	-11.7005
▁engulf	-11.7005
▁Abraham	-11.7005
▁pretend	-11.7005
▁Initiative	-11.7005
▁fiber	-11.7005
▁Jihad	-11.7005
▁pharmaceutical	-11.7005
▁liais	-11.7005
▁railroad	-11.7005
▁spouse	-11.7005
▁keynote	-11.7005
▁potato	-11.7006
▁calorie	-11.7006
▁reminisc	-11.7006
tting	-11.7006
▁Franco	-11.7006
▁Blitz	-11.7006
▁collar	-11.7007
▁vocal	-11.7007
▁revelation	-11.7007
▁Evans	-11.7007
▁wield	-11.7007
humi	-11.7008
▁dwindl	-11.7008
▁stockpile	-11.7008
▁snack	-11.7008
▁bias	-11.7009
▁Claus	-11.7009
▁reinforcement	-11.701
▁youngster	-11.701
▁honey	-11.7011
▁barrage	-11.7011
▁Djo	-11.7011
▁innocen	-11.7012
▁superb	-11.7013
▁cordon	-11.7013
▁ranger	-11.7013
▁overlook	-11.7015
▁tag	-11.7019
▁Helen	-11.7019
▁auditor	-11.702
▁Look	-11.7021
▁rift	-11.7021
▁Jean	-11.7021
▁bleed	-11.7022
▁acceptance	-11.7023
▁spann	-11.7024
leet	-11.7024
▁Andrea	-11.7026
▁Visit	-11.7026
▁nationalist	-11.7027
ancy	-11.7029
▁Micke	-11.7034
▁noise	-11.7037
▁concentrat	-11.7037
ua	-11.7037
▁Bros	-11.7041
▁Natural	-11.7042
▁Border	-11.7042
▁im	-11.7044
▁addiction	-11.7046
▁sprint	-11.7046
uous	-11.7047
lary	-11.7047
nprofit	-11.7048
▁vest	-11.7052
GS	-11.7052
▁Napoli	-11.7052
▁Vincen	-11.7053
▁composer	-11.7056
▁applaud	-11.7059
▁supplement	-11.7059
▁inspiration	-11.7061
▁rotat	-11.7064
▁Lah	-11.7067
▁Maha	-11.7071
▁Soon	-11.7072
▁salt	-11.7074
▁conscien	-11.7077
▁apple	-11.7078
▁casualt	-11.7084
▁lots	-11.7087
▁liver	-11.7088
▁Player	-11.709
▁stumbl	-11.7092
▁dealer	-11.7093
▁Ferrar	-11.7095
▁Pier	-11.7098
entia	-11.7103
▁pub	-11.7103
yman	-11.7112
▁internationally	-11.7113
▁der	-11.7122
▁owe	-11.7123
▁Mour	-11.7136
▁Chan	-11.7144
▁winger	-11.7145
▁Arabian	-11.7148
▁upgrade	-11.715
▁retire	-11.715
▁ja	-11.7152
▁armi	-11.7155
nts	-11.7155
▁hi	-11.7158
▁guarded	-11.716
▁homicide	-11.7162
soo	-11.7164
ueens	-11.7166
▁Cher	-11.7166
▁Fla	-11.7166
▁designate	-11.7166
▁lane	-11.7168
▁Hak	-11.7171
iffe	-11.7178
▁KOS	-11.718
▁Greg	-11.7181
▁bodyguard	-11.7182
▁swear	-11.7183
hmer	-11.7184
att	-11.7185
▁bidd	-11.7189
▁burg	-11.7189
▁pirate	-11.719
▁trailer	-11.7197
▁arena	-11.7199
▁ignit	-11.72
▁Rosen	-11.7201
▁Gil	-11.7213
▁extremist	-11.7217
▁cl	-11.7219
▁Lu	-11.7226
▁Work	-11.7234
employment	-11.7235
use	-11.7236
arov	-11.7242
cade	-11.7248
oi	-11.7251
▁rings	-11.7252
▁tapes	-11.7254
▁scratch	-11.7258
▁hostilit	-11.7258
▁troubles	-11.726
▁Kay	-11.7261
▁trans	-11.7265
lf	-11.7275
▁Ann	-11.728
▁Dodge	-11.7282
▁inhal	-11.73
chenk	-11.7302
▁Fly	-11.7305
bel	-11.7307
▁Kil	-11.731
▁Any	-11.7312
adley	-11.7312
▁Ver	-11.7318
▁assum	-11.7322
▁Christin	-11.7344
hong	-11.7348
cute	-11.7349
▁Bak	-11.7351
ito	-11.736
▁skinn	-11.7365
tatistical	-11.7376
uds	-11.7378
▁chased	-11.7379
▁horses	-11.7389
▁Gol	-11.7397
ore	-11.741
▁outlin	-11.741
gang	-11.7417
von	-11.7419
rell	-11.7433
ndrome	-11.7438
▁Julia	-11.744
▁substanti	-11.7444
▁pot	-11.7447
grid	-11.745
point	-11.7453
course	-11.7454
ague	-11.7457
spoke	-11.7462
▁ensur	-11.7463
hold	-11.7463
▁Troop	-11.7464
▁cope	-11.747
▁absolute	-11.7476
pi	-11.7476
▁lea	-11.7479
what	-11.7483
▁Cel	-11.7493
made	-11.7496
▁Multi	-11.7497
▁Roj	-11.7498
▁Independen	-11.7503
▁shoulders	-11.7504
▁Laute	-11.7505
▁restrain	-11.7506
▁Jamaica	-11.7508
▁Beck	-11.7511
▁stir	-11.7514
▁Burk	-11.7516
▁rod	-11.7517
▁trauma	-11.7524
▁Social	-11.7529
oriented	-11.7531
▁Gorbachev	-11.7531
▁Newcastle	-11.7531
▁Rwanda	-11.7531
▁Spiel	-11.7531
▁clerk	-11.7531
▁convincing	-11.7531
▁evasion	-11.7531
▁hectare	-11.7531
▁juvenile	-11.7531
▁mechanism	-11.7531
▁perspective	-11.7531
▁robust	-11.7531
▁technician	-11.7531
▁unauthori	-11.7531
▁unlawful	-11.7531
▁eacute	-11.7532
▁federation	-11.7532
▁solving	-11.7532
▁spree	-11.7532
▁bipartisan	-11.7532
▁glad	-11.7532
▁gossip	-11.7532
▁Jacob	-11.7532
▁embargo	-11.7532
▁steroid	-11.7532
▁blunt	-11.7532
▁spiral	-11.7532
▁bishop	-11.7532
▁biofuel	-11.7532
▁cheat	-11.7532
▁proclaim	-11.7532
▁Picture	-11.7532
▁Yellow	-11.7532
▁Flood	-11.7532
▁cinema	-11.7532
▁dentist	-11.7532
▁charisma	-11.7532
▁excerpt	-11.7532
▁oversight	-11.7532
▁database	-11.7532
▁Laborator	-11.7532
▁premise	-11.7532
▁Lugo	-11.7532
▁McA	-11.7532
▁differ	-11.7532
▁comparison	-11.7532
▁Parent	-11.7532
▁plume	-11.7533
▁DEL	-11.7533
▁cough	-11.7533
▁gust	-11.7533
rative	-11.7533
▁constructive	-11.7534
▁maneuver	-11.7534
▁salary	-11.7534
▁uncomm	-11.7534
▁comedian	-11.7534
▁Chadian	-11.7535
▁foil	-11.7535
▁Lawyer	-11.7535
▁cartel	-11.7535
▁exploration	-11.7535
▁unbeat	-11.7536
▁fiction	-11.7536
▁coastline	-11.7537
▁Kasp	-11.7537
▁Vick	-11.7538
▁albatross	-11.7538
▁Roll	-11.7538
▁Supervisor	-11.7538
▁instructor	-11.7538
▁downplay	-11.7539
▁crippl	-11.754
▁Guardian	-11.7541
▁confession	-11.7542
▁ward	-11.7543
▁Cameroon	-11.7543
▁Costa	-11.7543
▁hyper	-11.7545
▁soap	-11.7546
▁privilege	-11.7547
▁Winston	-11.7548
▁warhead	-11.7549
▁bubble	-11.755
▁DA	-11.7553
▁policymaker	-11.7554
▁thriller	-11.7558
▁fier	-11.7559
▁Carla	-11.7559
▁mal	-11.7559
▁fortress	-11.7564
▁interfer	-11.7564
▁debat	-11.7565
▁tail	-11.7568
aro	-11.7568
aretaker	-11.7573
mun	-11.7576
ico	-11.7577
hof	-11.7577
▁Fu	-11.7581
shed	-11.7585
rum	-11.7586
▁buyout	-11.7588
▁pod	-11.759
av	-11.7594
▁Jud	-11.7597
ama	-11.7603
▁soda	-11.7618
▁Marin	-11.7622
▁metropoli	-11.7623
RLIN	-11.7623
▁erect	-11.7623
▁Cook	-11.7627
▁Phu	-11.7634
▁Leno	-11.7635
lmost	-11.7638
▁NH	-11.7639
▁avert	-11.764
ison	-11.7645
▁Ivanov	-11.7646
▁aggravat	-11.7649
ab	-11.7652
apet	-11.7658
▁automotive	-11.7659
▁keeper	-11.7659
▁Karim	-11.7666
▁Tok	-11.7667
tive	-11.7671
▁Till	-11.7672
▁Mori	-11.7672
▁Canc	-11.7679
ating	-11.7684
▁destabilize	-11.7689
▁clan	-11.7689
▁Mail	-11.7692
ories	-11.7694
ette	-11.7694
▁Arsen	-11.7696
▁Gett	-11.7697
▁Gue	-11.7697
▁scuffle	-11.7699
are	-11.7699
▁Pak	-11.7707
▁inning	-11.7707
▁interven	-11.7708
▁organize	-11.7712
▁uncle	-11.7721
▁blockbuster	-11.7723
▁hook	-11.773
sources	-11.7733
▁clippe	-11.7735
▁Hard	-11.7736
▁digg	-11.7737
▁Final	-11.7743
▁Mem	-11.7743
▁revise	-11.7744
▁speculate	-11.7746
▁funn	-11.7747
▁sore	-11.7748
hrai	-11.7753
▁Test	-11.776
▁Les	-11.7763
▁AM	-11.7764
▁municipal	-11.7764
bright	-11.7765
▁Nichol	-11.7766
▁tribe	-11.7767
▁plug	-11.7772
▁ch	-11.7779
▁wheels	-11.7784
▁corpse	-11.7784
▁companion	-11.7785
aron	-11.7788
sang	-11.7792
▁bounc	-11.7795
▁Jam	-11.7804
▁empir	-11.7808
BP	-11.7813
az	-11.7815
▁Galla	-11.7817
▁discs	-11.7817
▁explore	-11.7818
▁bounce	-11.7818
▁Uni	-11.783
▁seeker	-11.7832
▁AG	-11.7837
my	-11.7843
▁Hoi	-11.7843
▁tune	-11.7844
▁Prot	-11.7845
▁brake	-11.7847
▁sum	-11.7852
oria	-11.7856
▁slowing	-11.7858
▁passports	-11.7859
▁tolerate	-11.7859
▁entr	-11.7867
LC	-11.7869
▁Capital	-11.7869
▁Nam	-11.7873
▁Deb	-11.7873
eful	-11.7879
pon	-11.7879
cover	-11.7899
tage	-11.7901
row	-11.7903
▁Sp	-11.7904
▁tun	-11.791
▁presid	-11.7912
emi	-11.7913
▁fann	-11.7919
▁applie	-11.7923
▁dish	-11.7925
erous	-11.7928
thing	-11.7942
AL	-11.7948
▁excite	-11.7965
▁NAS	-11.7977
▁improvements	-11.7978
far	-11.7978
lame	-11.7979
▁outbreaks	-11.7981
▁exception	-11.7983
amount	-11.7985
rosa	-11.7988
▁Kor	-11.7991
▁philosoph	-11.7996
lan	-11.8002
BO	-11.8004
▁Mari	-11.8005
jab	-11.8006
▁NIS	-11.8007
outhwest	-11.801
▁Flo	-11.8012
box	-11.8013
▁slim	-11.8014
FC	-11.8017
▁Tu	-11.8022
▁Kenne	-11.8023
▁rein	-11.8025
▁Buy	-11.8028
▁scam	-11.8031
▁McC	-11.8034
▁riches	-11.8037
▁Henri	-11.8038
▁squeez	-11.8043
▁assure	-11.8047
▁concentrate	-11.8048
▁Million	-11.805
▁cure	-11.8051
ctic	-11.8059
kins	-11.806
▁irritat	-11.8072
zi	-11.8073
▁Are	-11.8077
pies	-11.8079
▁Kumar	-11.8081
▁corn	-11.8083
▁favorites	-11.8084
▁luc	-11.8085
▁mode	-11.8086
▁trap	-11.8086
elief	-11.8087
▁cigar	-11.8087
▁Custom	-11.8087
▁Firefighter	-11.8087
▁Litvin	-11.8087
▁Tikrit	-11.8087
▁Veteran	-11.8087
▁evangelical	-11.8087
▁fatigue	-11.8087
▁immense	-11.8087
▁kangaroo	-11.8087
▁lesbian	-11.8087
▁machete	-11.8087
▁nickname	-11.8087
▁pandemic	-11.8087
▁precinct	-11.8087
▁quarantine	-11.8087
▁reprocess	-11.8087
▁ritual	-11.8087
▁subpoena	-11.8087
▁translator	-11.8087
▁unconditional	-11.8087
▁Bahrain	-11.8087
▁staunch	-11.8087
▁appall	-11.8087
▁chimp	-11.8087
▁adjourn	-11.8087
▁cruel	-11.8087
▁Patriot	-11.8087
▁parachute	-11.8087
▁parallel	-11.8087
▁Lehman	-11.8087
▁Northwest	-11.8087
▁helmet	-11.8087
▁Johannes	-11.8087
▁Fabio	-11.8087
witt	-11.8087
▁Centur	-11.8087
▁splash	-11.8087
▁wholesale	-11.8087
▁horror	-11.8087
▁unofficial	-11.8087
▁disclosure	-11.8087
▁gauge	-11.8087
▁sneak	-11.8087
▁View	-11.8088
▁Export	-11.8088
▁baggage	-11.8088
▁ailment	-11.8088
▁parole	-11.8088
▁sheikh	-11.8088
▁seminar	-11.8088
▁crystal	-11.8088
▁Jefferson	-11.8088
RID	-11.8088
▁lavish	-11.8088
▁supermarket	-11.8088
▁Saint	-11.8088
▁forgot	-11.8088
▁multinational	-11.8088
▁Separate	-11.8088
▁lifestyle	-11.8089
▁Titan	-11.8089
▁leaf	-11.8089
▁Holder	-11.8089
▁copyright	-11.8089
▁Brent	-11.8089
▁Adel	-11.8089
▁edit	-11.8089
▁landfall	-11.8089
▁composite	-11.8089
▁embark	-11.809
▁mismanage	-11.809
▁Jerem	-11.809
▁JP	-11.809
▁centimeter	-11.809
▁Francois	-11.8091
▁extraditi	-11.8091
▁commerc	-11.8091
▁predator	-11.8091
▁Todd	-11.8092
▁sadden	-11.8093
▁considerably	-11.8093
▁torrent	-11.8093
▁ancestor	-11.8094
▁Cruz	-11.8094
▁picket	-11.8095
▁Lyon	-11.8095
▁tenor	-11.8096
▁Online	-11.8097
▁complication	-11.8097
▁lobbyist	-11.8098
▁partisan	-11.8099
▁bypass	-11.8099
▁Tuck	-11.8099
▁Nike	-11.8099
▁Mill	-11.8099
jeon	-11.81
▁hardship	-11.81
▁decorat	-11.81
▁Jang	-11.81
▁Lynn	-11.81
TLAN	-11.81
▁referee	-11.8101
▁backward	-11.8103
EGO	-11.8103
▁Point	-11.8104
luster	-11.8105
bi	-11.8106
▁Abdel	-11.8108
▁Rak	-11.8109
rat	-11.8109
▁gram	-11.811
▁Country	-11.811
▁Inde	-11.8111
▁Wei	-11.8111
▁staple	-11.8111
▁craz	-11.8113
AIRO	-11.8114
▁ER	-11.8115
▁sicken	-11.8116
▁ke	-11.8118
▁sway	-11.8118
enos	-11.8119
▁transmitt	-11.8119
▁Juli	-11.812
▁liqu	-11.8122
▁detector	-11.8124
▁IT	-11.8126
lam	-11.8127
▁Word	-11.8129
ku	-11.813
▁Writer	-11.8131
▁cris	-11.8134
stam	-11.8134
▁extradit	-11.8137
▁Shell	-11.8139
▁wa	-11.814
▁Duk	-11.8147
▁Kiev	-11.815
ache	-11.815
▁prop	-11.815
▁capitalist	-11.8153
descent	-11.8153
eb	-11.8155
tries	-11.8158
pate	-11.816
immer	-11.8167
▁Floren	-11.8168
ically	-11.8171
rry	-11.8173
uarte	-11.8177
▁Observat	-11.8179
▁penguins	-11.818
▁affiliat	-11.8182
lroo	-11.8189
▁Timo	-11.8198
▁bout	-11.8207
▁Riot	-11.8207
▁infringe	-11.8209
amburg	-11.821
▁jin	-11.8211
mates	-11.8216
▁Munic	-11.8221
▁disclos	-11.8226
▁Kean	-11.8226
SC	-11.8233
▁campaigner	-11.8235
▁accelerat	-11.8239
▁bruis	-11.824
▁Klo	-11.8262
▁Schol	-11.827
▁trainer	-11.8272
▁amuse	-11.8274
▁Lucian	-11.8274
▁conventional	-11.8278
acks	-11.8281
adic	-11.8282
▁candle	-11.8285
ommunity	-11.8285
▁Pin	-11.8287
▁infections	-11.8287
▁opera	-11.8293
▁Ran	-11.8306
eong	-11.8311
aka	-11.8312
▁Stal	-11.8318
▁Spring	-11.8319
▁scholar	-11.8323
▁Mother	-11.8332
▁wag	-11.8334
▁Fe	-11.8352
ig	-11.8353
abel	-11.8355
▁Mile	-11.8359
▁regulate	-11.8362
▁pen	-11.8366
lese	-11.8375
lena	-11.8382
▁undermin	-11.8384
▁ASE	-11.8384
▁reinstate	-11.8384
▁Shre	-11.8387
▁outage	-11.8388
hwa	-11.8391
▁justifi	-11.8405
▁Pick	-11.8406
▁Forb	-11.8408
uso	-11.841
ambia	-11.8413
▁sampl	-11.8419
▁tick	-11.8419
▁Nichols	-11.8419
▁folk	-11.8422
▁persuad	-11.8429
▁Sales	-11.843
▁ha	-11.8431
atic	-11.8433
▁Book	-11.8439
mont	-11.8442
▁relieve	-11.8443
▁Alk	-11.8445
jani	-11.8446
▁carve	-11.8453
works	-11.8461
iko	-11.8466
ATH	-11.8469
▁Lab	-11.847
▁dose	-11.8471
▁thoughts	-11.8473
rous	-11.8478
istic	-11.848
tial	-11.848
athan	-11.8491
▁Gh	-11.8493
▁starv	-11.8495
▁underscore	-11.8505
▁Ful	-11.8511
▁fe	-11.8516
▁Chae	-11.8518
AO	-11.8524
zone	-11.8526
eem	-11.8527
▁adj	-11.8528
wick	-11.853
▁arsenal	-11.854
▁slope	-11.8544
▁guil	-11.8548
▁Ivan	-11.8549
grade	-11.8549
▁invad	-11.8564
▁Ok	-11.8566
uck	-11.8567
ode	-11.8568
ummit	-11.857
▁Mwa	-11.8573
state	-11.8588
▁pric	-11.8589
▁sensation	-11.8592
▁Ci	-11.8596
scale	-11.8602
▁initiat	-11.8605
▁rap	-11.861
map	-11.8613
▁formula	-11.8614
dium	-11.8619
▁scal	-11.8622
▁comb	-11.8623
▁concede	-11.8623
▁hom	-11.8628
▁hills	-11.8635
uran	-11.8641
vi	-11.8644
▁Eva	-11.8647
▁op	-11.8655
nnie	-11.8659
▁MAD	-11.866
▁Lead	-11.8664
hui	-11.8665
▁Feli	-11.8665
CS	-11.8666
▁Morocc	-11.8666
▁distort	-11.8671
▁blank	-11.8675
▁Crawford	-11.8675
▁Jupiter	-11.8675
▁Mbeki	-11.8675
▁archipelag	-11.8675
▁integrity	-11.8675
▁pedestrian	-11.8675
▁reconsider	-11.8675
▁skyscraper	-11.8675
▁McLa	-11.8675
▁renown	-11.8675
▁tariff	-11.8675
▁Address	-11.8675
▁Respond	-11.8675
▁delicate	-11.8675
▁falter	-11.8675
▁improper	-11.8675
hapter	-11.8675
▁noodle	-11.8675
▁dormitor	-11.8675
▁definitive	-11.8675
▁Fellow	-11.8675
▁gloom	-11.8675
▁rhythm	-11.8675
▁Dmitr	-11.8675
▁Building	-11.8675
▁dissatisf	-11.8675
onga	-11.8675
▁Filipino	-11.8675
▁Fritz	-11.8675
▁foreclosure	-11.8675
▁stint	-11.8675
▁Hutchins	-11.8676
▁jacket	-11.8676
amilton	-11.8676
▁safeguard	-11.8676
▁Davyd	-11.8676
▁slaying	-11.8676
▁monster	-11.8676
▁feud	-11.8676
▁external	-11.8676
▁luna	-11.8676
▁Limit	-11.8676
▁Armenian	-11.8676
▁Team	-11.8676
▁forensic	-11.8676
▁furni	-11.8676
▁consulate	-11.8676
▁merchant	-11.8676
▁Salah	-11.8677
▁wander	-11.8677
dorf	-11.8677
▁persist	-11.8677
▁disband	-11.8677
▁collaboration	-11.8677
▁Investor	-11.8677
▁forthcoming	-11.8677
▁Alvar	-11.8678
▁carriage	-11.8678
▁Store	-11.8678
▁rehab	-11.8678
▁Mandel	-11.8678
▁absorb	-11.8679
▁archive	-11.8679
▁ditch	-11.8679
▁feat	-11.8679
▁vary	-11.8679
▁quest	-11.868
DU	-11.868
▁outrageous	-11.868
▁Kaka	-11.868
▁Tension	-11.8682
▁workplace	-11.8682
ateur	-11.8683
olen	-11.8683
▁festiv	-11.8684
▁Studio	-11.8685
▁VE	-11.8685
▁snatch	-11.8685
▁Observer	-11.8686
▁devil	-11.8686
▁gripp	-11.8687
▁installment	-11.8687
▁caffein	-11.8687
▁dragon	-11.8687
▁therapist	-11.8687
▁newborn	-11.8688
▁Luft	-11.8689
pin	-11.8689
▁Roland	-11.869
▁cake	-11.8691
▁exo	-11.8692
ea	-11.8692
RNA	-11.8694
bari	-11.8694
▁defiant	-11.8694
Capri	-11.8696
▁courthouse	-11.8697
berra	-11.8697
acent	-11.8698
▁console	-11.8699
mble	-11.8699
▁transformation	-11.8699
▁Slam	-11.87
▁woke	-11.8701
▁seasonal	-11.8702
▁vanish	-11.8703
▁gallery	-11.8706
▁Emm	-11.8706
▁assembl	-11.8707
▁drift	-11.8707
▁Guy	-11.8708
▁passionate	-11.8712
▁spectators	-11.8712
▁Alma	-11.8713
▁AL	-11.8713
▁Toshi	-11.8715
▁Grant	-11.8721
▁UNE	-11.8729
arter	-11.8729
▁bury	-11.8729
▁Prest	-11.8731
eta	-11.8733
▁blackout	-11.8739
ference	-11.8739
▁Ruth	-11.8743
▁Pedr	-11.8744
▁perch	-11.8745
▁snap	-11.875
▁stair	-11.8751
stitution	-11.8755
sud	-11.8756
▁robe	-11.8756
▁Suz	-11.876
▁examiner	-11.8764
▁execute	-11.8767
▁Liberia	-11.8768
▁entit	-11.877
▁analyze	-11.8771
▁Mesh	-11.8771
▁le	-11.8777
▁Valen	-11.8779
▁plagu	-11.8781
kat	-11.8781
▁Vin	-11.8781
▁arise	-11.8782
▁Tra	-11.8783
▁Soccer	-11.8784
zer	-11.8793
illionaire	-11.8795
▁chok	-11.8799
▁Gala	-11.8801
tte	-11.8808
▁lin	-11.8809
▁capp	-11.8812
▁Rang	-11.8818
▁Masa	-11.8819
sterda	-11.8821
▁Cle	-11.8824
nze	-11.8824
▁Mario	-11.8824
▁Libert	-11.8825
▁bio	-11.8825
vinen	-11.8834
dominant	-11.8837
▁desir	-11.8837
NSO	-11.8853
▁Khala	-11.8855
▁vaccines	-11.8867
▁serial	-11.8867
chen	-11.8868
▁retract	-11.8868
▁Sale	-11.8877
▁pancreati	-11.888
▁lunche	-11.8886
▁emotions	-11.8886
ylan	-11.8886
▁relocate	-11.8888
▁mates	-11.889
▁spat	-11.889
▁lawn	-11.8892
▁bay	-11.8898
▁precedent	-11.8899
ks	-11.89
ption	-11.8903
▁renounce	-11.8908
▁Anba	-11.891
▁na	-11.8911
▁prey	-11.8916
▁Product	-11.8919
▁arch	-11.8948
▁credibl	-11.895
▁Serie	-11.8954
▁Holm	-11.8956
▁Gal	-11.8958
▁recommends	-11.896
ert	-11.8964
anga	-11.8965
▁Mine	-11.8966
U	-11.8966
▁DP	-11.8974
▁lighter	-11.898
▁Inside	-11.8985
▁aut	-11.8989
oc	-11.899
imo	-11.8992
▁wise	-11.8996
▁Ward	-11.8997
▁skill	-11.9014
▁Tran	-11.9021
▁Tan	-11.9022
vine	-11.9024
▁Kas	-11.9032
▁Maure	-11.9044
▁Prod	-11.9045
eba	-11.905
▁interfere	-11.9052
▁commun	-11.9063
▁donation	-11.9064
lis	-11.9075
▁SAN	-11.9076
▁emphasize	-11.9076
ky	-11.9078
▁Joy	-11.9087
ON	-11.9089
▁facilitate	-11.91
II	-11.9101
▁Trac	-11.9108
▁accessor	-11.9116
glasses	-11.9122
▁Secret	-11.9124
▁Madi	-11.9127
▁pad	-11.9129
inj	-11.913
▁lett	-11.9131
▁koo	-11.9131
▁revenues	-11.9137
▁Im	-11.9138
▁va	-11.9146
▁frighten	-11.9154
▁Administrati	-11.9157
llen	-11.916
▁RC	-11.916
battle	-11.917
hem	-11.9172
ched	-11.9173
uart	-11.9177
ake	-11.9177
▁Ice	-11.9178
▁influen	-11.9188
ai	-11.919
wi	-11.9196
▁brac	-11.92
▁blackmail	-11.921
▁stabiliz	-11.9212
odor	-11.9219
redit	-11.9221
constitutional	-11.9223
beat	-11.9223
▁default	-11.9223
continent	-11.9223
▁jo	-11.9227
umi	-11.9227
stair	-11.923
zio	-11.9233
▁Body	-11.9238
phis	-11.9247
deal	-11.925
▁Lig	-11.9265
▁Data	-11.9266
eafood	-11.9274
atiri	-11.9277
▁fundrais	-11.9279
rwin	-11.928
▁franc	-11.9281
▁Ris	-11.9281
due	-11.9289
▁manufacture	-11.929
▁cord	-11.929
▁loya	-11.9292
ulous	-11.9294
▁span	-11.9296
▁conspir	-11.93
rchestra	-11.93
AKAR	-11.93
▁Azerbaijan	-11.93
▁Confederation	-11.93
▁Disaster	-11.93
▁Siberia	-11.93
▁abnormal	-11.93
▁centrifuge	-11.93
▁compatriot	-11.93
▁defensive	-11.93
▁diarrhea	-11.93
▁explicit	-11.93
▁nutrient	-11.93
▁paramilitar	-11.93
▁sacred	-11.93
▁sculpture	-11.93
▁standstill	-11.93
▁submarine	-11.93
▁surname	-11.93
▁technological	-11.93
▁temblor	-11.93
▁whistle	-11.93
uebec	-11.93
▁clown	-11.93
▁exaggerat	-11.93
▁Sultan	-11.93
▁overheat	-11.93
▁resurgen	-11.93
▁Treat	-11.93
▁inherit	-11.93
▁Source	-11.93
▁beverage	-11.93
▁humpback	-11.93
▁justify	-11.93
▁Physic	-11.93
▁overshadow	-11.93
▁arthr	-11.93
▁Enron	-11.93
▁orientation	-11.93
▁provocation	-11.93
▁BANG	-11.9301
▁overdose	-11.9301
▁skeleton	-11.9301
▁Investigation	-11.9301
▁rooftop	-11.9301
▁meteorologist	-11.9301
▁saint	-11.9301
▁stump	-11.9301
▁brink	-11.9301
▁leverage	-11.9301
▁description	-11.9301
▁cricket	-11.9301
▁rebuke	-11.9301
▁annul	-11.9301
▁heavyweight	-11.9301
lene	-11.9301
▁Darling	-11.9301
▁Hanaro	-11.9301
▁meltdown	-11.9301
▁feather	-11.9301
▁Halloween	-11.9301
▁Duja	-11.9301
▁garner	-11.9301
▁Chuck	-11.9301
▁Conner	-11.9302
▁Lafa	-11.9302
▁advertisement	-11.9302
▁Robinson	-11.9302
▁Globo	-11.9302
▁translation	-11.9302
▁litter	-11.9302
▁courageous	-11.9302
▁Number	-11.9302
▁notify	-11.9302
▁inflammat	-11.9303
▁showcase	-11.9303
▁disturbance	-11.9303
▁censor	-11.9303
shmi	-11.9303
▁collud	-11.9304
▁piano	-11.9304
YD	-11.9304
▁floodwater	-11.9304
▁Scientolog	-11.9304
▁shortfall	-11.9305
▁Duck	-11.9307
▁genom	-11.9307
▁stern	-11.9307
▁horribl	-11.9308
▁baton	-11.9308
▁breakdown	-11.9308
ext	-11.9308
▁deterrent	-11.9308
▁simulate	-11.9309
▁Yoko	-11.9309
▁Gerald	-11.931
▁Moroccan	-11.931
▁Millen	-11.931
▁distributor	-11.931
▁checkup	-11.9311
nnan	-11.9311
▁Lower	-11.9313
▁Abram	-11.9314
uver	-11.9314
▁Spur	-11.9315
▁Nile	-11.9315
▁rust	-11.9316
▁Gome	-11.9316
▁slapp	-11.9316
▁compensate	-11.9316
▁dismissal	-11.9317
▁Kirk	-11.9317
▁Journalist	-11.9319
▁translate	-11.9319
▁Yemeni	-11.932
▁IU	-11.932
▁Pal	-11.9321
▁anymore	-11.9322
look	-11.9322
▁magnetic	-11.9324
▁alcoholic	-11.9324
▁intentional	-11.9325
▁scorch	-11.9326
▁portrayal	-11.9326
▁Max	-11.9329
▁Algerian	-11.9331
▁progressive	-11.9331
▁Oz	-11.9333
musse	-11.9334
▁Independent	-11.9334
▁Valentin	-11.9334
sibility	-11.9335
▁Soldiers	-11.9336
▁mobiliz	-11.9337
▁log	-11.9338
▁Patt	-11.9339
▁popul	-11.9341
nda	-11.9342
▁confus	-11.9343
▁stranger	-11.9345
▁Come	-11.935
▁Ghan	-11.935
anana	-11.935
bei	-11.9351
▁lag	-11.9351
▁wishes	-11.9357
utt	-11.9361
▁Gard	-11.9362
▁motivation	-11.9368
▁facto	-11.9368
▁mega	-11.9369
▁Schu	-11.937
eng	-11.937
▁galaxy	-11.9375
▁web	-11.9376
drop	-11.9377
▁walkout	-11.9378
▁Bund	-11.9378
▁roller	-11.9381
▁felon	-11.9382
▁depressed	-11.9383
▁Valeri	-11.9385
atero	-11.9388
▁manual	-11.939
▁boycotted	-11.9395
ircuit	-11.9396
rose	-11.9408
▁Jen	-11.9409
▁authorize	-11.9411
▁particles	-11.9414
▁butter	-11.9414
fia	-11.9416
▁Pack	-11.9417
liberation	-11.9417
▁sens	-11.9418
ivic	-11.9424
▁Bot	-11.9427
▁Stil	-11.9428
▁statistical	-11.9431
▁cred	-11.9432
▁exceptional	-11.9435
▁topple	-11.9435
▁allerg	-11.9447
▁Sai	-11.9452
inal	-11.946
▁mel	-11.9463
toya	-11.9477
▁independents	-11.9482
▁Jur	-11.9487
▁sword	-11.9489
▁Crist	-11.9491
▁cancell	-11.9494
ilo	-11.9495
▁lonel	-11.9497
▁leaning	-11.9497
riel	-11.9498
▁KG	-11.9499
▁Dav	-11.95
era	-11.9502
▁Yass	-11.9503
evel	-11.9504
▁Emil	-11.9507
▁crumbl	-11.9509
▁enabl	-11.9509
▁sabotage	-11.9515
elli	-11.9521
ome	-11.9524
▁skipp	-11.9533
dding	-11.9538
▁bash	-11.9546
▁Fish	-11.9552
ambo	-11.9559
▁smuggle	-11.9561
tz	-11.9572
▁Iranians	-11.9578
▁Naga	-11.9587
LE	-11.9588
gm	-11.959
rimp	-11.959
▁beside	-11.959
▁Jav	-11.9593
▁soak	-11.9595
▁disc	-11.9601
▁hood	-11.9603
▁sang	-11.9605
EN	-11.9605
▁listing	-11.9611
▁Banda	-11.9611
▁confusi	-11.9613
ron	-11.9614
▁aero	-11.9615
king	-11.9616
nier	-11.962
▁relation	-11.9626
errill	-11.9629
ruz	-11.9638
▁sue	-11.9639
▁ba	-11.9642
▁outlet	-11.9643
ears	-11.9646
▁Kan	-11.9647
rena	-11.9648
▁plain	-11.9649
nom	-11.965
▁Sull	-11.9651
▁corps	-11.9653
fraction	-11.9659
▁imp	-11.966
afford	-11.9669
vin	-11.967
mpire	-11.9672
▁Elev	-11.9675
▁Sport	-11.9677
▁Add	-11.9678
▁mat	-11.9682
▁Hend	-11.969
LM	-11.9696
bro	-11.9696
RI	-11.9697
▁reassure	-11.9698
ncer	-11.9702
▁Russe	-11.9705
eth	-11.9705
▁ma	-11.971
ven	-11.9717
▁receiver	-11.9718
▁credi	-11.9719
▁Had	-11.9719
▁lashe	-11.9737
▁Bernie	-11.9742
asco	-11.9746
ulu	-11.9758
bye	-11.9762
▁comet	-11.9762
ato	-11.9764
MI	-11.9767
eur	-11.9773
▁Burn	-11.9781
▁lovers	-11.9781
▁Vari	-11.9785
take	-11.9786
WF	-11.9791
reze	-11.9792
ssi	-11.9794
bin	-11.9799
▁futures	-11.9803
ggy	-11.9803
▁Warn	-11.9804
sour	-11.9805
▁stabb	-11.9826
eparation	-11.9826
▁wipe	-11.9826
▁shower	-11.983
▁ruins	-11.9839
▁exhaust	-11.9841
▁inevitabl	-11.9847
▁dissolv	-11.9854
▁Key	-11.9857
thy	-11.9859
low	-11.9862
kind	-11.9864
IM	-11.9874
▁revers	-11.9876
▁Mah	-11.9889
secretary	-11.989
Ang	-11.9892
oh	-11.9893
▁isolate	-11.99
▁desp	-11.9903
itude	-11.9905
▁Care	-11.9911
▁cultivat	-11.9913
▁Cut	-11.992
▁Hawkin	-11.9927
▁skip	-11.9931
life	-11.9935
▁jun	-11.9935
kawa	-11.9936
▁Clemen	-11.994
▁porn	-11.9943
▁Bulgaria	-11.9943
asso	-11.9951
▁Rush	-11.9955
iquit	-11.9955
▁teach	-11.9957
▁villa	-11.9958
▁Fuji	-11.996
▁rage	-11.9961
▁spawn	-11.9962
▁comput	-11.9963
▁orphan	-11.9965
lihood	-11.9966
pportunit	-11.9967
▁Barclay	-11.9967
▁Charlotte	-11.9967
▁Lawrence	-11.9967
▁Marathon	-11.9967
▁Paraguay	-11.9967
▁Sanchez	-11.9967
▁accumulate	-11.9967
▁affidavit	-11.9967
▁disapprov	-11.9967
▁fragment	-11.9967
▁librar	-11.9967
▁malfunction	-11.9967
▁mogul	-11.9967
▁nephew	-11.9967
▁precondition	-11.9967
▁unleash	-11.9967
▁unnecessar	-11.9967
▁vomit	-11.9967
▁Diplomat	-11.9967
▁Sleep	-11.9967
▁rejoin	-11.9967
▁unearth	-11.9967
▁vendor	-11.9967
▁Delegate	-11.9967
▁bystander	-11.9967
▁monaster	-11.9967
▁pneum	-11.9967
▁thumb	-11.9967
▁reshuffl	-11.9967
▁Happy	-11.9967
▁minimiz	-11.9967
UMP	-11.9967
▁Vinci	-11.9967
▁elegan	-11.9967
▁Sherpa	-11.9967
▁estrange	-11.9967
▁excellent	-11.9967
▁minimal	-11.9967
▁enlist	-11.9967
▁stroll	-11.9967
▁Advance	-11.9967
▁roadblock	-11.9967
▁coffin	-11.9967
▁Braun	-11.9968
▁textile	-11.9968
▁memo	-11.9968
▁blacklist	-11.9968
▁memoir	-11.9968
▁Casp	-11.9968
▁email	-11.9968
▁jaw	-11.9968
▁spacewalk	-11.9968
▁miracle	-11.9968
▁foul	-11.9968
▁Meyer	-11.9968
▁Tribun	-11.9968
▁clamp	-11.9968
▁redeployment	-11.9968
▁Teacher	-11.9968
▁commentator	-11.9968
▁peel	-11.9969
▁sting	-11.9969
▁orphanage	-11.9969
▁Large	-11.9969
▁spotlight	-11.9969
▁Keep	-11.9969
▁Roos	-11.997
▁Benoi	-11.997
▁martial	-11.997
▁swamp	-11.997
▁Bennett	-11.997
▁Petrole	-11.9971
▁retaliat	-11.9971
▁valuable	-11.9971
▁cramp	-11.9971
▁hinder	-11.9971
▁pilgrimage	-11.9971
▁flavor	-11.9972
▁Trail	-11.9972
▁Luther	-11.9973
▁prescrib	-11.9973
▁Dress	-11.9973
▁chopper	-11.9974
▁Askari	-11.9975
▁hideout	-11.9978
▁Llo	-11.9978
▁jogg	-11.9979
▁lenient	-11.9982
▁conservationist	-11.9982
▁Estra	-11.9983
etti	-11.9984
▁Barney	-11.9986
▁farmland	-11.9987
▁Save	-11.9988
bvious	-11.9988
▁Shank	-11.9989
▁Hugh	-11.999
ction	-11.9991
▁homeowner	-11.9992
▁publicize	-11.9992
crates	-11.9992
▁AS	-11.9993
▁Pais	-11.9994
▁boot	-11.9995
▁Hag	-11.9995
▁denounce	-11.9995
sef	-11.9997
▁stray	-12
▁Ash	-12.0001
▁Lump	-12.0001
dysse	-12.0001
▁swarm	-12.0002
▁pleasure	-12.0003
irming	-12.0005
▁swam	-12.0007
epp	-12.0011
▁Cox	-12.0012
▁harmon	-12.0015
ngue	-12.0016
▁Want	-12.0018
▁Nim	-12.002
▁reminder	-12.0022
gate	-12.0022
▁quantit	-12.0027
if	-12.0028
▁Wong	-12.0028
roll	-12.0028
▁Statistic	-12.0029
▁Doming	-12.0029
▁refiner	-12.0029
waken	-12.0031
▁Guards	-12.0032
▁bare	-12.0034
▁bureaucrat	-12.0042
▁Shand	-12.0044
▁Sula	-12.0051
▁reel	-12.0053
▁freezer	-12.0054
▁Hungar	-12.0055
▁interviewer	-12.0061
▁impressed	-12.0064
▁Nabi	-12.0064
▁Lum	-12.0067
▁juror	-12.0068
▁SA	-12.0069
▁dignitar	-12.0075
agh	-12.0081
▁emergenc	-12.0083
▁fledg	-12.0085
▁Johans	-12.0085
▁Maru	-12.0088
▁stirring	-12.009
▁dece	-12.0093
▁hacker	-12.0096
▁invade	-12.0097
▁gum	-12.0103
eau	-12.0108
▁Cate	-12.0113
hor	-12.0114
TC	-12.0124
yclone	-12.0125
▁Fey	-12.0127
▁hijacker	-12.0134
▁Beth	-12.0136
▁nett	-12.0142
▁rout	-12.0144
related	-12.0148
▁optim	-12.0148
▁Ti	-12.0152
▁disciplin	-12.0152
▁superior	-12.0154
stra	-12.0163
▁Button	-12.0165
▁Moss	-12.017
▁congratulate	-12.018
ali	-12.0188
issa	-12.019
▁cont	-12.0194
tious	-12.0198
▁Mag	-12.0206
▁quota	-12.0207
▁accommodate	-12.0208
▁Hai	-12.0216
▁dra	-12.0226
▁lip	-12.0227
▁unite	-12.023
▁ridd	-12.0231
ec	-12.0235
▁bore	-12.0236
▁Sara	-12.0241
▁communicat	-12.0254
▁Stop	-12.0256
▁Mek	-12.0259
▁Mega	-12.0264
▁Naj	-12.0273
tun	-12.0274
▁Rey	-12.0277
▁stimulate	-12.0282
ussi	-12.0284
▁Kyong	-12.0289
▁Barks	-12.0291
wes	-12.0295
▁finaliz	-12.0298
▁Yar	-12.0306
itu	-12.031
ram	-12.0319
▁Polit	-12.0322
▁identifi	-12.0323
▁Wie	-12.0323
▁Kha	-12.0329
▁Bayer	-12.0331
▁Electronic	-12.0332
▁plains	-12.0332
gg	-12.0332
▁resource	-12.0335
▁Marco	-12.0339
▁crossings	-12.0343
▁identi	-12.0346
▁dome	-12.0349
▁Pu	-12.0359
▁dependenc	-12.0367
matic	-12.0371
▁horrif	-12.0373
▁Lib	-12.0382
▁provoke	-12.0386
ci	-12.0386
ational	-12.0388
aidi	-12.0388
▁Rocky	-12.0403
onso	-12.0404
▁Toy	-12.0406
▁recogniz	-12.0407
gue	-12.0411
abo	-12.0419
▁Hur	-12.0427
▁sung	-12.0429
▁beard	-12.043
▁clutch	-12.0434
ru	-12.0437
ety	-12.0441
▁allocat	-12.0444
▁reliabl	-12.0444
▁Beng	-12.0448
eval	-12.045
▁Nest	-12.0452
▁laborer	-12.0454
ria	-12.0454
▁arts	-12.0456
▁pe	-12.0459
▁Ren	-12.0459
migration	-12.0466
mate	-12.0473
▁associates	-12.0478
▁Yama	-12.0479
▁cr	-12.0486
onic	-12.0487
▁trapp	-12.0488
▁prosecut	-12.0489
ego	-12.0492
▁reviews	-12.0504
▁confiscat	-12.0507
▁Bain	-12.0509
voi	-12.0512
▁Cycl	-12.0513
nian	-12.0521
▁Brand	-12.0523
▁Mak	-12.0526
▁Gill	-12.0531
we	-12.054
ith	-12.0549
▁exercis	-12.0552
▁defuse	-12.0555
▁Cos	-12.0559
▁compris	-12.0571
▁woode	-12.0571
▁vacan	-12.0577
reau	-12.0581
▁admir	-12.0582
▁deserves	-12.0584
▁graves	-12.059
▁Iron	-12.0592
▁proportion	-12.0596
▁bless	-12.06
Morgan	-12.0603
frame	-12.0604
model	-12.0604
morning	-12.0604
▁exchang	-12.0606
▁Heath	-12.0611
▁Score	-12.0612
▁Pul	-12.0612
ych	-12.0613
▁buck	-12.0614
▁killers	-12.0615
stability	-12.062
▁Mall	-12.0622
▁Br	-12.0623
RC	-12.0627
together	-12.0628
▁continuous	-12.0633
▁deter	-12.0642
roads	-12.0645
▁extinguish	-12.0647
▁Opera	-12.0648
has	-12.0651
▁reluctan	-12.0654
▁See	-12.0654
guet	-12.0657
▁dip	-12.0663
▁Machi	-12.0664
nica	-12.0664
ip	-12.0667
agen	-12.0669
▁laund	-12.0669
gne	-12.0674
▁tackl	-12.0675
▁corrupt	-12.0677
▁evacu	-12.0678
▁incit	-12.0678
▁mineral	-12.0678
▁Abdulla	-12.0679
heim	-12.0679
▁Gig	-12.068
uclear	-12.0681
▁Baptist	-12.0681
▁volley	-12.0681
▁Blanchett	-12.0681
▁Estimate	-12.0681
▁Insurgent	-12.0681
▁Lithuania	-12.0681
▁Ritchie	-12.0681
▁Salvador	-12.0681
▁Satellite	-12.0681
▁Similar	-12.0681
▁acclaim	-12.0681
▁clarify	-12.0681
▁convenience	-12.0681
▁curtain	-12.0681
▁dynamic	-12.0681
▁evident	-12.0681
▁gondola	-12.0681
▁indirect	-12.0681
▁jurisdiction	-12.0681
▁motorbike	-12.0681
▁specify	-12.0681
▁Dupre	-12.0681
▁Strong	-12.0681
▁appreciati	-12.0681
▁Gabriel	-12.0681
▁superstar	-12.0681
▁Eduard	-12.0681
▁fascinat	-12.0681
▁erotic	-12.0681
▁Casino	-12.0681
▁Gilbert	-12.0681
▁Emmanuel	-12.0681
▁corridor	-12.0681
▁Muhammad	-12.0681
▁roam	-12.0681
misunderstanding	-12.0681
▁grocer	-12.0681
▁tread	-12.0681
▁envision	-12.0681
▁Mubar	-12.0681
▁clause	-12.0681
▁Archaeologi	-12.0682
▁Seinfeld	-12.0682
▁Freud	-12.0682
▁blade	-12.0682
▁cyberspace	-12.0682
▁AN	-12.0682
▁expulsion	-12.0682
▁crane	-12.0682
▁aisle	-12.0682
▁ceasefire	-12.0682
▁curious	-12.0682
▁trench	-12.0683
▁Kati	-12.0683
▁malign	-12.0683
▁preference	-12.0683
▁cathedral	-12.0683
▁Studi	-12.0683
▁Ameli	-12.0683
▁Archive	-12.0683
▁exert	-12.0683
▁annoy	-12.0683
▁imagination	-12.0683
▁Trump	-12.0683
▁gangster	-12.0684
▁Steelers	-12.0684
▁verbal	-12.0684
▁shunn	-12.0684
▁Derby	-12.0685
▁pupp	-12.0685
▁phrase	-12.0685
SS	-12.0685
▁invention	-12.0685
▁Nasir	-12.0686
▁ideological	-12.0686
▁molest	-12.0686
▁Everton	-12.0686
▁whipp	-12.0687
▁racist	-12.0687
▁knight	-12.0687
▁systematic	-12.0687
▁foment	-12.0687
▁perpetrator	-12.0688
▁delta	-12.0688
▁Militant	-12.0688
▁normalization	-12.0688
▁patch	-12.0689
▁contemporar	-12.0689
▁reunion	-12.0689
metric	-12.0689
▁Battle	-12.069
▁cream	-12.0691
▁thigh	-12.0691
▁Gator	-12.0691
▁interpretation	-12.0691
▁Willi	-12.0692
▁canoe	-12.0693
▁doom	-12.0693
▁multimillion	-12.0693
aewoo	-12.0694
▁Code	-12.0694
▁authoritarian	-12.0694
▁Urban	-12.0697
▁mock	-12.0697
▁refineries	-12.0697
bola	-12.0697
▁boil	-12.0697
▁emitt	-12.0698
ehr	-12.0699
▁shootout	-12.07
▁skidd	-12.07
▁interrogat	-12.0701
▁embezzl	-12.0702
▁Ranch	-12.0702
▁dipped	-12.0702
▁disk	-12.0702
▁tenth	-12.0705
▁deplor	-12.0706
▁Stam	-12.0711
▁una	-12.0711
▁Fisheries	-12.0711
▁tile	-12.0713
▁Jamaican	-12.0714
▁wrestl	-12.0714
ieu	-12.0716
▁Again	-12.0716
▁rental	-12.0716
▁Alme	-12.0719
▁combatant	-12.0719
erber	-12.0719
rov	-12.0719
post	-12.0725
▁Harle	-12.0727
▁Voi	-12.0728
▁Things	-12.0728
▁fend	-12.073
▁Silver	-12.0732
▁Protect	-12.0737
▁Soy	-12.0738
▁plantation	-12.0739
▁squeeze	-12.0739
▁succession	-12.0742
▁lawless	-12.0744
▁Lamp	-12.0744
▁raft	-12.0745
▁Commander	-12.0748
nants	-12.0748
▁Youth	-12.0748
▁decent	-12.0749
▁Vera	-12.0756
▁Cars	-12.0761
▁reinforce	-12.0762
▁Samp	-12.0763
▁Colomb	-12.0766
bane	-12.0769
ehan	-12.0772
▁Duca	-12.0774
▁packs	-12.0775
▁Shrin	-12.0778
▁meteor	-12.078
▁bend	-12.078
elegraph	-12.078
emptive	-12.0784
▁angle	-12.0786
▁Ros	-12.0786
nne	-12.0787
igat	-12.0789
geant	-12.0793
▁User	-12.0795
▁mediate	-12.0799
atus	-12.08
▁fuse	-12.0803
▁Mai	-12.0803
▁enthusiastic	-12.0808
▁finalists	-12.0811
TP	-12.0812
▁Des	-12.082
▁Stevens	-12.0823
▁Bark	-12.0824
▁Spect	-12.083
▁Tyl	-12.0831
▁dancer	-12.0832
ually	-12.0833
aries	-12.0836
doch	-12.0838
▁Finn	-12.0845
▁Philipp	-12.0847
safe	-12.0852
▁Wor	-12.0852
▁Jessi	-12.0858
▁Shau	-12.086
▁neo	-12.0862
bert	-12.0867
▁penn	-12.0868
WP	-12.087
▁perceiv	-12.087
▁slice	-12.0872
avi	-12.0877
▁Kill	-12.0886
▁rem	-12.089
▁Kel	-12.0891
▁Sharp	-12.0895
▁Nationalist	-12.0898
▁mono	-12.0898
▁belly	-12.0899
▁Shop	-12.0902
xis	-12.0902
▁minded	-12.0903
kin	-12.0907
MS	-12.091
▁eras	-12.0912
usk	-12.0913
thic	-12.0923
▁creditor	-12.0923
saw	-12.0924
▁Train	-12.0929
▁integrat	-12.0932
▁regrett	-12.0933
▁rec	-12.0936
▁math	-12.0941
▁kissing	-12.0944
bur	-12.0949
▁assassinate	-12.0951
tel	-12.0952
▁conceiv	-12.0952
▁slashing	-12.0955
▁Claudi	-12.0959
▁myth	-12.096
▁Dill	-12.0968
▁Regi	-12.0973
▁Try	-12.0974
▁Lou	-12.0976
▁Gin	-12.0977
ario	-12.0978
▁Darre	-12.0979
▁sour	-12.1009
rup	-12.101
unny	-12.1016
▁Sal	-12.1017
▁sci	-12.1019
▁fle	-12.1021
rubber	-12.1022
▁rep	-12.1024
nfantry	-12.1025
▁Berg	-12.1025
SBURG	-12.1026
log	-12.1027
toff	-12.1033
▁underline	-12.1035
▁Kad	-12.1038
AP	-12.1046
iv	-12.1046
qu	-12.1048
ark	-12.1067
taka	-12.1068
tia	-12.107
▁Reporter	-12.1071
jev	-12.1071
▁Kat	-12.108
print	-12.1083
▁Duran	-12.1086
▁periodic	-12.1087
▁Dia	-12.1088
▁trac	-12.1092
gone	-12.1095
ET	-12.1097
▁Dona	-12.1099
▁seas	-12.11
▁Wend	-12.11
▁audiences	-12.1103
▁lash	-12.1117
▁Cl	-12.1119
▁shout	-12.1127
▁gro	-12.1129
him	-12.1129
bas	-12.1134
▁Dor	-12.1142
▁amo	-12.1142
▁Cheng	-12.1146
live	-12.1177
▁hik	-12.119
▁Have	-12.1193
icon	-12.1201
▁disguis	-12.1208
▁Mona	-12.1209
▁offset	-12.1212
▁repatriat	-12.1213
LL	-12.1217
US	-12.1219
horn	-12.1228
▁Lal	-12.1239
inous	-12.124
▁Shar	-12.1251
▁Rap	-12.126
abi	-12.1266
load	-12.1267
▁cav	-12.1269
▁donate	-12.1271
▁Ger	-12.1276
▁Ferr	-12.128
och	-12.1285
▁Nu	-12.1286
unting	-12.1287
TT	-12.1297
▁Petro	-12.1299
▁prob	-12.1301
lender	-12.1302
▁Pont	-12.1303
▁royalt	-12.1307
▁casual	-12.1308
▁render	-12.1312
▁stat	-12.1312
▁Garc	-12.1313
▁Rama	-12.1316
▁Lui	-12.1326
▁Fl	-12.1332
▁admitt	-12.1333
egas	-12.1335
▁stirr	-12.134
awar	-12.1342
▁shall	-12.1351
▁Guns	-12.1353
akat	-12.1356
bre	-12.1359
▁boo	-12.136
▁galax	-12.1361
▁Reno	-12.1365
CN	-12.1365
▁firefight	-12.1365
▁BO	-12.1367
▁pal	-12.1375
▁readi	-12.1377
▁normaliz	-12.1379
▁mus	-12.1386
found	-12.1389
grow	-12.1393
eddin	-12.1393
▁physic	-12.1397
workers	-12.1398
around	-12.14
▁dot	-12.1401
▁agrees	-12.1402
aw	-12.1403
▁Ak	-12.1404
▁obstruct	-12.1405
▁Josh	-12.1406
▁Domini	-12.1408
nsu	-12.1408
▁Close	-12.141
▁messag	-12.1411
diac	-12.1414
ivan	-12.1415
▁logg	-12.1416
▁rib	-12.142
RAN	-12.1421
▁Beaut	-12.1441
▁emphasi	-12.1443
▁enroll	-12.1445
▁excavat	-12.1446
rivate	-12.1449
opyright	-12.1449
▁legitima	-12.1449
emilitariz	-12.145
YANG	-12.145
▁Adviser	-12.145
▁Anglican	-12.145
▁Bodlander	-12.145
▁Inspection	-12.145
▁Participa	-12.145
▁Resort	-12.145
▁Scowcroft	-12.145
▁Smurf	-12.145
▁UNITE	-12.145
▁aggregate	-12.145
▁bulb	-12.145
▁ecosystem	-12.145
▁insufficient	-12.145
▁intimate	-12.145
▁magistrate	-12.145
▁neglect	-12.145
▁overflow	-12.145
▁sanctuar	-12.145
▁upheaval	-12.145
▁wizard	-12.145
▁compell	-12.145
▁quadruple	-12.145
▁resurrect	-12.145
▁Blood	-12.145
▁Namdaemu	-12.145
▁Please	-12.145
▁Situation	-12.145
▁complicit	-12.145
▁ossuar	-12.145
▁voyage	-12.145
▁zebra	-12.145
▁frantic	-12.1451
▁Adolf	-12.1451
▁prophet	-12.1451
▁rainforest	-12.1451
▁fugitive	-12.1451
▁Sindh	-12.1451
▁Tempel	-12.1451
▁Barroso	-12.1451
▁warlord	-12.1451
▁faint	-12.1451
▁Samuel	-12.1451
▁motel	-12.1451
▁fo	-12.1451
▁identical	-12.1451
▁Delaware	-12.1451
▁merit	-12.1451
▁throng	-12.1451
▁vague	-12.1451
▁Population	-12.1451
▁Jalal	-12.1451
▁analog	-12.1451
▁sermon	-12.1451
eille	-12.1451
▁Polanski	-12.1451
▁balk	-12.1451
▁chemist	-12.1451
▁resemblance	-12.1451
▁glove	-12.1451
▁nightmare	-12.1451
▁Fresh	-12.1451
▁Meghani	-12.1451
▁surrogate	-12.1451
▁astonish	-12.1451
▁Elvi	-12.1451
▁Hajj	-12.1451
▁mixture	-12.1451
▁weird	-12.1452
▁battalion	-12.1452
▁Celtic	-12.1452
▁embroi	-12.1452
▁footprint	-12.1452
▁budd	-12.1452
▁swimmer	-12.1452
▁snowfall	-12.1452
▁Trev	-12.1453
▁jihadist	-12.1453
▁unfold	-12.1453
ussain	-12.1453
▁gown	-12.1454
▁Mirror	-12.1454
▁hillside	-12.1454
▁calculation	-12.1454
▁fetch	-12.1454
▁characteristic	-12.1455
▁thaw	-12.1455
▁psychiatrist	-12.1455
▁Grow	-12.1455
▁fabricat	-12.1455
▁Hell	-12.1455
▁enforc	-12.1455
▁Caffe	-12.1455
▁deaf	-12.1455
▁salute	-12.1455
▁canister	-12.1455
▁frenz	-12.1456
▁deliberation	-12.1456
▁twenty	-12.1456
▁feminin	-12.1456
▁Bog	-12.1456
▁flatten	-12.1456
▁enrollment	-12.1457
▁adaptation	-12.1458
▁abdomen	-12.1458
▁Vil	-12.1459
▁Maritime	-12.1459
▁dogged	-12.1459
▁resettle	-12.1459
▁modifi	-12.146
▁battlefield	-12.146
▁Ryo	-12.1461
rity	-12.1461
nova	-12.1461
ukov	-12.1462
▁assignment	-12.1462
▁renam	-12.1462
▁shotgun	-12.1463
▁downgrade	-12.1464
▁reservation	-12.1464
schle	-12.1465
▁Disneyland	-12.1466
▁Gwang	-12.1466
▁heroic	-12.1466
▁Railway	-12.1467
▁Krug	-12.1468
▁hut	-12.1471
▁bark	-12.1472
▁lament	-12.1472
▁hallway	-12.1474
▁Ober	-12.1475
▁sniff	-12.1475
▁Lars	-12.1476
▁Boni	-12.1476
▁Producer	-12.1478
▁gor	-12.1478
▁ramm	-12.1478
▁Hogan	-12.1478
▁expir	-12.148
▁collector	-12.148
▁Sometime	-12.1481
▁Camill	-12.1483
▁flies	-12.1484
▁tangib	-12.1484
▁puni	-12.1485
andel	-12.1485
▁Story	-12.1487
▁nutrition	-12.1487
ridge	-12.1487
▁Lari	-12.1488
▁Mode	-12.149
rick	-12.1491
▁Luna	-12.1492
▁urin	-12.1493
▁Fill	-12.1494
▁adventurer	-12.1496
rap	-12.1498
▁affection	-12.1499
▁jitter	-12.1499
▁fax	-12.1499
fan	-12.1499
▁Hwa	-12.15
▁realistic	-12.1501
▁Pesh	-12.1505
▁degrad	-12.1505
▁thriv	-12.1506
▁veer	-12.1506
▁couch	-12.1507
▁Study	-12.1507
▁conductor	-12.1512
▁Lynd	-12.1512
▁explorer	-12.1514
▁Mason	-12.1515
▁Carrie	-12.1517
nce	-12.1518
ushi	-12.1518
moto	-12.152
▁bite	-12.152
lept	-12.1521
▁Cheon	-12.1523
▁Carre	-12.1524
lett	-12.1525
uez	-12.1529
▁Rach	-12.1529
▁horn	-12.1533
▁IP	-12.1534
ika	-12.1536
umn	-12.1536
cin	-12.1536
EH	-12.1537
▁Planet	-12.1539
rjee	-12.1541
▁proportional	-12.1544
▁meal	-12.1546
▁Ter	-12.1547
▁rewrit	-12.1547
▁Solan	-12.1551
▁Messi	-12.1551
Spark	-12.1552
▁emb	-12.1556
talia	-12.1559
▁VIP	-12.1563
rawa	-12.1567
▁banker	-12.1569
▁Burt	-12.1569
rot	-12.157
▁tide	-12.1575
▁ounces	-12.1582
▁dissolve	-12.1583
▁blend	-12.1584
▁sanit	-12.1584
▁Alexandr	-12.1587
▁Blues	-12.1588
▁Dora	-12.1589
pat	-12.1591
tina	-12.1593
inburg	-12.1597
▁Gere	-12.1599
▁sake	-12.16
▁nominate	-12.1602
rada	-12.1629
▁Rafi	-12.1632
▁edg	-12.1638
ouf	-12.1646
nan	-12.1649
▁chin	-12.165
▁usage	-12.1652
ader	-12.1657
book	-12.1657
▁elde	-12.166
▁undern	-12.1661
errez	-12.1666
▁envelope	-12.1671
usan	-12.1671
▁reproducti	-12.1672
▁cling	-12.1678
▁Schult	-12.1679
anxi	-12.168
▁underscor	-12.168
▁shells	-12.1681
▁Hindus	-12.1682
AMI	-12.1683
illy	-12.1684
▁waterway	-12.169
CF	-12.1696
▁nest	-12.1698
▁pools	-12.1698
▁yog	-12.1699
▁calculate	-12.1705
▁cart	-12.171
▁evaluate	-12.1711
bee	-12.1714
▁incorporat	-12.1715
of	-12.1718
oom	-12.1727
col	-12.1738
var	-12.1738
▁advocat	-12.1739
▁integrate	-12.1745
▁Berl	-12.1755
▁ne	-12.1756
▁Tha	-12.176
▁Af	-12.1762
▁destruct	-12.1763
▁Bris	-12.1769
▁Taj	-12.1769
▁Event	-12.1778
▁Ica	-12.1779
▁Ein	-12.1784
▁Webb	-12.1785
alai	-12.1787
chai	-12.1789
▁Sina	-12.179
decent	-12.1792
yu	-12.1793
MAN	-12.1793
nterstate	-12.1794
AI	-12.1798
▁quo	-12.1805
▁seeds	-12.1807
▁Mirr	-12.1808
▁Dark	-12.181
eban	-12.1812
▁Works	-12.1812
ichi	-12.1817
▁smuggl	-12.182
angle	-12.1827
▁tightening	-12.183
THE	-12.1839
▁Odi	-12.1846
▁Marshal	-12.1847
▁uphold	-12.1854
▁Bron	-12.1854
trust	-12.1855
RA	-12.1858
▁Sim	-12.1858
hiko	-12.1863
▁Gamb	-12.187
▁Hop	-12.1888
▁Alp	-12.1888
▁ripple	-12.1891
▁Lai	-12.1899
▁notable	-12.1907
▁Tower	-12.1908
▁retriev	-12.191
▁Barr	-12.1912
pite	-12.1912
▁opener	-12.1914
▁Canar	-12.1921
▁Cott	-12.1922
RM	-12.1924
ddie	-12.1925
▁Oman	-12.1932
▁preced	-12.1935
enza	-12.1936
ench	-12.1939
chemical	-12.1942
▁arrangement	-12.1946
▁coaster	-12.1958
com	-12.1968
▁compuls	-12.197
▁Nativ	-12.1971
▁Prai	-12.1974
▁Schum	-12.1974
▁Tel	-12.1978
▁Prat	-12.1983
▁closet	-12.1986
▁Fra	-12.1991
▁Sto	-12.2003
▁shrug	-12.2007
▁Sher	-12.2008
▁ascend	-12.2016
SL	-12.2024
▁Eli	-12.2033
ander	-12.2037
▁Rand	-12.2049
tana	-12.205
▁Clar	-12.2058
▁discipline	-12.2059
iagra	-12.206
▁Colo	-12.2063
LP	-12.2065
harmonic	-12.2067
▁Ari	-12.2068
▁shatter	-12.207
▁relian	-12.2073
utomotive	-12.2083
lcome	-12.2083
▁Pla	-12.2084
▁hell	-12.2085
isco	-12.2088
rticle	-12.2092
▁sights	-12.2092
hurt	-12.2094
▁sup	-12.2095
allow	-12.2096
▁ung	-12.2097
▁dive	-12.2101
▁infring	-12.2101
▁Bra	-12.2109
than	-12.2111
▁RS	-12.2112
▁Stre	-12.2112
smo	-12.2117
▁coppe	-12.2128
niya	-12.2132
bol	-12.2133
tu	-12.2144
▁missionar	-12.2149
▁Lot	-12.215
▁explode	-12.2151
▁Alba	-12.2156
▁dri	-12.2157
▁Por	-12.2157
▁Fabr	-12.216
▁Luc	-12.2161
CD	-12.2162
▁heel	-12.2168
▁Village	-12.217
ator	-12.2177
▁Mei	-12.2184
used	-12.2192
gh	-12.2196
view	-12.2201
▁Sevent	-12.2203
▁builder	-12.2205
conduct	-12.2207
nutrition	-12.2207
foot	-12.2207
sleep	-12.2208
wai	-12.2208
▁Terror	-12.221
four	-12.2211
mill	-12.2212
oma	-12.2213
▁Know	-12.2215
▁albums	-12.2217
▁supreme	-12.2221
▁raz	-12.2221
phone	-12.2224
penh	-12.2225
ownship	-12.2225
shot	-12.2225
raged	-12.2226
uicide	-12.2232
ogether	-12.2243
▁freight	-12.2246
cry	-12.2254
▁Shak	-12.2255
▁Cap	-12.2255
▁Bau	-12.2256
▁KO	-12.226
▁Albania	-12.2261
rag	-12.2264
▁Wacho	-12.2267
▁bike	-12.2269
▁mechanic	-12.2273
gye	-12.2274
▁Clint	-12.2275
gon	-12.2275
▁abdom	-12.2275
▁Sil	-12.2276
▁Cald	-12.2278
▁strategi	-12.2279
avoid	-12.228
▁worship	-12.228
▁imperial	-12.2281
hej	-12.2282
UR	-12.2282
▁fog	-12.2282
pact	-12.2283
▁Palestin	-12.2283
riminal	-12.2283
▁Panmunj	-12.2284
▁Adventure	-12.2284
▁Alejandr	-12.2284
▁Caesar	-12.2284
▁Detective	-12.2284
▁Grylls	-12.2284
▁Juventu	-12.2284
▁Madagascar	-12.2284
▁Namibia	-12.2284
▁Trinidad	-12.2284
▁UNHCR	-12.2284
▁abolition	-12.2284
▁accomplice	-12.2284
▁athletic	-12.2284
▁avalanche	-12.2284
▁awkward	-12.2284
▁cantaloupe	-12.2284
▁cockpit	-12.2284
▁constituenc	-12.2284
▁deflect	-12.2284
▁discontent	-12.2284
▁disqualifi	-12.2284
▁emperor	-12.2284
▁enclave	-12.2284
▁endeavor	-12.2284
▁frequenc	-12.2284
▁futurist	-12.2284
▁memorandum	-12.2284
▁tyrann	-12.2284
▁Consider	-12.2284
▁brawl	-12.2284
▁reptile	-12.2284
▁skyrocket	-12.2284
▁Connor	-12.2284
▁comrade	-12.2284
eutic	-12.2284
ockefeller	-12.2284
▁Knox	-12.2284
▁Windsor	-12.2284
▁chimpanzee	-12.2284
▁Anchor	-12.2284
▁fertilizer	-12.2284
▁unify	-12.2284
▁wrangl	-12.2284
▁delinquent	-12.2284
▁Morici	-12.2284
▁Theatre	-12.2284
▁leopard	-12.2284
▁plaintiff	-12.2284
▁thymus	-12.2284
▁heaven	-12.2284
▁intoxicat	-12.2284
▁stalk	-12.2284
▁prevail	-12.2284
▁Ayres	-12.2284
▁patent	-12.2284
▁marble	-12.2284
▁blitz	-12.2284
▁suitcase	-12.2284
▁gym	-12.2284
▁Newspaper	-12.2284
▁qualification	-12.2284
▁Mauritania	-12.2284
▁chef	-12.2284
▁desktop	-12.2284
▁embrac	-12.2284
▁Ricard	-12.2284
▁unreasonabl	-12.2284
▁Screen	-12.2284
▁Search	-12.2284
▁Ohmy	-12.2284
▁elbow	-12.2284
▁mathematic	-12.2285
▁Pepper	-12.2285
▁rope	-12.2285
▁tarmac	-12.2285
▁forehand	-12.2285
▁Viru	-12.2285
▁inundate	-12.2285
▁stiff	-12.2285
▁rip	-12.2285
▁patern	-12.2285
▁Salam	-12.2285
▁levee	-12.2285
▁Proceed	-12.2285
▁Hopkin	-12.2285
▁lime	-12.2285
▁sequel	-12.2285
▁Cesar	-12.2285
risis	-12.2285
▁discard	-12.2285
▁cubic	-12.2285
▁resent	-12.2285
▁circuit	-12.2285
▁thieves	-12.2286
▁Slavi	-12.2286
▁Balkan	-12.2286
▁commemoration	-12.2286
steps	-12.2286
▁columnist	-12.2287
▁Boulo	-12.2287
▁workshop	-12.2287
▁gala	-12.2287
▁Blacksburg	-12.2287
▁FRAN	-12.2288
▁stack	-12.2288
▁Ground	-12.2288
▁touchdown	-12.2288
▁purse	-12.2288
▁Bradley	-12.2289
▁reuni	-12.2289
▁Chungchon	-12.229
▁Manager	-12.229
▁Citizen	-12.229
▁fabrication	-12.2291
▁Horse	-12.2291
▁sniper	-12.2291
▁iceberg	-12.2291
▁Som	-12.2292
▁Explorer	-12.2292
▁cement	-12.2292
▁Ty	-12.2292
▁Oliver	-12.2292
▁Lebo	-12.2292
▁Sheik	-12.2293
▁collaborator	-12.2293
▁Roche	-12.2293
▁Break	-12.2293
▁Model	-12.2293
▁dash	-12.2293
▁McCla	-12.2293
▁dimensional	-12.2294
▁navigat	-12.2295
▁Diwa	-12.2295
▁revoke	-12.2295
▁feline	-12.2295
▁cull	-12.2295
fest	-12.2295
▁depiction	-12.2296
▁purge	-12.2296
▁physicist	-12.2297
▁temper	-12.2297
▁Cypr	-12.2298
▁weightless	-12.2298
▁Eurosta	-12.2298
▁worm	-12.2299
▁cheese	-12.23
▁coward	-12.23
▁Hernan	-12.2301
▁compatible	-12.2302
▁reef	-12.2302
▁mountainside	-12.2302
▁thorn	-12.2302
▁matchup	-12.2302
jin	-12.2303
▁Turkmen	-12.2304
▁Sound	-12.2304
etcher	-12.2304
▁groom	-12.2305
▁lur	-12.2307
▁abductee	-12.2307
▁wrestler	-12.2309
ahn	-12.2309
▁downward	-12.2309
ollea	-12.231
▁Hal	-12.231
▁hugg	-12.231
▁usher	-12.231
▁defy	-12.2314
▁capita	-12.2315
▁relate	-12.2316
▁counselor	-12.2316
gery	-12.2317
▁claw	-12.2317
▁stark	-12.2319
▁hospitalization	-12.232
▁Asha	-12.2321
▁void	-12.2324
▁doll	-12.2325
▁Sreb	-12.2325
LD	-12.2325
▁Blu	-12.2326
▁Montrea	-12.2326
▁viewing	-12.2328
stick	-12.2329
▁flexibilit	-12.2331
▁Suva	-12.2332
▁Jeon	-12.2335
▁adolescent	-12.2335
▁unfit	-12.2336
▁Sien	-12.2336
▁rode	-12.2336
▁Homo	-12.2337
▁forgive	-12.2338
ANSA	-12.2339
▁Hoff	-12.234
oha	-12.2341
vac	-12.2342
▁Pi	-12.2342
▁Corre	-12.2342
▁upward	-12.2343
▁Cove	-12.2344
uca	-12.2346
uot	-12.2349
▁Yog	-12.2349
NK	-12.2349
▁stok	-12.2351
▁ICE	-12.2353
marked	-12.2354
▁oppress	-12.2355
▁Cost	-12.236
▁Drew	-12.2365
▁Ott	-12.2368
▁Meu	-12.237
▁frig	-12.2371
▁bonds	-12.238
▁Kerch	-12.2381
gaz	-12.2382
▁Fried	-12.2385
hans	-12.2394
owing	-12.2394
▁Marty	-12.2394
▁Being	-12.2396
▁Rajas	-12.2397
▁skeptical	-12.2397
ahir	-12.2398
▁Rees	-12.2399
▁Start	-12.2399
lic	-12.24
dida	-12.2401
▁antiquit	-12.2401
▁Fou	-12.2407
khar	-12.2407
▁mistaken	-12.241
tner	-12.2411
▁Dou	-12.2417
▁processor	-12.2418
▁indicator	-12.2423
▁curv	-12.2424
▁clone	-12.2444
ving	-12.2446
fre	-12.2447
▁Parr	-12.2448
pus	-12.2449
hue	-12.2452
▁Denn	-12.2454
rang	-12.2457
PB	-12.2458
▁booster	-12.2458
▁EST	-12.2458
gram	-12.2462
clusion	-12.2465
▁Does	-12.2465
▁Labo	-12.2469
▁Geno	-12.2471
▁biting	-12.2478
▁heroin	-12.2485
▁abilit	-12.2485
urious	-12.249
hart	-12.2491
▁Bold	-12.2492
▁Lago	-12.2494
▁prosecute	-12.2497
▁Clay	-12.25
▁equaliz	-12.2501
▁barb	-12.2504
▁spar	-12.2505
▁Blanc	-12.2505
imon	-12.2512
▁socialist	-12.2517
▁Pur	-12.2519
▁tri	-12.2519
▁Tang	-12.252
wind	-12.2526
oul	-12.2532
▁gam	-12.2533
▁pessimist	-12.254
▁Mae	-12.254
▁Moussa	-12.254
▁Solt	-12.2544
car	-12.2545
▁exhausted	-12.2547
nese	-12.255
▁chatt	-12.2551
▁freeway	-12.2557
▁Bah	-12.2558
▁SN	-12.2561
▁cott	-12.2562
ipper	-12.2563
▁remed	-12.2566
▁Spokes	-12.2569
▁Gaul	-12.2576
ANA	-12.2577
abad	-12.2579
▁Stand	-12.2587
kia	-12.2597
▁Lang	-12.2599
iot	-12.2603
quet	-12.2606
▁shorten	-12.2613
▁Dori	-12.2616
keeper	-12.262
▁Ruba	-12.262
▁pin	-12.2621
▁wir	-12.2621
▁generators	-12.2624
▁Sham	-12.2627
▁intrigu	-12.2627
▁notion	-12.263
▁Georgian	-12.2632
aptain	-12.2634
▁liberaliz	-12.2635
▁Mann	-12.2638
nstein	-12.2646
▁Hyo	-12.2651
▁gunn	-12.2656
chu	-12.2661
▁Mano	-12.2668
bury	-12.2672
chang	-12.2676
▁verifiabl	-12.2677
▁bearer	-12.2678
MD	-12.2678
▁NTS	-12.2682
▁Anton	-12.2684
lu	-12.2686
ira	-12.2694
hafi	-12.2696
eep	-12.2697
▁mute	-12.2713
▁recorder	-12.2717
tech	-12.2722
▁cal	-12.2723
pun	-12.2725
▁regulat	-12.2728
▁Corporat	-12.273
iano	-12.2738
uted	-12.274
▁forbidd	-12.2741
▁lander	-12.2742
▁Compa	-12.2746
▁dear	-12.2748
▁Hat	-12.2748
▁Friends	-12.275
▁integrati	-12.2751
cini	-12.2755
▁WM	-12.2755
▁Luck	-12.2756
▁vir	-12.276
egu	-12.2762
dron	-12.2764
▁Mun	-12.277
retz	-12.2771
aimi	-12.2782
▁activat	-12.2782
iac	-12.2787
▁downsiz	-12.2789
vani	-12.2789
jong	-12.2797
▁Sar	-12.2809
▁Shan	-12.2809
mam	-12.2815
▁destructi	-12.2819
bun	-12.2823
▁disma	-12.2823
▁expose	-12.2823
▁reconciliat	-12.2826
▁Tas	-12.2827
▁pale	-12.2835
▁Mint	-12.2836
▁generator	-12.2839
▁predicts	-12.284
▁Demonstrat	-12.2841
▁athlete	-12.2849
▁Hamm	-12.2855
▁relocat	-12.2863
ending	-12.2869
eck	-12.2873
believ	-12.2874
▁Sum	-12.2874
▁relegat	-12.2875
▁rob	-12.2878
▁vet	-12.288
▁decreas	-12.2886
▁mill	-12.2886
▁beak	-12.2887
sahi	-12.2889
▁mire	-12.2891
ovic	-12.2891
▁Gate	-12.2892
▁Joan	-12.2892
▁relat	-12.2892
olong	-12.2895
▁biograph	-12.2896
▁calculat	-12.29
▁employer	-12.2905
▁miserabl	-12.2911
mir	-12.2911
▁Exi	-12.2913
ndell	-12.2914
▁Arl	-12.2915
eef	-12.2918
rix	-12.2919
▁Bri	-12.2921
ishi	-12.2922
▁reads	-12.2926
▁Dis	-12.2927
▁DE	-12.2931
vit	-12.2932
ahab	-12.2933
ame	-12.2935
imbo	-12.2936
▁Atta	-12.2944
▁defian	-12.2946
▁Hor	-12.2949
elling	-12.295
VER	-12.2951
lumin	-12.2953
▁governors	-12.2957
pinning	-12.2957
tri	-12.2958
▁Basin	-12.2959
yze	-12.2963
ER	-12.2963
▁cycl	-12.2971
bbie	-12.2981
▁preach	-12.2981
▁covert	-12.2984
▁insider	-12.2988
▁Melan	-12.2991
cluded	-12.3004
ughl	-12.3005
▁Low	-12.3007
▁Biolog	-12.3008
▁Pett	-12.301
▁cur	-12.3015
anu	-12.3016
▁boundar	-12.3018
ign	-12.3024
▁Robbe	-12.3031
▁Serg	-12.304
▁graduat	-12.3041
lusive	-12.3051
▁metro	-12.3052
▁Gong	-12.3053
zad	-12.3055
▁Hano	-12.3058
lift	-12.3061
▁Pra	-12.3069
▁Aj	-12.3071
▁plen	-12.3072
▁Carol	-12.3073
▁spik	-12.3074
position	-12.3076
aci	-12.3077
▁ratifi	-12.3082
▁interact	-12.3084
▁Hir	-12.3086
dder	-12.3087
▁suite	-12.3092
▁Garr	-12.3094
inos	-12.3097
▁Bong	-12.3099
▁masse	-12.3103
utter	-12.3103
▁Prison	-12.3107
idis	-12.3113
taek	-12.3113
Chang	-12.3117
▁awake	-12.3118
▁Fen	-12.3118
DR	-12.3119
▁invent	-12.312
▁Jess	-12.3132
achi	-12.3134
▁Spirit	-12.3139
yak	-12.3139
▁Carolin	-12.3145
▁Mus	-12.3148
▁settlements	-12.3148
▁Roth	-12.3148
▁Saga	-12.3154
rgis	-12.3155
▁TM	-12.3157
▁Bomb	-12.316
▁charm	-12.3161
▁advoca	-12.3162
ADS	-12.3167
▁thrive	-12.3168
▁profession	-12.3169
▁admire	-12.3175
▁bat	-12.3176
moon	-12.3177
▁Haa	-12.3178
▁Born	-12.3182
▁divisi	-12.3185
essenger	-12.3187
bian	-12.3187
▁implicat	-12.3189
▁scann	-12.3189
▁obsess	-12.3191
alcon	-12.3191
▁veterinar	-12.3192
rystal	-12.3192
▁Kazakh	-12.3193
▁mujah	-12.3193
▁Additional	-12.3193
▁Astronaut	-12.3193
▁Berezovsky	-12.3193
▁Dreamliner	-12.3193
▁Glacier	-12.3193
▁McLe	-12.3193
▁Professional	-12.3193
▁Tanzania	-12.3193
▁Yugoslav	-12.3193
▁appetite	-12.3193
▁bourse	-12.3193
▁clergy	-12.3193
▁crawl	-12.3193
▁culprit	-12.3193
▁curtail	-12.3193
▁disregard	-12.3193
▁goddess	-12.3193
▁grasp	-12.3193
▁indiscriminate	-12.3193
▁jetliner	-12.3193
▁leisure	-12.3193
▁loophole	-12.3193
▁ordinance	-12.3193
▁outflow	-12.3193
▁portfolio	-12.3193
▁rhino	-12.3193
▁souvenir	-12.3193
▁specimen	-12.3193
▁ultimatum	-12.3193
▁BlackBerr	-12.3193
▁administer	-12.3193
▁churn	-12.3193
▁demolish	-12.3193
▁erratic	-12.3193
▁fluctuat	-12.3193
▁rebuff	-12.3193
▁rethink	-12.3193
▁contagio	-12.3193
▁dynamit	-12.3193
▁jelly	-12.3193
▁outnumber	-12.3193
▁JOHAN	-12.3193
▁backpack	-12.3193
▁swirl	-12.3193
▁Gwen	-12.3193
▁scoop	-12.3193
▁trunk	-12.3193
▁abstain	-12.3193
▁Jorge	-12.3193
▁steadfast	-12.3193
▁snapshot	-12.3193
▁mistreat	-12.3193
▁crab	-12.3193
▁unwilling	-12.3193
▁seismic	-12.3193
▁AIR	-12.3193
▁ecsta	-12.3193
▁sleeve	-12.3193
▁Return	-12.3193
▁fraudulent	-12.3193
▁Edmund	-12.3193
▁Ericsson	-12.3193
▁Kana	-12.3193
▁encrypt	-12.3193
▁cadet	-12.3193
▁juice	-12.3193
▁Thunder	-12.3193
▁categorical	-12.3193
▁Clinic	-12.3193
▁fool	-12.3193
▁chew	-12.3193
▁Boulder	-12.3193
▁fetus	-12.3193
▁Kampu	-12.3194
▁Lieber	-12.3194
atorium	-12.3194
▁preview	-12.3194
ameter	-12.3194
▁coloss	-12.3194
▁straw	-12.3194
▁cemeter	-12.3194
▁grill	-12.3194
▁Celebrit	-12.3194
▁Elisa	-12.3194
▁refund	-12.3194
▁nuts	-12.3194
▁generous	-12.3194
▁revel	-12.3194
▁birthrate	-12.3194
▁submerg	-12.3195
▁muddy	-12.3195
▁clever	-12.3195
▁furious	-12.3195
▁Tigr	-12.3195
▁Hosseini	-12.3195
▁McNam	-12.3195
▁realign	-12.3195
▁incur	-12.3195
▁Guti	-12.3195
▁refrigerator	-12.3195
mith	-12.3196
▁Rocket	-12.3196
▁racket	-12.3196
▁Horm	-12.3196
▁Thoms	-12.3196
emeter	-12.3196
▁certifi	-12.3196
▁Cedar	-12.3197
▁headphone	-12.3197
▁graduation	-12.3197
▁rabbit	-12.3197
▁Wheel	-12.3197
▁flourish	-12.3197
▁stoppage	-12.3198
▁superjumbo	-12.3198
▁Ruben	-12.3198
▁artwork	-12.3199
▁Graz	-12.3199
▁Kiku	-12.3199
▁marketplace	-12.3199
▁Ivor	-12.3199
▁Kinne	-12.32
▁thankful	-12.32
▁kyoo	-12.3201
OW	-12.3201
ental	-12.3201
▁electorate	-12.3201
▁innovation	-12.3202
▁billboard	-12.3202
▁interceptor	-12.3202
▁colonel	-12.3202
▁Lux	-12.3203
▁trek	-12.3203
▁colorful	-12.3203
▁banana	-12.3203
▁hardline	-12.3204
▁Plain	-12.3204
▁distinguish	-12.3205
▁Pardo	-12.3205
▁Steel	-12.3206
▁Natan	-12.3206
▁Ginger	-12.3207
▁housekeeper	-12.3207
▁Glov	-12.3207
▁equalise	-12.3207
▁fundamentalist	-12.3208
▁Pirate	-12.3208
▁Clean	-12.3208
▁Calder	-12.3208
▁sporadic	-12.3209
▁architecture	-12.3209
▁Coca	-12.3211
▁Yeo	-12.3211
▁escalator	-12.3212
▁Brod	-12.3212
▁supervisor	-12.3214
▁Devi	-12.3216
▁motorist	-12.3218
▁classmate	-12.3219
▁pinn	-12.322
▁airship	-12.322
▁spaceship	-12.322
otherap	-12.3223
▁heft	-12.3224
▁Dyna	-12.3224
▁fundraiser	-12.3225
awful	-12.3225
nction	-12.3226
▁Gross	-12.3226
▁fist	-12.3226
▁reper	-12.3229
▁ICR	-12.3232
▁Fein	-12.3233
▁carat	-12.3235
▁strangl	-12.3238
lar	-12.3238
▁Tourist	-12.3239
▁Maldiv	-12.3241
reedom	-12.3242
▁Clement	-12.3243
lestero	-12.3245
▁Make	-12.3245
▁Takes	-12.3245
▁commute	-12.3245
▁lapse	-12.3246
▁entertainer	-12.3246
▁forceful	-12.3246
▁loosen	-12.3249
▁Fayya	-12.3251
omplex	-12.3251
▁Bre	-12.3252
▁Eisen	-12.3252
▁protester	-12.3252
▁Personal	-12.3257
▁flagg	-12.3259
▁bl	-12.326
▁fractur	-12.3262
▁Kraus	-12.3262
▁AAA	-12.3263
worth	-12.3271
▁Card	-12.3275
▁Hyde	-12.3275
▁Mang	-12.3275
tta	-12.328
▁Porter	-12.3281
▁Money	-12.3282
▁dismay	-12.3289
mandu	-12.3289
▁Vo	-12.3289
▁Berr	-12.3295
▁Hous	-12.3299
▁Singaporean	-12.3302
iji	-12.3302
▁migration	-12.3304
nipes	-12.3305
▁hog	-12.3305
stable	-12.3306
▁Sophi	-12.3306
▁hatch	-12.3306
onym	-12.3308
▁capitalism	-12.3313
▁Nova	-12.3313
league	-12.3314
▁rash	-12.3317
▁Hammon	-12.3317
▁Ryd	-12.3319
▁Denis	-12.332
mega	-12.332
aver	-12.3321
▁boob	-12.3321
tze	-12.3323
iver	-12.3328
▁Ly	-12.3328
▁nois	-12.3329
▁brun	-12.3329
▁Len	-12.3338
▁Wear	-12.3342
list	-12.3343
jor	-12.3346
▁Arabs	-12.3347
anni	-12.3348
▁Dub	-12.3356
AGO	-12.3357
▁List	-12.336
ori	-12.3361
▁Lind	-12.3364
▁Carbo	-12.3364
iti	-12.3379
▁Sixt	-12.3386
▁Yun	-12.3387
lines	-12.3387
oke	-12.3391
▁loser	-12.3394
APE	-12.3395
bil	-12.3396
▁marcher	-12.3408
▁Teen	-12.3409
teractive	-12.3412
▁Parkin	-12.3418
rail	-12.3422
▁Mauric	-12.3422
▁Barad	-12.3422
▁Das	-12.3425
▁Ker	-12.3425
▁perish	-12.343
▁Suf	-12.343
▁Traveler	-12.3432
▁Julian	-12.3432
▁attendants	-12.3437
young	-12.3437
▁elevat	-12.3445
▁shin	-12.3445
▁complicate	-12.3449
▁Shui	-12.345
hin	-12.3462
▁lakes	-12.3466
▁withstand	-12.3467
▁Jun	-12.3476
wall	-12.3478
▁Minorit	-12.3478
▁Patter	-12.3479
▁dresse	-12.348
gara	-12.3482
lsan	-12.3487
nold	-12.349
▁deliberat	-12.3493
rel	-12.35
▁treasur	-12.3503
ken	-12.3504
sche	-12.3521
▁incorporate	-12.3521
tract	-12.3523
▁Tab	-12.3524
▁bully	-12.3528
tenberg	-12.3531
anoma	-12.3533
pine	-12.3536
▁pitcher	-12.3537
▁Robin	-12.3539
▁Has	-12.3544
▁Ethic	-12.3554
gged	-12.3557
uitt	-12.3559
ghi	-12.3566
▁tract	-12.357
▁unp	-12.357
▁consolidate	-12.357
ublin	-12.3571
▁Wol	-12.3571
▁Past	-12.3574
▁gentle	-12.3576
ecca	-12.3578
ovi	-12.3579
RG	-12.3584
▁Way	-12.3584
▁Burg	-12.3591
ides	-12.3592
▁Tzi	-12.3592
mise	-12.3594
usted	-12.3596
▁approache	-12.36
▁birdie	-12.3603
ternal	-12.3607
▁Bab	-12.3608
▁geo	-12.3613
anner	-12.3615
elo	-12.3615
▁sacking	-12.3618
wage	-12.3622
ealander	-12.3624
▁Corn	-12.3626
▁vent	-12.3627
▁printer	-12.3631
▁secretari	-12.3634
RU	-12.3636
omi	-12.3636
▁Non	-12.364
▁vo	-12.3641
▁Meteorologi	-12.3647
▁redistribut	-12.365
▁Muha	-12.3657
▁Ying	-12.3659
▁header	-12.366
▁Rings	-12.3664
argo	-12.367
▁Shil	-12.3672
▁tumble	-12.3683
lman	-12.3695
amy	-12.3699
CB	-12.3707
▁Tomm	-12.3708
▁tur	-12.3709
cker	-12.371
▁destroyer	-12.3714
▁Sde	-12.3714
▁basin	-12.3716
iers	-12.3716
▁physiolog	-12.372
adi	-12.3723
owler	-12.3723
reva	-12.3724
▁Creat	-12.3725
▁Leaders	-12.3728
▁directions	-12.373
▁Ev	-12.3737
bah	-12.3739
egan	-12.3747
ines	-12.3758
▁rub	-12.3772
▁Herman	-12.3781
▁Stra	-12.3782
▁emotion	-12.3783
▁whiske	-12.379
feld	-12.3798
ready	-12.3799
▁complian	-12.38
▁Cat	-12.3806
▁Fit	-12.3809
▁gu	-12.3815
▁Shen	-12.3818
iki	-12.3825
fill	-12.3827
zing	-12.383
▁replica	-12.383
ges	-12.3832
▁Frankl	-12.3833
▁flowing	-12.3833
yar	-12.3836
▁Advisor	-12.3836
atherin	-12.3846
▁gene	-12.3848
▁Kal	-12.3852
▁Bam	-12.386
▁betray	-12.3865
▁devote	-12.3867
dez	-12.3871
aire	-12.3873
▁induce	-12.3885
▁Bli	-12.389
▁refin	-12.39
emin	-12.3901
lab	-12.3902
SE	-12.3904
▁Tani	-12.3909
▁cele	-12.3913
▁dominan	-12.3921
▁Duch	-12.3926
▁Step	-12.3936
ID	-12.3936
▁Nou	-12.3938
suit	-12.3953
▁Tam	-12.3954
orrow	-12.3955
hard	-12.3957
▁stampede	-12.3958
soon	-12.3959
▁Fonda	-12.396
▁BU	-12.3962
paste	-12.397
alban	-12.3973
▁greeting	-12.3973
gues	-12.3977
eka	-12.3978
▁convict	-12.3978
▁Cana	-12.3981
ashi	-12.3985
quarium	-12.3993
oir	-12.3995
▁milita	-12.3997
greement	-12.3997
▁attitudes	-12.3999
tai	-12.4004
iq	-12.4006
▁Vel	-12.4008
▁detonate	-12.4013
ound	-12.4014
nsei	-12.4015
▁Sc	-12.4027
tter	-12.4027
▁foray	-12.4029
asi	-12.4032
visibl	-12.4036
▁Imag	-12.4047
rop	-12.4047
▁electro	-12.4052
▁enthusiast	-12.4059
terrestrial	-12.406
idge	-12.4061
PR	-12.4062
iff	-12.407
opa	-12.4073
▁hug	-12.4085
▁Cind	-12.4087
media	-12.409
mara	-12.4091
▁robbe	-12.4092
stands	-12.4098
▁Circ	-12.411
Works	-12.4112
ashes	-12.4114
adequate	-12.4114
blaze	-12.4115
parents	-12.4116
committee	-12.4116
▁Stud	-12.4117
▁Deng	-12.4121
wanted	-12.4124
technology	-12.4124
▁Doug	-12.4127
cop	-12.4128
▁entertain	-12.4128
▁residenc	-12.4132
ight	-12.4133
▁petro	-12.4138
▁rebuil	-12.4141
watch	-12.4143
▁Om	-12.4143
▁neuro	-12.4144
▁repressi	-12.4145
▁drops	-12.4148
▁Nikol	-12.415
oda	-12.415
▁burge	-12.4151
rga	-12.4151
dog	-12.4158
▁magnet	-12.4161
▁sweat	-12.4163
▁prominen	-12.4166
sphere	-12.4169
fann	-12.417
vert	-12.4172
▁Mao	-12.4173
heema	-12.4174
▁jihad	-12.4178
▁conciliat	-12.4181
▁swo	-12.4181
▁snub	-12.4181
▁Trin	-12.4182
▁waive	-12.4182
▁gag	-12.4184
▁ensu	-12.4185
▁Hann	-12.4185
kanit	-12.4187
▁flip	-12.4187
▁Pet	-12.4187
▁distract	-12.4189
▁bankrupt	-12.419
reliminar	-12.4191
▁syn	-12.4192
▁pediatric	-12.4192
▁buoy	-12.4192
▁affirm	-12.4193
▁Belarus	-12.4193
▁Djamena	-12.4193
▁Eagle	-12.4193
▁Escape	-12.4193
▁Matthew	-12.4193
▁Netscape	-12.4193
▁absurd	-12.4193
▁complement	-12.4193
▁cuisine	-12.4193
▁disadvantage	-12.4193
▁dysfunction	-12.4193
▁lizard	-12.4193
▁mosquito	-12.4193
▁mutilat	-12.4193
▁pacify	-12.4193
▁revamp	-12.4193
▁rupture	-12.4193
▁sandbag	-12.4193
▁spontaneous	-12.4193
▁surcharge	-12.4193
▁turbine	-12.4193
▁Account	-12.4193
▁Elliot	-12.4193
▁precarious	-12.4193
▁Alcohol	-12.4193
▁Kashiwa	-12.4193
▁TGV	-12.4193
▁effig	-12.4193
▁paleontologist	-12.4193
▁telecast	-12.4193
▁wrack	-12.4193
▁Bolivia	-12.4193
▁Ordinar	-12.4193
▁Senegal	-12.4193
▁detach	-12.4193
▁reneg	-12.4193
▁Blaz	-12.4193
▁Elysee	-12.4193
▁Rutger	-12.4193
▁shrunk	-12.4193
▁solemn	-12.4193
▁terrifi	-12.4193
▁landlord	-12.4193
▁prevalen	-12.4193
▁module	-12.4193
▁Twitter	-12.4193
▁demographic	-12.4193
▁Bishop	-12.4193
▁pinpoint	-12.4193
▁itinerar	-12.4193
▁pelvi	-12.4193
▁newcomer	-12.4193
▁Monitor	-12.4193
▁antenna	-12.4193
▁Tsuyo	-12.4193
▁relentless	-12.4193
▁vigorous	-12.4193
▁emphatic	-12.4193
▁brisk	-12.4193
▁minivan	-12.4193
▁disconnect	-12.4193
▁commend	-12.4193
▁germ	-12.4193
▁bolt	-12.4193
▁stymie	-12.4193
▁latitude	-12.4193
▁mimic	-12.4193
▁mortal	-12.4193
uddin	-12.4193
▁Declaration	-12.4193
▁flank	-12.4193
▁Osbourne	-12.4193
▁sitcom	-12.4193
▁Arsha	-12.4193
▁unnerv	-12.4194
▁spider	-12.4194
SSELS	-12.4194
▁unfreez	-12.4194
quille	-12.4194
▁wrinkle	-12.4194
▁eyewitness	-12.4194
▁screw	-12.4194
▁preemptive	-12.4194
▁hedge	-12.4194
▁reclaim	-12.4194
▁arraignment	-12.4194
owed	-12.4194
▁dispel	-12.4194
▁evict	-12.4194
▁spew	-12.4194
▁screenplay	-12.4194
▁sidewalk	-12.4194
▁Negotiation	-12.4195
▁Azim	-12.4195
▁pause	-12.4195
▁thirty	-12.4195
tics	-12.4195
▁primate	-12.4195
▁rendition	-12.4195
▁humid	-12.4195
▁stain	-12.4195
▁Tuls	-12.4195
▁Boat	-12.4195
▁cremation	-12.4195
▁Katz	-12.4196
▁inviting	-12.4196
▁Yuko	-12.4196
▁Mitch	-12.4196
▁condom	-12.4196
▁Harmon	-12.4196
▁drummer	-12.4196
▁moderniz	-12.4196
▁Hamza	-12.4196
▁Rebel	-12.4197
▁Could	-12.4197
▁dumpling	-12.4197
▁unlock	-12.4197
▁Haq	-12.4198
▁distraction	-12.4198
▁Baek	-12.4198
▁abundan	-12.4198
esterday	-12.4198
▁derive	-12.4198
▁fluid	-12.4199
▁Rider	-12.4199
▁LaS	-12.4199
▁Kirch	-12.42
▁feast	-12.42
▁Paek	-12.42
▁surgical	-12.42
▁Copper	-12.4201
▁innovati	-12.4201
▁loung	-12.4201
▁infantry	-12.4201
▁funnel	-12.4202
▁Taji	-12.4202
raft	-12.4202
kistan	-12.4203
hapel	-12.4203
▁Jamestown	-12.4203
▁marker	-12.4203
▁interruption	-12.4203
▁Mosle	-12.4203
▁Nobu	-12.4204
▁Vonn	-12.4205
▁autobiograph	-12.4205
▁audiotape	-12.4205
▁handset	-12.4206
▁recit	-12.4208
▁totalitarian	-12.4208
▁wagon	-12.4208
pua	-12.4209
▁feedback	-12.4209
▁Slovakia	-12.4209
▁Tasmania	-12.4209
▁Listen	-12.4209
▁anticipate	-12.4209
▁woodland	-12.421
▁Marx	-12.4211
▁Bett	-12.4212
▁Appa	-12.4212
▁Legal	-12.4212
▁nast	-12.4212
rie	-12.4214
▁intestin	-12.4215
rrowhead	-12.4216
▁adjustment	-12.4216
brew	-12.4216
▁Laurent	-12.4219
▁slap	-12.4219
thura	-12.4219
▁outsider	-12.422
▁flush	-12.4222
▁restructure	-12.4223
▁quarte	-12.4223
▁reconn	-12.4225
shu	-12.4225
tilin	-12.4226
▁Eun	-12.4226
▁cardiov	-12.4226
▁tutori	-12.4226
▁Sprint	-12.4227
rches	-12.4227
▁NA	-12.4227
▁Heather	-12.4227
▁contributor	-12.4228
▁undertake	-12.423
▁dweller	-12.4233
▁pluck	-12.4235
▁overture	-12.4235
qb	-12.4236
▁versa	-12.4236
▁Benz	-12.4237
ngchon	-12.4238
▁rework	-12.4239
▁Shaun	-12.4239
▁Espan	-12.424
lain	-12.424
▁solicit	-12.424
uito	-12.4241
▁Hair	-12.4241
▁firearm	-12.4243
▁Equal	-12.4243
▁Musta	-12.4244
▁Smithson	-12.4245
posed	-12.4245
▁Hid	-12.4246
▁genital	-12.4248
▁offence	-12.4249
▁Estonian	-12.425
▁Giro	-12.4256
culty	-12.4258
llan	-12.4259
▁rug	-12.426
▁blacks	-12.426
asia	-12.4261
▁Borne	-12.4264
hni	-12.4267
▁Plann	-12.4267
▁porch	-12.4268
▁brew	-12.4268
▁Borg	-12.4277
▁Masha	-12.4281
nov	-12.4283
▁saga	-12.4284
▁directive	-12.4286
▁Mara	-12.4287
▁timeline	-12.429
cable	-12.4291
▁fri	-12.4298
▁Naha	-12.4298
▁Merv	-12.43
▁Fighter	-12.4302
▁ridge	-12.4304
oven	-12.4307
▁Finding	-12.4308
▁Mako	-12.4309
▁jeopardize	-12.431
tory	-12.4312
▁unsur	-12.4316
▁Scar	-12.432
▁ME	-12.4322
▁Robbi	-12.4325
▁Name	-12.4327
▁cro	-12.4327
▁Ring	-12.4328
▁Comb	-12.433
make	-12.4332
predictabl	-12.4334
▁Lotte	-12.4335
▁swelling	-12.4338
▁Sura	-12.434
tractor	-12.434
▁outfield	-12.4342
▁lame	-12.4344
afe	-12.4344
hall	-12.4344
▁commando	-12.4347
▁Khalil	-12.435
▁graz	-12.435
gro	-12.4351
▁dott	-12.4353
▁Merck	-12.4357
▁Tsu	-12.4357
▁Ull	-12.436
▁Naf	-12.436
nforcement	-12.4361
▁balanc	-12.4365
yette	-12.4373
CA	-12.4375
enne	-12.438
environmentalist	-12.4387
▁Eye	-12.4387
▁Gregor	-12.4388
▁suck	-12.439
▁gutt	-12.4392
▁Adrian	-12.4395
▁endless	-12.4395
▁Venet	-12.4397
oun	-12.4399
▁Shaha	-12.4403
veh	-12.4405
▁Allah	-12.4405
▁specialize	-12.4406
rdin	-12.4406
SI	-12.4409
teau	-12.4414
SN	-12.4418
▁injure	-12.4425
▁GE	-12.4425
▁conscript	-12.4427
reach	-12.4431
arve	-12.4436
▁Giz	-12.4436
▁Adm	-12.4437
▁tablet	-12.4441
drome	-12.4447
▁ca	-12.4447
▁Chiap	-12.4451
▁Onta	-12.4451
▁Branc	-12.4452
▁Hadi	-12.4461
▁Pir	-12.4461
▁assumption	-12.4461
▁Lek	-12.4462
▁hon	-12.4467
glio	-12.4469
▁merchandise	-12.448
▁Lex	-12.4485
▁summar	-12.4485
▁uncla	-12.4487
▁controller	-12.4493
▁sock	-12.4494
▁deserv	-12.4496
▁Sandr	-12.4496
oise	-12.4497
▁supervisi	-12.4501
▁shade	-12.4504
▁Pace	-12.4511
▁licens	-12.4511
▁Bess	-12.4512
▁Bashir	-12.4518
etz	-12.4524
▁normalize	-12.4528
▁Boc	-12.4529
▁Baba	-12.453
lat	-12.4535
uro	-12.454
▁Tat	-12.4541
▁Depress	-12.4553
▁motivate	-12.4555
▁explains	-12.4555
▁nu	-12.4556
▁imagin	-12.4556
▁Gaill	-12.4559
aptop	-12.456
aria	-12.4565
▁preside	-12.4566
▁geologic	-12.4567
▁Advisors	-12.4568
hoe	-12.4569
▁Niss	-12.4571
▁fluor	-12.4578
pulsion	-12.4585
▁scarce	-12.4595
▁Natali	-12.4597
▁Kost	-12.4599
▁prot	-12.46
▁Popula	-12.4601
pur	-12.4601
▁Francesc	-12.4605
▁Idi	-12.4606
▁retiree	-12.4608
FLD	-12.4609
▁dar	-12.461
mund	-12.4611
lli	-12.4618
▁exceeding	-12.4622
▁Sol	-12.4623
rk	-12.4625
tal	-12.4625
▁hijacking	-12.4626
ubei	-12.4626
▁unfor	-12.463
lock	-12.4631
carf	-12.4633
▁Abd	-12.4634
erp	-12.4639
▁horrifi	-12.4651
▁clima	-12.4659
▁Lei	-12.4664
▁infuriat	-12.4664
▁Aba	-12.4674
tisa	-12.4674
CLA	-12.4675
▁hwa	-12.4676
▁Hunting	-12.4677
▁Piro	-12.4682
ammar	-12.469
NT	-12.4692
BRU	-12.4693
▁angri	-12.4696
olonel	-12.4697
▁abound	-12.4697
azar	-12.4699
▁gods	-12.4701
rnab	-12.4708
▁Colon	-12.4711
▁Seo	-12.4715
hab	-12.4715
fusion	-12.4719
uang	-12.4721
▁gr	-12.4724
▁dishe	-12.4735
iat	-12.4735
▁Mind	-12.4736
▁indecen	-12.4737
evic	-12.4738
▁educate	-12.4743
▁escalate	-12.4748
▁Eri	-12.475
▁Rib	-12.476
▁Ace	-12.4763
▁phon	-12.4764
▁Meteor	-12.4767
▁cater	-12.477
▁Nat	-12.4774
▁KA	-12.4789
ug	-12.4806
ection	-12.4808
▁Dai	-12.4809
pecies	-12.4815
▁Heat	-12.4816
▁Tenn	-12.482
▁Ski	-12.4824
▁Gert	-12.4832
▁candles	-12.4834
▁liberate	-12.4845
▁grapple	-12.486
▁Race	-12.486
▁adulter	-12.486
icker	-12.4863
▁OS	-12.4868
▁reserv	-12.4877
▁originat	-12.4895
▁Gir	-12.4899
▁Claud	-12.4905
▁Hoy	-12.4905
NI	-12.4907
▁inconvenience	-12.4911
otic	-12.4911
ryl	-12.4912
▁beg	-12.4917
▁Tama	-12.4918
▁misus	-12.4919
flation	-12.492
▁Gila	-12.4921
effer	-12.4923
▁drawings	-12.493
▁Spokesm	-12.4931
▁dare	-12.4933
▁Satt	-12.4937
▁Sub	-12.4952
OL	-12.4958
▁inability	-12.4961
▁detainee	-12.4964
dam	-12.4967
▁Cau	-12.4977
▁Bai	-12.498
▁mur	-12.4981
▁Pl	-12.4981
▁pressur	-12.4984
comfortabl	-12.4987
▁Aero	-12.499
roz	-12.4992
▁Natal	-12.4993
▁toleran	-12.5008
pecialist	-12.5009
▁Cre	-12.5011
▁casting	-12.5017
▁launche	-12.5019
▁Soli	-12.5023
NC	-12.5026
accessib	-12.5033
ML	-12.5039
▁wonders	-12.5042
cchi	-12.5047
▁Firef	-12.5049
▁MR	-12.5049
▁correction	-12.505
▁aggravate	-12.5053
▁intra	-12.5053
gay	-12.5061
science	-12.5065
arra	-12.5071
ately	-12.5077
▁fume	-12.5077
mal	-12.5078
▁attribute	-12.5079
robe	-12.5082
▁stipulate	-12.5084
▁Judicia	-12.5085
▁matur	-12.5088
anyon	-12.5089
▁aspir	-12.5089
rchbishop	-12.5093
wha	-12.5095
▁Meri	-12.5101
▁ju	-12.5104
▁rocker	-12.5106
▁toddlers	-12.5107
mendment	-12.5107
nders	-12.5108
▁exclude	-12.5109
tress	-12.5109
▁prep	-12.5112
word	-12.5118
▁behave	-12.5119
▁Cour	-12.5125
▁Karr	-12.5125
tmospher	-12.5125
bard	-12.5129
▁updat	-12.513
▁merg	-12.5131
▁bun	-12.5133
liga	-12.5137
▁Hacke	-12.5137
▁homi	-12.5146
▁satisfy	-12.5147
eij	-12.5149
▁sca	-12.515
▁conven	-12.5153
▁beneficia	-12.5154
▁Vik	-12.5154
▁ru	-12.5157
yah	-12.5158
TN	-12.5163
ANE	-12.5164
▁Pine	-12.5165
▁steppe	-12.5173
rescent	-12.5174
▁Coo	-12.5176
▁defer	-12.5177
icho	-12.519
mb	-12.5193
dental	-12.5195
peculation	-12.5199
MO	-12.5201
▁Alban	-12.5207
▁bras	-12.5208
▁salvage	-12.521
gers	-12.5212
ARAC	-12.5212
VP	-12.5219
convenient	-12.5222
▁Alf	-12.5222
sults	-12.5224
itzer	-12.5225
accurate	-12.5225
government	-12.5226
spring	-12.5227
affected	-12.5227
economic	-12.5227
GM	-12.5227
bridge	-12.5227
season	-12.5228
daughter	-12.5228
help	-12.5229
▁Writ	-12.5229
hould	-12.5229
style	-12.5229
effective	-12.5233
▁Malt	-12.5233
▁Bac	-12.5236
▁rev	-12.5237
NS	-12.5238
roar	-12.524
▁PS	-12.5242
▁mobilize	-12.5242
sense	-12.5244
▁col	-12.5245
▁Cu	-12.5249
match	-12.5251
heard	-12.5251
emic	-12.5253
▁Nan	-12.5255
▁suicid	-12.5256
ctivists	-12.5263
mple	-12.5263
chon	-12.5268
▁Luz	-12.5272
span	-12.5277
▁nano	-12.528
▁Americ	-12.5281
eek	-12.5283
illo	-12.5286
obacco	-12.5288
sunami	-12.5289
rou	-12.529
▁tee	-12.5295
▁lava	-12.5296
▁Carli	-12.5296
▁ancest	-12.5298
agazine	-12.5299
▁calib	-12.5299
▁Lau	-12.53
▁pharmac	-12.53
▁compress	-12.5301
▁Marlboro	-12.5302
lobo	-12.5303
▁cliff	-12.5303
imeter	-12.5303
▁immoral	-12.5304
▁straddl	-12.5304
hygien	-12.5304
▁Certain	-12.5304
▁Evolution	-12.5304
▁Fashion	-12.5304
▁IRS	-12.5304
▁Liechtenstein	-12.5304
▁Magistrate	-12.5304
▁Princip	-12.5304
▁Suspect	-12.5304
▁Uruguay	-12.5304
▁apprehend	-12.5304
▁banteng	-12.5304
▁cheetah	-12.5304
▁demolition	-12.5304
▁derelict	-12.5304
▁detergent	-12.5304
▁eclipse	-12.5304
▁entrepreneur	-12.5304
▁handcuff	-12.5304
▁involuntar	-12.5304
▁kilowatt	-12.5304
▁narco	-12.5304
▁nickel	-12.5304
▁nonviolen	-12.5304
▁procure	-12.5304
▁recipient	-12.5304
▁remittance	-12.5304
▁scour	-12.5304
▁shepherd	-12.5304
▁susceptib	-12.5304
▁unravel	-12.5304
▁vicinity	-12.5304
▁whirl	-12.5304
▁Magoni	-12.5304
▁McClinto	-12.5304
▁encircl	-12.5304
▁exacerbat	-12.5304
▁gigabyte	-12.5304
▁hemorrhag	-12.5304
▁manhunt	-12.5304
▁occupy	-12.5304
▁recharge	-12.5304
▁classify	-12.5304
▁Cambridge	-12.5304
▁Daimler	-12.5304
▁Marriot	-12.5304
▁imbalance	-12.5304
▁jockey	-12.5304
▁malicious	-12.5304
▁minibus	-12.5304
▁Aviv	-12.5304
▁Fioren	-12.5304
▁Legend	-12.5304
▁Wilkins	-12.5304
▁bulldozer	-12.5304
▁suffocat	-12.5304
▁glory	-12.5304
▁gymnast	-12.5304
▁smear	-12.5304
▁friction	-12.5304
▁taunt	-12.5304
uestions	-12.5304
▁graveyard	-12.5304
▁quirk	-12.5304
▁theoretical	-12.5304
▁conspirator	-12.5304
▁discord	-12.5304
▁twel	-12.5304
▁injustice	-12.5304
▁biometric	-12.5304
▁stitche	-12.5304
▁entail	-12.5304
▁marvel	-12.5304
▁pupil	-12.5304
▁cosmetic	-12.5304
nthia	-12.5304
▁Inspector	-12.5304
▁dissent	-12.5304
▁gaffe	-12.5304
▁warrior	-12.5304
▁Brief	-12.5304
▁Weekend	-12.5304
▁acquaintance	-12.5304
▁Spider	-12.5304
▁ATM	-12.5304
▁carnival	-12.5304
▁Mukas	-12.5304
▁pizz	-12.5304
▁Idris	-12.5304
▁Obeid	-12.5304
▁snowstorm	-12.5304
▁boulder	-12.5304
▁Gartner	-12.5304
▁essay	-12.5304
▁Antw	-12.5304
▁masterpiece	-12.5305
▁Solution	-12.5305
▁Monster	-12.5305
▁chipmaker	-12.5305
▁nongovernment	-12.5305
▁accommodation	-12.5305
▁grievance	-12.5305
▁Neighbor	-12.5305
▁Hoop	-12.5305
▁cardinal	-12.5305
▁Reform	-12.5305
▁Transformers	-12.5305
▁czar	-12.5305
▁jack	-12.5305
▁chapel	-12.5305
▁ventilat	-12.5305
▁eavesdropp	-12.5305
▁Brewer	-12.5305
▁Launch	-12.5306
zar	-12.5306
▁sift	-12.5306
▁Soprano	-12.5306
▁overreact	-12.5306
▁luxurious	-12.5306
▁valve	-12.5306
▁wiretapp	-12.5306
▁invoke	-12.5306
▁Regard	-12.5306
▁interstate	-12.5306
▁tamper	-12.5306
▁termination	-12.5306
▁polite	-12.5307
▁haircut	-12.5307
▁compass	-12.5307
▁Clover	-12.5307
▁pinch	-12.5307
▁airlift	-12.5307
▁fringe	-12.5307
▁Ellis	-12.5307
▁Milos	-12.5307
▁entice	-12.5307
▁Cloud	-12.5307
▁paw	-12.5307
▁Jaip	-12.5307
▁Vander	-12.5307
▁exemption	-12.5308
▁attire	-12.5308
▁siren	-12.5308
▁bandit	-12.5308
▁carving	-12.5308
geous	-12.5308
▁Hashem	-12.5309
▁flawless	-12.5309
▁LaB	-12.5309
wich	-12.5309
▁Yuca	-12.5309
▁Holz	-12.5309
▁toxin	-12.5309
▁elevation	-12.5309
▁Akh	-12.5309
▁Territor	-12.5309
▁scout	-12.5309
▁LLC	-12.531
▁Maxim	-12.531
▁covet	-12.531
▁downpour	-12.531
▁Person	-12.5311
▁vigilant	-12.5311
▁Grin	-12.5311
▁Smart	-12.5311
▁doctrine	-12.5311
▁Jabal	-12.5311
▁cache	-12.5312
▁penaliz	-12.5312
▁curricul	-12.5312
chett	-12.5312
▁Foster	-12.5312
▁McCle	-12.5312
▁maul	-12.5312
▁jolt	-12.5313
▁fiance	-12.5313
▁novelist	-12.5313
▁Stau	-12.5313
pponents	-12.5313
▁booth	-12.5313
▁Hallow	-12.5313
▁Refer	-12.5314
▁aspiration	-12.5314
▁decoration	-12.5314
▁cite	-12.5315
choa	-12.5315
▁organism	-12.5315
▁Prof	-12.5315
▁Simpl	-12.5316
elieve	-12.5316
▁papa	-12.5316
diari	-12.5316
rogba	-12.5316
▁cynical	-12.5316
▁audition	-12.5316
▁hoard	-12.5317
▁Casa	-12.5317
▁alligator	-12.5318
▁Locke	-12.5318
▁premeditat	-12.5319
▁Yuri	-12.5319
▁composition	-12.5319
▁runaway	-12.532
▁waiver	-12.532
▁discourage	-12.532
▁Maggi	-12.5321
▁respectful	-12.5321
▁chem	-12.5321
▁knot	-12.5321
▁destin	-12.5321
▁veil	-12.5322
▁barber	-12.5322
▁Panda	-12.5322
▁Mongolia	-12.5322
▁adorn	-12.5323
guel	-12.5323
▁Crest	-12.5323
▁Cair	-12.5323
▁Rubin	-12.5324
▁Factor	-12.5325
▁Heller	-12.5327
▁Hath	-12.5329
▁playground	-12.533
▁dair	-12.533
▁Rale	-12.533
▁Stones	-12.5331
▁Face	-12.5331
kwan	-12.5333
▁Sauer	-12.5334
▁Hyn	-12.5334
▁reap	-12.5335
▁Weiss	-12.5335
▁worshipper	-12.5335
▁Horn	-12.5336
▁insert	-12.5336
▁bugg	-12.5336
▁worthless	-12.5337
▁Wax	-12.5337
▁mold	-12.5337
▁Fiji	-12.5337
▁Wheat	-12.5338
tis	-12.5338
▁Revere	-12.5338
▁overpower	-12.5341
▁kisses	-12.5341
▁Moai	-12.5341
▁ayurved	-12.5342
▁Mello	-12.5342
▁Map	-12.5343
▁arrow	-12.5343
say	-12.5343
▁Hayd	-12.5343
▁erode	-12.5344
▁vulnerabilit	-12.5344
▁Cliff	-12.5344
▁merc	-12.5344
▁buff	-12.5345
vara	-12.5345
▁Grove	-12.5346
▁Hashim	-12.5347
▁Alessandr	-12.5348
▁verge	-12.5349
okou	-12.535
▁meddl	-12.5351
TRA	-12.5352
▁dangl	-12.5353
▁Tao	-12.5356
▁anthropolog	-12.5357
▁tram	-12.5358
▁bot	-12.5359
▁Leon	-12.5361
▁Sign	-12.5362
▁Chai	-12.5364
pick	-12.5365
▁Latino	-12.5365
▁Naka	-12.5365
▁maid	-12.5365
▁Hadn	-12.5367
▁Calv	-12.5371
▁alga	-12.5372
▁Joon	-12.5372
▁pie	-12.5372
▁necessity	-12.5376
▁scanner	-12.5378
▁Walt	-12.5378
▁Campo	-12.5379
▁NY	-12.5381
▁rightful	-12.5381
▁widower	-12.5381
▁Mende	-12.5382
▁Wald	-12.5382
▁breez	-12.5382
▁slick	-12.5382
▁Bolsh	-12.5382
▁shave	-12.5384
▁DI	-12.5385
▁institutional	-12.5389
▁amass	-12.539
▁Farmer	-12.539
▁citation	-12.5391
▁Met	-12.5392
▁Gray	-12.5394
▁Yoshi	-12.5395
▁Tries	-12.5398
AND	-12.5402
weight	-12.5404
▁designation	-12.5406
▁Santor	-12.5406
▁taek	-12.5407
▁satisfactor	-12.5411
▁lumin	-12.5412
mark	-12.5413
▁penetrat	-12.5413
▁Bee	-12.5414
▁Aq	-12.5414
▁emitter	-12.5414
▁insurer	-12.5417
▁Kristin	-12.5418
▁Vern	-12.5418
▁Contra	-12.5422
▁tit	-12.5424
▁forge	-12.5428
orne	-12.5431
▁damp	-12.5432
dard	-12.5433
▁Heng	-12.5433
▁shutter	-12.5433
cock	-12.5434
uil	-12.5435
▁unha	-12.5435
▁initiate	-12.5438
▁Sander	-12.5439
▁Hand	-12.5439
ATION	-12.5439
▁reunifi	-12.544
▁ashes	-12.5441
badi	-12.5441
▁Petr	-12.5442
joy	-12.5443
▁Berger	-12.5445
▁Slum	-12.5446
▁Byr	-12.5449
▁Marul	-12.5451
▁Mwan	-12.5451
py	-12.5451
umu	-12.5453
ased	-12.5455
▁Lankan	-12.5456
▁beneficiar	-12.5457
▁Santos	-12.5458
▁PET	-12.5465
▁ego	-12.5465
▁sharpen	-12.5467
jid	-12.5467
▁Rule	-12.5473
gawa	-12.5474
▁Az	-12.5474
▁Wolfe	-12.5477
news	-12.5482
▁Lauren	-12.5484
cak	-12.5487
gby	-12.5487
▁twister	-12.549
ilja	-12.5491
▁Lombard	-12.5493
▁unifi	-12.5495
▁hiker	-12.5504
▁hydra	-12.5506
trategic	-12.5506
▁pur	-12.5507
▁Crowd	-12.5509
▁defus	-12.551
▁Normal	-12.5514
slaughter	-12.5515
▁Goul	-12.5518
illian	-12.5524
▁MS	-12.5529
▁molecul	-12.5531
▁Safe	-12.5531
ormula	-12.5531
▁perk	-12.5532
ltz	-12.5533
▁Dogs	-12.5533
igan	-12.5534
▁herb	-12.5535
▁Norm	-12.5536
▁Fame	-12.5539
▁downside	-12.554
▁compromis	-12.5545
ourage	-12.5548
▁Yin	-12.5552
▁forci	-12.5553
itch	-12.5555
gher	-12.5556
▁Taka	-12.5559
nar	-12.5562
ozen	-12.5568
▁Helms	-12.5569
ERA	-12.5577
▁Ami	-12.558
▁Shri	-12.5583
unker	-12.5584
magine	-12.5585
ex	-12.5586
▁visitation	-12.5587
▁Krist	-12.5596
iyan	-12.5603
▁Vill	-12.5603
▁Hanu	-12.5604
▁sc	-12.5606
mperial	-12.5608
▁Kup	-12.561
ech	-12.5615
riq	-12.5629
▁Bana	-12.5629
▁skirt	-12.5629
▁Employe	-12.563
▁coupons	-12.5636
▁yachts	-12.5636
uel	-12.5636
▁Too	-12.5637
▁dictate	-12.5646
▁wade	-12.5652
▁Anni	-12.566
▁Wilder	-12.5661
▁Pass	-12.5662
arro	-12.5662
▁servers	-12.5665
▁poke	-12.5667
▁Bait	-12.5673
▁likeness	-12.5677
train	-12.568
cott	-12.5685
▁Ing	-12.5693
table	-12.5694
TAM	-12.5699
aj	-12.5703
hap	-12.5709
▁Barb	-12.5718
▁poet	-12.5721
▁Mok	-12.5732
riano	-12.5735
▁Marian	-12.5735
lier	-12.5739
boy	-12.5741
▁Reg	-12.5741
▁examples	-12.5743
hei	-12.5755
gart	-12.5755
tical	-12.5756
▁Seb	-12.5756
▁Barg	-12.5761
▁hol	-12.5762
▁cosm	-12.5762
▁Prob	-12.5771
ENS	-12.5773
▁curl	-12.5774
▁grie	-12.5775
▁Band	-12.5775
▁whisk	-12.5775
▁Gat	-12.578
iding	-12.5784
ethy	-12.5784
▁Gra	-12.5788
▁breeder	-12.5788
▁uneas	-12.5791
▁Elle	-12.5798
eller	-12.5801
▁holi	-12.5801
▁compile	-12.5802
▁awe	-12.5805
veral	-12.5818
▁Promoti	-12.582
▁herald	-12.5828
yud	-12.5829
▁Reina	-12.5831
slow	-12.5834
▁stimulat	-12.5834
fsha	-12.5835
▁Deco	-12.5841
▁dodg	-12.585
▁persecut	-12.5852
▁fade	-12.5855
▁defamat	-12.5857
wn	-12.586
▁Sab	-12.5863
▁Meg	-12.5865
▁tracker	-12.5866
▁swell	-12.5868
▁trafficker	-12.5868
▁Shir	-12.5874
▁Mayo	-12.5876
poly	-12.588
▁Hi	-12.5881
▁verse	-12.5882
lves	-12.5883
uga	-12.5886
dian	-12.5891
napp	-12.59
▁Jenn	-12.5901
wak	-12.5904
ute	-12.5905
▁Cali	-12.5905
▁abductions	-12.5909
▁facilitat	-12.5915
▁Frederic	-12.5916
▁Lag	-12.5919
▁Sac	-12.5932
nacio	-12.5934
▁Ac	-12.5935
kar	-12.5946
uant	-12.5958
rama	-12.5966
yad	-12.5971
cio	-12.5975
holder	-12.5983
▁tallie	-12.5983
▁illuminat	-12.5983
▁Saf	-12.5984
▁underse	-12.5987
reb	-12.5998
bly	-12.6
▁thre	-12.6008
enay	-12.601
bras	-12.6012
▁Kra	-12.6014
▁skier	-12.6017
▁extort	-12.602
osis	-12.602
IO	-12.6021
▁Si	-12.6027
▁Levin	-12.6029
lus	-12.6032
▁intimidati	-12.6032
▁Fil	-12.6038
▁frustrate	-12.6038
▁psycho	-12.6042
▁Mull	-12.6045
▁ignite	-12.6066
▁dodge	-12.6071
▁abide	-12.6072
▁structur	-12.6072
ymo	-12.6074
▁Cristi	-12.6077
▁Turki	-12.6082
▁gil	-12.6092
▁blockbusters	-12.6098
iar	-12.61
▁Wide	-12.61
PC	-12.6101
▁roadway	-12.6108
pag	-12.6111
▁lamp	-12.6112
▁Range	-12.6116
▁Ele	-12.6129
▁Maur	-12.6133
▁glea	-12.6135
▁alleviate	-12.6147
▁subsidiz	-12.6147
▁camel	-12.6149
▁terminate	-12.615
▁Kau	-12.6157
omo	-12.6162
▁vindicat	-12.6163
dler	-12.6166
▁Vid	-12.6174
now	-12.6176
▁deteriorate	-12.618
isch	-12.6181
▁Thor	-12.6182
▁tremor	-12.6184
ads	-12.6184
▁hurdle	-12.6188
▁yacht	-12.6191
▁arc	-12.6191
▁Saa	-12.6191
▁Page	-12.6192
▁brace	-12.6194
▁accomplishment	-12.6202
comm	-12.6208
▁whaler	-12.6208
▁Ply	-12.6211
souf	-12.6219
▁Hale	-12.6221
▁Basic	-12.6225
▁pillar	-12.6226
▁upgrad	-12.6226
▁reproduc	-12.6233
▁insur	-12.6239
▁Mol	-12.6239
makers	-12.6241
▁DM	-12.6244
▁bor	-12.6245
aq	-12.6246
▁Danc	-12.6247
▁ge	-12.6251
▁CHI	-12.6252
▁Limon	-12.6262
▁Christo	-12.6267
rill	-12.627
▁vibra	-12.6275
▁exclusi	-12.6281
uinn	-12.6284
aba	-12.6289
kel	-12.629
▁proteins	-12.629
▁lieutenants	-12.629
aida	-12.6297
▁coupon	-12.6307
gie	-12.631
escent	-12.631
gainst	-12.6317
▁Kwa	-12.632
▁inflat	-12.6321
cast	-12.6326
NP	-12.6328
erno	-12.6333
▁hyp	-12.6336
▁Fo	-12.6337
▁trends	-12.6338
closure	-12.6343
CIO	-12.6348
enberg	-12.6351
▁Cra	-12.6351
oui	-12.6353
▁begg	-12.6353
▁Piz	-12.6355
▁Dut	-12.6359
▁Ols	-12.6361
▁legislat	-12.6363
kes	-12.6372
▁stretche	-12.6372
dah	-12.6385
raped	-12.6385
▁collaborat	-12.6386
▁commut	-12.6391
osa	-12.6395
core	-12.6397
▁repress	-12.6401
thma	-12.6404
stad	-12.6412
rock	-12.6419
▁Dani	-12.642
solution	-12.6426
▁prim	-12.6427
▁kin	-12.6439
LAND	-12.6441
▁extradite	-12.6441
midt	-12.6446
kull	-12.6448
urveill	-12.6448
cientific	-12.6448
▁stereo	-12.6449
lara	-12.645
▁fracture	-12.6459
▁euthan	-12.6462
nourishe	-12.6462
▁logic	-12.6466
▁Plu	-12.6467
cube	-12.6468
▁Levi	-12.6469
walk	-12.6473
realistic	-12.6474
pour	-12.6474
▁Mous	-12.6475
tooth	-12.6476
▁thrust	-12.6476
stroke	-12.6476
historic	-12.6477
GHA	-12.6477
▁spoil	-12.6477
graduate	-12.6477
▁LI	-12.6479
IT	-12.648
swam	-12.6481
▁Stac	-12.6482
reason	-12.6484
case	-12.6484
▁Cent	-12.6489
▁temp	-12.649
▁Gro	-12.6491
guid	-12.6492
gam	-12.6496
▁satisfact	-12.6499
reconcil	-12.6499
▁enthusias	-12.6499
▁RF	-12.6504
▁Bit	-12.6507
▁Ot	-12.6508
zhn	-12.651
▁Audi	-12.6513
▁GA	-12.6515
▁Wind	-12.6515
▁shine	-12.6519
embe	-12.6519
▁hun	-12.652
▁utilize	-12.6521
▁precis	-12.6522
HP	-12.6524
▁Flore	-12.6525
▁Astro	-12.6525
▁lenien	-12.6526
▁conf	-12.6526
assim	-12.6528
▁huddl	-12.6532
▁jeo	-12.6532
▁cripple	-12.6532
▁disast	-12.6533
arab	-12.6535
▁Alto	-12.6536
▁fabric	-12.6536
rude	-12.6537
uppe	-12.6538
▁numb	-12.6539
antas	-12.654
▁scrub	-12.6542
into	-12.6543
▁snag	-12.6544
▁Morris	-12.6545
uth	-12.6545
▁Fr	-12.6547
▁flour	-12.6548
▁Vas	-12.6548
▁Ike	-12.6548
▁eject	-12.6548
slaught	-12.6549
lizzard	-12.6549
losi	-12.6549
▁reconstruct	-12.655
▁chick	-12.655
▁expedit	-12.6551
▁Sali	-12.6551
[...]
